BB85CBF2BC64C9173D409F7B3CB51BBCBCEB7201BBBF62F3B9CED8BDBD00FB133D0CD51C3CD179533D0404C0BD805C11BD5F57A6BC7BC9053BBAD3A53C180EEEBD5894373C9532B3BC29DC55BCA94803399E0A9BBB97E3CEBB43BA8EBB9E3DDB3D5E65373B8921C3BCFFD9C93D12C1BB3CDD0506BCE993993C08B67D3CB23D703BF634CE3BC9499A3CD9F6EC3D04577C3D0110BEBC3FE51CB92EE0B8BBB64C8DBC8B437FBC2B0AE3BD221FADBD34F17ABC3A842B3CD27FCBBD03E72DBC89D1FCBC61736FBCB84579BAB61D15BCAC3D0BBCDB3B81BB35A4AFBC545CCA3C22D8B23C8B813B3D6E125CBC023FAABD786C773AB8B3D7BB6051AA3C3CC9D2BC786237BD674FA33BEFD24A383ADF353D13A71ABD65B6E93C8C59493ACFB6E5BBF3274B3BB68082BC3BA7E8BC317D363CDEDCDB3D01C2073CC33EB9BC5770673B8472A0BC3117F5BC9480323C2EDBE43C3DDB743B166E87BC1A45BE3CE60480BB3BEF72BCD35382BD4094FB3BB134983CF4C3BB3BC426F7BD4044D8BC21719ABB8A70DA
BACB8EA63C6116A7BC89845A3B7BEFC23C7A78983C222A3F3BDF92E3BC273519B81D13253BB132CABC27C9DDBCF1A0C0BC6CAEBA3D29306A3DEAA46CBCD6E588BB1CCFBBBBFB02ABBCCFC2CC3BA17F3F3D0D9BEDBBDAC5AFBC2813113C5790B3BD921A283C4D2556BAA5FF753C0D7D33BC88B0303BF0F555BC6FBA053DFC6588BC631A1FBC5967EE3CCBA58B3D32ABB23C21A9AFBCE9CB05BCB4124F3B900269BC0B5930BC3C97F5BD4EF5713D52B3A9BD1AE7DCBD8FAE9C3C203AF9BC4E7B11BBDB91293C8344E4BCCBE920BC68287E3B37B4F0BAA53EDC3C149E6E3C98B9A53CC97C5F3B07F9613D2969E7BC0906A3BC8B7C7DBCF5CE7D3B7B70CCBD7B13D83D0ECD84BC6C48DDBC41E50B3C2765C33C12553DBC6CEAFF3CAAFF17BCC4584F3B597B4F3C16CBD5BBB8AB81BCB97F6E3CA957F73C3E2BC93C8360F03C52202ABCB56C273C8785283C18D6FBBC9EF0143C28AA9E3C134FCBBA2FDDA53C96E1A5BCAF38083D6C136EBC834278BC017311BD476AD83C14A611BCCDAF3FBDA93412
BBF3E00DBD6496643D17D7D43D3A52DDBD985AB63B148EE13D2218843B8247143BA4C79CBBC1AB1CBC2166223C79AD14BCA944673C3D3C99BD294DFEBD0F82463B6DA15D3C86933D3D5DE4703AE733C93C9779193C40E5143CA724493CA7BEADBDD42116BCB064A4BBC1C9A23D228E553BE0A5593C9CFF863C83E586BC8670DC3BB839EB3CC725CBBC1ACBE0BD84AC19BBB48AFABC765CABBD92A2C33CFE3629BC37D9C2BC531C373D11DFFCBC6E363FBD0D62D23D3654DABD671896BC6DE8FF3C4EF1213D046D963C908A5A3CC24B313C4914483BAFF6F73CFB8B553D2FD00B3D6C35003D189CC03C10DC6CBD56C7AF3D17319B3CD8AFAEBC116DC63CD709803BB58989BC715F533D4A1D43BB55466ABDD43A223C07FECFBD6C1352BD0D6882BD79ACEA3D22FD053CD88AA43B2468AB3BE227633C65C16E3BA8EF643B93B6123C7207493CB28026BC3B064A3CC196563D2C0E9E3C3203E03CE58772BC9E7860BA487A85BCACEEF73CEBD13DBBF6F19D3D5050CFBAFB2C393D07B5B33CBD2AF5
3CB0302ABC138346BCC357E53BEC78C2BCA686DA3BD1BFF73CDD88E5BCB16EBD3C33AF45BC966EA4BC6D5C653BC97D9ABC5BC6C0BBF4C229BC26B7B8BBA2CE6E3BF40F4EBB1FC4B43C562FCB3CD6541ABCDD0AE3393CF3A73A84E3FCBAC61BC23C0511EE3A801FAD3CA489C9BB8E4A63BCE8BE19BB16277B3CC80350BD0F5192BC9B774F3CA9B681BCD4EB91BD03E1793A811AF63A18A450BCB09549BC36A3E3BC66A7413C7EFC783CD9128E3AC950013C9C44F53B4AD36DBBD144613C68F8FF3B83B2CFBC5309E43CEE0952BBD97996BC8C9ABEBCC036483BD7E6E6BC2819AFBD152244BC1ED1623C8F8D92BC1258973BBC3EC63D13BFBBBBBFC8CCBB4DC7AABBC1DE2E3BCA03F53C931BE13C62FF71BD24F709BCC799763C8741073C597E22BB4D0171BCB38C193B814FF8BB822A4D3C3ECE90BCF2AE353B6DBDB5BC56796E3C5909F43D10782A3C8631593C98DE10BBF90FDFBC20E8013B9252F2BB34929DBCA9D92CBC02BF50BB18F4B13B8B4A4D3C347CEFB9A19402BC89CF60BC8E8020
3CA7130CBD63162B3A9F084BBB86CA503C6AF923BA72311D3D549F94BD43FB9FBBA998FB3D319FA2BD2BD7B43B8AB0CFBC72B559BC1E8FF7BCBF6667BB3640E8BC1D58323C4C200C3CDE0F053CA29D193CDCF33C3CFB512C3D2BEFABBBBC37D5BCE879D83CB7D619BC6215F63D9B5A0BBC830E8ABCD4876EBD12979ABD8651F93CF87153BC196C8B3C06ED97BCB4F0A6BB74396EBCE9F3F63C82E8BB3D04D8143A970533BC0D50A73BCBF1B23C461A94BCD89B16BC96823F3C8ABDE03C921FAF3A4021573D3288CABBBC4E493CF2A47FBD1B32953C08A870BCBAB5793AD1C6633C3754D9BC56510CBC6BCFB8BCE4EC87BBB61D38BCF4C33ABC76351D3C2C382BBC531755BC0DE1613C8A8D0C3C49EF6DBD61A192BB9A4838BD758EF7BBDD8BC4BD1476C8BC80D46A3C9010E5BD252B743C889794BC13DB9338D04DECBC4803E23B071759BCA002313BA9ED5EBBA0D04CBCF711453CDF4B353C85B8A83C9114233C5BF5613CB50E473C59687DBA752418BD27687D3D042A33BC57980D3AFA89A6
BCF581FFBDA1063D3B582A90BD07012B3BD957EF3B7DC6363D5D8EDC3CAE4CBBBBDD2B733D1A5689BCAF44EE3C3894283B03CBAB3D1AAF34BCF6C447BD443E8E3CA443C43CB246413C5E2C36BCF6D2223C0B30603C6C72A23D0CDDBD3BE3172CBC013D10BCB651153A560F9DBD2C6BC1BD2C50CFBC28535B3CD78A77BD83059D3C39279BBC5075DF3CDA7D64BBCCF63DBD4CA216BC49CFE1BB2CF2C73C14BE48BCBD8FB8BCC12D3CBD3CC0ECBD99E5B0BB942494BAC973A7BD1C9B7ABC298C07B8B669A13CF526023CD9C9663C97C4D3BCF6839B3D360D77BBAE218B3D2666E03C3ADABC3D35D83B3C5E455D3D1E8E443BF3C43BBBB5D167BC9DA148BA894D783CA5CECA3C5F0E073A81EB453A98270D3D028879BD1899313D106A81BBF0F32EBBD4F3053D8BF003BB5A29F73C530A9D3C4CC11FBBFDC8E3BC1D57863CC1753F3C8A796ABC4C92DEBCEEA9FC3C55CE80BA818CAABC4FA8313C4D10BFBBD6C5123C0498E7BD56A9093D442281BA82C14FBD6AC17A3D1891E63D1DB91E3CB81027
BC6B68B7BD873B9E3CB1AB123D2439493D4FB49A3B92A9133CFEFE38BC1741B8BAC97083BD2AC8173C6E7D37BC1A7D3FBCF166183CAAAEE1BC15AE5A3C151FDA3D10D8843D34A1773C0DF82F3B2F2F61BB3AEB8C3CF284BB3D29A84A3CB937CBBCBFE7203B9D0F7DBC313B863CE7F357BC5F69F13B8D39843BFD5C533D4791BF3C4181C5BCB348113C9F151C3BB7F302BC664E31BC6A47373A1CFEB43C41FCD93DC8983CBB22385B3CAA6932BC5BE4623C7197E83D90581B3D2272113C27CD963B2CE24CBC223D2F3C796697BD8147463CD55F74BA92401B3C83BF7CBC868CA43C8F10D73B5CC3AEBCA7D0C23BF1AF453CCEAE963CAF5DF3BC929F71BD9C6C79BC8D51CB39D657743CE02A01BC480044BAE873F1BC88A8FCBCF5AE2CBAD49722BD3307CABB1AA8E6BC0839A43C690A233C0B7B773C848B26BC19EFA73CB122BABC9B74C23CB428523CA47801BD1D0FDA3D020025BC99D8A23C8A86B3BE7C59EF3C6F6CCEBB67CE973C77CD13BD192499BC0EB0DEBC78C3533B9B147EBC28ABD3
3BB6D381BD17611CBD65A2DF3B295C3D3C1DAB783C228AF83C8DB0D3BB38124ABBBD18C43AA2671ABC557F3E3CAD8291BBC118DFBC7AE0913DD7F6C83BF70E8B3C00C52F3A706A923CA309FFBC5BFF47BC09C5CEBC9DE9023CA0326EBD43BFE0BCCC013EBC869D55BD416CA73D2405833C6347CABD58A4BEBD21F2E53E35B81D3D09A60EBAA756313C8A11B03CE71E553BD82482BC9C839A3E0E214A3D170895BD33BB893BDB94D2BDB5A4F3BC285CC6BCBEAAA93DB034293AE5A7FB3C8F0B81BC64F2993C8209C73CC3F8113CD27019BB44DB9FBBE4C6CDBA90FE283C5D56E23D1E38EABBDC2630BBC25D7BBD6456253C8A12EFBD3F0F953C555D503D91D2E73CD328D4BC837BD7BBC72630BC1C44E9BD5960DB3CE38E6BBDBECC16BCF9A10A3C290254BD485C96BCC93F14BD4096F5B9904B7B3BB0E09C3B7C46AABB7A4F543D0097BABD8AC41F3C9051153CA28538BCC5C39EBD2951F23A924C0B3D39CF553B9E47C83D0E1912BC5DC6163CC742453B93E5453C216AC5BCEA5FAD3C39B97B
3CB5C27DBC5709423C4CB017BBB85255BC10EFE6BC48A9263C8D86BDBC0A545FB9144BFC3C037E6D3D2F08C6BD63965A3C32004A3CBBDA20BD175226BC4BDD553D538F5D3B9DAD613C7B59B83BE5FD6C3C1D3C773C9785673C2EFD0EBC82A1A03C6ACF2A3C77F06A3B387FA83CC6B462BB896F293BF74B903B0AD4103CF1C1873CB507A8BB0671A13C9C9F2C3C0E256DBB88460EBB108D3E3CCE11763D23FEBBBAA3A6A8398FC50F3C8EA8FC3C37E28FBB805F7FBAAFCFCCBC270A5F3BDB80783B7EFE3ABA368D9ABD0FB2E83D14A32FBCC581423C37F8903CC39DEC3CA433663C485B123CF8FA1CBD37DB85BCBE752FBCAB99A6BCAFD563BBD3ED18BCA83167BCC869AB3CDEAB353B5E9705BBF794EB3AB13FFDBD4192ACBC8297C8BC9255413CCACD81BBF2E4D43CB003AA3A54C1E63C1C573F3B50F64C3BF58824BD9F2CE5BBD3CEB93BB6DC0FBB8B7395BBFDE80A3C5F721BBCA588B33CCE57D33BA257DA3ACDE6C2BD13A2BA3C44FED63CCEA560BD603E7C3C661E9B3C6B84333C6F5FC5
BB2D09773D26B133BB5E65E63C89E1CCBC9D819ABCB07114BCB383A23D34AABEBBB43FEFBCB7B615BD1FAC69BD068165B93F7866BC0B30BABD30A30D3BDEE62DBD5E582F3C99752CBB7027B73D4B65863C5F8A9F3C8415583C85CE3ABCB287C23C94BCA73A5A2B0F3C6982993C9D265AB85F51B73D0F3FEEBD3369873D1AC37A3BA97CE1BB98485A3C70D9F9B8FDA009BBD25BC23C5B52DA3AAFD0043C03197D3C4D30433B3504A83C9082FB3DB5735DBCCADE413C9B56EC3CA878B2BAA88DE13BCA3CDEBBA8B0C1BD65EF533B3DA277BCB34F43BD2233803AB7908D3BCA3048BD05069DBCF0B646BBB016F03D5B45CABD7F9A4E3C0CD07CBC0EE4AE3C7111E03C408EFBBC087882BC90567EBC9CBDDE3B7F6CD23D1FBC92BCE944C63CC42364BD063480BC4EFEB1BC6118E43BE3503CBCA59073BC0DC0243BA103C13D260B7DBB962068BBFD030CBC04E7D53BBDC17D3CF02F81BD6AFA6F3C1B376CBC9DE6073BC7285CBD7AF114BD2DD4E13D0AC7D33B1D620ABD2FCA703C95DB923C392A8F
BC7AE253BD6D33E2BC85DE4E3A8408563CF449ABBC9FED733CCE2348BD0286883C2E82123D2335AA3CB8C4E6BCCC99873CAB390A3A4C0C913C98B54EBCA26CF53D2FEDD43C1ECB8D3D1946F03C4AFA18BC5B72853D089427BB8F14CABC69C557BCDC6638BB94CB673AB8477EBC8C47FA3C5D6F3B3BD0B4253CE7599F3D1EB9073BAA0444BC4F0FDF3C9DC2C9BDA0239DBBB2F1743CC9B8523C98F4CE3D09CB863C74E0E03B09C1DFBCB93636BDEFE5F43C27678E3C1C6A9DB9F4CACB3D1D1073BCB5329E3CAE93D63D1691D23C3137953C88D2F43CA424AB3CC7EA493CAC78453C7F1A12BCA78C163B6B04633C5928C73D496421BB0DFCE43C8621893C81AB51BC06A5E3BBDE9D113CB94797BB2F85CDBD8311CEBD1438BCBD86BB3FBD0EC92A3B2DABB2BBF5E4833C730E88BC2517CE3D071B623CCBE328BB71EAEFBA03628B3C92456C3B3AB27E3BCAB9B63B933AA8BCE032BE3C9C5F883BB7C70D3CF2A0233C82835F3CEAFF7D3CB301EDBC91236739C795ED3D29A7F0BD15D7EA3CB02133
BC860D4DBB951A143C1F43EF3B8448E3BBFEBC2F3D0CC6C3BC910A6A3BEBF9F6BBBC890FBB2168E53B8804173D05FC93BBBD05A4BC22FB43BCD037FABCC6AF46BCD3E4A1BB7ADAACBBD5DB97BD1DA66DBD06F203BBE50CCE3C287796BC85A8E3BD4747C8BB3015B3BCF582973BB8F6043C916A7D3C7EDDC53C3390063CAA1A7CBBE58EB03C8487AB3BDE72EFBCCE1DFEBC3BC4643D311E3FBC7DFA93BAEEA75CBCC37FD93B2450AABD51155DBDB0A36B3D406EF9BB5E4086BA1FD6633CC49986BC3BB00ABBAE2CD03D31BA783B56653A3CCF9F193C9E2AA938B80424BC69B15F3CBF7F5C3BC27AF93BADE09CBD2ECA9E3D429ED43B9684CB3C00D3CEBC2E8F10BC15DCD03D138F463CCEA35BBC96AB1FBCBFDCC9BD7382253D008FAC3C76E7483D00A66D3C6586DD3C013B803C7B7F853AB1CF5ABC3AB3EFBB4D0EDDBADE4911BA0171A8B8B8A1EFBCB316913D061DD1BC0C9036BCE298723C6FA3EDBC2B1996BC83A7D43CF54D8F3D0D6F453C4C804E3D57D9E33C96F79D3B5AC22D3BCFDEED
BB4F43EBBB63601A3C03EF28BA9D82ED3B3462B43C24D7313B622834BC1BF5CBBABAA3B53C3ADA583A301D23BC3921793C255FAC3C619C37BC104CE83B8430C13C9449FD3A739CCABB9C126CBCA98FFEBBF516C43C8033ED3BDDF4F73C85BB1D3D36C9F3BC3743113B1ACC25BCF7C7CEBC4C34013D02B0BC3C8CAE263C0549A8BB832B1E3B0CB2F1BC849B70BC1E7C71BC9B057FBB62770CBD66E18A3BC1B20E3CBFEFEEBC53F64D3C4F6CF1BCD9F1C73BEC2A3D3BFC0C083C50EAC03C83E4243B9059DFBC0F88613B3F1CF63B49C977BCA0320F3C4B24F83BE427443B7DA4A73D14E7D5BCBD6F77BC9DBFEF3D142CE33CDF5E6B3C1876A73B483B713C52D3E73B3D01173CF65BE33AFE701EBC080D6C3ABA55FBBD136C833D0090963B9265913CDF1F9DBAA83F48BA79E437BC65BC7D3B273C023CC3A259BC4683F43BA821FDBC6240FABC4FD73CBD10FC29BA6D69C0BB5DB9B4BCBD4BF13CA6E1A2BAD80E413C233BFEBD339EED3BA8DBBC3BDAE9BEBCF50BEDBA4A5AA1B9D1DBC1BBC61866
BC03DEF2BA2CFCDDBC3BAA12BCE152C83D1B4B98BC734D81BB7DA358BCDDCC6F3C81560EBCCEA30BBCA083A4BC5884D83CEA2A2EBBB6910B3C6D383CBA23BF483B5F3FF6BC8D511FBBBAA9573CB05DF1BB64AE0FBC217F6B3D1C9EFCBB85CD73BC8886D9BC8AE70ABBB576EBBC4C1FF63C176756BCE986E3BCC8FA27BD136B413C62F71ABC54990B3D6F71AA3D344159BBA3909F3D0A8055BD33F9333C9D672ABCFC478B3BE108EE3D00D036BC182F9EBC6C5C3BBD0C67763D35D4973D0C58CD3A9228923CCBC0553BDE96123D2BE8BE3BC7423D3D2755303CCEAD20BC8999773CDD183A3A93136E3BB659023A8489563C9A3FD63C029EC83B0456F6BD1306C93D101B123CFA29703C0C9DF1BC799F4EBCE79D2A3DA4DA26BBCE4AEDBCB4A33DBD9B9FDA3C06219A3CCA410ABD2207FFBCA9CE3D3D111E74BBCC05B83C0A84283C86E9ECBC8969C63C58D8813C0286213CC14AC83D0DB88F3C46932A3C352FF33C8C7E2A3B9F402BBCAC1C60BC712438BC7202D73CFE193A3C5A20413CE8E132
BCB10C38BBA081B8BCD807B5BCD607413D42C8B5BC1C0549BBCA1CCD3DCB4D13BA3064EABCCE80B53D36B93A3D11840D3CA1317B3B6D98743CBA4E113B8EDCFB3CD7E86FBC79F547BC4FF5DE3BE367E9BD019030BCB72D11BD8A1CB73CBA0F453DB5186D3C94BF7BBD527F723C9534543BA38212BD27705A3CB8F18F3E2C3F7D3C648E013B1FFFCBBCAEDC8A3DA1FD893C72221DBBEC66C6BCE5E744BCF0452A3BE426E0BCE6CAA83C8001663D2DEB5FBBDB22253CC63A84BC84CECA3C0A10283C7C1AB9BD68369DBC2EF252BCEEFA1D3CF0DE6F3C5402B5BBA2FBCDBD0482CBBB7ABBDD3DA80073BC8EE6A13C90704D3D8CDFC43AC5F443BB843B6A3B87614A3C2208B6BD0CEDFBBC98FDEA3D6D97723B3E48393D74EA58BE3FD623BCE497F63C6781803CB946863B8CFAC8BBE7A3BF3C459515BC294D6E3BCEFDECBCB0C80B3C0EB0903D1E7E5DBC769E5C3CDEA46EBB9A514BBD08F95EBA7C3F8F3D34F0DDBB5598D2BD04F462BCC5973B3C2DEAB73DC4D5F9BC00124D3D50AD04BCB0BAB6
3C09C4893CE6E5FB3D43D6B63B993F3F3D1063803C41C8333B90CCB8BD0AD9A9BBEF3015BCC46BBABC17EC813CF7E0AB3CDF2DDA3CCF1015BD89FDB8BBB6791BBC08D4E53C89B94FBC9AA624BD477CEEBC612D56BCD565E03D2705C5BC416140BB89DE733B920FDCBC35BFB3BC7FE2C8BD27510EBB5AFF30BBD77B5DBC6EEE1DBD1ED70A3C78BE6FBB0FADAEBC238A81BBC499E4BBD3089EBD7FE1683C2CE3E5BCEA7183BAB9220D3CEF03483CF6A1B6BC82943F3C04312C3CC97A523D08C8403BC0953F3D0ECBC0BD91AD0E3C6FA52CBD04AF17BCA98A81BD7AAA373CA0199BBC9783473B626858BC505AC7BAC147C83C3FC713BD0EF6DEBB20D2B0BBD688CF3D1D73F9BBC4E0F4BBC126D23C2278FFBCA0291A3CACACFB3D8277E63C9CDAB63D46CEFBBCF5DD93BCEAF67BBC8AC03BBC847B973C81EFB43BBDF2713C5C686A3BE145943D4EF49C3D73EC973CB16C15BC4F081C3CDC57C1BBF3AB803CA9BCE53BAF9D153C6F8397BC2294D03CA04E80BC8138C93CA7F71E3CA49F453D621290
BC9AC475BD043F70BC1F78EBBCD39AF03C957CB2BD1342A0BABB3F80BD3BB3A3BCAA79FA3D1C84D8BC88E2AA3BCAE14ABD610C79B9DACF243C4E1C00BC3D58173C8DF26D3C71A9E03C393A0A3D488E39BD384F2A3C4D846A3CF66D66BCA51F5BBCA26D583BB80D963C67B898BD08AEB83CAD1C153BFCE085BCB41DEB3A1779523ACA9B023BF834CE3C21E2FA3B8EAA46BCB86CD43CC58166BC9A62E5BC8983F53AE247D7BBA5FB2F3D82ACC73D852DB43CC059993CA9DB913D3DB2FA3CAF92263C8D8F1E3CFDDA75BC85DAA23B51A40FBAFEBEC83CCB804F3A5A5F0CBC9F87A3BBE091393C80D9B03D4E0026BAEF9450BB58A0C33BED4EE6BC729FDFBDE2C83BBD858BAF3C1B9C563CDE14B4BC0F2B87BC975E983D68644EBDA542493C6C1BCBBCAD18DD3BFDE928BB5419D63AE396353CBA04203D4AF886BCEE55943C4FCB79BBA24AD9BBB4FE7EBAE4C15A3BD116DA3CE657D03A065F2F3C0CD9013CB2BAC73C4953C13B663399BB411544BD347868BC9F30FE3CF3ABFD3B9A6D753CDE0039
3C6150FABD60C62A3B503E3DBC36E1403D4FBB86BA4E418D3D0F98CEBD5AE7043BDD694CBB7BDC3BBACB1CB43C7E395A3CA893033B8F43053D127CB13C09E6093D6C18E53B7027C63CAD94113CC07BC43CCABDC03BF0C4213CE01116BC0F4422BCBE4F31BCF22B803CAF42A8BCAD7E1DBC65A0DBBD19E3843CAFA560BC6F9430BB1AA716BA635C073C91F1A4BC87C069BCED0F5F3C111BFDBCFD4D523D79492E3C4BB2E23B29C1803C2BD20EBD32DFAA3C34918EBD2218C33D458FDA3D0E3D6F3D1C6D51BC7C5AA83BC44D043CA996DD3D28D5B83C40D0D13C8A0CCF3C9A05D73CB157493CC1F88C3D401E3BBC2F1A9B3CFCAB033CFC257EBB0350E0BC93B22ABB928873BD22E0D2B9E8C727BC645AD23CA0924F3CA5BD16BD773DAEBC3AEC5BBC631BDF3C0B9975BBF437E3BD254F8B3ABE9C513B2AE19FBBA04F3B3C94E9F23B0BBF203C2A68F33A91BC73BB30D51C3C8E527DBD8DC7BE3C570BE33C84DC053D106C023BBEA4753D1FDC9B3BC475C6BD791DF23D9C01203CDF5D2F3BCA2AC9
BC6CCA7EBD1E758D3CF397C4BD22B2EBBD57BA063C749EF63C04211A3AD290DDBC4860573C5284093B6A1ABDBA2F33DE3D6937A9BBB9DD96398B03B2BC8949FA3CF8EDB23AFC4C813CAF4E9E3C0B840CBCA4BE1E3C16B7323D247FCEBB37D3C13B24A2BFBC8834983AD7E7863C47B36FBBBD0D2A3CB0A87E3CB2B55CBC209998BC708ACD3B7D419EBBC22F37BC9DCCF8BC8BBB863C190712BCE1D32F3DB069E43D8B192739D579983D1F9AAE3CA175C03C12E1D1BD2FB0733CD82AF0BBBF16FF3C23D0EA3C9EBB37BC8327303E02CA503C708395BC1745443C97B4F83B4A91ED3BC25D8D3C444EB23D474E8CBCE415A2BC0ED3993C7CB890BBB37A54BDB5261EBD898226B920ED233D00D331BC5A41B83CE5D1303B0EB2A5BDEBCF903B83B5FDBCB70F0D3A027C4B3BE068DCBB1B835EBBA520213CBC1096BD12DF9CBBE1B9443D3833DBBA7F6BAC3BCD27B33BB7B2C23C081E0A3C8F11C53D279CA23DBA55B43C86EFE4BBA0E989BC3AEF4BBC293ED5BCC328E03C47CCC43C5B0A953D05AD57
BC1B63943D36D8BABB16EB953C9324773CA368D8BB0263F8BD105BE1BBC1C5753C6B80E93B144BF53C4FDDBCBCD8AD45BCDCAE543D343715BAE2C8E7BC340ECB3D23B9FD3B7D48E8BA82E1F13C30B2E1BAB14E96BCC6A7DABBCA81AA3B372C0EBD82F2783C30842D3D16B8F4BAA3B7BEBC909BA03D1D3D3F3CBA25573D17AD4EBC8F2B2CBCF48D24BC843C79BD2EC4B5BC32E191BC0B2D23BC2CB530BC098D473CA3ADC1BCAEFC16BD6C23D23CFC0BE1BBD25C063CED6A9ABC96854CBBFF2B87BCA623F63A6D9164BC15C7583BC68E3DBCF361BEBC5D03433C8804243B04C410BC63EA4DBD451409BC63A73F3BE8D598BC5A39013D22CB293A1191593D08B3C3BBF09C363CA2AC46BB33BC753C49D9823C2B5D393C41A75EBD2E5DAD3BEEA57CBCDE50643B9EF153BC6EB6A0BD0695323C2ECAB03C470AE23BBD02323D1A948BBC48C87B3B3B4E5A3CAAF6EABCE30ED3BC94E3FBB9ABCB4DBC15B2BA3C6BF7E13B812C03BC1522BC3C951D76BC46C67F3C2A6993BC6C3CE83BC4DBECBC4DD2EF
3C445D9939D617EC3B9128C13BC49B4D3D0508B53B77ECCA3B3D9479BD12DD30BBEC6C20BB1F823B3C0A52ADBD0469FDBBADB7A53ABCDC5ABD3CDBF83C1EE4B6BC80678A3C4491D7BC8E7C3CB90C4697BC6118C4BC9A30B6BBBFAD18BC24208C3D4BA06CBB5DA6C9BA2A6EE23B6EFA343C8C39C53CEFF878BC46FBF2BCE01712BCD8669EBB43F487BC229C0FBC6B5D4EBBC6E1B53CB7DCE2BD7FC8A43C2EE0203BF7CDAABBC945E33D41BD1B3D01AE9DBC2E3E373CD5D2123C06C8363CFDA4E4BB10DFBEBD13EB35BD167CE93C5F0F44BCD0D9E1BC297ABDBB19A196BB942887BBA274C0BCA44F38BAA05C803BE5B74ABD0D3F2DBB0C498EBBA8D2C83D18C491BB0DC4B13C4853A43C12FAB7BB57E679BC05210F3B5CF99B3D16A0283BF5F9D63C59DDAEBC8374F93C9ED86C3C9FBB9D3BF696513B77964CBBA6E2063CDF9AC53B44912FBBF1C61EBC120A8E3C3991DABC0AD8063D30325B3C03B41E3C9EE0043B8A9868BD0776EEBC3056CFBB3D458E3CFE5E5F3D34CA25B98F6FEE3D170569
37932424BC8DD2F0BC8B73C4BCFCDDE2BD18DA80BCB400A73B83F2193C31076D3C50A683BC03AF643C4B35A43B838F963BBF2BE63C217BED3C983807BBA8CB9ABBE7BF03BA518E3A3B536E1B3B866882BC3E1923BC6FF534BCBF1065BBFA22823B991B26BC65019BBB286CD7BB0E8A9B3C869C48BBC6A8A93B80649B3D1173963C2A1D633B127BB1BC385F65BCC0373FBBE599A2BC19CB003ADCFC063C91EF6BBD72A516BC3FEA9F3B93B79CBA20CB293BC923A83C8D8F393C3303A8BC4FC78D3B135F473CF5851DBBFE1B07BD36E0693C8EE2563C66F80A3C17758ABC1E1027BB93E0CC3CA348F3BBFB2F89394D93993C669E093B9F7EA23B92BAF6BD95750EBE1CCC5ABC1CAD6DBC2C8553BCAC9F23BBF8FF753CF04B413C6D3BF93BDD72EB3C7137A13CC5B865BCCB0F263C5E51F33CCA85B63C8E2FB9BB083F8B3D0ED9523D0A50CA3B07551E3C575D16BBC6BF543C8DABBABB2B5F61BBC1C3A63C9CD2E03B0E1ADABD0E6B0A3C2896ECBA382AE63B9C0FB23D421C023CA31C2FBBB20AB2
BC45199ABD0F78ADBCAA3EFA3C46F5D53C94E7623C8445803CEC6EC0BCA7DD5EBBEEF8E93C92C8143A9D1F1CBA934BFDBA80AA683C5504F93CD45131BBE268343C6F99943B5457493CB22640BC43AC563DAD5C3DBC27690C3B3D33E03C6F52FE3BA0CDEABBC60FFA3A0EF0EDBC5940D8BC99DE9EBB0E0C263C0F85833D4258EA3C7FBA3E3BBC889E3C78046BBB9CEDA5BC07459C3C926DDF3A1605CFBBB19BE23C869466BC6CEC52BCD10BE2BDE92ED73CF19CB03AD3C732B99A44CC3C8A588FBABEAF57BC9022663CDAAEF73A5092F03BAF38343D2620973B2FB89B3CDF91D83BB7216D3B887B57BD0D96A23C1790FB3D34409B3BCF3123BAC491C7BBBA20213C0022DA3CA55F213BBADDA93B8B6743BC21611EBD5D1AE33C60B455BC1A78AF3CE63D1D3CB47FDBBAA863743D005CCFBB8A65FB3C06C3E6BB94C6CCB9A89F0BBB161A273BC68309BBAA32F3BBC68D0DBC9038A73C87692A3AAC5CAC3CBD88BB3BBD47A2BB9CC860BC931784BB7563003D3851733D3ADA603AF3F95EBCA6BDE1
3BE3C1A8BD162DDE3C4CA370BC1D16C73B01D2343B6FBCD33CF2E6BFBCA875F13AF1E7B23C648673BBBEF17B3C87A2AABCB415F8BC581124BC5C032CBB163F22BC777B8D3B936B383C3E31953D1B57F73C310DC6BBAED28B3B85E9313A6D09AA3D0104E7BC99082B3CB285D93BE247ECBBD8FAF4BBB8FCF73BA99286BA9B8EB2BC3614813BFA94CB3B04A6DEBD1083043C291A55BCBBF04CBD0CB44FBB99872A3ABC10183C6B484C3C70F6703CB5C99FBCC15A553BF6D330BBE37762BA29C5B53C332EC93C3FF23F3BBB96E43C59DCBFBC397A28BAB1B2633B0C41813A81868B3B5451DDBC85711F3964A7DE3CA08C99BD48DEB8BAA887B6BA0496DA3A02D154BC5480A5BB88C1D63C38CE783C4ADFC4BCEFCAF63BB49FB2BCF522C8BC3E1BC8BC9B45413CF9DC773C25391FBAA79DFCBC4E5C4DBCF096893B57FB68BBBEE4023BB453113C48CFC23BF962593C063406BC2337953BE53C0F3C16ED8C3BAF44C73C29262EBC90D3613C42326E3BBEDDEBBD25904B3CE4267FBB8D24B8BC046F45
BC13AD99BC9001EABC479F35BAE423103CD2EB25BC105B933BFF944BBD50F901BC7DBCC3BC2111C63C1665CA3B5EE32FBAA3414E3BA297BD3A465D6ABC813DA03D81AEC63B48386A3CE4F2003CB80721BC282F57BC8CAF0FBC85CEC23D3D21B9BD15FE623B3D0C933C0556D1BD33285B3D1A4C48BA8B1E5C3CA26AE0BDDBD784BC5AA3543BBE1E72BC90B698BD3EBD2CBC3299EC3C554D8EBCDE1536BCAF7514BC16BBEA3B90BD633B2FD0D8BD2F968CBD4BBE173C5022923BFD3EFBBD100FC93CAF7EC2BC911D35BBAE922BBCA248113C20810B3C872E2FBD0149FC3C2F868DBD0D42043C42AC15BD33267BBD434B6A3BF16F52B818336ABC670D993B8754DE3CA02D8BBC119B31BBE051553A96E7D8BC739754BC1C311A3A81301F3CA0DCB1BDBF1B153CF7BBC63CE51934BD55D0063D064D16BB279C443BCFA3BCBCBCE58ABC439B6CBBB2764FBB847EA63C7E8DDC3CB2474E3D33E81D3CA181D33CB4B28FBC311EED3D2401F73D029C17BBD3F7773C0C340E3D35FA0FBB91DA17BD1FDEC7
3D4E2F153B8DDC6D3C270099BC99D2A43C1294D93D64F273B9F687C9BD9FC5973C4F18B6BD818CCEBD0BBA1ABCDD835D3D3270D23CDDB0DEBD66F8B53CFE426BBD160EDD3C1412D23CAB84763C70349D3CBEB4303CB9DDB93D891E4EBCD42319BCB339D0BD3D2F7D3CC0DA9DBC989870BD9EC60D3BF6FCC63D8988C2BDE0F09F3D4B96C9BBE0C3283D693B76BC50BC773B5D088FBD0867F53D31715F3D1CCBEABB5FD3AF3D22E61DBC27176A3D16ED7A3D9076783D82FD743C757EB53DB728FABD82D9543BE93BBABCFFC5413C395E58BC8018E63CE37CAC3C609683BC6065F33D6B31F53D50C527BBCCD28F3CB8D3DABD29C0B83C455C98BBC502E13D5DF621BC54C0F83C2A75A4BBCFF5CD3CCAEB97BD627203BBCE4F02BD5C9812BB93B53ABCC212123C95CA273B962ADF3CA2CD803BDBCDADBD335830BD03E80ABBB18D2D3D45E3BF3D1D53753CE040F1BD28370ABC58FABEBD74CF073D04E6AB3C4B48F53C4737A0BD73D45CBB49990CBCDFB0FD3C1F80243D6177CABCD177E13CCC8B9D
3A6FB86FBCCA01983C213187BC0936873CFAB183BC207A133D041F69BCAB1C0BBBD2AA693BA8EC84BC06BAF63965C560BBDD8B06BD3A6813BAD4E637BBB31005BC671723BBE6CC053C1D12EC3D349C393BAEE735BBC6D3313C1DCC2A3CF9BF123D8195D6BBCBD8523ABC838E3BCC05C8BB83F1D63C138D6E3BD80B38BB7478533C7DB0E93C30ACA83A0C0F7BBB4FE84A3C66DADBBC179A85BC346A70BB801A823CA62F093A6D4BEBBC80E63E3C9426CEBC729E723A20093ABC57817EBD1139863C4020BB3C30A264BC03E3E73A9AF2A53A437DB83B75D140BBB6016B3C3F4F5ABC94520EBC403834BA99A7953D03AF11BCBC9F473C7B39653ADEB1C33C34E04A3C0986DF3CA0F1973C5A7BBF3C682846BCF7C8C0BCC407D4BCBCEE7FBC5580DB3CC9EE2E3CCCDE003ADE95403BED8314BA8DF866BA9C02F63C5360903B674F9CBC46F34A3BCCA4243C90FB013C702D17BCA4D111BD00AC6A3BE24F443C66F0083BFA343FBC5D9136BC39FB943C9165BCBCF8F4163CA3E850BC34920FBBF65193
3B189D0FBDC205943CDDFCE63C5C9229BCFFE081BC04B6493D96E0A73D54CB60BB444F3A3B85D5113D02BD573D1DC2D73B7938B4BC347ADEBCA38FA13CCA27613CA659B03CC6EB473C7DEE6D3CFA584ABD3833953BF651ABBCF5143D3D18B0F9BD45B6D6BD204951B9000352BD8DB215BCE801CF3BC400643D12696EBDC9C5413B7C1F933CEAE1AFBC921C33BB2F2E67BC27355E3CC8EDAFBDE985B8BC902513BBD7A463BC19B1D33D80BCF33B30219EBCB38D3E3D685B753CEA1C5ABC4F66573BC813763D37E200BD26C092BB0A20273A64142BBC9020E43CC15D9DB95CBEA43C6CF3863D33471B3CAC2C5E3A52E94E3D1865ABBAA274BABB44E59BBB9DF15F3CA7E1DF3C9577993CAA3E523D16A6AFBD1D45393C106229BDA3A725BCF77E54BD9340CE3D0CBEBF3B11EF75BCE269973CCD84FB3B6806C7BC9CE53CBCDC18E23C6C444F3CBDC7A9BD052CE33D1637673B43DE223DB22E873BE75BF9BC8B1EECBB183AD63C6F3666BAFAFC83BC7C42DA3DA091D93D140827BC97964DBCE0DC0E
BBD3C928BD0871AEBC6313BCBD24DAC13D392C583AEAFFF03BFE050D3C068FE13B8B2D533BEDD8FE3C60BDCBBBD9D9733D6FF1103B70A4A2BC0D53AA3C10C9333C8A596F3D030F883CDCAB05BC585E973BE054A2396AE7C5BD9CC5B33AA1E8693D016D43BCA9CB3D3C266E22BC92BA3E3B2FD40ABC31A4093C93B13EBD6B53FEBC002FDEBC12E514BCA92898BC26CB9EBBE44375BB6A7154BCCA99A03C3548663CE4C5673B3A7FDD3C7B08833BD2EABB3B5262F3B9EC464D3B9866AE39FE482ABC22D6B23BAF147E3BD9B4663D91EB033C333F323B024A78BC8801CF3A28CB0F3C416152B9407B213CF9D3C43AB1383C3B8860973CE2AD383BB289A6BAF90599BDA9B704B9540C063C9B3843BB480C583C3804243B08802FBD0ED043BBB1978D39B14A543C2BE65B3C1EF4DA3BBCDF7A3D3ABC11BBFD65CABC0788D33BC395F33B2C119D3C092EF5BC3CA1EBBA93CC2ABBAD82073D2BCEE43B32BEFE3DF41A3EBC7D43823B8E03773BABAF7EBCA445DFBC403E383D04DF9EBBBE86EC3C60ABC0
3C3075443C17376E3CD680533C6A84C8BD02D3003B02F945B63C0993BB0DB3AEBCBE92EA3B0A7D68BD0BC5E13D6A3B583AF158183D28745ABD6A3D71BCEF0D1BBC160AD73C92C317BB82BB40BB9A2EC63B9F14003C7D1D103D0ACBCD3C54A0CDBC609DBA3C991B11BCFC035A3B94926ABB690AD53C9333343C63987D3C8C56D4BC48082DBBA009F93B6A58E4BCCEC4AB3C2C68A9BB2B068B3CBAB9373CAA5820BCC7B80DBBE58E983CB773463D065E0C3BD75DC63C66CDBE3C0DE2A4BCC805EDBAED891DBCAA8C9FB98F66DE3CE41875BD340A9DBCDAB74B3C94859C3CC0AF343C6FB4163D207A94BCB1BEB3BC991E11BCE5018ABC026637BC55B7043CE10F5E3C837D293C0D476BBA9479603B34848239A13B83BB62E904BA3B6BA2BC4E5CF63CA635A3BB3E74FA3C9258D73CA75F3D3BFFFF02BCD161EE3C2A92213C4380A1BB8A12E33CBB32C53C344497B9ADEFD33C686D18BC706725BB923762BC19DA193C4880BFBC51014F3C52DD5F3C474E2FBCD30C453D0CCC173BC879913D1D9F82
3C336D3F3DD55A583C13E1B83C81EFC03C57A348BD22AB13BD9BB1EA3D1F8D043D0643B9BCDD0F0FBCB7F4E7BCA7280DBCEB2EDABD0E30F13DDA4153BCFA3F4B3CB706F8BC1A1C67BD0B2C6F3D87BAC53CF960073CC6FED3BCB12C773B91ED1C3C09B6373C8409DEBC5122603D60607A3BE98D94BC9851573CCC57593DAE83393D148347BCB208C8BCA4D96D3CFB3674BBA5DB1DBC30726B3D648800BB9B1C793C59885E3BBA9AD43CD90965BC8C22FF3D38F57C3D270F8EBC8E7535BCDD1601BC0DD0CFBBABAE183D2D7A54BC2A64D43CAF36BC3D41F7073C617095BC821A25BCABA7AC3CE7DB733CB8C5783B4B7CE23D9EC4623B5D83293B8AB5453D0CC67BBB590D12BCC52CB2BD00649BBCC3EB05BAA37CA63B342F7A3D0727C83BF1FCE83D44AA03BBC1C667BC117328BC440EF93BB0423E3D215029B963825D3D0600E2BC45CD583CA5335D3CE15EAEBCF5A03C3C89B1083B409953BC254FD6BCC393BCBC9F86B9BC1257E2BCE16D313CD5DB08BD5076A9BD7F90693D526F8CBD24233D
3B49C286BB43E4BAB8F9F6E73CEE4CACBBC6D1543C30410E3C26DB8F3D2FA12DBC7772B8BC98EEC23C630021BC95A7DBBC0D92F63C5A074EBDB401CABD142995BC41B9673A8EA9DABD0F7AEBBC07A5A53A685B5EBCF47EE13C718EFF3A60D7FBBDA48724BC23EEEDBD02025CBC62EF45BD01F6433D0DE2C4BD1AA3F33D7DBDAB3A72CCA93CB8D4DA3B48948A3BA7F39DBB9CB6A0BD687BD5BA6CA253BBEDED133B4390C03C312AC3BDBCC54BBC878D9DBC5F7AC2BC57AB613C025AB3BD049B05BC91C4D0BCBD23D8BC9BDC98BBF2DCED3C8DFB493C068C52BBF1B3803CE0A8CE3C42BBD0BCF50C0EBCBCB34D3C53F6D5BD201A4DBC9511E43C06FCA9BC3FE799BB40D7773CF1EEFB3C6739CC3A99419A3CB107FFBD384718BC7DF038BBDB9F3BBD799D63BC007FECBBB37BBE3CAF4596BBD8B348BCD9AD6BBC0EEF173CF76181BBB88A17BCAAD3FEBCA6C68FBB6CA8CA3C9C4BFF3D3D483B3C55D905BC2BA4D03B9DE0793BA140523B5BA66F3CFC2BE73C94B8913D1A49C13D0C2AFCBBD5586C
BA4953503A14C79C3C32C51CBBB3C9E5BCD2E9393C974FB13C08E45FBC1429B3BB2FB57F3A941F0ABBCB0BEC3C58E4C8BBC4D236BB922EEF3D54A98DBBEAE6AFBD75D694BB48BC96BB3155E7BBFDC9F93CC2A09D3C081D63BD1DDA853BAE953D3B09F733BBFF7AD3BB76D725BC84954F3C6D91A8BBE1A5853C20F878BCE3020F3C1CD758BBABAA313B171A4EBC7B9EAE3B1FF082BCF10C28BC924C9FBC86422D3C60124CBC0754DE3C85F497BC064CA0BC058DAABC26DD30BC551FC43B8E2FEF3C9EE3D03C0EA7AC3C7D30C3BCFC74A93C04D2943BFFBD773C69AF16BBCE7D84BB4F406BBCE245EE3ABEA6F83D2B65DD3C867A9DBBC06A6EB8D8B871BD18BA603B257134BB7E5D5EBB73E381391381F6BCC61D803BBF7A63BC89CF383B3DA61A3C1763153AF43261BC0D7E3CBCAE3E463A9A97663C8B824B3C9A45A0BC2B6E153C0A36253D01B6ED3D1FD94B3CC2E5953B17C45FBD9EA57ABB95CDB3BC8BF217BBBB9E2B3C6038BEBBA0C1B9BCF015AABCC3D3C33CAC2EA7BAA7EDCCBCE15B41
3CFC677E3D4E72A4BCE62C463B0932FA3CCAC7CE3C92DB8F3C059D2A3D2A06E43D3E92F63BD974E6BC277692BD1A4C833C14006EBCC601153A5168CD3C249DDABC1A65863C87E0B5BCAB1E83BBA05A5B3E0A26FF3C81737CBC87D7D9BC5E091A3D6359BE3C44A32B39B79E93BC3751FBBBDA59CC3BBB9FD73D0065A7BD4024FFBD252E2E3CA2F617BCCF957B3B997C643D424D68BD4AFED6BA9A47133C62EE143A8428C2BC490A75BCB6F794BDAA2C483D0F1E7D3CFEEEC3BC8C49F2BC42B84FBC0FDFAF3CD69FA83C64ED84BBB864A13C193C30BAB4FFC33C1BABFE3CAA31F2BC3B9AD8BB8569CDBCEF9F99BCBB9F67BC6209283A535AAB3BEC1D363C36F31E3C69A0783CF23821BD1290133D3C7695BAEC423CBD21C5BA3D77175DBCC39A963DEA91B6BC8B353B3CC336523C32586C3C77E1F13C287F8E3CE6381F3C41B9B5BBB325DF3CD731733B66A508BC1655ADBAFD6C553BDAFEF9BC5ED1063BC6D8453B3F14F4BCCA0414BB924EC2BD10D6DF3D9A38ABBCFC3A46BC3D9D66BD6E799B
BD12B2EE3D6CB3FABB7D3257BC7ED286BD0039DD3C726214BC95C5BE3B0FC7D13C8482423C40D0263C515447BC15F683BD0A3AF53BC26C75BD2367E7BCDD6B43BCB57E753B7303F8BD9150733D0E66E5BB0167C33A296FBE3CF2144B3C400B59BC837EE83D0CFE54BC203E89BD25A20CBC5FA7893CF45ACCBC850338BD738EEDBCEEBFFCBA9DCC43BC2F370F3C6155FA3BE9D7883C0815BFBC9A79C33BA0DEDEBB2B9532BB26B5DB3D2228193B8CF305B8333498BC25E459BB8AF554BC9BB9FD3CE57AD2BD69D134BCD6BED13CB62A36BC9FADBDBD5BBE34BA0E7E22BC7C8722BD1BAF46BD169DFCBC391D1EBC9D990E3CA4C0A03B577591BBC2DC333CF1538CBBFA471F3C43BB89BC9A362D3CB906D93D5E7BA63C8EE68A3CD7321EBBED0A233D053CD23B876781BC8C8C90BC3DBBD1BCD8513CBA99816D3C9F00F8BBD432783C39FEFDBD14A30FBD3D39833D041C7E3D6A8F103B4827633A889B44BD457974BA5A82BEBD72E029BD02D7A43B4E2EB13C743730BDA447A53CD4189B3D80FB42
3B822BC1BC89B443BCC833273B0A97663A7C3589BBC03A693C2E08E03CEDB9683C30C6EF3C1D7A8E3B9CB315BC5417BE3CD8C9763B660AF1BC2AD32C3B779D8C3CB6BDEF3BFBDCB13C22A6933CED95633D4F96FD3C16373ABCA48B073CA021003C1A89FABC65DC70BBA802E9BC037BD8BD12D0D6BC9B54373C16F1A03CB494023B062A233CB75ADF3BB069E4BB3E7C053B2551CE3D0BA7B1BCBE75733C4E47803B28D2703A5CCFD63CBFEF2CBD648899BBC0E9FB3C906D753B09E9FBBAB6104DBC141C763CD694413C38EC94BBD8ADD43B95B94CBB89CDDDBB223DCC3C84D16B3AE09BAF3D08AB26BCDA34BA3CAB0487BA2049313B0EA625BBC93E353C232474BC0220F23CB6025239D3B0353C601B27B83B282EBC05023ABC56B837BC0F4AB9BC09B6D6BB7EBD003BCA53273C66ED103A91E5223CA60075BCAAA4333B08D8ADBA86389F3A90B3A6BC5642073A9DCC13BC44CF4B3C94C3C8B99640EA3AAC44983B89414F3CDBC7713BA027FE3B84F44A3D02F62DBCB32EE53BDEEF7C3C806464
3C0143A53C74F0383A1AF6683C2373FDBAD0CFE1BCAA6218BB4F9EF6BCB34972BCA700093CB5A3E5BBA44C8EBC2BFA1E3C45D6583CAF862C3C82E9CDBC99833C3C14633B3B5C1EEBBC1F99AF3BCA9E513C48B5EEBC0EB0B83D11A286BCAD82DCBC307D91BC9EB2FB3C7D1463BC6AF88FBC6D3749BC30C116BB3B2EF4BC4BA9343C231D113981E807BA00FB00BCF73FE7BC8CA6CABC36FF47BD024C0D3CF7089E3C7108C2B9B31C473B8D8AE1BC3AECD7BC02F7A03CAA2609BC4C349B3C25C610BA712F60BC561991BC0397F83CA05E85BCAEFE0ABC84A7003C1C1FD33B69C2F8BB9954593A0592C13C06593EBC1C95ED3D0F61BBBB6086F8BC7BA39FBC8231CA3B5996BFBAB806E83C339F3FBC35C6AE3C9BC7CFBC7D364D3C4073EA3A46FD5D3C511D82BBEDBB5BBBE0E7DB3AB199A5BBE58E3A3A4FD6893C8675173C33C17E3CCE17D3BCC91B0ABCCA953CBC7B26453C940E293A3E4CF0BC8DDE453B0607443C793A68BD15C801BC1340B83B587F54BD2C7D343B68E9463CBCFE0C39C993B8
3C8AE6FA3D552224BD06505CBCB16D123D2EE3433C485CB3BCD86DF93D77BEF03C493ED0BCF1DCC8BB679B7C3D38D7153E24598E3CC0BFF33C2AA5103BC2D61F3B2C2EE03C1F0592BC686E123A4B72243D46D3C3BC96FB2BBD51F1A9BBE2F8F13CEF6FA4BB3681313C2C8056BCEA7E82BCE00698BC2016563C968D86BC98C1173AD07A15BB24665CBC85EE8B3C8EDCB63BD43D8DBAE7F73439ED52E9BDCF132F3B86901F3C7E1527BD229B05BC7EACB5BC727B3A3CA26733BD6E54813C9D7984BBAAAB95BC9A5CBA3B42381DBD67398CB9C46C0DBC8657A6BB6413E33CB66477BC6B01613BFC4A053D1705B83D0EEA77BD11DD3FBB3E82293BF9C57CBD00D59DBD8A06083D09EF35BCE024593C885E2DBCE57C94BD079A443D8CB3A13C13F3DF3CC74C453CAD6188BC9885B9BC9E3FC0BD0AE7CFBCD54CED3C2E3688BD1995403CA185093BF8FFAF3CD1DA8E3AF8919BBCF3A40CBC65A714BC0920403CABF2D63AD3C168BD26C0073C2C7FF73B1031DB3C45EFF3BC0355EDBC193600BC89AB69
3C2D075E3C6F5B8E3CA57CAFBBCD0277BD5A4025BB00EDD4BC6970A43C1EC7693BE23F583C0DBA053D40DDA4BD1152A9BC8DB903BD3AE8603CB3BE573C3B877FBCF6024A3C0AF0503B72F34ABCDB8FBC3C113C333C676D1ABCF1448D3BB8FD9D3C9E19E0BC003A13BD6CAB313CE88D173D7A0F493CC0F050BC1BD3F33D87ADE43C846A183C387681BB616B4CBC007C583C88E2BBBC664326BAFB1DDBBD117457BAEA9A723B2DE840BD7903ACBD1E3E7FBC8EAC193CD04E69BB8291D7BBFDEACF3D2B42C1BC7D46CDBCA8BAB8BCC678F0BCEBB468BCE1FF45BC19A1CC3CD157F03D331B753CA41DA6BCAFCCFB3C3181643C69FAA73C207F713B5A49EE3CFEFCA63C963E213BBD99CCBBFEBC92BCD5C379BD5A60E43CFA32403CBD773BBCB977503C8F938BBC8A78E33C5D66083C11D4EA3C53F1E93D517857BB1D9DB1BCBBBC3FBADFC682BD20FB7E3A496342BC0473B83BCFB7F0BD13AB243C9CF657BD10316CBC844229BC8D0A6E3C9DF86ABA6A27063BEE50A0B9841908BCE7A3FFBD628FE0
3C51B1F2BCF43AB03CAE996CBB2C6C57BCCD1A5BBB86D8073CC2DC423D904669BCC0AD453BF0D1923C50F9FCBBC8A5E13C6F80933C25FC073CEC13CA3C7CD38ABB2F2B5E3C18A1EC3CD7B8A73C8ECBC5BC5C66133CA3647DBC9292973C86B0FBBBEF0597BCA27B7A3BCE5F973C8701833BE94683BA8A54723CDF1B4EBCE029573CE028D33C6ED0773CA3B1203BB4EB1A3C462E22BB42CCC83CE971233CAB7A773CC368EE3C91D0D73D9698103C9BAC29BA2CE54D3B02CB93BC4A6D0C3CA7755F3C0812713CE3BCA4BD5B5C953B3EF5B93CE9D08DBD214B7FBCE9AE3FBCAC6381BB699E3B3C0FDBAA3CF9257FBC1EB0A73C8909303B03CB5D3B83356DBD03AF6C3C8A766CBC8BB5883B4CA78BBC380928BD458A663D5E859BBD564AEB3BB080FFBC50F17E3C5D133F3B30A76EBBC6A9DF3C814D133D2269BB3B970BE0BAF605943C31398D3C46BE59BCB390CE3C1946003C7618DF3CE8C7173C242796BB6B77CC3BE4F9CEBC89D7BD3CD5E0DDB90C53DABD48497C3D19759FBA98E2163C58DA77
BB84553BBB54ED3F3C049318BA9B228ABBD1988C3C87B0D63CA535FB3BA0A225BC86249FBA6F53103B6AD123BB8F64973C8DB2333C8B7A87BD2AB669BBB6CDC83C007EB1BBE9B9373C79D881BC91EA413C6B488BBCA4F52BBC0CEA553B41FF92BC4C8A5FBBF086943BEFEE3EBB9ABBD4BB487F243C18FFB03A85803EBB74B51CBC59CD663C0D021CBBBD67BCBCB20BE8BB81DD2F3A0E6EB7BD3754CB3ADF17B5BB1C4F6ABC804E653CBE6946BCBC5EC1BBAC7A3C3CDD59BE3CA2DEFEBBDADC483CA0FB7FBC3053153B9D5949BC5F805CBC43EDE6BBC7E219BC4CCCF73BB119363B31051B3C7ED499BC7A90BABC78F5AEBA902DA63B9CD5E1BBB30E323CB0531E3C4CB0B53BD96BE6B91EF89B3A7D2D973C06E5FC3C8B67C93D20E1963C5C2D02BBBBE0583B6482CDBB842450BC0010E73AC728563C42D5C8BC2680D43985A6853B891F5D3C1AF92FBC0C88C73CEAE0CB3C01F34C3C18F62E3AD314673B06458CBB401DCE3C15D99DBB3E2CFB3C0B0B23BB2359A53C43E6D33BF3A065BBD6FD6C
3C0F6D533AC22994BA1A4883BC61C01CBE03D3373A95AFFBBC810FBA3B494517BC1ECEE9BD8661BB3C1137273C8E73BABE1D306D3BC007263D0CD9EEBCC010A0BC9B1B98BD991D94BCF8684ABC97E60EBBD66D0A3C3EB369BD9BFD19BCAD63803CB1A6103B7512CBBB000C8DBCA96C9ABB888FADBC9FB9B6BC90D14D3C388FD239564A8E3AFF01CEBA44818CBC560CAA3C4FCED73C387EFC3C1A1CEBBE5DD7B1BDA924953CB439E8BBC8B346BC0955A5BBA19E68BE0E1C26BCC653D5BC98F6CBBBDA3D883C8BE2EFBBC4635F3E2D1AC8BB6AAE8ABCCE5FD5BBA9EE86BC9122EC3A222D07B8F9B52E3D08BDE1BCB06941BBBE4852BCE38B10BC989E063D09B4CF3E4A71773C8597F9BB6177B43CDC0D3D3B9D76543C1622DE3C691435BA4525DC3D276228BC6D0DC63B086D8B3C8E2880BD0CF9393B1DFAC13C89087E3BF7C4A9BCAC9D4DBB86C4093B9435E23C541784BBAB46F6BD14C6923B660C8A3E2CC352BCB8C1BFBC234D9D3A1768AD3C716C7F3C9B7BC4BC36B3783BA9C10C3CACC2A9
BBF72CBF3CA33AA8BC5D588EBBFF2DBEBC9E82803D20F0643C2E74C53D626616BA2EB9873C36168ABD39AFD53DDF3B6F3CE74D37BC401BA73DAED5363C6A2173BDB199473C6945973B7A54A2BC19726B3CF223333D1ADEF23C7449453B8C5695BD992C443CD656793A09F365BD7BB32D3C368771BC49FA8BBC37B764BCE9FD633D069759BBD69EA8BCBB5A533D5FD3983B663A48BD3347713D2876AB3BAD3B56BB8F20943BA239443CDF68EA3D160786BC34CDCE3B815DA3BD139138BD0E16ECBCAC417F3CBF2F83BC75657B3CE4FB593D266066BC333010BC9CBD4C3BBD0D723CB5063EBCD970253D5DAD46BBEB85C2BCD6D1853D9A03CE3C83F54C3D0A85693C996EEEBD1D0174BCB3F219BCC22F223D142E0A3CBE14F2BC8A53F03B2C364ABC49D61D3D2037D13CB8B6883CC52F90BB98D522BC76E4143C25A0223C2587D93D46C4353D1DF31D3CD42F27BC9EB66DBC8B38FFBCBEA1BABBC0E2193C6828EFBBE39E753C84FE09BD0F3401BC47822E3CAE63A0BCBEBD97BC6F922ABC85DDC1
BB398C95BCEEEFB2BD04ADD63BA55FC1BD17BD623CBDA6243CB65100BCC7DD89BD1E9AAABC2480B8BCBD181A3BC49A873B49D5723C3224723CA47D2EBD1C140E3C81A036BC3A004C3C605184BB59228B3C0B1AE43C714E02BC23EB24BC7DD373BCDE37BD3CBE5E94BB41C3FD3BCC8FF73B93CCEA3C114CC3BCE6FCF83E1BACAF3C0AC0213CA27F403B8DA5923CFFCCF8BC8179F3BCCE7B9D3D37A13E3BB3F4913CCED136BBBC2739BCF75BCBBDA2CB403CF95066BCD3AE9A3C9CEFB6BC92A766BB16C1DC3C6167E93D428AAFBB3073C83B1DAFAC3C917C9E3BBE87C0BBBAD219BC588B563CC34E2DBCD4A2E03C0CE3093CF3998E3BF51C403C1E5071BC32175D3C1FCC92BD2587F43D00A5123BEF2829BC01F03EBCE946563DC765ED3C2A75643D4F171DBC2784B3BC9DB9283BC1ED45BC8550893C7BBD29BBD025B43D01DCD5398D5832BC8B17EC3CD94BC5BC45BB3A3B73DCE5BDB707B9BBF0E5FEBCBED583B9C092503CB03509BB5265F73C17D5943C6531743C955DAC3C8E7109BCA22E7F
BC2B4FD8BBAB27D03C86A148BC612588BCAB48C93C0092BCBC86CE0E3C60CC76BBC4826BBC4054863C0BF4DC3BF62B633D0E4B5ABC4EBF663AE2C8E1BC183F7D3C8E4878BCECBE733BE993123C0B0937BC2E9FB23BFFA7D73CC1FE023901BEB9BBAB846CBC15DDE43BC7F57CBC0649B13B1229093C2D6C6BBB053FD83BCBDAED3B22D4C63BCBCA3EBB4B67813B0684B73BA68EBABBCD4BF73D086A5C3C4AE2153D2DFA543B0406AB3C8E2D45BC0CA681BC1987FDBD35EF4A3C2271923B9423173C2DE1EF3BD19C193BEF2B76BD25C4663C3101703B6F12443B07685C3B1344DEBB4254EF3BFFB7C63C66CEFDBBE427523B0BD0BA3B7A48ABBB64F812BD7D60D9BB8500E2B968FC613C8043A1BC5B68593C3E0DF9BA8EACCABDC8FFC83A8C9DD1BC6F879CBB998E19B884D2513C1C58B03C2E4BCDBC3DA2EEBC7C6551BA1AE124B9C2ABB63BA0FC5EBC07646A3C10A20C3B7384513CD139783B8BC3B7BB6A48A5BC03A0A8BBA45004BC8B7D84BD083A443B0FE04C3BCA14EDBB8CE84B3BC0F0FC
BC6A6F753BE29F86BC1F880D3BDB54AD3C495521BCFD5EFDBC41B08E3C81270F3B706B243BBBB1243CD36A353C1900993CA0D9BEBCCD83BEBAA585E23C690886BA65814FBB0275853C66F8E63CE0A8B1BC996EED3CA177F43C7D9C083C7D2B0EB8B2D75C3C383EDC3C5C510A3C7BC2323A678BCC3D2604773B02E9A5BD9A4BDF3C89773B3B8A45AEBCE386423C40677E3C5F831A3D0F89B93C6520383C2F4567BC476ED2BB1ACBCEBD2EB78EBB1F37783D0B07073D1B7030BA8BD4D6BCDF7797BC24332DBC325244BD43CB3C3C9B7B6F3CE3B44A3D1B490FBCFB99ADBB277A9D3C0772C2BBDDDE2639C9C75D3C80CB44BC06C40ABBD947623C6C2F693CCA3B7C3B9AA6D9BCE2EF0CBC5584ECBC447461BD0C770BBD0A2C83BD32A95A3C3EAB023C4336083C915074BC015B4C3D45109D3CACBEFDBB9829C2BC8E91FC3D18E438BC1348F53CC1511B3C7D22E23BA520ACBCBC2F8DBD4729B0BC318A3C3C522730BC9E8D12BC0FB62EBC6651ADBB90E482BC66906D3BA5CF9B3CC019B5BC4A6321
3BC36449BC3B0351BCA7B3CC3BE43BD53CD1FADA3B25E7193C1269743B7A9CE1BC3D0BA63D0C0129BC94F180BC1C74353C842EC8BCCC5F5BBCCFAC573AEB474DBCAC85253CC914563BBDDE7BBD521CFD3A4EABEC3A6DBA7C3C9B079EBD12F0ACBD7AEFBFBC85D030BC6CAA473C7A8AB23C0ABFB1BD00D029BD1E4BBB3B4DBB303CB049CCBC4C7DBC3C08A658BD9BE2DD3ACC37ED3D37598FBBCBCD0DBACB01FABAE2CD48BABCAA65BC89EF123CABD82F3A933AEC3AE6786E3D21F2F9BBDD2B4FBC5B1011BCD499F2BA8E9469BC272E4EBCD5BCA8BC76DCE8BD17E03E3CD76769BC2EC6D13C21F5793BFCB1B6BC07ADA0BCDC777C3D4C23ADBB87EFE43CA435053C8EB9343C98541CBC0A5727BCE57656BC7B724BBC02DADB3CB6140EBC23DC6CBD2040C1BAAC5930BA470C1E3BAEA575BCD71B2F3D2E3F813B9B07E8BC06530DBC3E38ECBCE574FCBC0E40DCBBA67EB13BC70C9D3C17E7003D360DDD3B9C5757BD13F4B5BBA4A54E3C0DD8553BD4A573BD4B9C073BFC060DBB6E49FBBAD244EE
3B1A41743D3862973CE13326BB11AE3A3C9AE0D53C4C906BBD2D64503D0A81343CC38299BC821A483DEF8AB1BD0EC1D23C82DCD3BC1ED1A53DA7EE8C3D1976CB3E1AB33638E23FC8BC2D7A14BCA9B04ABD43D6B7BD1A10A4BCD6FEDEBD2D7F6B3BC0582EBCE0E24FBD6599B6BD000F2E3C8D4FD23CF08B903CAC7CE23CA4DCE3BC22A6AC3C42EB3EBC8221363D1DC78E3CCF8EAFBD2B01BC3C5DEB2DBB676B1EBC617943BAA6408BBCABD7283D17DD753CD8224C3D165795BC74B79FBC50C5E43D2206693C4D0259BDF13B2ABC36BCF33C8B94093AEB9C45BBB218533BB1E840BD1C9516BBA3DD3C3CF61B60BC912536BD275D80BD699E993C82DE4DBCD45A023CA8D2DABB33D273BBF1AFBFBC88B13D3D184993BD0192BCBD154F9A3C75B9C03BEDA09C3D163CC4BC7CCAC4BDC6239B3BD6E823BCC2F696398994803B40B93DBC136856BD260846BCEA7195BC6C5B9DBC575DE0BD829989BCE40C1E3C0C2ABFBCA5F7713CB1EEB53C93D07EBC9C8B363CDA1C22BCC0BE273BAA321F3C289FD1
3B5F96FF3CED349F3B6B385D3B5E5C54BD09E3993B8136203B1928203B92E4503CA7E933BBF6ACC33B084DE2BBC35955BCFF93DF3C846D0ABC137E033B4608DB3BF64A023AE686DFBC7381963D2BFA2FBD3B16EBBD01AD29BD6E8904B8433B92BC9202573B7434593CDFA925BD24895C3CCCB650BB58DB4CBC8455E03D032806BCBFA6083CE2F893BC9130013C748E323C8D2BFCBCC1559C3CC600F8BD612A4EBCB1B2E9BC746311B8C6CCD23AC293353D21D92F3C1888C5BC6187713BADECDEBB458973BD23A5F0BC0C73EEBD24499BBCF6A9313B87C2C2BC8AAE29BB7A6900BD675533BCBA48B0BC880B69BCEDAC833C22523EBC2B726C3C428436BCAE355C3AF6823BBC9178B6BC0D874CBD121F463D2B51CA3CAE29643E04B8983CE16C343D2234EB3B7372A9BCC047C7BC8EEE28BC98852BBC6E9F023CBAA0823D07AFABBB66ECA13CCA6DF23C1C965CBAC2E5733CE2F6AABD1CE61CBC381618BC724CE9BD11C5FFBC6D02803BBAB2133CD51B4E3D81C3BF3B7E18333D0C4E80BD2D24AB
BC4DB6363D08E4A5BD26B85F3C59C5E9BBBC130B3D534A74BCA00666BCC3859CBC30B28ABBD3D89ABCCE3169BCF7C326BD03DFA93C3FFABB3D9FDD94BBA9C0F8BC61F1263BA00EA8BB8DB8A3BD6C93AE3CA8C327BD2B64F33C5EAD81BA88AD263B9CF1CE3BF0C580BBDA972A3CB9EFBFBC975AAABC4155C5BC81AFAABDB55B533CDE57583C7F9ADCBC17326DBD162AB9BC41188B3B00E2F8BD2F3B14BCD5133C3D0C2932BD10C2443BA4473EBCB13D853C468A82BD9F9B7EBB872D1F3CC05AFDBC820868BD2FA5DFBCB888613C1A79C23C8754983C1018E83C8752DB3C743BFBBAD37BC0BCE3A5BBBD01EF0EBB96E57D3D1F08CFBC2575D5BC2BFE9ABD2F06D83D198EDABAFED5A2BC58A984BA6DE64FBBE66E40BD301AA03D382F873D0CF1E6BC224237BB907607BCAC77203C79BFABBD0C0390BBFE15B33C7AFA393AC86335BC2247073C8213703CAD2FB63B1EB6313C9198D8BD1C0DE3BD04AF893D03BF4C3CBD6244BBE393A63D0530863B035966BC833BB23CDE754E3AF53B27BD8F8B8D
3BE367EF3C7387C43BA85A803C616F533D335CFD3C5FA67FBC1B760BBC53A103BCBCE6A43AB5FCE83B1C6BF4BCBDAC7EBC31BA32BBE78BD0BD000A8E3BB3A84BBA451709BC92E4603B868A67BC9869CD3C32CB943B985ED03CC0FCDD3C18F28B3C0BA069BB418E3BBBC250E43C7D765B3BDA86833C8D6420BC1B4A913C23B1E0BCA5D35B3BCB70FE3C91402A3BD406023B3E0ED03C62C841BD0835923BCD18C13D8354FC3C4820EABC4E7C1D3C63E1D5BB7439D63D13A3693B04DF9B3CC5D0C33C4D0CB5BCC7EC3BBB0439B63D2310C7BC1AFFB4BD014ECFBC44CD803C84143E3BCBB847BC99CEC0BC099D963B99CF22BC760310BB17E54CBB987A123CEDA5D73DE66526BB13D071BB3395ACBB9E8D7F3BC79C43BC94E0463C0E74CF3BEAAAEABCD7B68A3B50A7CB3C5635F1BC3B631EBCC6D9803C610A38BAB9CD6BBC2CA035BC1CDA0E3B4BEFB1BC0D0AB23C06A095BC50D501BC20E6DB3B4C17E13C53B5893BC5B64D3CC780C1BCB2653A3C38F107BCCA846EBC9B68C8BC8739843BC17620
3C4C0ABC3D5AFA413C5B2E93B961199BBA8FD4723D5C3D10BD31E39FBC2CB465BA582DE53CD0AAC3BD50DF153D1EF0B0BD41FFEA3C84B3AC3C55E337BAB515813DB0C8523CA6ED1CBD31DDA43A150A4FBCE87826BCF3B476BC454D523CBAB78ABDF97AC13C8441D3BBDDA0AA3C853D23BCAA3B393C879C85BD1DEB383C5C5E0C3CA59CC73A0967A1BD19D05FBD34D360BC37D2A8BCA83E7B3D4DDEDFBBD154C93B713536BCEF5DE7BC6A2B413CB6BBC43C9AB9753D563A1BBC078CFA3C2E5CCA3C7B6C32BD2AAFAABD2F2B7A3AC1DABBBC5CBBA4BBE8D0203C5052D13C28C4463BF9EB6CBCA8CD733ABF3812BD33BE75BD0E44F6BB9361B43B7CA46A3D465968BD8B4DF13C65483FBD0724F13CCABDC9BC13BA203CB22EF93C8562F63B1FD0973B6A886F3CB4BCB73A8E79A2BD477CE33C801897BCDA3DDEBC396D8F3CAFBE473C281E4D3CBCA9E53DCCAB4DBCCDF0D2BC9E0868BB422C0BBD2D859D3CB49CF63D2952B73D03686A3CA3D2673C69F7763D33E0183C11830ABB6D51EB3BF3C119
3D026AFE3C0C21423B5DF3E0BB466ECCBDAA190B3BD7B7CAB9F064B1BD917D94BD651A373CF338DDBBA82890BD6B0FA33C9F7C4A3CC43C28BC413F2F3BF3D1E5BD215821BC84E01FBC188A9E3C9F6A42BC9B0133BB9DA904BDA3B4CDBB7C7071BC44BC22BCD00D88BAFE05013D895A66BCB19762BCF0FB98BD8508733E347E39BCAB76373D016DABBC8C5EFEBCAC94D9BCBBAB5C3CE71E583CD2C57D3CDB877A3D02486D3C90A00CBBD3EB21BC8710CDBB954D763DD421F03D37B8E6BD2BA75ABCEC2D8C3CC0BC5B3C7551C4BC3A8B2DBCC3CDFDBD0F23343C91138F3D16F487BCC1C0D9BD45B2C4BD485E7A3DB6E5463AF7356DBD83131DBC0C4E603D6B3DB13CEAC28BBD63E1B03CDE51D23C3C1444BC8553D03C1D51F73E24A0F73B40AA08BCC52FE9BD097516BC2279033C9F4E6A3B8D3E1F3D13855CBCABBB7F3C139E253D086310BD2B5BCE3C53BB143B24C4F8BCC0F4CDBD32B071BCD4382F3CA265B2BCADC9113D46372DBD397E8FBC9A37B73C6CA1A83CF7619CBCF7EDCF3CABB781
3B8E7200BD3A52CD3CD65C95BD4BA0693C5C1F54BCA753443CF841C93BD1D626BC4585EFBCEA5CAD3A478DA5BD3817073DBF25DB3C8261B5BCA4B6B4BAA14402BC26EF463D1F6BD13C211486BC1B4A56BC37D8D83B90DE373CB113743C92B93E3CD78FA23C81248FBC4CE24CBBB7896B3C1B9E6A3C89AED53C84C4773C910756BC381555BC8F5504BBB3E3D8BCA2E096BCEF5FA4BC252A743C6275BA3DF2202C3CE2F236BC8509CD3C5ECC7B3C8F81B8BB47F2E13D87F3BB3CD219373BF40F3E3D2A0AFC39903F3F3B7C98CFBD8CEC493C10E588BC67DD7C3B08D1BBBC570A153C725EA23CCCC13F3BD938DF3D1CFF543CAFACB73BD07B70BB969627BE507C04BE1DD66CBD219AF83C193855BD5C7175BCB5FFC93CD6AF9ABD05422FB91CB68BBC9C9DD43CE807A9BC82215ABC4356CCBD062BCC3CCB0DDDBD27E7B63C0ACF9F3D31F9BEBA82C5D5BD1AEE24BCA1AAEF3D614145BCD70E09BC5F9AF1BDB20781BC1010713D3B3A083C5C50343C0E6C0ABD039BDC3CD6C6FD3C12629EBD14F734
BC3571903D7E360E3CBDA7C3BC884C8FBB084908BC69F045BCF31DB33D309DC8BB53A8D6BC77A734BCE5597EBC88D5EABBEFD79B3D394396BCD73ABC3B375CEC3CF0EB7DBC926987BD02E31FBBFE7289BD99F5093C5941D5BBF65E583CA42DE7BCC4BEEA3D5639043BDD800DBD22A8D2BCF05AAFBBABB2A4BD0DCC9F3C15A1DB3CC37135BAD9C6313C76174EBCEA7F9F3BFDF4463DED059EBD37D16C3C307845BC3068353C37C0263BD8FF9F3E00F8893D050AFD3D81C10035374526BBCA6341BC3B0BB5BD80A14CBD3E144FBC73C0E33C19701EBC1A4A2A3B29C0D0BC8E8D23BC3B034AB8CB61EDBAABAD31BC22B62FBCE3DE35BA46B2ED3CCA1E7B3BFCA6CB3C2DB90CBBF86230BCE1EFB8BC0E22CB381F36ECBD637B43BBAA19203C9FF330BD3B5E963C2A7ECEBBF8448A3C3946C8BBD6B315BC4924373C8B90323D8277533B934E0B3B4EF9243D1A38C4BCC458263D1C6047BD1C6BA8BBB0311D3C0EC7FE3C10DD4D3C5EADE33C60D98FBC9B47443D3899B9BCAEF6F93C70EF1DBCA56B8E
BCB6683DBC123DF83C61D3AF3C5FB047BE202DB53CDEBBC53C80ACE1BBF908E5BB29830CBBE17EDABBF46276BABE61413C9F4DD23C48E1413B474905BC2F8F393CC58DB0BBA0553ABB918CC33A9AED0DBC797A15BC6D2B15BDB274073C2534A9BC7009963CA43FAF3C65B03DBCF3CF7EBCD814FDBB5FE6963CB4C9F83D0FBDD5BBF0F10BBC770905BBED25C7BCADC9B0BBD59774BC8FB9553C5D1825BB1E4C7CBD418F8CBC7848583C8729C83C910AF2BC6129F3BD82AA243BA4B8E0BD02646D3BD7E24D3C51067EBA78434C3D4F1249BBD31A7A3C9A86863C0ABC64BC7D91103BB3D0ECBBDB6BAF3D26C440BC5538B1BC61134EBC348BFBBCD31A74BD294EAE3C0C505EBCAFDB5EBC8F66573C15BCDA3A91466F3CDCB0FABE140DF83C1355B7BC9CD9A6BC247639BC02552E3BE6B0FEBC71DE613CB81333BBAF593FBC8FF7B9BD4E175DBC6D86FA3C7E170E3C2F97B43CC525A73C2EAAD5BA2246DA3D3017FE3C0555433B2B43D2BB9E5FAEBD33F21ABBDBA8363C8301B03AD507E33CB71B29
3CDC03A83D12357CBCA2234BBD589C7EBDC85C2C3B71341ABB971E0DB9C9D677BBAC20F93D3BDA283B13750FBC051AA83C1974A83CA9B8473D0090D7BC2D7239BC6FC229BCC20AC9BC3AD3CB3C3B52203BE16019BCFFEB98BDA20865BC1210D73D7C22CFBBE890033CB7A929BCE1696E3D0843EC3BF3D775BC01DCCC3B00082CBC27EAEE3CED8247BD128572BCC869F83CEA35843C07C6C73CB7F158BCD5DE4ABDEF89F93BE1CFD6BD021A323BB3A501BC31EB56BD20E55DBD3173243A0261E93BB9FD623B52CF99BC8018DF3CDE8DFEBC2B06CBBCFF123EBCF191273CBAE178BC965DFDBAF34C71B9D85F1E3C4683B2BCA00DF9BCDAAFE23CB2539B3D3904C1BC68B99EBC74B538BC94123DBC7FF10CBD0992F13CAA78CE3D3F437CBB94B5753D2FE58C3C27AB31BAD74F70BC3867F1BD2FFBEC3C197EF43CB1EEA93B0302883C85C022BCB5F502BC9530B63CFA469FBD18A365BC8623B3BD0E008B3E416B3FBC9FF1E4BC2B63803C6627DE3D29C3EABB004F043C98D621BC4A44FEBB62866B
3B46F69F3C518EEF3C5430373C8D2182BC124A6F3B86EBEDBC1CDB943CD4DB833BD05A433C4A6BA23B7E2D1EBA628F3A3C425E8EB9B9A0583C8DC173BC0FB4A03D941E043C3CC707BC1B502E3C176DFB3CFD8A47BBD33734BCC25F2E3C381E663D37685A3A8CEFEB3C67A6443CBECB583C82F09EBD9A48B43C291D0DBC9949E93C47080C3C3FB3B03BBDE852BC314BA83C655BCC3CAB2583BC4FBD3ABC019D5FBBEE88DBBBC601593C35222CBB2B66FEBA5A280E3C21017A3C77A5C73C4091B9BD028AC2BC9B2158BD26B537BC5AB9D53C935DB83BD269543C09BBF23CB92195BC0BD236BC04CE6637BDBB57BC91D2583CC2D7B2BB5DF388BB749C9BBBA05DFD3CD732F93C89A6203BCA38813CB516653B5FA41FBB34D4E3BD0D6D3F3B044B033CBA367D3B992659BA9BB62EBCCAF3EBBC4439F5BC764C453CA0C5D23BBC3A0F3AFCDAAF3C8274CCBB3C8C563A3735E23B57ABFDBD405A29BBB9AD413A887F303B92B114BCE058EABC86D32ABC08F54FBD0733563C1694153CBB9CF5BD0C8F84
BC04FDEEBC2D4AF43BC6E2243BC20744BAADB4DBBC1195C2BBA65AF8BCAEC42A3C23D6F33C73D3DBBBFEC9DCBC91E4A63C1A746439DF297CBD09DA53BC38777F3C6E858CBC0BC82DBAC298263B148C89BD28583C3CABCD77BCDDA7FEBBFF12893DA7E7C2BCBEE28C3CDC2116BAD908293C68BC85BC271FD0BC3226C73CB09E4F3940B6723C0592A33C53DC3FBD5F77FEBC2849A13D01F91ABB2BACECBC0B0E84BBEDF4133CEA796E3C7F83A8BBEEF6E13C08C2F8BC8BE3423C8152073CE8F53BBC04BE8CBC14E6C23D184E62BC9DDACCBBE16F4ABCBA00E6BC301EBABB94A9CABCFBEEFE3CA8DE3CBCD26A183C8D3A6C3CBEB5373C441E243C5F5F63BD03424CBC45475B3C911E563C0BE092BBF17F70BCA164473D3D58D7BC5E6366BBB66020BB8D7A42BB8B42253B7247243C6A4F6ABC11F6A73D009B9BBC6C1B6EBC808878BBC7A71FBC777FBBBC7DC6ED3C400A553A343E9F3C4BC5ACBC1D070BBBF041493A5AABE5BD145AC43CBAFC923CDC0229BC0F63C03CDA27423B8755123D2D4ED3
BBD953BE3D1656C53D14DBFF3B2FEF9C3C5FB4223C81CDECBC461CBF3AE531C7BBDAF22EBC9083BCBC78F02B3C54164EBADE4AFB3D4DF902BD74E173BC39DFF93B4228F73BEB6404BC4F40103CD2528ABC3591C2BD265D723CF1EBE4BBCB3516BD0AC2503C907E34BC0A9A49BC5F8776BD1EAFEA3CD7427C3AD157733D523EBABD02F9E6BC12094ABC5779B0BBA3C4EE3C03BE44BC8E3009BD74BA973C70D8A73C4E3850BCF68E253D11554C3CCDB8893AB06E1E3C36AB243CAD21463CC0BFF23CA8E2113B4747F3BD22BBC33C2429B1BC115359BC1767D7BC4D775C3C5491EA3B6D8212BCA9848D3C24B9E13BF1707BBD2307443BE467F33B267820BC0BE2F93CD6664B3CBB64AABBAF8EC13C6494E7BC9150B5BCE2BB013C16E8493BC0A2313CF7E3C43C54659BBBFCBFDF3A5EE3DE3C52D4E83CF5AB283BE5AD8C3CDB92FDBBD963EE3D1EDE613CC191363D0CD1DEBBEB39B33BC0E2A839FF62F83C96B2BEBCB4F5A239F7C2EFBC898B77BCBD38753D013BD63C970064BBC3C77C3D3B30A4
BC9C44ED3D09AE543C6BA4FD3B80835BBD0DAFF9BCB82B56BCAC306DBD2A12CF3C0D95603C7FDC5FBB89D678BD2E3373BCF98C183C8BB556BCFA954ABCBBAAF5BCB8457E3A9C52E7BCD5C8F3BC3C9E4639B11371BCBA39DEBC8B95483C8D64A1BD6AB0B83C3240DEBBD8A8E4BCD03B4E390075E53CEF0CD6BC1EBDCE3D18EA0BBD1C1EB8BC9B1905BC917303BC860B4C3BEB565EBD2DBA5ABCD9624ABC8A0EF5BCA13E65BCBECBCCBC71C72C3CBE92DCBBA95184BC6F80483D6AB54BBC14CE243BEC8437BD3AEAD0BD99D3E9BC199F5DBBC7B9F6BD03F3333B8E6E44BBD5922DBCAACA15BD932B83BCD00763BC06E113BD0893D8B93BA09A3CB2089CBD12FD6BBBC78461BC5873723AB0912ABB95B0673D0BFAEBBD3A98733C09457F3B937C363CBF7EC63C2416463AECA2AE3BB7D4983CB82E85BC26F0003BE7FF3D3C200C1BBC4AF9CB3BDC43D53CBCD734BCA47C2E3CF35BAC3D00BE46BC7B9929BD356E963C8C1BB23C99F874BBA52FF0BB9BF2B6BC1FBC613CE43D4DBBDE544E3BD2CB24
3CADB7343B881D4FBCB0D1D7BCE3E787BC28093BBB891D9CBC0F68D03C90B6BD3BD83F77BC5814A3BC2D53DC3CC18B44BD8AAA473BB052CB3C8ED94D3CADD947BCBDCD2DBCF09D36BC6DD34F3C24D9E6BB271DC33B91246D3DD54D3ABC6E2E4C3DA5B477BB9664D33C0C81AFBCDDEAEF3D1D7857BD191EC3BBB32D5E3D194210BCBBFB273C9E7459BB3B9C10BD0D99943C6C6EAABB97E8083D1C7BDABDF63221BCDDE7BB3CE694A1BAA04F9E3C9BFCB2BBF503AABD976C34B94C9E283C0D40563C748AF13CA4940D3C14B621BCF0F628BCA30659BB861E2D3C783EB1BBCE6983BBA78641BA456AC63D0A1D00BCC93B36BC5E660ABC89ED75B7B4136C3D4417873E47B7393C233DFD3B1B1D843C2A5DB5BCEAC1403BE032D43DB3034CBC0CCCB13D766DCFBBE7CC393BE23C173BF4AE58BD0A09B2BC78B0B6BC20D41FBC1545E1BE4169C2BC6550C1BC9820ABBBEA16DDBCE05DE2BBB16BBFBC268E00BE07D2523BBA7F7C3BCD9BE9BC3EA1833D36E62E3C61A86C3B88057D3B0CA2973D12BC5D
BCAEA3DDBC5554BE3CDBAD2BBC2FC1C5BC539BEB3B478480BAEC520FBD11F385BCAEB880BACF07BEBBFC6DB53C5AFCEC3C505847BB939801BD8CFD89BCD5D7AC3AD3BFA73A00E4B53BB277A4BC5D0212BD37BF73BC4F31DFBB8D0FE33B328D643C346DB43BE1FBB13CBA1B88BC87EA6E3BB3973ABB1E9A8BBAD35E323CA5DF0FBCD5231CBAC2EA693BA22BA4BD0581AFBCAD458E3C3F4675BC15CA303ADD8A21BB9B45193BF643B33C0C6ADDBB68773DBC162F403C2F20943C740738BC3255233C9A013BBC3DDE8A3A15DEF9BAE956AC3C5178A0BCC58E6BBA0515DEBCB8DE6EBC3FEFB33C89B859BC3492BEBD2AE590390065693C5ED6E33B9BA0D1BA713A033AB9414B3C563B1EBB6E8052BC520B95BC9F363E3CF7D313BC4947D13C9ED0683C1F483DBC591764BC2EDF0ABBF765753C8B2A2D3C260464BC3F5883BC4EBF773C2785D6BB9628E7BC6286BC3C9B26583BD8593A3CB774D8BC1C0DDBBB8362D5BBEC5EB8BC88D14B3B9B4083BB0E09B5BB1BA23F3D1151BCBC5447303D2B8218
BC51DC21BD8D28FCBD1344E4B98A4A29BB3F71543CA870923D2081CC3C3F01A0BC7C5936BA992F3D3C32C65EBAC7A4E7BC03848A3A837DF93B9ACC463C9183053BECDB93BBAEE3393C504A08BA2199F13D906636BCBA45EA3CB73304BC06DC6BBB59B04FBC52C00CBBCE0BDDBC969AFF3B506BA439E5D5E1BC68FF9A3BF49FDF3C35E5D43BDE9EE3BA32DF473D02C4D93A07F79F3CA65FBABD09D7B93BB2DAFF3CA64A50BC822731BD01AB14BDB8925D3CFCFE0B3CFF6ABC3C00310B3CCE90233B9C068FBC8A4083BB8F49B83C34D716BB9400503B934F9C3BEBB485BB2D58183C8DCB14BB6F6435BD25C5A3BBEBAFEF3D1C21D43C1DF6413BD6BC20BCC2C4953BA2BC433C33E1C63CB22554BC1F64BDBCECA91DBD29B38BBBB353813ADD5E923BA8458C3CDA66C9BC3C3ECC3C2B3EDC3C1BC7CABCA1C33FBC74BC7BBC70577B3B9421D93C0A7D92BC3185433C15511BBAAC18583D238D14BBF4F4BF3C0D98E23C6F43B0BD7A070B3D45A7DF3CBE8DEF3D2A7D103CAE853C3C64C005BCD2A5C3
BC021EC63D0B0DFFBCB1EE483C9A8126BB8BB8AB3C85FB80BCBC2E523CA4587B3A8A4D2EBC589A31BCD614F8BBCBF761BD8467653C0272E2BA72FCE8BB4C76B1BC826181BB55E1ECBC9C774BBBC8C6953C9074F5BCA021DFBCEF5AD13AC1C0A9BB38ABA13CE8D6263A9060413C25AFF4BCA27459BB8BF2CBBCB340FE3C8C896BBCD419ECBCB30C243C9518983CB5298A3B4B4B353CC451D9BD0CFDB4BDB1D316BD6C4068BCB4E077BCF96E393D1556FCBC6B5C2ABD29A2DABC8A940DBB8A50103AF13A2BBC82B8FFBCDD4182BAFF17CF388F4C14BBF194703BF0A3B8BB02570FBD0131EEBD01187B3CC44BC33B39AB91BCE6EFFF3C523E56BB3957523DDAB72E3C15EECDBBD2E5A3BC856AE73C97BEA13B712AECBA95DEEB39DC62293CB0334C3B4107DBB840E712BCAB5648BCF951383CBC35403CF3FA4E3C4FFB31B9E13AC5BD63891CBC262EAE3C4877D13B16C5543BCB4C1CBD179B45BACB6B30BB9BBEC1BB9C62BC3D23D91FBCA657C03C8EEA69BC8EBFBFBCA2A829BCDE9C02BC060AE9
3C146127BD9CD648BC0DFCE8BC9AFAE1BBAAC0113C6F2B1D3C9EF907BD1FC179BA4157C23CE4F6D73CEBD879BD48CA9ABB5F74E5BC993F60BD0B458F3BEC6AAC3B8C6C7ABBBC37C63D26A75FBD826A66BCACAC8FBCAD3DAFBD2D24EC3C2D3194BD5E320CBC02573B3CE92B0F3D8CAF703D015A66BCC4ED65BD4180D53BD0839C3C49223ABCAA906ABBF17DB7BDBD2515BD26AEA33B0C45573D582021BC9DDF0F3A5A0E79BC8E0FB43CA92B2BBD3372283CF1ED47BD0FBDA53D6B6BFF3D16DF77BC113C71BCAA0E793D65D3D7BBE0A82A3BF9D4933D4EED703B9AB393BC4C77593D4D8D17BA567351BD25A0293C9871543DAB7D313C14191ABC1A296E3B521940BD08B139BCE23C5E3CB578A4BD1F59ADBD7E24E8BD22D846BD4CE7823A8FEB62BDBF1E07BC5CFACE3C551A30BC98C924BADB9C24BD18675BBD820364BD0B8DCC3C0D3EA53C6C0B663BBA5ED33C671B8B3C4F94F93D0E1C343C89A93F3CF5CEB13C07898E3CA416713BB968A1BC73F858BCD0869E3DA36AF1BCEF4B8FBCA778F0
3C6D61233A95773A3C2BF6843D0ADEC33D3416C0BC3B5F0CBBA2EE0D3B8A1156BBE9EC163CAD0010BC93F6AE3D254D0F3BD3EFD03C0F544FBC0B3C2FBCE16B933CAD32653CBF7CE7BB8A593C3C732E073C10F6833C4F78A03D31A62E3B382AF73D2991B53C8392C13CDE99073CAD9A66BCD210A53BC924DF3BB4B7B93DAE8F6DBCE7A81E3CF4C6D73B2BCFCFBCC9B40ABC27818FBD1072AF3D08BB5BBCF237963D86582D3BAF1AA13C3F60903C335491BC33D7A4BDC177603C3FACE3BC7744633C93B22139FB81A13BFD1684BD54A2D23BDB8D90BC3A6325BC0647C43C9E084BBCAA3453BC657FA03C605D41BCD9FC0ABC80222C3C1EFC9ABBF3F0E6BDF569A93C86C5A53BC38ED13BCFFFA13B9F55053B8D8165BD375FCCBD87B9F4BC36C8673CFAE4B13C4C99FBBBED8C9BBBB46E483C4108603D1C5C91BCD72519BCC2686EBD42A9A5BAF078B53B8053CE3C34BE77BCA327883C4F24603C2542B7BE4091DA3C8441B8BCE4BF7DBBD8208ABC2C3EFB3CF722FB3CC59CA5BD1F59443CCBB4FE
BBCB49DCBB48C27C3C923AAC3C78FF76BC65298BBBFB1BAE3BFC25BB3C0919323C8552073C07D4753C0DF84BBD10C6173CC5C80F3D6030D33C834FA7BBE5BBC93DB977883C283B11B9B27ECF3B49C4A93C803771BC25861EBC8801E9BC51B02B3D36AE51BC2070273B17FEC9BA31377E3A3A9162BC22581BBA3935CB3D90F982BC8E85733C942792BA30F43FBD8CF9843B01D875BBF624ABBB90DBF03C160E79BBBE8D883BEE3F1C3C95FAE33D1D45A3BC2622FE3C2CD0393C654BAEBBF2017CBBC79343BC816024BC09FF633B450B5ABB18F8613C5E160ABBA29BD43CE7EBCF3B54C6403BC21185BD3C04A1BBB9E2A9BB31B10EBD0CB02C3C31E955BB6215103A3F57BE3CFA552A3BCB96B33BCF29BF3C397601BB50AFC7BC7EF806BBD2AB563C4A246DBC4B91663C35D4FDBCB8662F3D2C9BD23CD142D83C63ED88BCCF2B7A3B353F033CC90E6D3D089655BB7D967EBCC0B0E03BB80498BC925DCFBAE8DD25BC3C6288BC3C147CBCD0A2A33C4878D9BD6CD49D3CC936D83C851500BB2FDA47
3CED5C8C3B7F14CDBBCC0DC23BEEC713BCD08C29BCA7A1693B1DE5E33CAF83DA3B318D8E3D14FFAB3B75A4CC3C7166AA3D84B85C3C7213613B394B163C1C7DB53B8AA2453C017E9C3D0724663D39FB71BD8C6635BB8C1567BCE36889BCEC8E45BCD5975C3C38275A3B8C69083C29C449BBEB34ADBCD8449D3CE3B6B13E17EC3DBC8F14B93C343A35BCF3596D3D82921DBC60276D3C6F94EE3D4F6E753CD5A5AC3CF737233CCE1BDD3E0E2D123DB57B3BBB15AD3EBE0E5D853D0E7580BB4B63B7BD21B3373D049DD13D482358BC499F123C8D682ABD6EDBEDBC02EACEBD3DD515BB374407BB9632DE3BCB12A33C8E03A5BB78E225BC4B139B3C961A8FBDA115BEBD7C616EBDC179B13CCBB7A13D11C7613D05F5833C97B0B33BB974C3BC9FA01DBCD18833BC86C4CD3CDEF28ABBD30852BCA1D8E0BC873BC6BC6CB565BC16E4EB3C600A3B3C01E4C63D5B5EF9B9B48011BB522FDF3DAA6BC13C8ECA693C102FDD3C40BC143D757FCABDAC0056BCE355293D13BF25BD12507ABC4D8D723D95D8CD
BBBAE1503CDA9FDE3CCB18193C0CE47D3C9061C73B64A17CBCA6F4F53CEC1314BB292DCFBB37CD863D0B6B5E3C0698053D14D1A9BD0A1318BBD20E2C3D556232BD57F2FCBD104FF9BC91D3D1BB1C59253C59D659BB224C623CFE217CBBE44B293CA5F0463BAE4C62BAB0CF053CAF58C83D4941E03BA0A1C0BC7949BFBDF5F0463D076052BC2B08D03D01E54C3D95621E3D04BDA1BBBAAF31BB0124A63CD6FB143AE54E56BAA61886BD848E7DBD8830A0BC2E9A29BC27D4C5BCF9B38C3C40B7E2BB86F0453C688CADBD4EA39E3CED58603AA4B55EBD1F79633B393FF9BB5EB841BBBA20B8BD01C57ABC01E6763D1909D73C2A27D0BC39C85B3C491AA73C9EB31E3CBB6BDA3CA5A663BB35D8B6BD3F57553B0EEB6FBD145B163C8FC7643CD964893DFDEA8BBD529AC1BCAC91EB3C0507F43C179AD73B94E2883A5174553C54E1ABBBADB159BB21CFDD3C0B85B8BC420E52BD113F4DBDE257163C2D77283C613718BBFBD90CBCEC9A47BD03B3EEBC1A2CAE3D106970BD1A652CBCB4AC93BD2AAE2D
3C45EAD13C957C913CAEAEA7BC471AB73C164B573C4C6A3ABCB66F29BD07B50CBC3D710A3C0CB4D6BC9E8B6A3D5C78113D60B9623CEFD91ABC66BA28BB97F3643CD04225BBBDDE723BB94CAA3CB238AE39EDE8EF3CE6C0BF3C9902CDBCC9D9B0BD5BC0063C97D1453CCD4A913D260EA3BC9A1022BCE504D0BC05B483BD87E78C3988D062BB86E136BA85127D3D6269CCBCE9F741BC91D16DBD0033023D659A8C3C72421F3CAE9166BCA0CFE3BD7D3EC1BC7B30ABBCDBACA63D332AB23D716CF83BD506EEBBC32E2B3D1F22A539E489CF3D38E2733CC4CD44BCC44A913B591DF43B5AD1773D207B50BC1EF509BD93ECC63CE164E0BD1BEA723A2C0487BD20A979BCA29064BCB06BB43B4795293B4F4585BCD076CBBC6DC929BD1311C13B8A99723B89E30CBDA3473CBD061D7BBCD1BF903C2D94C33CC51284BC44F5ECBCF267A9BCB94AA8BC8AB68D3D19F776BC9403E23BE470ABBCE25C953C28701C3C9A605A3C25AD543D0224A8BC9C0E993AC3419F3C12F1A4BCF89E04BB23AA61BC2D2690
BC16BCD2BBB4C4493C808685BA3F5C52BBF9D7A23B9D61013C2D555D3B8B5085BCB04A85BBDB745BBBAE6DB43D9457F53C47437D3CE4A3E43D311D58BC87D0C2BCF68F483BF499C8BC801BFC3C29155B3C1B9E34BC2ADB1DBC332BB7BCB5DA473BBA69A2BC810D67BC26E446BC97E4F2BB16EA2F3CCCA24C3C9C3C623BE908713C533C58BCBCDE8D3C3E309E3B296BDEBCD27784BBF11FD4BC6554F43C6E9D773C993C54BC85E5F63D0AD088BBCFA0733B9FC39B3B640FA3BB68DF3C3B65AFF13B84BC6B3C19EE0ABBE19669B9EB67D43CD38645BCAF1D813B052DD2BC3C98EA3C9E410E391D0C44BBE555D23C29392E3A989522BB2B47D13BD495303BCEB3663C4742F6BCB7C81B3C265C93BCD5E72ABB9F5E583BA07A57BAF9AFDF3B3691F93C937E493D0082FDBCDBF7633A9EA48FBC01E9183BB18AF9BC9CF01DBC5EBD5A3C177444BBE9D3E0BB02BFCD3B045D983C132C15BC1381243CF94EE7BCACA8CD3BB68D713C82365BBB68A84BBC41A7E2BC46FEDB3C4AFF65BC227697BBA8B8B6
BB190C76BCAFACF63D0B67CBBC4E64003BDE2A603B900C0A3C75DB6CBC0D7063BA24F80C3BB0472E3C5556F539F93886BD4054EBBBA270E0BC4F9DA7BC1399D83B47CAE9BC3B94A23C2F19C13C07A8C23C863CD83B9677C73D4B12ACB9ACF10D3D00C728BB7787393B897C143C8A1D9C3C08DF22BC79B3A03C49366D3B3F38B9BC86827B3C6B4CF3BC1A5B55BC9BD079BB3D4A733BA87FC3BC959A2FBD25C09A3C08E0FC3BBEC0E43CB5867DBB89156BBC2032CDBD956A683C70C6473CBA9972BBE9F8E53BB3D305BB3A35F03CB79CF73B652D9C3C5AEED93BC65B2F3C0C0BA4BB5C35F0BB9F8BB6BB61F7F7BC2555613B7B8FF0BC6E7C38BC4826C5BD377F47BCE64024BCBD53F4BB54C4903B442C40BB717C613BBB33B8BCB93483BC4C590D3C9D89C2BB9AB3C43BDE7D6DBB9E342EBD18691BBC6198923C46BC1CBB61C0D9BC3629863C49040ABB4D0DB83BAD364ABC7E68913C3C25943A84EF2B3C6E540E3C84399DBC331C063C38882DBC7E80B33AA037203CC8014C3C278735BAE30DFB
3C5C57E63D14FCF13C3103C53C9BA8B8BC614678BBE94729BB9311C93B9F4C683C91787DBB764E863D2B989FBD46184BBCC9FF0F3D16AEB13D8B91BCBC366419BC9A03DA3AD0D3B1BD0733DABD525A38BD76DAC4BC55068FBD3F80F83C33D43CBD48E6453BB0138C3D30E49EBC6BA7EE3CB1EF0F3BB3E919BC19DB3B3E176D97BD5FF853BCCFCC193BB721E03BEF0884BC2E0FA33ACD57E23C18274EBCD285593ABF90AF3C3057B63C969A243A39F966BD0B71DABD33F3723D00F6D3BCF0B26C3BC7FEAA3CCD4CA1BB0F4755BC4D3AC1BB998EB1BCCB21B93C9D6CA43BD235BCBD12F70D3B1E6053BCD9EA0B39B3A9C83D5902F33D124AA43C8A43A9BD7657F13AD95991BC3C696ABBD1EC7C3C08625E3CE574F63D8CF4BD3DCCFC40BC9B4965BD8AD3F23C3003B1BC888B6DBC7FB0F03C9BF3AD3D80DEF83C08FFDABCCC2D22BC4E602C3D52B4903CF8347DBC15E1F63CD19C623CD82513BC5A2320BBFF0EB3BBEFEE823C2F33963C9F73983C416FBD3BAC99733C943E8A3D25D6FABCBB9DF3
BB15ABC53C4E84AABCE6CEB3BBE8B75CBC6790EB3C1900E2BC5B6EF63D2EC1E03D0F5F1B3D02760D3CFE1B0FBC87CAA7BCB2FB82BD655BC73D0BDC77BCBE46593CFCB419BC2B79633C529F46BB922209BD19725D3D4952F3BCEADAE5BAB01A2D3C3E97893CD7DDDEBBA1EED53D627351BBEFA79ABCA47B1E3D0C4B13BC8FCC52BB91EAF63A14EDECBD147C07BCBFFFD93C14BEA6BA97AF883D40CDDBBC79AE023C99E81D3C994348BC9B6ADABB812C8CBB57E1833D0FB8F1BD3A4046BCC78A423BA0F35C3CA9D1F9BCCDC5F9BC14F99C3CBB9D48BC96CEC9BBD271AF3CFD3496BBEA2A35BC60241A3D47C11A3D81A40EBB5BE5E73C97B14439D8FEA93D5D21A9BCEF09E23C08EA9C3C0590AC3DA89471BC870E26BC5A7F18BDB5923ABCD556D7BD5E8D09BC18ED993CA2C42BBCA2D95F3D395FA5BC02AA063CFAB32ABD45BED83C90C129BC24E5C13BCC0B59BC24BD17BD5AFA9D3CC9CF32BCB705E53B6717F73CFE59C5BC5855B8BBAA071EBCE960263D991A68BD994325BCA83531BD2C0A2A
3C18BFAA3CC17DDFBCB879943A2D21B53C3DCA0CBD096BE0BCF275AABAED59F8BB3ECCE63C248945BC7C1503BD3E85E7BCD348603CED780FBCB8D5A43B359E7F3D1BE1603A3D72373C138014BD215498BCD95DA2BC5C25303C2F141C3CCF2E75BCE05271BC6B7D01BCBFA98DBD275AF3BCD9777EBB8FFC6B3C0054CFBCC4BECF3B57496C3C01900D3C789C8CBD1E80973B1DD92DBCA078F0BD28E7D3BBC8F0883CCCABF6BB9539FBBCB796DABC1BA81F3C4D76B13CCF68F2BC7D202CBC227F473B186377BD168EA3BC5431623B7287A6BBF18A4F3C9912DD3CF6567A3B38539D3C324BCBBD23FBF2BB8574F93A8FCAE6BCA95B563CAAF5EB3B49B5EBBADBD5CF3C553A783AB91C1E3B884D6C3AA4F698BBECED3D3C0753103C3008C13C831DEDBC965FAD3CA328303C87E5863CAAA4433D1974253C2079A73C57CDDC3D54EDA73C1A223EBC96A8D6BC39ADFD3BB14B9A3C81478BBB2CD827BC2002993C670764BB0746D6BA0334EDBC4F51CD3CB284363B371C983D6178B23CAC0C293AB0F83A
BBF50DE63C34821FBC094AD8BC8B68233D1BF0B73BDE94E3BC5A10A33C736D34BC35F067BCB2691DBB69E0993BFB212FBD0E3E30BC08ACFEBCFA9ADAB9B389363CA213FBBAE59B0A3C9BA7F93C983CE6BC1ED472BC378C453D9DF3E73B77AD683D551DF4BC2C05D73D2148AEBC46A7AFBC9C18A73C097E873CD53C1EBDA4C9BEBA9F232DBC16DC0E3C4AE9693C210D56BC78E0DC3BDD8C74BD80EBD83C57AE843D2AE9CC3C6D38363D12BD933CCC945E3C90E045BC693ECABCAC55113C752ECA3D33FA48BC89AF92BB877D553D1048E03CCB7A4FBC1CC8A33AF8D788BA0ADD9CBB2AF45B3CA85B7F3CC01E713ADB75C3BC355C833C99B350BAA9957EBBCDEB00BCC131613C3445873BC08B253D2357BABC629A823C367CF3BD46EAF33CADB7453D0522283CDFF08EBC396F5B3CBAA0EE39A9C92EBB69AC063B60C744BC00DE23BC53C20C3CA3DDB13CB341A03D1DABE0BCD04B473CD241683C86FA913BE591803CD14EE639EFD049BC8D2900BA3C71E03CE967B43C35BF8F3BE618293D196804
BB432CB8BCF3404A3D28A123BC5D3A11BC6350AC3BBC8AE0BC360E32BCB3E36C3C91DC713C93860BBC5E1B5A3D0054DC3C310451BCB722A83B17418DBC648DC6BCC759F7B8C49CBFBACFEA11BBCF2472BD805446BC754D863B7EBE5EBC82A2373C80B225BC8188563CE3CC6BBC887D343C955A623BA2A86DBD01BBF0BCAD0F41BCDEBCA93C0DB79FBD49FA44BDC7159CBBB72E5E3D3993AE3D10CA14BBF6E8EEBC0196D1BB1D3E07BC8ED0943D8246353C137B8DBCC611CA3C4B75883AF051CD3CDFAE7F3D1A8242BD0BE530BBEA814CBC37CC4EBCA01FB1BCA99D40BCC709263CCBC6D8BCA812723D3F801BBCB3DD3EBD10DBD03B7E68E0BA9D9686BBFDA6C53CBD3E81BD11098C3C390B6E3BE9BD8CBD14A6C43A08E02CBC765B113CA7FD733D57EEAC3C86337C3CBDBB27BCE4FFEF3D44A1CFBC34356BB8637FACBD05D6853B7E73D13A1FBD02BB37CD013CD80E16BCB9C0703AA1CE6BBC6F08A1BB6B5FE5BC90020BBB8D01983CDB4684BCB2F493BC892BB23D03828BBBD2B2563C932E00
3B094AE33AD8755F3B930FF23B2D933ABC8E0F4B3C92B2FB3C4E1717BB970333BB8D434B3C89BE4A3C983C1FBCD098B33AEA44113B899524B8C7D9FC3C0A42713D0A42E3BB3B38543C368FD43BE47FCC3B8A0AA93C4CCB4ABAD4BAEA3A49B9DE3D4A4631BC2EF52E3B63C8373BC5B562BBAC01553D09C8AB3C674EF63B9B90073BB362143B300B3ABC8A12A7BBBBBF45BC1544D9BBAB4118BD203E10BBD0D0A93CD63658BC419BBB3CE893A9BCF179263C7DDFC13B718A4F3B8097CB3BFA43FB3C2F5535BC4C0F7C3CBC19A8BC83C256BC13B98ABA4A69593C1293863A4CDC3A3CD30238BBA5D74FBC026EB23D21DFC83C3C83B13C4004123BCCC4A13A9CE863BC8058F03B8749F33C21D440BC1CD36CBB3E9F2BBD03FB353C6EB318BB3D17103C63F9AE3BB4C841BB484A03BA0EF8E6BCB719F83C135199BB85DC37BC0B4B9DBB2724BCBBB7FB13BC98ECA33C1939F8BB079C17BC5A1E763C2E2E99BC6D5C003C089F74BCEE9A983C40122BBB3E39CFBC09A2DC3CEA0C1FBBE3E2C3BCB39827
3CBF359C3D2399443CEAFD5EBCA2412B3CBAF1433C68B064BCE58773BD33BD1D3B67D0FB390E50AEBB461E6F3C9A9AC7BCE45D2CBCF4C7FC3D51D0CBBD051F8F3B4489FC3A42BC0FBCD1939C3C4DB86ABCD8F5D4BBCE35D33C57410E3CAE23663D9DC50BBCB0A323BD168807BB7FA7C23D226BDA3BFF938BBBE1AB043E2AB71F3C05E5943BE1A3E1BC1A54CFBCAAEC053BEB857FBC9AC4643CFE7911BC0FC0CEBBD813313C4C1A51BD05CB3B3D5B81F1BD81A2A4BCD15CA5BBCDF15CBCC472F83C890D57BC0640DABCA6ADA33A48197DBA633098BC1DED44BBE30ADC3D1DA4423BFA0AE23BE77948BC14FAF83BF62B56BD33AD9BBCBC9462BB1CCE21BCEDA587BC9CDDFD3C36D1D2BC5D029A3C14165CBD2F34CEBB95C383BDBCA2D5BAEA9A70BB91B9FF3CD67DCABBE597BFBB70BFBABC9B6EF2BC42FA333D06929EBD0937C73BAEFCE33B51711D3CAB9DD33CDD40BDBBB15685BD5976F2BC75F3993CC6E3483C93EA9ABCF77566BC5AE68B3D160791BD819CB73CDDE760BD20C3F33BDC86BA
BAC3217BBD4196313C234D9E3BED3ED4BABB75273CDE05403D18F913BD532BFF381143B33C48517E3C9B1C1EBC1492BCBB74BF583C64AEEC3CD5DB6CBBEE78AC3C72A7DB3C37C9F03BAD3A45BCA857E73CEF1214BA933CA4BC2963E93C877FF53C3D258DBC813A85BB90BF80BD1894233C535744BB0665043CF30066BD31D4F03BB4EA6CBB84511C3C34452DBC05E9EFBC9EDC3A3CB8F81ABD06FA18BCA96A433BBC50943A869784BC10936CBDCFB8EE3CBE7129BCF1DC693B352BCF3BC042A13C5A3D433C7737323C915256BC1BDD0C3B792E3D3D0F5381BB9779043C8DFE2E3BD14C4BBB8F09A0BC4418E83CE34C5D3D678C8D3B242E2B3BA6FFABBCBF11613B847AA33C1278743C9D1CF4BC34977ABC1101D9BD1588283C77E3CDBB01FBE53D41ABAB3CA3113B3B01F50C3C4094093C871DA43C1E5185BB9CF94FBC3680313BA8C0463C486A3DB8E4CF343C14EBA5BAAB4E11BCA673D63B18A43B3C003EA43C20E1F23D2EC4EF3CA5586FBBE7E769BC82FAC93D20D24C39CBAB15BC984B06
391C2F36BB1E6A9EBD2E073FBC56AC013C9FC9623CED27253CB45AC83B82CD723C3D5C133BB42232BBF057A13B1896C2BCB072AD3C41783EBC143B103B86F9533CE7000FBC375F633BC5A31EBCA3AB673D5E42363C1FCCA33D1B362B3CA25E8FBC3089183C8338B6BC4491F43B4161F13BC7CEB43D15369FBBE3359E3D3E4331BBAB9D803CA9EBA3BD20C1C33DACFC253D040B72BCD24687BCB050D53AE9A25EBC6BA7B9BC0DCD75BB320933BC2E23123C80EB69BD4F12453B1372BBBCBCDC75BB85DEBF3D44AFC3BD33C4AD3CA95DF0BC99156C3B9FED2FBCC9C2833CA90F993C1889CABD036A193D830F5DBCDADB7C3D286BED3C1DB2FD3BDE692DBD324D93BCBF1766BCD57206BC1CD2C63C82E29B3D2D5038BAA0055F3CC473D43A27CC613C2B147E3C8FDD1CBB51CE89BD507FB5BC4694D5BD9DE06A3A2446B33B815B76BA87934DBCD7BCCA3C9E448F3C1446C03D8C48E3BBE486183CC88A7E3D39538CBC1779D93C597D4C3C60F40BBCA11A0FBDA34ECCBD0557A53C422601BABD4053
3BCE1C17BC76535CBAEC24E23AD43ED9BC527214BD460B013B3EE59EBB7B7D8F3A233A9DBB3832F7BCE591573C510672BC44FD743C3E3FD7BD0B82253BECD8613B8F91C53C9881723C8B9DFABC3385E7BCD1C9B9BD135C5D3C6E533DB9408043BCF1A9163C1BBD3FBB2B6B99BCEBE6E5BC3ECA3FBB2147753BF4D7D2BD815ED5BC18D7EABC0644EF3C615A82BD8DF3C7BCCBD8D93CB0DA4EBD313729BB7BF44C3C12B4C0BC814E0D3B4298D0BC4FA885B7103CFDBAB195E5BBD3E92C3BDAF75E3BE6A557BCE09381BCB3ED5C3BEBB7203CB630D8BD4906BE3CCE5B4F3CE5B82DBCA60DAFBD203C863C893357B9B295D6BCA685053CDE9B8FBC161EBBBC24C61F3BF24C6DBCBB342A3CEE27203C771B8FBCC3B15E3C04B5713CC60CC03C8847ABBC6AA893BC66D27ABBC963B73B74946B3D0F22003D334D43BC7880FABBB236543CA6774B3BCB8A453C0A38973C4DB06B3CC279C73AE5CC75BB5C5EEBBC3B2D30BB3706233CAB703CBCA25E82BC2533CB3BF51AF73C21526DBDD6E9CCBD040C04
3C0FC6B83D0329243AA8B8C53C1601E03CDE3687BB75EFF5BCA609523CBFABB9BD0268BABD49630D3B5283A0BB8F7366BCBBB96B3CBE20C3BB9835D5BC20BA823CA83D2F3B86799EBB5A76793CD4ED6EBC2D8DE73B086A793C01C7D5BCD825483D32EF9ABC261568BC9BE44BBD0B23523C56FE9DBD3DDACD3C8546C4BD2E0E01BC2729CDBB4325F3BBEC62D7BC31D7AEBCCDC3B53BA833F83CBF65DB3CADD1A2BBBF4EF1BC02A72A3CD10E753D14639E3BE75C843B9CFB9DBC775D743CB0259D3CFFFB71BD63C0743CF247673B7EBB0DBC73BD9EBD2A78AABBA65CCEBC50F51CBC6A4DF53C1802303C0926733BC31CB6BC4EF9483D0C6983BC0591633C9781043CF85B113B1EC593BC6BA2E2BD0A68FE3C7F6CC43B3BFE103BD9A3753CC00FDF3C99775C3C61B4AFBC719462BD3B3FAC3C50C4A63CA7A501BB8B3CAABD6A9200BBEDBB2DBCE25693BC8D6A84BBFA00F93CD70DBEBC91D18CB949F0E63BAB13543CA5A519BC1D8B933BDA6DE8BBB6BDBFBBB80EFFBADA501EBC874F4E3B843148
3B441FD93D258218BCF2D5B6BC1F60FFBD2DC38A3B18901FBD3EF701BD13851BBCD6487D3B1AF4EF3C660F8D3BD08467BC76A7E33BD11100BD6FDABCBCC885843CCE90E1BC403725BD19A753BC8700D4BD1C5633BCD16164BCE316F13C3B95C93B8F1B9D3C60DED6BB88BED73D3159A73BC9D1693ACFDD20BC8EB0EC3DD13775BC0C5A063CE07648BC3B628D3C7892A53CA7B68C3D0F6AB9BD552A94BC3FC4BDBBFE08593BA821E23D8E51863D8102EE3C5E0D08BC4DD99A3BE4B452BD1D54B8BC338A5CBCA2D103BD196A80BC02E04B3CBD24FCBD8157AD3A328B88BCE39795BD2E743FBC64A39DBD05177EBC29928C3CB2C9B73C70D10DBC7BC657BC4CA811B9FB4E823D0A176A3C5DCADE3D0CA1BC3D21EDB73C338A293D5737113C083CB73D286D62BC0E4C85BCB3C6F43C8A91E43BFBB680BCA311CDBC11A10B3BDC5C50BA8F81C7BCA0381A39938E8F3B07A7193C1062E13D21CD56BC68E375BCB3E94FBC67B6B7BC4B9375BB0232E4BCA06C353CB281EF3C2898B2BC0295D23C998454
3B9D11ECBC94B876BCC5959B3C030D78BC6C67CC3B83EB1D3C575502BC8ABB9DBCA85D293BFECD8EBCB7BA8A3D48B0393C5E5F783AFD5BC8BC6C676EBC9AAB6A3CA5D4A53C98200B3BF9267E3CFB57133BDDAF223C47D01D3C545712BCDA40ED3D7C30C8BCA10248BB918D20BC5483B8BB5CF3C1BB8387B3BC2262A73CC22C9FBC874FB93C82D306BC7EFE1B3AD341A5BC68787DBC637550BD1FF6653CD7E16E3B8DA77A3C7EDD193CAD90643C3D883DBC8BDF6B3C4895E1BAAB4DDABC16C3C53CF2179C3C79587BBA8B65283995D7A53BFBFB3E3B59F3B03BDB6C553CB2008CBBAEB02E3CD492D8BC8B5D78BC98E9AE39DB6E01BC83073EBC3275DB3BB4C845BC0D12AEBCC0455D3C8090063C4A47F6BCBA07363D1E7C153B71305B3A461C2A3B9C07AD3BCF606EBC8A61243C752999BB7A74F9BD75DD2A3A0FB8303C352CF23D0396BF3B97B702BC4CA77F3D1FE92BBC25F9A0BC5DDF333C20812D3B039D9ABC0D47E8BD27A5633BBB793A3BF67507BC627E823C4E42003C2B1588BBBAC391
BB0ED32E3C69A28ABCC4D6313BAA5B753CA91FEF3C750020BBBB5A13BB7BC557BC9772AC3C17480ABD109267BC7E1E183B275B383C956ADA3CD83E29BCE1495938B8EF473C10C4FE3BF07DF3BD68C100BC774778BC8D92E53CBC29A8BC4882D73D10DC02BCA6630EBC008926BD20C59CBC7DBECA3B028B713BEC0FD23D48AA12BBD805D03A88D4F1BB99844BBBB6541EBBFD1BA7BAB6E44FBCE6D12B3C851B883C14D94D3BA250EA3CFC2B3A3D38A2FFBBC171F438A61C86BC0A553D3C8EFD8A3C4A73F3BBC4A086BC33DC813BC07C97BBC946F4BC3D4F6E3C90F8A93CA2B5663BCF9AA9BCA5C7E43BBC4C113B78E8A53BC04D0D3BE56298BC095F173BDB6B543A3F0CFFBC57589D3C634ACD3C55A3B4BBF717E13C64E3F53C0A8F92B8C6920D3B9460663CB81ED73BB385663C80F8A3BBE2E3773CB17EE33C698B5E3D06B3BB3C09C181BC1DC0BFBC8D24083C5B153D3C05D371BC82165F3C2C8B5B3B81DF793A05EF2EBCB22AAE3B0F86FC3B813277BD37B8B33B97AFFB3C8E7ADFBAB2E93E
BB96DC38BC0F2AA1BCA27AF53A8105F43CFC31093BC6535B3C41CAF7BC513B4FBC32404E3C7B8FE9BC8A99883CBF5DD73BF139363CC477D33CBB2052BC8A54023C17E7AB39E02B833B6D7420BD2BBC91BC3DD27CBC24A9F4BB5DD6B1BD0A39883CAB3FA4BC71C07FBC778E23BCFB7A2FBABA2A663BC4863FBBFC4F663D743775BCA60412B9272D5ABCEC9BF1BC9012D6BC0CE4133C2A843CBCE8DD963C27DD293CA5CA9D3B8B88473CFDDF933CD14306BBF35A3CBC292D193C617780BC5E635B3C8016613AD6DF78BC5F39F73B922C213C04480ABC9AA7E4BBC4BF3B3C93C707BB1EABD8BBD428B6BB210F38BC33EE2FBB834EC73BE5F74DBAA50CBC3BCFB1A73B68EAC6BCE4291C3C1AD0583A8832F2BC0529793BAE65993C4945A5BB6AC36BBC8597733CE92C813B3DC1E2BC0EB522BBCBF3FB3C1CC43DBB04A8DE3C67C0AD3C0F71F63B0A5B34BAE017973B6B60EB3BC702583ACB39213C968415BAF4B8EA3A9629943C2F08AE3BCF5B9C3B67AB88BD2190A8BC06F61B3BAD55143ADD2FEB
BC236CD2BC91BB043CD39C793C95CB9C3C088D1C3C5D8DDDBBE9B1F53CB8EB1DBD0014153BE7DB55BB4DFB43BC77283FBC49B2063D452A9A3CD9786EBC82B28DBCAD8339BAB2F9193B6F2B94BC6FAA1ABB69AE5D3C9D1064BD054FC53C0C53FABCB20B25BC34A7DD3C48242B3B8A8D333BCF2047BC828F14BD1006E13DC779B83BF06D1CBC8DD8DD3CA96306BD6AD9F2BC6F843ABCB3B4063C0A132F3B3F09F93C3AAAC637B6CD57BD0DF6CEBCAFD53ABD10FCD5BA871EEFBBA149803C2FE358BCA77763BC6D7DE63CD7E296BC7DC8BC3BA545E83CCBCC9B3B00A7103CEAA22A3C56BD9DBC46DA95BC34CD14BCF5B8D63CB891593BE71B123BD39F2ABC83E955BC2CFCF4BD1FC8BC3C0CB8F2BD0AA1CF3CAEAD7CBD24A9323D3E3CE53B61CE11BC9583AA3A9D8B2DBC2557F1BC01D30ABC059840BC79F88ABB069B2C3CAB9F74BA898DDD3B5DD9733B013278BC3B3B88BC0E22E3BCC42E41BBFA8CB7BA88B677BC4536583D76478EBC36DE84BD219B48BD2A6B733CB54388BC555E27BD87F412
3C884814BD98D3BEBCE938AB3D2FD5F4BD56567C3CAC3C553DBC1837BD068B8FBCD046FA3B8419693CCD149F3CC3C3E53C6E842D3C23A5493BADB0F03C1B7463BA0993643CB6E1443B19C228BD08E7973C8BFF4FBB67D665BD417C3B3C5C8247BB85429F3AD7BBF2BBC40DB9BC8863E53BC5C4793BD2603B3BAFFB2F3CF149E0BAAFA5413AA8BA0FBD12DDFB3BE39FA13C65461EBC9B56413C522A6FBC0B8D7C3C3BF962BC774F1A3CD9DEC7BC96030DBBACBDE93D9A66143C0B6CF7BD562EA43D1AE833BD1C4077BD01F4A9BDEDC9863C6AC48FBD2CAA2DBCEF281EBC8A9AA33C9F79893C209F2BBD71B52BBC319CF9BC34BDE3BB37877EBB63B5C2BCBF81F9BD6764F6BD0D576C3C5CB0A3BD0C6D75BCC0AC003C098E71BBEF8F0BBAFE054FBD002D943CBD43A3BC9FC678BC84FAE23CD812C0BCA14848BB47F5B9BBC27B5DBC383A113BDEBC343CCD6A2BBCC25F533BE3D1B1BD86230ABCA5FF14BE2C491B3BCD55443A025175BA7495313D353FBE3C9B54133CC8DAEBBC3123A8BC0B852D
39CA9632BC6622F13D0CE1BA3B6FCA9D3BDE65393C7F9C4F3C1F4E3ABCA76A1D3A825C07BC8DB8803B9715DBBC1F3D4D3C5DE806BC30BA24BCFAB0C9BB8F248CBCAC7149BA9C0A663CBD3735BC11A008B85E5D3E3CD6DA233CEA232F3C0EB5AE3B8E5C233B7647B9BBE1EC363C8F0146BC400F8E3BEB02373C8E64D3BCBCDB98BBBEFEB73B9F495BBBA51002BC73EBBABBD2D38DBBD1C6CCBC5C39DC3D9804E83D071DC33C331CCE3CF43607BC5195A7BC16F4FDBCF400F73CE636823C5203F83B72BB21BB235AF83B66F63E3D13EBBF3B5AE726BC16D3603B62352B3C9F8AB33C84F44B3B4C332EBC67ADC039B9F2A13CA581553B750188BC161B41BD8693D53BA346AC362DDB303C6699DF3C07A23C3BCFC4C4BC0EC080BC5D2175BC2185823CA80FA9BC0B3D4D3C2F8B623A9EE1D8BD0A0E31BCC7FA25BBCD5693BC16374EBB5D81D73AB532753A171522BC02C31EBC8E31D83CFC92213A7CD6593B955D9C3BCF24853C81F66C3BEEAA1DBBFA308F3B6713D43AC41DFABBC350523BCB4322
BAB35D96BC1E0DA13CD92F2EBC45FB713C3C5585BB12B9563B63DA363D65EAFB3BF09C84BC1F708CBC68B843BC18C562BC221F6E3CFE46F33CCC48F03CCD67CFBCC5A49FB881FBEF3B8B9BB9BD704BC4BCFED7B7BC68BBCD3CC2B9BF3BF15D143C453DBF3C36A97D3B52FF1BBC4962713C680A5ABCBB40DEBCBF070ABDD638723B01632DBB8E86683D405DB33D0BCD323C25A608BD92626EBC25C61F3C7AEA76BD103570BC498EB93C992C793D8AA9CFBC75F2793A847765BCCDB69FBCA890903D0029923B361E643C19A06FBBF1FB0A3C42BCE13CBE1F093C1546F5BC2E378E3D95B4BABC973930BCBCBCEA3C9C9CF5BC057D773C7C66DB3CAE9D143D0AAE75BCAB0794BD0E76013C4E65E63AD7DBF43CC5E1DC3D247F64BC363C41BCB3C2A43CAE4AA13C850AF13C1FA02639D75468BD60B15FBC7E287C3930213A3B78F7243D6B3A13BAAB95A03D08EF4A3D10B28D3CB49225BCD6319F3D5928A43CACC9D93C9EB1EA3D2777813BE02D133C5F24D33B8AA878BD0611EC3CF9B8543B43EB3F
BC6277543CFBE829BC25312EBBA540753BFB629CBC5EA2DFBCE83B4D3D1B1D66BC0A882F3D021D1DBB4706BDBC81B4D6BC88F797BCF1E1E0BD9510103B5338243B4F5A523B1068BC3B010CD23D846893BB192BD13C65E2BDBD0608AFBC8071BE3C0628D1BBEDA4133C2E1916BD2FA2C53ACB489CBCC4E12EBC44EBA7BDA175EEBC55B8473BE2E2EE3BF426AA3C08E2FCBACB65073D2D0971BC3EE796BC270A1D3CA6A3EC3CDF37B4BC74F7FEBDAB69543D3897513C68549D3B49D94B3D56746FBC465404BB9DBD973C402B29BCBD4253BCA772A33C6EA275BC9BF070BC489C46BC6E35EDBB322941BCC268F13B9F331D3CC27D60BC4AA8D53CD97E653CD1234CBCA98BC9BCC28639BB8FD6A33CA4AAF9BCC5C303BCB32F733B09837B3B9F2DF03AE5E409BBDD5CB13CCB1B4D3CCBBDC73C8BF34E3C995CF5BC3447E5B979381EBB14A458BC85215239391E183C9D18BD3C41EC8B3D16B570BBB11A2C3C38965F3C2DFE20BC86B236BAAE3433BC895E2A3D919D1F3BE93EA5BCB26F493D52E95C
3A7B785F3BA996BFBB23E266BC66A7743A398501BC32AA00BC94399FBB04F6CEBD48B7EF3B5D9C91BC9ABE523DA567B93CB076013A3BB65BBA729C6ABCA0AE39BD195865BC73D2E4BC01AF303C3163B1BD1407143C11E002BC3CA1BEBCFDEB453D070A8EBCC570F9BB1C7FA1BC8B36643D1E9CF73C33755FBC4665F33D25AA4EBAB1549CBC4A1B05BBBB9F15BCDAE31BBCCC2108BB4978FA3AB3722EBBFCB095BC1287F5B96DF65F3D1C8C5E3D120D77BC5B3EAA3ACD9F2F3B810CB8BAA273F53CAA752E3B2B466DBCA413273B21581EBB1C1429BCA3F1E9BBBDC461BC24CD853BB88AC43D0E7ABC3B534A7F3AA8A5CFBCB06E7B3B885648BC18B3923CE9617B3B1B69783C05416A3AF491C2BDA4E37A3978FE3ABC1A76DDBC5F592C3C9734F43C9B0FE33CC623F8BC1B8D5D3B3EAD0ABCD5CE193C715A6ABC8172DBBD669458BC046B77BA8BBA40BCF8749ABCF7ADE7BB59E48CBD25FFC73B87DECFBCA3833E3C8598ACBCD650D1B96B54C03C3E7B55BD0639833D071B343BF88D993CA73E59
BC131EB8BC8A658F3CD07664BDF395E7BD283B80BBC405D5BB3FCF83BBAD1A75BCF4EA263A1AB6C8BBA0CC27BCD0E04E3E1104D9BC1C8EB9BC95F707BC978EAC3C9645CA3CC65FE6BC452D0FBCD47DAF3C2DB5E43BD4D041BD9E0D513C6D61A23D13A71FBBC9EE86BCB5E82A3B3F63A6BBDAD8893C95A42D3C3DE9053D6515EEBC101590BC32A1F0BD20D0613C8FA224BB9E66D5BB847238BD24CD3B3E4A9A64BD01B9993BB295E4BB8A839C3C2E5EDEBC8C02043DCC7C47BCB4FD16BB7B50C9BC9D24FD3B132E7ABD2D62133DE54AE83C17AD70BC42CB433C0307F7BC4A3EC33C10819D3B016FBC3B9B82BC3C4090CBBC97BADB3C5285CC3C9ABCC03AB06C9DBE533E60BC24EF1D3C2A115FBCA20D563C1E3932BD299BF3BCF3CC4E3C1EAAA73CA1C9D23C893662BB88263EBC38153FBBC31E013C156EB9BCCF9B423C6213303DABD71EBCB86DC7BC0ACBEBBC5D4F4DBBD470BA3CDE621F39C376F63E858285BD0CB8BC3D02F94D3C50BBCD3CAA6EF43CD66C363CA5E0F3BBA184913D0431A6
395A21BBBC19C623BC8C222DBC795652BBA984983CFF9C5D3C81B174BC2CEBD5BC034CF73D071E3BBB6791543C1B51C83D36E9CBBCB54DD43D259E9F3C2C15F93D03AD373C0692A43D06A9B73D1898AEBB25C52F3CBCD7383BCDEDEDBCA3F3F2BCBD3EF03C68CEC53C59F8E43D4ED9AF3BA68AB4BC9434983C6EDE58BDA13B0B3CC883CDBBEEDFD2BC17B9C0BD169F35BCEB5BD639BAF7773D350D453D09EAA03CF093BEBB32D330BAC3E024BDDF5C573D3212463B85C5D63C918F8E3CF976113CC5379F3CF0C0B43D5D805DBC2D5D1E3D2A6A803CCD6D5CBB8639FF3C595B803BAA50AC3CA60898BAC7FA71BCD4CA183DBD53D7BC6C14763BDA86B3BBCB2D45BD01C6CBBD8AB5BA3C5384FF3CDEDF8EBD8B8F43BD8C9670BDA9F1433B1C9CCF3CCD4DAEBD529900BC096821BC42FE343CA1E2AB3B86F0F7BBD4C986BD423D813C365F6C3CE83DB63D46AE053C8489653B910E5DBB9306F7BCAC161D3D0C9E753CE5CCE83D6031EBBD0F7901BD0CF537BCA6029839E322B5BD1ABC59BD2BD6DE
BA9EF2E7BB8BF859BD32DC6FBD2F01A1BC827DF13BDA2999389B365CBDBE1878BC235D563C1D42543D87C22B3DB45DA83D1C26FABC804CDF3E0937DC3B15797B3D0EDF3A3C27CE043D75AB40BD68E4BC3B4562BF3D4945D43CC3A31BBAFEAE263DCC24B43C3AA211BBBD034A3C92B0BA3C43B437BDA25A3D3C86C743BD4988E93C0CD08F3D2177B1BD4A62133DD55B4B3D1DB0DD3D5BBE3D3DE027813D4F91A6BD0207FB3C7E6DF93D4E9E0F3D396C0ABAAAD2253CE80CF2BC9A860BBC26836FBB795C72BC5525ED3BB712B83CB294723C102799BC8B44F73CF0BEAC3C41CB5E3CD463B23DB45E433CE3FF5ABC1A8720BA4D4334BD318782BCC2D44D3CC7D45C3C7D4C02BCBBF363BC527082BC1B49BB3D07F43CBCEF04E4BD7AACF83BAEFBCD3CADF5DDBBC50CC53CB2B4E53D8C96B03BF21F053B1E5BBA3B8DCCCFBCDF44423CBF8AF93B415FD4BD1729D8BD006BBCBCCFFA433B551F7CBC97C7AB3C01A41EBC6152DABC0F792ABD5431603B8C00F1BCA03A23BCE572583D6ABC6F3CD1FA57
3BEC5D2F3CA10F4ABD8C2728BC99A46E3D5FAD813C3529673C0FAB91BD21EAAABC82D6A5BCACC9FE3C5F5ADE3C18021E3D639559BC714AD53CC55864BB928F6A3C821A4FBAD25F5BBCE0F2BC3D3D90603D7B2BB9BCC039F2BCC0403ABCE952353CF07BB53CAC5B0D3C986253BC9021EB3B72A252BCBE0411BD0C0B113D31B686BD0F2A623CACA0C3BA2BAFAA3D4B54CA3C804E253D4A940C3D4D7C43BCBAF5103C3648B8BAB2279D3D09EA8EBDCF0FC53C37A7ED3C73DAB3BC41A11D3A3361C43B2A4C543DA09E443D478374BAE6966E3BBB2AF8BC8C45EBBCC57026BCC1BCC0BC29D7523CE59718BD39F4A5BAA81C38BD4636BEBCAC83B63C20AB89BB5CACFC3C97D4843CC19418BCAA87273C9697CABCEB67DFBCA87519BC8EAAAFBC4B6CF0BD4A1F993C9FCCD7BC61BE97BAB91A25BD662F5B3D0D3F923CDC7EA9BCB910F23C06A06ABC151041BD1648913C0AEC523C77556E3C5F56EC3CBC6D013D1F8E22BC0B96F33B388D17BBD8B301BCEB50ED3C1E9400BC894CCF3C2F8866BCEFB448
3C7DD152BDFE5D88BCE86CB9BC7409C8BE0A49373C2610BC3DC5A978BD6B21CCBCA3A109BBD42C3BBD4AFBA7BBEBECCABE174A873D4C0B163DE2C8E03D665D36BD6988F53CD1FAA93D43FB9F3A7957123AA583DF3D1DA1BF3CDA4761BBFB3DA5BD615B1CBC501D3D3C6E8502BAA5016BBCF43A92BB3B90C7BC3255DFBCE2C9443CF37EE43D492D3E3D07C1BC3C067F70BA946E603C9C8414BE2BDF9CBCC18486BC0C69873D07F901BC4C8DDA3DA9360CBB95335F3D12CD28BD2E6C3ABB933532BB849D55BADF0256BD84C9E23C975F41BB871E96BDC975CCBC2F914D3C2D33723DB399193B1907B2BDB754F7B9BD92F23D218351BD1F30EC3C37FB673DA67AECBE20C4013D895D1FBCB1DBF23C1C4703BDE074963D249CEEBD2997EEBD3A62B83D720C39BD057B533CEBB4FABCFE41863D7FAECFBD34EEED3D0DC92C3C861EA73C9E82D0BA0E42E03C1AC4C33D4C3A6ABCE0D75B3CB958DB3CD773BDBDC0CEEA3CDDDCB23D2D2CA93C27EE7BBD73FEF2BD87518FBDB795FD3CA40DD53D543CDE
BD0B3CEB3BAA48383D2D552EBBCCFA2B3A873FA6BD77A0D4BC9761C73CE1D19ABD15C226BC62E2B63CC2DB83BC775118BC0729073C60F7EBBE3A3A9D3CA4F2BFBD31AF093AE727ECBB82EA56BCCC049DBD33654E3B94036A3B43C0003CA32CF5BB7DF2D23CB170C23B7EFBCDBBF457603BE3BF393C8B4EEABCEC7150BCA79CCABCEBECBF3C804E663C1DFCE4BBF546173CD205333C62C8C8BD54C6663B3FEC953C3049793BC8541ABDE268BFBC5DDCC1BDAA3C6FBBF1D8C23CEDBE463CB5D0E8BB0C1D0DBCD7692F3C2F2F4F394641953CE6890CBC8A447FBBF5E5593D1789DBBC11194BBC817AD3BCE92AAA3B3AA27ABD250EA739F5CF4ABCB99C0E3C05D8173C8F1C863C8EC1353CA116003CB02E02BC48B0A13AF4C9EF3CDE88F03C050CD9BC23FAA3BD23ED34BD14DC0BBB0B47543D1E49E2BD2A7AFABD35020CBC812E163992FFC1BD52C001BD18A91D3C79B9793C8A96A93D056C813B732B9F3B8B3F913C106CE3BAF737CDBCBC86EBBB9744D63D4BB2363D4A449ABE40B1EEBC961537
3C7C99E63D22F73CBC9BD8EDBAAE83F7BC8C6407BD5F0237BCE75450BC8CBE5B3CFFAC9B3CBF82D8BC94149F3D65655E3CBE0348BCA545DFBD189882BC5C3F3F3C67D5A33BD6FACE3A7F37353D22EE10BCF252383B933C28BA9B72733C2A9962BDB9EC44BD202DE0BCB95F66BC977480BB304C0DBC672186BCC8FD51BD7B063C3D00FC9C3B3588093D120111BD40E0B23D35D48FBBE6FA373D27BB49BD27CCFF3CDCEE133C9A8ED8BD8BEB1ABD208F903D0CF0CB3CE5B94A3DC7D22A3C8E268C3BDC36C4BD562B79BC993915BCC2E487BCB77C383D1904D73CB71B333C5B99413B731D24BD075BD33CC9A39C3C5F499CBD4AC24C3B4FB2DF3C6C06DA3CE6C2DCBD1429AC3BC49C763BFB7BA5BBE8BE4F3C1A67F8BDACC473BDD917093C8C45343C4E39393C43B50B3D230F4F3D08450F3CC0BA173D61B3A2BB5BC8A63C879586BCA384813C8221373C2DAFA43C84A21BBD3AFBA9BC3BFCB53C5482973CE949173D35986ABB05028E3BD6AB17BD05C8E5BC8B0184BC6DF5133C6A011CBB22F8CF
BD1D9BCBBB38F0F3BC5B3B9E3B7CDF86BC3468103C755CFD3BE4378CBD103D46BC818337BBBB1736BD4DDFFC3C4124F5BD450422BBBA2D91BC34ACC7BBB883BD3CCFE80C3CBD235DBCADB92C3C9543883D0533B7BBB02A303D8FAB2CBD3D7D4C3D3546F13CF539F43C7F98343CCE950C39A7A481BC6B7ED93C0F9BDBBCA96504BC8CC5C23CE62D09BA09DC283C462840BCAE520B3BB8DCDD3B9E5AA33CB82AE7BB5C73CBBCD7D9B6BDB4B073BC60809B3C0754DBBC27C8A0BD467E5F3B217AFFBB9932953DA358283DA411023D4DD181BC4A49AE3D243A543CD25EEC3C1DAB223D5911CCBC8CB8213C6D53413D02023ABD374AAABD30388B3C4AEC8E3B142F39BD0619C5BC2FD044BC7A76F03D8992ECBD7112713C1B4217BCA669F0BCCB5F7C3D2AC6463D275D253D355CBD3B07719E3D548C053D39FD8F3CC6441ABD96E66C3C0C5718BC9ECC493D2F547D3D94136EBC79B3CFBB824CB5BBE5C331BCE6416FBBF472E93BAAA19EBD359E37BB53BEE0BC941B63BDAC576DBD4152A93CA40769
BC8F8E613C5DE7C6BBDFD6D3BCD552353E382CB53B1E4BFEBAE04E8F3CE1CC883CC195083E053300BCB35F1DBD27A6613D734C03BC8DC7AABCF5A924BC8E86B6BB1C303B3BFDF233BBEE1B82BCB93E263C164C41BD1DC154BD0D9781BC80CCB3BD410631BC3FF581BC30AB97BBF08E9DBCB895D93BC39ACC3AD59DA1BD43CBC8BC2D58D439A9C22E3C466BF2BC26D9D3BBA7D8EF3D40A13E3DB337AF3CF0F860BC2CE826BC2E3F9ABB1004D8BC85AA06BBCF8718BD827754BCBA4666B9DF54EABCB0450EBCEC6E95BC2EC7723C981AD93C8011EC3D2A4CFD3C6BCC773C998BEFBC6FA6613C4E62C13BE0B18BBD05652CBC63CAA5BC36E97EBBEF297DBD1F515CBB0C7A4ABD1D8724BC8AB467BB573BCDBD58D6FF3C03BF04BCEA34043BD407043C43A9C4BC31ED0CBC530D693BD181F63CBFB5D1BC3923323C08FF443C11A3B0BCFA12CBBC8233C53C3B1B2F3CB1284A3C18F0BE3C5C5023BB371D04BEE3A2C23C2513613CACDE913C3A3F00BD2351E4BD0DB701BCE299CABC6B1CBB3C7DF8F7
3C950E223CB0F08ABCAC8E193CB555E2BD935AE9BC9940803C5BB8D3BBAF7C543C9EF2FC3CAD69B6BC6B401EBCA8DCB83D7A52C9BCFE36D83E22B64BBD04DCA0BA144E623AA0E54A3C17C8663CC74318BCEC50BE3CCDACF2BD04F9AEBC032D46BD454E1D3CB578B5BC89D88DBD5728AC3CC2F2ADBD3193903CB4B64D3D954E9C3D521DC93D6227A13CE480F9BCD867B53D1C14383C903E993E3A0C06BD92C9BCBC930B603D0CC7D7BDA0FECB3D36D20B3D1C2EF93D3A08593DB3BA1B3B80973D3C8A1E47BD2EF5C43C2303E1BD46F14B3D5CE6463D757E583D0985623AE29E183C8FB2EDBCC896C73CD61BBE3D012996BD06605FBCBC2DEC3B6E0FAC3CE3E0D13DAD56D03CE5AF6EBD4420E23D391A6C3D286869BC85F74ABE389B01BCF9DB53BD75FF65BBDB1B493B01F9E1BB9A72DDBBFD29D23CFABCFBBC8E15BB3CAD0756BC97B5233C529536BC02D384BB54F8B13C26B5C2BB391DEA3BEF26293CF61FEA3D09D6473C4DCF233D069D97BD99303D3D418007BC6BA32F3CD5917EBD18A82A
3C3F8E99BDC70F1B3CCC931DBCBC36E8BD86567A3BEFA6033D5404C73C777B3BBD1412B4BD332D383C02FF383D4926F43B11EE443C3156FA3D1A0E9EBAD76A4EBC852C81BB849404BAAC2A4CBC7423F1BC462B2EBB355B223D82D1C33D07DCE4BBBB6DD3BD51CEC83C764E763B88A2BB3D0001BC3CB3ABA73C876422BD30F0A6BD045D903CE3E0B13B1D53F4BD17631EBB9956B9BD191928BDD1A5DD3D31D5CC3B821D0A3CA366393D429097BCEE4A4E3D4176763C7DD8D23D8524F5BA1219ADBBBDAE973CED5E68BDA2C69C3D1E5235BE0EC46BBCBE87053CBC78C2BCCBD30A3C8C95713C2460A6B992BA1ABDBFCDF53C9A30793D0FB6A73C232C93BB95801EBC9893553C98BC433CC15610BD4C397BBC39136EBC2DDB343CB5858CBC683A5ABC9EFB0B3C8060EC3C9504B5BCAD20CC3CA8C4203BDCBB3BBCDE2351BD7B82BB3C7CC0F5BCAE480ABBA58031BAB308C53C3044ECBC0DD3AD3DC7BC10BD13E881BDBDF038BC80F9373C59277A3CA8A474BCAE51023CFCD7C73C19665C3CA02A58
3D97E968BCA9D55EBD59B1B6BBAD354E3D06DBB33CCBA1FC3C63E3A2BCF6DED43D6A4791BD01EC633CC362AF3D22F1763C2C11BCBCEBBC9B3E2109073C3693EB3D1154DC3BE3B3D73D19E19ABD837A5BBB17633ABDA877CEBC94CCB3BC40963F3CE85E1F3CA0B7C03AC71C723CDBC23CBB0F4AE4BC12759BBC9CFC423DC56553BC17AFBABC77DE10BD0A7C38BB084E373CA3A72E3CB1C7C23C1A1797BCC1C3B5B92C26ACBB672DFA3E5494113D5E1FCCBD293F99BC400BF3BD1511063D01D6133D0DA1C63D329028BC0ADD4E3B905A553C07E5D4BD3102F3BC0AB162BCD06D673CAF47963D61B2C83C595542BD26E398BD9436B6BCAF94D53C407286BD70C33ABBF6079EBC7F03B33D0766603D3CD04E3B10E7083D5686FFBC7E925EBD09DA8ABD1EB275BD6E484D3C508729BC1FAA843B16F6823C34ABEB3BDC5E01BD097AA63CB9E5973C0FDD4B3BCCE1133CA8A3C6BD8385403DBB277DBC5E77BC3CC7A7143C9A4D1A3D6EC6383D6A580FBD3592A73CF372473C82D414BD65DC0FBD15D0F2
BC5DA57CBD215D083D067EA6BC41FED0BD5DC341BD688D993D03D9F93D41F7FCBA1C1DC73CA8B50E3CB8C65ABCFF43D33BE9BBDBBBDC9093BD99F2483BC8015EBCD6D1F13C0F1EE13B101D60BBA17497BD71CE513D7B454D3C9D475FBABABFA8BC85634BBBDA77883C096D2BBC556CC73D7A91133D1D7E673CC3D20F3D81EE7F3B5DD3B8BC8F72363C868759BD4FB3D23C027521BC8295613B88959F3C0B72B4BC00D9673BCF8373BE5738B5BCA57BB0BC8408813C3E5F0C3E0753D5BCD4BD4F3B9BF382BD7B44B9BDC87DB53CB0A876BA51058F3C713AC0BC9DD81D3CA3C0793DA18CE3391F1107BC9D533F3C31D4AB3D233D6FBC4FD99BBC2A40EE3D0D1C4E3C4DCC5B3A374367BCB2A2B5BCC8CD7FBCCBE40CBD509B74BD7A1B57BC8C0D48BD11C7043D02EA673A9336E63D0A678A3C833B0C3C826E3B3C0F83983CC8C6EB3BCE929ABD17FCC8BD22AE97BC5F952D3D24D032BCE88CCEBB7E1917BC61B4F43D042F70BD39D21ABD5B7476BCD8F502BC249BF0BD1810D33C9E6908BC828C1D
BCC02AAA3D311A0F3CC34B8A3BFF86103C5C8CFCBBC1BC69BC8DA0BABE2C21B5BC3099323B0AE7A1BCC85E423D2D9775BC41C7EE3CB107693BCA1DD0BB53D829BD4295A83B808B5CBCE8DE0D3D98CAA53BF8034E3D76B882BC89F47B3D1A10873D9B89EB3D1E94553B08F7933C09392DBB23FC45BBD365F73C933C3E3D2488FFBC849214BC152391BC2C38E13D423619BBD0CC66BDDA02B6BB76C56FBC41A0313BBC8A643B6DD432BBBF990A3CC8933DBCA8426DBD0361FC3BE1D55C3B9B5F943C4C1CA3BD961AC9BC47C96BBCABD81F3B4E16D9BCC34059BA87C02E3C1E2472BD2A43FEBCFC6B9EBD4E38B93D0F09253DCBC2083C4C3073BBF920F4BC9936FE39DAA8393D5D28FBBCA00C863D3447FD3D0C8A1FBD1999183BA638603D1589723E5CEA98BD7FB43FBD26A409BD14D1EF3CBF7E58BBB6160C3C38CCF5BC2E2D72BBC2992E3BB07B39BC2BE2873D535ADC3D28CA69BDC8F44A3C2F2AA1BB23550DBBF7FB0F3C25C18FBD86BD483B8492BBBC9C58E6BC612D3CBD3794F23D7888E0
BCA8A90CBB684D3D3C081D30BCEE34773CD3D57A3CCF6F513B656C383B214D583AFD3656BB5ACF013D0B3F15BBD748D2BABDEBF33C893B10BDB137F9BABD9479BC0C96883BF9F169BCE432AB3B24A2E03BD9BE5F3CBB53563C2AAE52BBACE2953C2B64B83B987D64B9790974BC4E1C163C57570C3B4BDD013CBF0C29BCA59AABBD13AF3B3BD182523BDA6AA93D0DAF8B3BB159CA3B70F3F5BDF9708ABADFB2213CE9FF433AE3EB9ABDB33F91BD15D63EBD267CB23A7FACD03DA776FBBCAE67603BEB4EAF3B1ED8ADBD681FE13CBC40E2BBC448333BF028633BD8C48F3D4881623D04FC28BD05456EBD1E66F43B29CD9A3CA398D2BD44A1BB3C8F323DBB8497163C26388DBAF58FC1BB66BE443CAB9F8F3C9E4761BD0FFC913D6628B9BC504EAE3C8D4B3A3CF5E5CABBAE35393CAFE7D73D906EF63CC8F2463B620BF83AF8C246BBD101973C55B2FFBB65D212BC9E4E443CCF44923C84B0C53A4C26BFBBD34A3A3C893E75BCA0BB103BBA9968BC15489E3B2346C2BC81DF94BD29FBB4BC8EBD43
3CCE3058BCD4764A3C38F8AE3CAF3E04BDC0D1893A6588F43C8F53C33DCCD3A53CCA80E8BD8B0E723BC9CBA03B79710F3C7894213CBEF4CEBCAACE183B86B819BCFB2C463C89CC38BD9101583BF1B293BD3D41233C478F6FBD14B8AEBBD8E892BD7B3C11BB9CF9CB3C50046ABCE68B563CB61D613C13DC4C3C644A84BD13B2C33CD4AE11BB238B093D987A5ABCC50407BC111D363C1A4FF4BDAC3FF8BD0E0016BCE3C70C3C8D7B31BD33A2F2BC8456AD3C7CE9E73CEEFF943DBA1AF9BCEFABF4BBEF1F2CBCCA605CBD5789B6BD162B4B3C1DEF223C4E43C83C8595CFBCA1297D3CA046D13C8EA9533CDDEACEBCB4BC773CAD3579BC6B15663CDCBFD23CC2354FBD2BE5C93C8760BCBCA31ACABD116EBFBD1033803C6880213BA7B555BB8DC0C6BC63BC293C07E2E93D0D5C293CC0D67E3C9A42A9BD2A2196BAC7E7233C890B1C3C69C7BB3C3204F83CE692ADBB5577323D5E9AB83CEF63FA3C40B78FBCA092713CEDCDF43CB4F3D6BC33E5AB3C67A550BC3D3C8BBC09AA083D1A6D9FBCCE7B8C
BDA01A073D083BF9BBBEB2DC3D1BE6BFBC6A2D4BBD8BB742BC22013B3E018C533D28C9BBBD0C1E123B10D58BBD166186BC5FDD25BB08B9A5BE2DF25C3B83BFDDBB972319BC108DCEBCC82CC2BCD4DD533CC80813BCA56960BE06E73CBCFF060E3D53D85E3D4AA91ABD97B721BCE784E53DB2F476BD94FD37BD05ED003DDA0F62BC6C25AEBC80C2A1BD1759623D2F57FF3D1C1DA6BD318CE4BD941092BE082228BCFB5F18BD5B3A5ABD94170C3D96B3C73CDF4FFEBD1B736E3D11A50ABD998D4CBCCBEE6E3CD64F723C6CF5A9BDE38A303DBFF5523C3272E2BDA7AE48BD786C52BD822800BD0150D6BC9CF3433DDC6BB73DC8DB753D50F3BB3D186F6ABB097B0F3D0FFD86BE0108CFBD6BA54ABDC46DDFBD7F76103CC85F04BD23DF5CBD081E5CBDCBB0E4BC5BBC96BCA04981BD976DAABD8666C9BCC678883CDBA6A1BCECBF48BC369F8B3CC71C8DBDC7959D3D0A4B10BC0700B8BE00BDD4BC7F2AFEBCB27FDABCDB4B04BCA3A9963DCE1C9C3DBC61CB3D8FF6DA3D78BD113D2265B4BDA5CAB5
3B6ECC06BC87DCC43D194D93BC88E3093D82934B3BAC9AC93BC60909BD31322FBB300498BB9D01C83C6CEB2FBC5ACDE93D462F61BABD727D3D093FC9BC43D0203B2F8897BC3FD94EBC1DE28DBC1BEACB3B80E1833BAE1E0ABC1F0E6A3CAABEC7BDDFDECABC3583053C60B65C3C4A9C643BB4FA6BBB9E55693BE4E81FBC87C5BC3BE3C1F5BBDF1E163C656817BD1DD441BC9F983ABD29AF82BD86DA66BB9A2605BCA4761ABB034DF23D5649593CE54245BCEB48F33C3B31D53C62F9683C273D5A3CF4A0A33C42F0BEBC635051BC51C85BBC8516E13C919880BDFA9EA23CA256953C06722BBD0DE251BC6EDB513BB254193CA4D63CBD59540BBC1A5A56BC329F0C3D38AF93BC936038BC653EECBC40A3E33BE1DD1E3D85114A3B1A5E14BA608550BCADBD5ABD847C0D3C12F4D03C98D5A63C77EC813C95CE1ABC0BE0ED3D72AB463CB94D543C454688BCDB25DF3CB110EA3BD2382D3B2648683C626CDF3D1F47503CB4CA95BC7469DA3BCA787A3CCF09B7BD03AE253C6DABFF3D0753EBBBE7C3A8
BC1DD0B2BCACF7613C5265603BE8490EBD34A7D5BD7E3D9D3CC55007BD33A7DABD4CBABA3BBCDA2FBC9F83E8BC4AF9F8BD260EB93C1D68EFBCBAF2EEBA8645D5BD1B89C13B8BFDD3BD124110BD81043F3B9543713C1A19CBBCFB8629BC6FA4793BFA0324B99ABEA3BD37F104BCC0869EBAC8FAD5BB9264AABD7EEFE53D1660A5BBA3FE823D5551873D022F983C0A807E3BE87545BC1D36FB3CCA85123C2F2F3DBD9C34E33B64624A3D0124943C2F763E3C0D6A503DDC13933D8250D2BC32C88DBCF3643B3C96127EBCF7F279BC618C45BBB943843AAEF33D3C4144003D093D9DBC99CD423B289645BAE3CC37BBFA414EBA7DD2F3BA9313F3BCC52984BCDE87F2BE1376033D0A58FEBCA152DF3B121810BCF8B6233DC04E2B3C40DB443C8EB9F23DA009DB3C1F2B98BCDE49F9BBECF42C3B39A9E13C8994833D1CF3F13C2D68593D1FF363BBBA731DBD24C053BBB17F143BAFE40ABD638E9ABB01E41D3CD0CE2EBB13B123BC80A4F8BCAC84A53B90848A3B811E4F3D1D96243BADC8093CE1CEC7
3BD6187ABE09BA513D4083CFBBD21394BD189C94BBF4F5793DA172DFBDE0D8EDBD0F44C93B8D78743D0BD739BBEC66C23D41EB17BC05EE743D7F77253C238CD03CA88C7C3BFA041F3CC37D663CA421973BD33D80BC2EEFAEBC82BA6D3C8664B3BDB5A29DBCE72824BC0A3C643B8332C83B8650B03B2184D13CFF0B823D8A2EA6BC2F235C3CC45F583C3FD141BD186B4CBC08F8A33C2DABF1BE16A2E2BD1F96A0BC9558223CB3DB063DA219A8BC1B0508B891BCAA3C73C48D3D1C2F5CBDB033683D9024B2BCF73785BBA360873CC2CBA0BB02BCBD3D5A2129BBD926883C671F5B3C866A853D334E4FBD12C3F4BCFCA2A93C897DA93C29B63EBC4E1B61BCCCA1E63D3518D6BC3B35DC3C9E1AD43A0F92523C1903C23DA9D165BD23A0D9BCE70EF1BDB10FC2BBAA3C8EBCE32968BD282C773B884C9EBD630D95BCA3700C3C715C4CBAF9A249BC7FDAA73C79E4093C378E693D0AA5DC3DC3FCDA3C8DF405BC086F873C2F187E3C81B5EE3CB3F5F7BDA295DB3D1DE93B3D55CF6D3D072A29BDB3CCC5
3CA44F24BD001C5F3BAA370FBD50DD82BD700A773C2D214B3CBE92753C875357BCB649CB3E4243FCBC1D1E80BCCB774ABB3FBAB4BCB004FDBC1BC8DE3C5B56673B3EDDAFBD00F4E63BB5BEB83C1508D7BD1185723B9F38A93CDCC8203C44734BBC81A53ABC2197D63AB79081BC84BCFDBCD793353B2F7B183B9BAC263CF07CD0BBE60B2E3C80F6A73BFB11CFBC754DBF3B6889623BDB1DBBBD0107933CFEB288BD06A6EA3B36B03A3D3B0F32BBFFDB963C9377C83C8210DE3CFCE7E2BD1529A0BCC0A7F23C33FE09BD0B78253D0765753CBF0520BC1EA6973D1D29B53CA1006F3C7DF62F3CA2895DBBC9834EBC09CD6F3D113A7E3C39D5C43AC1B0D1BCB1EE8CBD9A71E33B9DF4583C52FCE7BD0C1C59BBBF2B9FBC2A8B23BD8E6E36BC0179E6BCB1CC993C250ACF3CCCE644398FEEA53C310581BCAEDD0EBCC39CF4BC854A493CBCFE2E3C829AC73C66509ABC0389BD3CCCC35ABCDF21343D1A62B03D4314333D0E03B5BD0D8157BC01F5843C9A4EA63AE72C6A3D1AD31A3CE53A313BCAE5D1
3BA88162BD6C08DB3CAEB5E3BC24A66CBD2215AF3C23087C3D3F4044BD229E96BB221BEEBC2DB70A3DF2D5AF3D5D809D3C8DD8BDBD2C4EC33BCAB4A8BC8348A03CCDF5C23C1EFA503BFB15C3BB99E68F3C0842A33BE3CCB23C0CB896BD2604EE3CEF8EB23D3A364D3BBA1BE33C24C79E3B1FA6F7BBC712C2BC2598AB3CA36966BB1BB921BCCE0FBB3B87713B3A413825BD2B8BF13CFE21E639D3CFDBBBB57D043C305B78BC85193BBD0D9235BAEA84ECBC9FBAB6BCE683F8BD0F907C3C537138BCA857EA3CA65786BD0A21EA3C001EC03D1A9DCDBB9D5244BD1A200FBCB8843E3C09CA06BD1671D7BD49804D3CAE3B3CBA4BE743BD13B32F3C58A95A3C160FC03D451656BCB7003ABB5B67813D0E0F24BD83A42BBC1624F0BD2E11BDBC5251EB3C1BB986BA272832BC780D3B3CC80495BC8F18B33CFC646D3BC9B9B4BD1E75F93BC410B43B2D60D63C83F592BC47F9F8BCB49D783CCC6816BD26E4EFBD8791063D4B0A133DBE70183CCBF9403C4794663A4C60B3BD5517FFBD69F07B38F652E6
3C84FA4BBCCA1F433CF58DADBD0D1C8CBCD978ECBB9611583C4791B9BD0D3A823C0D3607BC0E517B3DA1C8493D07581B3C4474C03D1155A23D0EBBB1394A28CF3D8BD6F4BA6F947C3C82148ABD008251BD4DED6F3C71F98F3D2AC54DBC8D8AF13B67DDF4BCCCE9A23B840262BC3C0C2E3C7A6BB03D07C5723C992BD5BCC5C8CCBBB7A2D4BC88294BBD063BB2BCF1C315BCE20E8FBD39627ABD69D24E3D0FA2843B1AA6F63C5B6B26BC12084E3D0D61D2BD61DA5FB9E415263CDD78383CCD26F13CA9D7F3BD19963ABE243C6D3CF7392BBCD79253BC839DEFBE04605C3B9248AA3C39EE1A3C0B779B3CE5D357BD81B3DC3D03F042BD213E07BA2EF8ECBC9DBAEF3C22B243BC2E539E3C892A0CBD215B5D397BF8E1BCBFE3573CE79B193C309B15BC84A154BD17DB723BDDA6D23D33E6ABBCE2731F3C554974BB24A036BB75E3C13CA7445ABB29E65F3C0E4DF2BC915CC23D0803D93A46C2063C909FE3BC55898C3D1694FE3C857E263A835C8B3C1A4CE63C4077383CA7DC883B93B8ECBB71DC04
BC5CB2183B14664F3C6BDE10BCA6C743BBC1E34B3C617E533BB894DABCF8E757BBFC2A53BC3D34F13C9B9C4BBC4193AD3DE23510BCBB2C4ABACEB9633BB1FD8F3C1BDA59BD22DB623C5DBCDFBBC820613D4A0CEF3C5295EBBD1EB2BABC1CCDD53D8A2FF83B195FFFBC2793583C54A9513BF37024BBC3AD34B906981E3CCC69D6BC5853AD3A805AE1BCC16D7EBCE27D6BBB1FE0B7BC527C293D9973B5BAABE4863D1D6EAF3B7F538DBC95021FBA1034C3BCF955B63DBE61F73CDEEA97BBAADB1BBC29BC5C3C48A5F33C9277FBBCADC88D3C2356BCBD0EED86BCC77EA1BC4023E4BC4F6B39BC7C582D3AC50D7538F3E12DBD1C2FE5BC34103EBC8C70333B1F84FFBE4C82C43CBD9435BC410EA03C9B3E813A9898823CD8213C3CFE631DBC1814903D67DD22BCB0AC2ABC4186BCBBC011473C849D72BB5681193D010EA73C9635113B2EAC0ABC600280BD062C3ABB40269FBCA960C0BC90439DBD123FEF3CEC13D4BC820C13BCCABFC8BCEBC0563B9DFB1CBC5D2812BC13AA243BBB7CB13CE8D1A0
3C021B56BCAA89E33D2E169C3B532894BC1994963B9039E53CF8C66A3D1FE528BCA1C3FB3C9548153C3A8E003BD9E62C3C45699B3CC07D913D8BDEE53C6D5EC9BC6952C13C25B5E73D0A2068BC1C3C8A3BDE1103BD4FC295BBDB5D2E3C83FAF1BBB2E062BC44EAA13BFE79D53CA588233BE65122BB9389373D65303CBB997B85BBD65FF4BC5AD7C63C82660B3CD68314BC46AC5A3D85394ABD577BD33C05B754BBDD024EBBE60BA2BDB5759C3D314BF53CE621E23CFBADBF3D757481BCC0084CBB85944EBD408172BD2DA530B9C9D05D3C2AF856BD720A72BC37D1C63C424E0BBA8D0E0F3C07862FBCAB8464BBF1D1C23C815267BB09BFC73BA11BDF3CFFD3C93C04B256BD7B9A28BAA14361BC8E7C7ABC2636EBBD036CD3BD25E1D83C169B873CA31EB03C5183103B941ABDBC0696F8BA318697BC9801E9BA3C4E4F3D12BB8D3BDC94393CB3E9A73C0614DC3D03F0773CDC1DC1BCB2712F3982ADA9BB7DFE533C1D84673D05F475BD8F74C2BAC400DB3BA43C4BBD6C1EDB3CE1D234BD4D2336
BCE5AF9EBD8862483C6262B03D0C91FBBC7FE6E23CB15E073D3B70173D048006BAB899CF3C2C1EEF3C2609F83C14C8263D0354E73CB24EA43C0C2D273B5359C13CD190A63A84924E3CA2B94BBE39CAEEBD3069DB3D318C763CD3031EBC0DB6ADBD64B051BB17778A3C64ECC8BD076978BBEF05DB3BE5B2D43C8D5DF1BD5BEDDB3C785A24BC5F55A33C3B79D2BD56DE213C0616DABC98B021BDC2FCAE3CABF6BA39D6CAB7BCBB1A6DBC8527193C8FE01D3CC377763C8B849D3D26EE92BCA95A73BC230D983B9C6638BD180B553C9AA798BB8D497D3CACD5943CA66A6DBC85017E3C4B75BE3CD54FA93D10AB83BD291F16BC3A1721BBA28760BA6241E63C8ABEA93CBCBD44BCE8AA423D165E75BCBF13523C87A7D2BC84A797BC06012F3BA07CFBBD7008DBBC10DBAABAA08C7F3CE241AE3C0091FEBD321856BC8D283D3D01751B3C264E203CA31D183C8FA7753CE1ED8A3C7272753D4CD602BA74F9CDBBAEF2F13C56F6E1BC9A98B33D76A9003C0EA9403B1C12A1BBD68F063D11304ABBD141C1
BD8AEC71BD129B53BC5AC6B03CADFDA43C7F4BEABD223DA9BA235819BC65936CBCFF1ACBBD1E84ABBD79ECE4BCB0E69DBB4844F7BC0BD6A8BDF292433CBB3F88BDB617D23C23A93FBB423DB9BBEB9445BD1EFD413D11044CBC017EC83CAC2001BD2E30F93C612D433C8C04A73A979C24BA34F3843D0C4EDBBCFF84B2BD44DB42BC28B2153C160C713C540895BB2A0AE03D0593DBBCBB7DC6BDC579433C89C4DD3BCF03A1BC91D3523AF2692D3CEC42BFBCFEDC68BCB94E7F3D518F8DBC54C2B63C3DACBBBDA607C7BC368F15BB25A30DBD53C81EBD52B1AF3D3A9988BD0837ADBD2F67D6BC881BFA3B359B1DBD182A0F3B2391F83CEAFC5D3C00A91A3CA1382ABC05A20D3CE1391A3BAC2BC7BD7472573C5729203D8CC6B03CB054D33CD4C3BC3DB5BAABBCA681D1BD0F09E2BD8262B33BA36DE3BC2EBD7DBD104712BC6227E03BE19D2CBD6D0CB3BDA7C62C3D08134B3C87BE38BD7C6F5C3C8807F53C49306BBCDC44EFBDC88592BDAB2B063B9DAC97BBF3FFD3BD433F73BC3E61D8BCAC8949
BC8C2C83BBE79D953D5F17103D72FAA6BC2348FCBE1B9FD63D4B67BDBC938040BD506B043C83D0A43B92E4DE3D093CACBCFCE7CEBBACE13B3DC026B33B02DB563C18339C3DA211013B95F8A7BC0F3CC3BCE4ED79BC13C847BC4B7412BB1C41773D8337CE3CB2A397BCDF073ABCF7867B3D96A42DBB8076933D625126BD3B3F1EBD4DF90EBD510C4DBCB13711BC73A79D3CC07ECC3CEB04D4BCB4B1ECBD01839C3DB81A83BCF781A33DE27CB13C2AE48EBCCA4BD8BCB5D7E5BC37A60A3C54C65F3DE1BFE23C1A897DBCBD4B3B3BFC9ACD3B83B0A43C1241BBBD704BB9BC44A92EBD9773F93C78375F3D561205BD8EE7003D0C9F243ACDBFC43DAAE56ABD407DC4BCC6B643BEA3BC103C53700BBC1E66693D7656353D1403D73D62577CBCBE651D3D98A7C2BD64C47EBC66AFE83D252678BD6B33C63D320AF23C6C49DE3CEB8F31BCB8CE6B3C257743BD86E2373D9DD6D1BD060E99BCFD53F2BCCF0A8DBBB41EB83C385FD7BD2773373DDECA0C3D7E2C243D45EFD13CFABB4F3CD7395A3AEC8725
BC96CCD2BD4F2ABEB88FA0B63B95DA953BC6DDD53D2CCF423D3E1F763DA7050FB7DB57EE3CEE081C3CEF049CBA749BA23CDD41A13B9A8AA23CF9B1063B01B9293D1362873C42AC683B813F84BE552056BC982BC03C1049353B882B663BE284BFBD8DFB75BC9D0D243CB98977BCEE5504BCE97DA7BB2AD7EFBB038EC8BBE3E499BBF88174BD06CBD2BC3DDC65BDC43BFD3C1B4194BC588ADEBD85A3B23C87B50CBB9C351E3C95B97EBCF5FDDA3BBF6AE53BAFD6193C30DF823D1CBC25BD0228123AB31C1FBBDDD862BD0502133C1D550B3BDB76923D070CD4BBAB412EBA9FC7443BF28AFB3C4A111A3D3F4A7FBC69C968BD64DC69B90CEE143AEE4BE23C1397AF3C9C91FDBCE9325A3C245D3FBD56C57EBCBE404DBD3D2989BC907DA53AA56FCEBDFF37D73D34EC873C853C923CA1CBDB3CCE35413C7591AABC99D9443C755FC23C8498173CE1B4A73C59B63B3C941D93BBA435C33D7319D03B0B0D67BB19C1D93AD52BFBBC9085A73D0CE8153CA41CF2BBA237C13D59A1323D629704BC95B484
BC40A96FBE4633F7BB0093503BCD64C33CA8F8C438CCC6C73DEE7FA9BCEE92DA3CA868E2BA8075BDBC4C10C53D1DBC33BC94020F3D38A567BDF733DA3CBC0984BC965B63BCB3AB153D743663BB00AFE33C83109A3CE4EDDD3D2062C03B5CCEE33CFD0AFEBD80DEB43B8A0FF5BD3A03143BBBF01DBC9E04223D4C361E3CAA74F9BD0558323BB5D79C3CBADAC8BC85B40C390C35A23B8A1C78BDFD96A23C69B09CBBA84B5ABBA3EDBD3D20299ABD14CA6F3CBEB9D8BCA6E2973D3C2A67BCA11121BCDBB7BDBCB22A1A3CDF1F043D112B0CBBFCE0443B657B8EBBEAC05D3B3596BB3D1682223CE1973CBD2F43E13BA680943C62B5113C411AE43C1603B33C103C1EBD0E24153B0334DC3D352989BD5423F1BD669A3EBD14C441BB391710BD8D8DEE3D2248593D07AA3B3B3D4D88BCD0F8873C01EC8B3CC0CB47BBD09548BCA97041BC817B283CFFF3E7BC0AF8513D771491BB7F9B22BDD3AB46BB0F440B3CBAF309BC2E2DD53C69120C3D7E4AB0BD543FE4BB377FEB3D287572BB598CF8BC8ED033
BAC45F4CBD2F9EB83CC93E8C3B4B1D0BBB7662E3BC38DBDD3D31912D3CF8964CBCBD47F8BCE0E1F83B6BD162BC2F46773D29B41B3BF2C7FCBD122E1C3C3B099E3BDD1CB9BC09ECBC3B6B169F3CC2F5A2BC3AAA213BA6C89E3C162BB33BCB0287BC2854ACBBC94F08BC9443D23C02D294BB906E9BBC1C63EE3B98C65D3C700585BB6C40173CC0C2E73B79E416BC93C8F33CA5CBFF3BC3FACDBD23A9BFBCBF66743D5DE8CDBBAAAF0E3CCA2F9D3BAEB7193AED8DFE3CDE6D523D3EB232BC9E977CBB6A998FBBECBEA9BCFCAF3E3C670EC33C0F13C93BA38AA9BC67DE513B14F9DD3C23BC833C9757E73CE22EDDBC57E87D3CD75A6D3CE8A40F3C1CB82FBC5D5B82BDDDB2CC3CDA3E883CCD1E1DBCB5E3DE3B6C87923C947F72BCD4B801BCD7DD67BC8C800C3C3931C7BC5485213AEC47243BEE7A04BB5A74D1BC0F3CDA3BB432EEBDACF1E5BC1B587FB980595EBCC47B203D1D5B7DBD094D1D3BCA659F3E1ECA7EBB30C586BC6372CFBBAF8001BC802D2CBAB455243ABB72093CAE080ABC804467
3B1DEA38BD9B6B643C205F15BCAA89893CA43039BCC866D43D741FF6BDD20F353D46F936BC0802583B9C44DBBD7E4DFABD07670C3C3755563D8AE1273CC1ECA0BC7E0C76BCA1C4483D2C7C2DBC5ABAD0BB0DCE533C530A97BCD64CAE3C0B29F83D370E4BBC70282D3CAA0F9B3C90E445BD2EBD833D2B8D653C77D7D63C9364B0BC86F34DBB9FF395BC836E853D43429C3B9F46E73B3A2858BE01FE99BC8A68003C493298BCA069B13DB91FE03C4E29193C97C817BD41F7AF3D25CBE23D0C2A7F3CEC539F3CAA8A973D622FFEBCAE2992BBF12A7CBD11C2643BE62254BB1E4A423D23AB4FBA58F946BCD4E0CA3D0AF2E33A29E2E7BDBB803F3CE5C828BCC4EC26BD3D579CBA448B193C944D533C499822BCB414F4BD3A095DBB898818BCD80FDE3BC61084BD478D4E3D01EDC63C8BEB893D2EC752BB8552B0BD090C783C2E28143C3CD6BA3C8E782CBB6A40863CA6C1CDBA0F58243BAE80BD3C27FE183D2EC0BA3D3F2653BC450480BCACA8FB3C9F740EBD135423BC735DFEBCC3B4EF3C3DEAE7
39E2113E3C35494BBD10B502BD189D5E3D36ADFBBDB29D84BC5577433DCC96AB3C07720DBD03E7FFBD66C15EBC9E8CCBB99C27A4BCD37D3BBE577CDCBB8CE36DBD774601BCED12433B4A483B3D101A03B9764C143D2593B53C6AB75E3D37277D3C942A8D3C770FFA3B65ADFB3D8531A33D2CEBF1BC355F933D8556563D8C98EABC1D1A47BD120F923C8C82B3BC6C3F5CBCA1A82D3CEBBFEFBC4FF5213CDDF569BC317FFBBC754824BD5F0883BCA6D834BA06414E39E560A1BD1668533CBBC907BC9B38C13D74B4BC3D7390463C89D07D3D25F356BD2088C23D54944ABCD241A53D0BBC4F3D891734BCB4FF63BD1B01ED3DCEB6EB3CEA94213CCF37AC3BF0B5B0B9B522D0BD8A50E3BCE41521BC32AE4BBCBD88B5BDA2E379BC3E6AB5BCFB2F86BD81CE20BC1280D03CF54AE0BB62B1933C8D802FBBB787CF3BB3B3FF3C912AA83C5885253D47E503BD3D8EB5BCEF95543D37A0AD3D80A9B03CB37AF53D16420BBCA43B3FBC96A9263BDE650A3D043F7ABC7DA240BD735D5BBADE10F03B0BAA53
BD1D11ED39E1C99BBCE22FB3BC8187653D3B3FE03D9E828B3B0DF79CBD2D3D36BC0F5FE73CB6C63BBBCC43AE3D33594EBCF3D6583C2949013E9853A4BC93BEC1BC7655483CC78EF03CEC4F873D86B21E3DA4CFA83CC1D9C9BC1E69B7BC7B15273DABF9473CD544893CC1D6923D29A4B8BCDF4711BCC1B11C3D53E35EBD837FB83CEB5FF9BCD18E113B8FD4953ABBE0B8BD1AB096BDD0D640BC0F4D873C71A7CE3D0B0C9DBBB67E083E337F0E3E07D789BB15E579BBF1C95CBD188E2B3BEFD6D93CD6FAB7BB8B6559BCD6D8AE3C25AF9CBCADDA7CBCDF9A0DBB3BE3A73D65D26DBCB752FFBC158633BB1C0B763D3F221F3C5C6FFF3BA76E25BCAF57D13D6576F8BD723CC3BD53315CB907D6183D12C6813D04C53E3D1852F3BDA5680EBC1D95023DC4153C3CCC206BBBB61070BBD48A16BD01FA493CF52D943CFF6AF8BC2F222F3D21D211BCB76FE53B9B87E63D8278D4BC43F5ACBD6918593C3DF216BB7518D33CF4DDE03B4F49513C3A7BD13D55D7ACBD428AEABDFDBD88BD53708B3D3B7C0D
BD3039693B760F363CB720253D1165CE3B56034BBC35FB3E3C7929DE3CE7DDBBBB37DC9C3C803EE9BD37EEB1BCCF3731BB84324B3C8B6FA3BDCEB484BC9C8DFCBBBDEA4DBC09B196BCC1C6773D62E1503C2DAB05BC0A8D6F3C5ACD3A3D29F95ABC4C8E4E3C9E25AB3C952E88BC9840A5BCA7F3B0BC458D373C45517BBC90E68BBD4FFC1BBC7CCC523CE536D8BD30373FBBF69A843D0158C3BDB800C5BCB51D213B1C29E5BC41D4B7BDAC20CDBD652A4FBD36EC08BD57BBDE3D08C869BD033831BCB160113C3313D23D9837D9BB7D8369BD1158933C968EB5BB65CB76BAB99916BCB3B463BCFA4144BDA3B8D7BD04A6AA3CB6BC283CDEFC3BBC3B4454B7117B1A3CB8E053BB34802CBC1807943CCA7B223D0A7FEEBCA59EAABC82488B3B8262EBBCD9E7773C276AB1BCEC43A9BD2B697CBD07CADDBE0FE87B3BDC9FCDBD0D80F3BC6C1B5A3C167B9CBD5E1BC83D2BD96D3D4F271C3E00A4EA3CB280C23C5DF1E4BCFCEC0EBCD4F97EBCB2605A3C38EB513CBD0AB8BCF6CECBBD0E95CBBCB0EA21
3DA3FFFA3BD080953CCD72A6BAE423C23D10EAF33C1C3A7EBBFD6B4CBCD0B7993C3CDC5DBCC799393D0E1AB7BB3B01E43C9BB3EA3CC1EFA9BE1D8C7D3CE2461BBC855E0F3AB28DD83CEC874F3C270F853D374CB5BDA92E54BC42398F3BAC4E1D3D7C432EBD5CA102BCEEE3733CA13E9BBCBA70FC3A7BFF60BD1D71373CED1F30BD5130993D07BBA0BD0FC657BCE2C9E13CA25E4D3DAD843ABBE56B96BC23875EBC3078D63C9DE8D8BD87B4B9BC4F4CCEBD6D1567B9AC0A94BD19EA4EBC4827663C05E4073CDE526E3CB482EABC4CE2413BA72332BD8C94E7BC7615CC3D1BF054BC95474CBC986E9EBCD26F34BBC21C703D03417A3B3AFA4BBCF0644739A5573F3CCB010A3D97A84B3D0267523C9AAFD0BD75704FBC2A36713BA44A05BC5AD8E93BD2C4DABC110571BBC885F13C905CCBBCE8C66ABCBD706F3AF045D0BD389A163C4B7557BB1ACCC6BD5CD1C43C13ED383C01C354BD886836BB5BC9B43CEEEED9BCBC4AD23D267B523C908A6E3C8B47A53D7121A1BB8FF7A9BD8015AEBC6DFCBD
