3CEB8781BC14CF73BBDCE40E3AB0A8C4BC2F715FBCE12F3F3B8DACCB3B3648D73C3ABAD13BC96DBB3C2A996BBB3502EB3C5E3F293C37EC4F3B8887FDBDD5FFDB3C4137093A8BD47CBBAA2B2CBC1C68243D0709B9BC0F1144BB5E12F83DB73E85BB3BE887BD14A1A4BD379778BC78A5F63CB1A5E73D24913EBD304D35BC3F59903B5B971CBC3B8A0CBDE029943C4C35AD3CAB010B3C8AB3543C08C5D6BB3F86473B3E7C8A3D8EDD02BD213F873BB18E6E3BB348843C475EACBB5AC546BBBAD07DBC1C1C4CBAB30739BC82594FBC9F23FABD9868A33C0C1FB73B81ADA93AC1BCD33BADC3D3BDCEC6C53D10FA70BC6E869239535603BB2A7EEA3C1182763C7C81A13A950882BBB0EE173D57CEC23C984EF7BC87ED5D3BC2BE62BB5F487CBCCAAA393BC07EFCBA8FD7C8BBCDAB9A3BD37AC4BD1341073C621F5F3B18BD293C7534C43CE0579CBCA502FC3CB6D7C9BA04E230BB88FB1DBBE61E9DBD462B173D303335BD93E1803C4DBFC0BCD62A92BC79D0C73C62578EBC1A729B3B486964BCD66925
3C0525453BC0BB463BAB6E19B9BFED03BCCC1C67BBBC4B5038D1E5E73B53AF453BF611E7BAB9FC573A3B176FBBBA6B53378C60DDBCA16C07BBD0161A3DEE176EBCF4466EBC0C783F3BF99E153C13E3213C8C2832BC8A080DBAC24B6FBC040C723C62B8F0BC1C3B18BB2377C63C8378CF3B64C0B23CE7A222BC45B7193BEE38C03C171A3D3BFE97A2BC1CC7853D5E0608BA882B893C9CC680BC9E30733CA5A627BB6A41C1BC3CBB59BB8F39883D3395AF3C293F56BB13D6BB3C8045CABC5FBA7DBB42007BBBD966C73CB71CC73C8D723CBCB265AB3B26655CBC1A802EBB781F9DBBA07F62BB5718A4BA3CFFC83B8AB2B4BB11E793BCCDF02D3C8FE1293C8305C0BC8A010ABC0C15973ACDC13D3A05E0363BE6DA953C531B133AD8BCB23C3998ACBAFADC01BC27F733BB7B112EBC59314C3C1F8B4BBC76F7F6BA4C9C383BAC44633C1543423C185BE63C56C9F73BF2C8A6BC154C92BBFBF6F23C32D0343AD1721F392DE188BB7107933C7F5F2C3A98D2CD3BF36B3C3B8ED7E53C22DCAF3B12D148
3B81E19C3C745D6E3BE637C4BD09379CBD0A1A233BBE0E84BC203D87BC2209F9BCE501D43CB5C2A9B9E6050E3D439072BD510B9EBC06D5393C62B6703C147124BBB9DED6BCB25201BCD2994FBD4E0E11BD59F0E8BC1D13C93D170568BC3B2F1EBC9D1AF9BD04ED31BC1B11B1BAEE9546BCD212BEBC7B66D0BC1CBF5A3D1B9F63BDA1AE26BCA9390E3C9742B5BD7D4D103C8E6BDDBBAC4B91BCDA6E48BC8286EB3D243C0FBB02D6A43CCAC9CEBCECC5343D066B0BBC8152B93C95DAFABC3FCB1F3AAB5E593C76C8A23CB19359BC0F2504BD819D8D3C0403C43C681E733C149B433C45F87A3C531A893C16EBD13C07EF373BF62990BC96F271BBEC5A30BC8F315F3D4C79543D375A493B2CB7FBBBF312F7BBE1AB8E3A91C7BABAC7E5353AF813F4BBC00A253CF51CA3BBD9D66BBC5370303D05B05EBCC86F70BC85FEE9BCF383D33B821C0DBC8D9379BDADB430BBE23029BD3AEFD3BCAB1FB3BC6327963D06D51E3902BB6A3C7F32293D3E8D8D3D6DF2A4388FA1733C89DD643B9F78A23AEDF0A9
3C1673663C01510F3BE51B9D3C8E042DBD51D9C6BC8EA55D3BE482793C29C0E53C82C255BC828135BB99E911BD0AE6D13B76E561BD113B6DBB1C52A3BBD84B3ABC871C4DBC0E6118BC6FB7233DA56559BCB3BA4A3B2E4735BD1965473C46E2A8BCF0C050BB0FB5D2B95E0D66BC78D5EBBA88145C3D3CF34DBCC39502BC97532CBD29A67D3CAD3036BC3BC6A7BC25188EBC43A42D3CA620DA3D0668D83BF9B0EBBCA6EDA13C5B0887BC2990C33D11D25EBBDEB3ECBC8390AEBB9EFBA4BC92E1F33B9C8637BD2EF2AFBC493A47BCBC4A4C3C4514D5BC613156BC9CB13CBC933594BBF5EE283C402E28BBECD246BB7BC4893B7278C6BBEDA2FCBB9707A5BBA27564BAFC73B3BC681F25BC8BCBE03D4194D3BBA2548E3C69A43BBB8E8C143BFB0872BA4752C7BC60C0BCBCB040BC3CADBD4ABD18446DBB80DC183CA40910BB987EC6BC1FE799BC06C27C3D18D0BE3B55BCBF3CCDD089BBF261443C73E5E2BCAD006ABD8D9CC13CAF5C903D2ADE10BDADC4CDBB2EF41BBC5A134ABC9B8E8E3C46A82A
3D0B20CFBB84ABDABC36CC8339CFE8D5BC3AA516BBF1BD11BC1A0428BC69C4E2BC6DF3603C04BFFB3C54797E3D3AFDA73C3DD0D93CA1E1AABBAB464F3BDEEA143C6946383B9663523C891B283D07755D3B55ABD2BCECA2853A6DB2F0BA6B7ABFBCAE61C7BC935C6FBC859E85BC1AFF80BC77E613BCC02E24BC280526BDAD3CB43D813B2FBC97888FBCD38AAE3C8EDEA8BC244F45BC1A938BBD0D39D53C07A621BB999FCB3C8160A23C763CF2BC69AE0ABCA415F5BC322AD7BC1204443C3C8284BC9990CBBB8D57683C8DCAB9BD348788BD9558AD3B3CDD093C193EB83C912B6BBD048010BD181D8F3C6343AB3AFD2B57BBFF5C043C1A1513B9257A2A3CE52434BAE95EC0BCCF300C3C708A533C9B1B6A3CBF553BBC73A045BB2643D6BB287A153C8B2DF3BCAF3646BCB5A455BAA9317CBCAF04453C6D649CBBBAF2D1BC0B9759BA01C7D93D04826A3CD8B0A93D5D9F36BC30BA053C330651BDC93280BCB6657CBBB2AE59BCCA4DFBBCB821E8BBF2B5A0BC196674BB5C5D4CBC379F94BC5CF06C
BCE1023ABBF0E51EBB2613CA3CDA83C93AE858EEBC31045CBABA53CD3B1DD6C73B84B124BC26E0F8BA0645453B80BE263BC3455F3B8F0609BC3A69273D18B969BCB1745C3C1151B13C7A9D87BBD4BA803B94DAF2BB4084553C0C207ABBD61E7A3C135CF5BCCCE0D33C01D272BC38CE333C6DB681BCA2FD7C3CB6C61ABD9147ECBC9970923BBA4BD7BCC67428BBE6339FBA197FC0BC1773B1BC2CC6A93BC41E81BCE0714ABB722616BD30F8213CAE4513BCD4FB8B3A8277023BFB70AD3C265BD73B7039E5BC8D37203D082284BC56575FBBD4196C3B19F7533BE990B639C1BBACBC8163A93C6E5460BB36330B3C8F694ABC471273BB79180A3AED22FFBB878AFDBB0FD162BAA9960FBBA2C4F2BC65D6463CF9E198BCA4A7F5BB9AF4DD3D1A36233AA4CBDC3B64BFA3BC918D88BCF607703C3023E53BABF7F8BCF728633CB91BE83C090BC139BF259D3CDDC0473AE6A9D93C0C9331BCB1F2693C374718BC9C258B3C94F42E3D03AD61BC91E52B3BE7702F3B7C0EE038820DD1BC9F4303BBF3178C
3C2CF4BDBC7C2E84BC6593BABCA7F15F3D0109523788E6513B87E2AD3C840DF43C324756BB4D2317388BAD40BC6CC9F83CEB192CBCF8D384BB83D0923CEF49FFBD041262BD20E5923B464E243CCB2B123CD96B793CDA001D3939A8B83D391F75BC928FABBC6C08E6B8486565BD0AF20BBCA5540D3D1D11FEBCC1992F3C97E6613D98D3ED3C8EA691BD1F9EB43D564CCB3C2E5C543C60C969BB4FFF42BCC83316BC57F130BCA1CA94BCF0911BBC24D4E53D80B64E3CA019043CF023F43A476CFF3A8BFE59BC885CE33BD9C24E3C0D415F3CD69CC43B9E6F50BD880C14BB4C19313D040B433BC397163C70345BBC55C33ABCA66BF73BA09BF3BC55575BBD14A2063D04042EBC93F7F3BC3B71BC3BF32857BC982D213B9AC43DBB0CFE743B0493DABBE5B94D3C733F353C83B8503BE040CEBB45FBEEBCCF82D73D2A5E66BC9A1034BC9563D43C4020563C554A32BCB2C683BCCF22C73AA51EF53A15BAC9BBB55171BD03D67C3C15DE323DAE174C3D7234EC3C53BAE13A28810A3B879ED43B59D395
BB9F2C513B1F5D093D1C0D243B5B5AC73C14921D3C8988223C8B5E443B1C10543B9016A0BC293F03BB5785AFBC24E457BC99A23E3D0E1680BC758B4DBE1ACE173CA9DA5C3C8D2D043A2589B93D80BA433D7FAEC8BC8B8B213CECCA97BC3F334C3C29D7113B65E1503C9C36B43CF1817D3BED9B52BCB073993C1BEE27BD8CEB2D3B502D1DBC3333993BA83324BD6889C5BB18DFFB3AF901AABD17B8F33BD22A3D3CA4D85ABCC6F217395DBF41BCAF27C1BCD0C13C3CB85A353AB26A0DB938A5B8BCB295ECBBB785CD3CAAAA71BC5E066EBD254B543CC6925A3AFCEC8A3B6F7947BC974F9FBBD63FEDBD0C317E3B466794BC37BAEFBCDD1CCA3C0A566BBC1A0AA8BB084A43BD9488793C51195C3D2FDC713A274F8ABCA0CAB33CD0BD67BC0391EE3BE7BFDCBCB576203D11113E3C933BF43BFBE8B73C933A7DBBC6748DBCBA271CBB485CD33C718E04BC67340CBD185E733C6C58713C9D136ABC6CB3B3BC8D53013D0E151FBAD0277BBCB80DA4BD1F1DEEBC921EA1BD104C333CF0D5803CB06CE2
BA0BC9BC3C2540443A214C1C3ADA832A3B1DA0953BD48A373BAD1CC03C7724213A8C50A73A1FEEA8BB7DC281BD09BEAD3B7D963ABADF24E43B92B52BBD799BAB3C30D94E3BB811833C7AABE7BB1084EC393288C03C497D543B662EDBBAF427373C289E883B1C8524BB6650853D0798BF3B7916CF3C23765C3A82DF243B7D4DB7BDC523F1BC8CD11B3B88677B3BE97F4D39FF1219BC0140FD3CA5E3DD3BC855813C1911763C6264F9BA2B86E13CF449E3BCAE8FD4BA4D49953B0114353B00DDDDBB476AA53BE82AB5BB967DDFBC9AF88EBDC45A603AFCD4B03A51EF373C1A37903BD1F1A7BBDBCD913B4EE946BC07267BBB2B57003C435DDB3C0C9E683BA3D4B53BD553C539C197363AAD20423BE6BF5E3BAC83783B5DBE2C3AC3876B3ACDA5A23B2933F23CE31C863CA813C6BB911CEB3C04D2EB3B47FFA5BACD8EA03A83503D3C639BD33BE418523C83C1A8BB5D9BFF3B7A9920BD0F7B363C116FE43C7FC867378FD9E3BB9120ACBC4405863DAA1E233B3642E939FAF2E93C8721693C0CCC67
BC64BD5FBB699EEA3C98B0063BABC8AABCD3F4C9BBC2F4113B6981753C33E355BC3045093B83E67CBCA92A5CBD83F9883C985CB73C21C5ACBC21974B3D0BEBE23C3AD0A6BC8BC0BEBA9B9B4C3C1436AB3CDAFF6C3C9FE2613A720956BCE8B41E3CA0D7FC3BE00BA03CD0DA263C104585BBE12B503D17F9E7BD0CE7AE3D732E443CE5AE093C3847563D8E2718BD357463BB16C356BC34772E3B9196D1BC4992E1BC063716BDAD03293B5A232EBD42D7833B117B403CBD09EE3C2E70723C1CD96BBC387BCD3C7DBBE7BD10AA553B24C21F3C3FAC8A3BDF96453D19BE503B89FBB0BB70D0133D3F52BB3C9D27043B9879CB3C0FB9963C74CCFCBCAC0D033C559E66BCD1C5ACBD89AA4DBC7FFBC63C968DD3BC8156AD3CA5078A3BDF9E68BBE730F33B629050BB96CC4C3BB36820BBDC4FF13C2E4A0ABC267FF23CEF5A9D3C000F1BBC0ADC1CBC3ABFE33CD1CBDAB9A6BC2EBC8DD72C3B38DAAA3D1029A43B3C95F2BD2C4F9FBAA225E3BBB198F43CEF07853BE79641BB60B4A23C1827F1BBE7FF4D
3D2A659ABB71C76EBB531EE93BD9988FBBAE3BB73B22BD6DBC709ECFBC22D1843CBDD3833B097F16BC8F15973B162A8BBC5E9D6BBC44D36D3CA447023D5C0536BC395EFC3C697BB1BBC199333C3979ED3C8F077DBC1A3726BC1C5C463CE9928D3CA87A273C394FF63C636FC23C6917B03CC426B43C09270C3C9622093D0A934D3C964F1CBBD2D3C3BC29EA13B9F73143BD1AFA673CB28006BCBC5751BC378AEC3C741FF13B39B32E3BBB2363BC1FD9C73AF31734BCF298613B9E29E4BC76DE3C3D1D4342BB5371D0BBD4999D3CD474BD3DED9B73BD69311CBC7F36B5BA67F8943C3ECFFCBCD4FDF3BCB1440DBB87BFC1BC9752D33B1DC29FBC130308BA186A0C3C27148F3C68C6203CB920A13AA5A1E9BC3B3A06BBD8AD403AF89652BCDDEC47B9BEB8FE3C1D906E3B916FB0BBC3358C3CB52E79BB4043053CD3E623BCB556F9BBB0513DBC7984A03B2DE3363B4DC59D3C35F6773BD090AA3DB82AE83C1ECD5DBC8E785F3B3B31843B571D5F3AD1ACBEBCEF15A1BC8B83AEBB19F3633BD01965
BD3652463C17EC443C8E786C3CCE68D5BCE0E3A73CD82D2FBB126FE93C9460ECBB1CBAE93C9366033AF07E7D3D4F8D73BCC889AC3C33D859BB29DBD83D3F936CBC6F23573C0F383DBC32661C3B5DAF87BD1C61FCBB437F873B0113DBBCBE3AE8B98D81853C0402C83D7354363CE63654BC84A06F3D535CFCBD0A36323D0F32F8BC243F2DBC8796E03D4BEFCC3C943F2C3C4409D43C60891ABC0E3A95BC236245BC608AE9BDC86082BC8A8A5A3CE955E03CD57436BBB05EB43B1727063CB31311BC625D9ABAAE6FE33BAE075DBC705BFC3D96FC513B8F6508BB7A857A3D0827FABB743F0B3D521F973C2E56303C28DDBD3CA1EF5F3BFF194BBC68C7733B937D593CF638B0BC774EB7BCF56B8B3D872E8EBC62339E3C14ECD3BAA32741BD0BBA463BA0162CBC3525083C2D7C3ABBA74F803B99F9AABB4BA7603CB7E9003B4F7E363CD4848FBC4A0CE3BCB076C5BBFCE978BBCA6509BB9E66773C79FCEABD18CE6EBD290EA5BBA38C2D3C86B9FDBBD73598BBB7428E3BBBDFCB3C96E38DBBE43F30
BBB0F4263C5FDAEEBC8EEBA43BE0D0A33CFFE08E3C16D8143A4A8D82BA86C095BC1D5DFF3C8FA7633C0CEF383CF19760BC64E73E3B04B4A8BC1E4423BD3CE24FBC866C1EBCD1FF9D3B7028C1BC287CA7BD61B107BCDE3A5B3CC980193CAD06873C172F4ABB36917E3BB8C4673CCA497C3C15D39CBD5E59FE3CFE88C3BCDB9EC5BC9805ECBC53A4EA3C6283C0BD28B0A6B8C61DEDBD0850543C5FFA6AB9DF26B13D04521E3BD489FF3B9D62AF3B9A41CFBD408FD7BC2E814ABC4655A03BE87E72BBB468583CB654F13D0451203CF80C563BA216F23B946A493D6731CFBBD9AFFE3BBC0446BC1993F6BBDCE2E53CB021AB3CCE2A7CBCCBAE80BC69F35F3CD169DE3C8391523D93E5CBBBAF59F13BE2B7563D13CA9BBAAD1BA839EE6E0D3BC39A2A3B2A3A9E3CEF15D5BC801092BBCFD0693CD4BA89BA78E555BB87570EBC682AA53923AA50BBC7807EBD9D3D5FBD82A842BBC38492BD2775773D0C95BE3CB06A673D933107BB4349E3BCD43D0A3DE70AE1BC69CD233B2ED590BC884AAD3C89D01A
3CC7B2243B8A9408BAFFC7C9BD11AE8EBC78A4803C1F288238F1555BBC6827693C4446CDBB361064B8BA80DFBC300D10BBE0EC45BCA99C67BADBCE4B3C573003BBFAD7373B90D14DBC1179433C9D47EEBC50EBDE3C250554BB6733E73A558CCD3C367B9ABC89B779BADBAC8F3C1A9C49BBDB434DBC1327133B9A5012BCF7AC29BBA391CABB22622CBB75307BBC0C03BBBBAFE4B4BBA213E7BCBD7905BCBE62CABAC0FA24BC3C8C1FBA054955BC6C4803BC362698BC1371AF3C0EBA67BB24263A3C1264E93C14CC38BBE188B83B30A7E13CB11465BBF7C209BC383A9EBB5CDC093B867E183C079727BC6F4603BC2FE30FBBD20754BC146250BBE65852BCC60161BBBCFB31BB7E0418BBE4181ABC6E674C3A7E0626BCB4E153BAA824D43C200C243C22D483BB7C57CEBC92BF963BD609413C097474BD0389A33B49ED383AF517BBBD1E286A3C8775FFBE76D4DABD0AB8F5BBA00E16BC7A77FABBB404B7BC04FC453B9236433C31D9593C1666BC3B8D89563C1F9361391D126BB9BE4FD7BAA3C858
BBB50E903C0EB4093AF745813B614A55BC67B2FDBB7E7773BC23DFF6BB1D94ECBCAC0B37BC2DD54939DFA28FBCC160333C5018E23B7182733CB4033DBDCE4B9FBA58420BBCA8CEDD3C563646BA47B4E33CB46BA23A76CB66BCADBD19BC830E813B4B2303BC2B731E3B40FA913C6D0D7C3B3F4A273CE5DF7DBD390577BD00C5983CE1C50C38E287143D0FF89CBC9CEBBA3B89D1D93D0AA1EF3CC55D2A3B035AF83B3D88FB3BA62FC53B9046703D279E6FBD159FB0391307953B829ACFBCEFAE423BA313973B33C38D3CCA2E87BBB22622BD752CECBB3657403C11BAB73B1A631B3C24B794B9D5FA4A3C486088BA55CCCD3B9C631A3C8BEDBCBC2B262BB97F0F723C6D0331BBD777C6BC10F9C23CCC6BDA3C74C5BA3C6C5CE1BB80DAC73CA54E163C4A899E3B625D11BB23AEF6BC10E276BA83A813BD03A9A63C17D5923C6948563B7425CABC2AD26C3DAD562EBB03DDF53CB7F7493C8F5AF03C114C043BB93A63BD1D4F3A3B25BA00BC010B8B3C6D21F93BC7635EBB1467E7BC058C0ABC3C9FFF
BC3043BCBA1714D83B2092C9BBB8B6B43B8FBF843BC2933ABB841A8BBB35C0853A27A904BB391553BBA0B1143CF3A9E2BA9729B23B26C9103ACCA08C3CA399873C0A09BDBBA32710BC1DC4B23A03C505BD0BA4DF3BC737DFBAACA98BBA8E4881BC903419BB2741CFBAA88E53BB98F370BC920785BC8E98F83C0FE2EF3B7C02613DBE03B53C30BDA8BB1F14A7BCD7478D3B1783A83BCFEB38BCA5F0A1BAB4734FBBAD08B7BB0F9205B9C268B9BCD6807BBBAE84AB3AB4AC74BA3672A43B9BEBA4BB2DFB623A150330BA1C5FC7BC33459E3D3F86B13B5DCDA4BB34AF7D3B67AA6ABB4CF2473C2C44B5BA946DB63C430C24BB782FBB3A2FFD993C426C21BB337E0C3A96DB8B3BCB3EECBB7D076FBC467D83BB832A72BBA7B79BBBF005CBBBE447713BEF650CBC8824023BF11CF63CF25F59BBD5D5CEBA9DFA4F3BEE60993BFDEBB939EB03503AA7529CBCC9A812BCA6F6AB3C34B102B6A20894BC7190DB3B924B013BD90E56BB69258C39E8ECA2BD9C7EA1BA1487693A5F1F62BBF081DCBBA31E4F
BC12FBFB3C21655B3C5BC39EBCA3CA623CB365C93B872C15BB30F3CE3B973C7DBBFC8C953BE42805BB2CF340BB3A2EFABBADC4EF3D747E443C2555A33C9B604F3D05C8BC3C7AF0113CBFBE7D3C2A9AFD3CA229BCBB4B48973D417E05BD33C8113CA126863CA61C373C860B93BC6B21F43C81CB2ABD81046C3CD7A01ABCB43C8FBD0AF13BBAA4BE143D8E2092BDA596C2BC58A36E3B400623BD0852E03C21FD853B90B26DB938FBDE3913EC04BCD28831BD2840663CA0225B3AD9F8D43C493968BC9181B5BBF92F42BC46A84EBBE9A21C3B9068C2376F00B33D26CC4B3C23EAF03B9DFD973D7BC37A3B2F20B23BC60015BD0B13193AA43B5FBC8C5726BCAA2B48BC40F7EFBB484338BCA66E66BC912F2B3D2DC4F2BC5752E73C24AB3F3A8FB4DE3A9A2CFA396962643CA725EABBF0EFA63D1285963B5B82163B027654BB721A9F393715ED3CC5053DBD57C08ABB081DCA3CE9637C3D952BFCBBB128C13C342E393D7934B4BB9F5F16BD0A2E2C3C8185113BD09873BC2AED36BADBF83EBC5B9232
3D0B0309BB0A6713BA45C53BBBAE15E0BC2F7D98BCB2289D3C1EF98C3C479609BC9961633BE13A403B0FABCB3CE8112F38B722553CFF146BBC893EADBDB8925C3C3B45EB3C19FDA8BB2E78743C2DF7D43BB3FF823C2CDECE3B1BC58E3D3DB18B3CDB1831BC6360053BCA79BBBC8A23EF3C2989DBBD1E50B03BB3B55ABD0301EFBC9B4FEBBB96EBA3BBAC13F53D01A139B9F43B1E3B572FC8BC983FA0BBA2E8853B832E363A322B8BBC2471013CDC81EFBC25D00D3C170EAE3AFB3491BC4E5266BC10273F3C14338DBC75A9AFBBD16470BCE0B5D1B7B0F3993BE34714BCF73D703C022304BD5B7BA3BBC7FFC73C89B4C7BBFAC58FBACF7272BCBD5B10BBD31D53BD31CF843BD423B53C06A0C7BCDFB5153C8AC437BBB9B3263C1BE50EBD174B7B3C42AB2BBB4634CDBC8D42533C672AE73C6982C33CFF769C3A500C1D3C929508BB1C1A1B3B9FA9623D2C6393B95AC57EBC69F1633B5C910FBCD1E35BBAD3E3073CE3D3A8BC7F7E59BC239A003CB3DF43BB6CA31BBC5F833A3B569B36BCBD9A0A
3C91033D3B571A3ABC853E40BC16E08B3D3308C6BB60BAFB39BF7BB7BB86F8C33C940EEDBA541EAF3CABAD243D823744BC68C6E6BC96DC523C1C9F3C3D3210A7BB9039BE3CBFD0333AF28A47BC4A55F2BC8C2BE5BC6383103A3A17783CFBD9CFBCD835D639E0D291BCD8288339F2AB893B03F12BBD367F7B3D17635EBD64D8AABCC14491BC282476BDA66C413D030B443A210E6E3CA8942CBBA5AC643C7AB6F13BA737623DC0636EBBFC77563CCD2B1A3BACEEF7BCC7BA7BBC7A7941BC2EE0933C7849C9BC2EDC9D3BEFA3C63B83D02D3D273FA3BC036357BD17CC2FBC3373B83AE4DCEABD3EF2A6BC8B4980BC18EB64BC05F902BC1D28E43CCA4E50BB98CBFE3C1B65753D8A666E3C8EE58FBCB460413CB65D63BC947A8DBBC2B6DF3B6C7498BBCB6DC93B21768B3B2E6E053C2AEC0EBC6974133CC7619FBCE77A7EBC81975E3C43257E3C5037F33CED6C53BAE933093CBBACF5B8603DBEBD0E9110BBDAC5933D2A13CFBB9F9EFB3BB6E150BD6C3901BBF988663BB82A63BC57A9303B7FA741
3B900B2A3C0EE4DEBC59E4193C09E8EF3A8C2BA0BC917B163C6AC480BCBC10C43C2EF5FEBC1447F5B820BEF1BD108BA4BBB40E023CC4E5973C45C3D23BD535543D79E5463BEE655B3D1FC8843CDD7DCA3CA0ADA8BCE4B1A33B8825CB3C2925BBBC10352C3D07CD8D3C4E4F6B3CB3FD313C67835FBC190DE03D1138A23D98CDE13D06839E3BC188FF3C6A1BACBDAE70D0BAFF11D1BC39EFEE3CAE63473CA96AC83AA3EE2E3C9E669FBB37AC923C5F67A63C536A9EBB88022B3C8147283C2B25F73CF8F25EBC8A73E6BC86660FBBECC4E53DF448F9BC8F7B393D051A85BC005906BC4DD2DC3BA0A1E5BCF7CE6E3C10ED3E3C47E836BC7105EE3CBB15B73B591274BC502843BB5BDB4D3CB6E6663C151B15BC5DE9EBBAF8C46C3BFE534C3C54628ABAF8A49F3CC3F0593B0ADE793D2E92493B8BF009BCDE517ABC2DB58FBCF73E44BBC31ACCBC02F2C73E322AEC3CECFF18BCA14F063C73DE7F3D526B553CB71BA73C72AF15BD55B00E3B36D579BC03387EBBF3043ABC355055BBCF88963BBAB1C9
BC0343733B5640693B4F5C013C5855C83CE1E70B3B8C43CABBAE6DA9BA4928133C03FE403BD474793B7CB62C3D956A80BBFD4ACB3C047D3CB9C4DAD23D0DB06F3A98A4D63AC77C7BBB890AF5BB86D2AC3B8D1864B869D703BA625F993B3C51E5BBAA5C77B9D02ACFBB37A2903B8CF11E389B8A08BC80562B3B0EE0453CB1EB413D49153D3B847BAFBBF98C693C5028AE3AC226DFBC260D90BC016EE7B8DCFD16B822D89D3B08D45FBBCC5767BC31E5453CC994B73B03A97FBBD03A4BB93AFE193BDA30FABC37D9AB3C8DF5813C4721B53D66672A39C7C7793BD948033A8496643BA0A4713C577CB0BB63B2643B6FCB133983D5AC3B88289F3C2710613C10D08CBBE8C4C73B65D67FBB6517E9BB7070D5BA8D878D3C58E350BB7D9D95BC0880D4BB6FECA03B633B1C3B6841EFBC02A776BBEAB1703B09E0393B6C1BE2BC2865333C153FD23C42CD43BC163056BCE5067CBBABCB6FBC256E8DBBA7062A3BE249A33C9C8E9DBB7217E9BCC952613AA1FDF53A7E0D693C0298FA3A94B72C3B8E700E
BB6897313C6D360B3B8CC2283B80E2F6BD37CA51B992F3BDBBC8B44EBA328B043C74AA1DBC8066483C5BA0B3BD565DBD3D2CC18BBB2F7E653A088DAB3C1D6D333C5F5BBFBB962E81BD1A53703A564ED53CD2FB733CB39537BC8DFB043C8033D53C014F3A3D2990AA3BDDE6723C382589BC525E653D8C6373BD2E423BBCED01B9BB351A373C6B7C29BC9FD75EBCE921323BC00EEA3D2ADDD9BBAE40EB3B86A22CBC819D923D020131BBFD796C3D2EA6283D40F7953BCECA9F3B027E61BB8DF8B73C0D8EBA3BDCC54D3CFD120B3BC0DF233BA4B32F3C45F592BD3F4855BBED71BA3C3F1F6ABC8AF82B3D2F91CF3A19003D3C2DA079BB09A3923CE4B56ABCC0ED6C3C1C5DF93C0E1CDB3CA8A2363D175E48BCE5BAC33C6E2D0FBA220B1EBC49880E3C99F03F3B15DEEE3CDE648E3BE5542D3BE59A9D3C71E6833C624FB63CB95E7DBC8ED9F33BAB474ABB57EA393CF37ADC3BC2B61D3C75A8F2BD42F78E3C2036E8BDEF24B7BB9313823D1B4D473B5F83993CA8A6863C48AD3E3C20366F3C1BC32F
BCEB1A0C3C1628CCBB251D3E3CD48A533D1394423BA9A60BBBF84572BBC8C8AB3C053692BBF06C453CE9237DBC22CC8FBCC25C06BD11FDCBBC299006BD04BA98BAF2C5D33B9B41063C1C123CBC9EAE75383A2CCFBB6164823BCC2C7C3C362964BB68F67DBB2C5CD5BC1F8267BC469545BC5AB864BD8F5D0A3D300AC23BBF62F6BC7AE5963BBE302DBD2353123D2DF23DBB1590D03C84DE3C3C5C691FB95DB81FBC9979753D0CEBC0BC60F1BFBD022D1EBC380B363B590ED03C796FC0BC40901B3D14E5DE3C8072F2B8961F1A3C63AF36BD5F31B8BCC22FD93D29049D3B7088DD3C345881BC710691BC15DFFCBC1CD3553BF0919BBBBC7A233B29B9C53BC1227A3C9F7C1B3C71F5513CB54A4DBD6717363CC17C8EBC8D023E3C4E07FDBBB123A9BCD4F7303BFE1FE43D65B8D13BE9F3BC3CA1B8A2BC56E343BCEFCE48BCC48CBDBC0C65313CE2CB2CBD95FC43BC0BE70BBB94FB6DBAD860F7BC9D0B8D3B826DD63D416494BCED0624BCDDE8F4BB494B493BB769C23CC6B084BBE8D1A93CBFCE91
3A95A8E6BAC85EB23C5720F2BB7088D13D3C21653BE646D6BAFC0F433C57531D3B8F8CB3BBA4834BBB0F2E4B3B484900BC14F4CEBC1E7FEC3B75A449BC902122BA808AAB3B3A88123C94FF713CF141FF3CB23BD23C13D5A13D073A5D3B30A93ABBC577D5BA0332E43C26EA843C5C1A93BC72E4D3BCD546B53CD38FC3BB80B5943BC52D58BBEE0A153C1CEFC33DE0B70ABB668BF1BB11B2BC3AFA057B390A3F6B3BA220A53B61ED0F3C5567073C196E17BCB74FE639C85DE7BBC13F593BD865F6BAECF948BC9D3B0F3CE79C41BC2A76E8BD2965FB3C50B22F3D12BF033B4F3F1ABB4A9FF6BD73D2D33C05E136BB255790BC74F6A23BF1F371BB104E953B23470C3BC9129BBCFA87173C5BD33DBD0E16183C3AAD6ABC2946953BD2E5D93B853B4C3C50D36A3C193DC03A1C4492BC844AC0396EADCBBB8D73653C59C664BA3D1F84BB879BBF3C2DF3B3BCEBBBFDBAC88BD13C598B0C3CFFFB2ABC3113B33C0557FD3C456E463CC0A5EBBD352F7BBCB316B8BB90A345BC529395B9C954393BAE74B3
3C87FC2F3AA444E8B8A0B0223A5C5DE2BCAC087CBB7CCF9FBC1DAB9CBBD0F48DBCBD8DCC3B8A51BEBC050B11BD26D1283CA4206CBD277C613B3CEEB73C8DB1EDBC42D3CBBC792AE8BB9A4874BB82CBB53AEC84E93BEC4C04BC2C17D73C944D7DBBB602CDBC5942D2BB169A38BC62A43CBC674C523D4B8DF5BD470BB6BC921A603CA622863B44E256BC91A42C3D52F0ADBB0CE051BC52DE413C3E9B6ABCA237393C1F99F7BB57901B3C0098403C8463123AA69469BB2557EE3A08F0E83C11C97BBBBBB61B3C7FB53A3C3412F5BBF831393C1AD40E3BE3C52C3C04088FBBCA41723B36B7BFBC8F88D23C4453A6BB8DF595BB99A023BBEE1FABBCCFD60EBC0D8D953BABD584BCC12736BAF21DBF3C8B2563BD0B31B13CAF65F9BAA22AB3BB21257F3BEC35D83C51198ABC9C97E63BBA437FBCA815383C80D99C3BAF9B113B1876D1BC968D27BC08FDE83D4E5F63BB44C5A5BC64D4A53B9A426D3B4D501CBAC1A4BBBD8EA1CB3BB16851BD051899BCF3FBF2BAD4049ABBCCEE1ABC8F0AB6BC96240E
BCB666063B6573083C18773ABC87073ABC088C1F3C6C454E3C0E854BBC93C34FBCBF270B3C9DF758BA0B42C2BBDAEDCCBBAD9551BCE8E82DBD038DF5BAFBC014BA4D2D8B3CE61A313CAA44433C725F77BBDC645D3B8A24FE3C2B05D0BD7A47B43A78A3753D043BF4BD02FBC1BC38EA52BB95003D3CCA65EFBCE30234BD1625E13B5F92143A7DAD9C3D3865CA3D417FE53CABA95B3C2091B3BB6171CBBC6667833CA39C97BD936D473B352C993CC4BF9B3CBCBC8C3B342EF13BCE5AB6BC000C04BD169C0BBC554156BCD7508DBC8CCB653B01F99C3C7E63833C32E9653C7BE4F53C85C9523DDBA63ABB8AB97ABB46D7F0BC5B8128BBB57745B8B194F6BCCD370ABCAA8942BC9FBC14BCFD51643D09C66ABC80F5CC3C34D2CBBB91429ABBBE2677BD01B5563BD4B768BBD3FF3FBD164F3C3C5D6AC23D4D17723CDDFC173D028F4D3B7C9E57BBE0CB423D4F12F13AE2BAA63CB536CB3B839C903C3AC2663C6764DBBD0ADB0FBC275C34BCD9FF19BCE2B6BD3C9F6D373C841B45BBB4F1B5BCF775D8
3C4078623BA54E32BC3905DE3B3F5737BC8217DCBBAF896C3C7F151CBC929D53BC6F2E58389B48F1BBA30015BD0A9BD03CF6E183BC8A75EF3C9284103D92F1CA3BBF85B83B393815BCA566E03C410EE53C8A6FDD3CDD0576BD0EC84DBC2A64673B3A7B063CA07DEB3C42132CBC355D3D3C168A273C6EAFE4BC210170BCD61EBD3D1ECB08BC81630E3C308DA83D9AE9C0BC3AD82EBAAC5D323C9EF541BC5ED9363C9B5DF2BC449EDBBB90DC3E3CB913063C2BF6F0BB98CCBABC81ACBBBBEF6C163C54CE823B03D6C63A37C2CC3D0B7AF6BC7ADD093B9D90A1BD8E6E8D3B55B13A3C4875543BC1CDEABB81BFCABAA562E13B6779283C324C593A918416BC8FDA13B888BF173A7EDA99BBD372E33C4DDD19BD0D708939AF029EBC3058623CB126793C6AEF423CC0CC4BBCA090EC3C93421C3A584F4EBC7758EF3BB563CF3C5CF766BC2D2070BBC2B4EC3C8334EEBC9624B8BA8819EABC60C894BC9EE9913C51298EBCC4D5EEBD071A743D0F9A2D3DA5A02E3C01B23BBB82B584BC35CC853B3F1C4D
BC4FA88C3BD1B3DEBA31769D39A0AC0EBD3728A73C1E0F373BDDA3C33ADF4EC53ACC7FE03AE53C2B3BE52064B8B32B193BE794A43A58C51BBC28A11EBDC687CF3C2229333C51B75EBD0C9A0DBC1C547ABCABA699BB2E36133A92269F3BE6CA0BBBBDA5103B4A0C233B581A08BB8D2CA93A0CCB63BB274324BB0BBD933C6DC5B3BD08FE093B5EF7743B11D7B6BD0F91A5BB0FBFC03B8D12F6B873DB79BC464F043C501A763C0B55683A8374483C4C304EBB253FFBBAF78845BC3CF28D3AC50C42BB14ABC83C85FECEBD0CF3F73C12CF79BD2A1171BB059B8EBC8289D83C87B0813B3A4BF53B8D1A813B1EE0F93AB86406BA886467BCB361433B216F72BC6A6A9DBADDB4F2B9D1AD6EBBA55F29B9C5B3533B95F0D23A4C5F783BABF14FBB01C2D3BC2EE3403B833FC73B1F01473C989085BC341E42BC753791BC44E35FBC686406BC136BBF3C072A95BD10DE873C6DE750BA56F968392EB1DF3AA4D8F7BC4F602639858D423C8AE9FF3B67B5343BC0FA7F3AEF5E5F3A7379563C013197BAADFB2C
BCAC5D133CCB1612BB942A4FBC0783483CF7E7673CC07D9CBAFAD324BC5769A7BC7A2AC53A759A86BC2D202E3CCEA605BB62F9453CB19EBCBC2E27B8BD3E03CABB98C0E63BB9D00DBD13679BBD87C50FBD100BD93BE46EB93C167F6CBCC6548F3CAFAC95BBF6CEC3BB0F6F3FBC86B821BA599D3ABD0A240B3C712F543D2BBCC43BF5C7D2BCA48A253D0E76FF3E1BAF463B86DA67BC01D63BBD4FD9F5BC6E8FE5BC2BAD3EBD2DAC793BA5DF54BC377C5FBD3C8E0B3C29A86D3CA3941A3C70B618BC9027233CB08138BCFEEE61BCDAF0B9BE10008C3C26EAF8BA3843BD3C3425E3BC2020E83CA35F153BF020EC3CBB0397BC67E3073B5FFE60BD005B75BCE04AEA3C8E579C3CA5FCB2BBCEFB94BC34CA0CBC5B4D56BC72D73EBADB4422BC65020A3C77C006BB232BE73B7189ABBA937AEF3D39FCA43A80BEDEBC7E31E7BC060FA4BC00F49F3BC0DCA1BD29F912BCB0B379BBF8DE913C96A260BCB372203C1316C53D0E6ED73D41EE28BC531BC43B1D5FEB3AA193C83C038CC5BC435F3FBB6DD5B1
BBA3D95D3BE2990ABCDE1C013CB66092BD9076213C886523BAEFBFC33CC61E2EBC9542E4BBFC5753BC7ABE453983D471BC949976BA41A8C13BDF7DBA3DE0B41DBCC158F03B1CED413C339E8DBC7946CC3D713091BCDAD510BC3E863F3D15991A3BF477EDBCD5CB4ABC7EE7AEBCF8D230BC42C334BB81BAB4BA98F90FBE49DD903D81FFE43C580709BCCA227DBD48F16D3A885BD43B757D43BC6CA8BBBC1622E6BC0F76E6BC76431DBCB74DE43CDED418BCF8D89ABC1FEEEA3C57B6263C7497453CEE4DB7BC5A7058BA12A6A63D1B6D3F3B99DBB63B071A9DBBE34EB4BB9B5BD2BCB1F116BD0863A9BBE4E035BA1DE0EABC19AF1ABB489498BCE14469BCC5C451BD57391ABAB017BDBBD87D0F3C3507D4BB2815E4BC809558BC1BCA75BD1B5DB4BAF078E4BCC1BD9F3CDAF7703C2FB7F73C7D434D3C552FBCBC530B21BCB94A133CC1719B3CB56DFCBD57746E3CBF47803C77D5A7BC941DE5BBBC304EBD403C663C084C54BD300BEB3DB3A548BD3B157B3D1389AD3C9411D4BD1694B9BC7F5378
BC8D58EF3C1183FC3C5AD902BAA5253ABC166FC33BAF98193B7B4DBFBBC633213BFC8B53BC1769A4BC3F77E33D081CF2BB02F58A3B1C71B4BA915EE4BDAC5F40BB380AE63B020D193BD1C308BB584DEEBC5FB3123BE1D3F93A465CB03BDACB463C1569443A65962A3C08A3B63BE500D73C09FBA8BB7EB39FBC415548BC922AF73B598DE9BC29F70B3C3D7AF2BCF6D7733C8379FF3C99219DBC2C2997BC8300EB3CA29A3EBC05EA533C80CFBFBCE6868A3CABA3A33BF501473C5281DBBC2B61AE3AEFA9403C2104563B241F24BB94E971BD6ADD1C3C184AE73C8548393C5D319FBACD9B00BBD43DAD3BEC01B7BB75E0353A455EEEBC7ACCFFBB2F539CBB261BAFBB0890E53BEF8DAB3B50652DBC33478939EDA0083C19A2CD3B9D63753AA9000F3C59FF9B3BFDA8603CA4FCF03B9591F13B9F545E3CEB3F053BC93C813B4F7DFB3C3B8350BC6E02E1BE176EED3C19C88D3C104D033C82649CBA8ABA8CBB1D614E3B99D105BC201522BC3F5074BBC2BE363B7101F33C19D6E03B15F4AE3C5B44F0
BD575C25BC4EFB93BC9939CB3D1EE737BD18ED89BC00F53FBAA6D4343AE90C3A3CD2268DBC9C25923CC7512A3BED371D3CBA6937BC7B4BB63A5C1C04BCE72201BABFDDD83C6EBB2C3ADBB5B7BC06D6B53CDF596FBD0C2B9BBC6703D83D39EE31BC5FDD84BD1A941F3BE94566B97930213B2668533D5A3FC2BC7D235DBD0217E8BBD609EBBBC69A5FBC8C56B4BD3A873CBBCEBB433A62337D3B67D4603BCD31B0BB7D72363CAABCBEBC443FC13C95B2A13D21D940BBBEA282BC75556BBC8835F93C256A723C8147A8BC6648A33A0FD9C1BC278492BC00D5ACBC8B71223C520AC53A8C96A7BD46C37C3C996A1F3BB9AC58BC0205453B9EDE43BC2BF7BEBCD729C5BC4B47B93C2D04033C4C4EE73B537963BCAF3C253CBC7292BB955CBEBC010817BC140F7ABC84DD18BC687B083C4D4D57BCFA31CFBCAE6C6E3C4549A7BBF7A15FBC2971273B81A2163CAED37B3C96A4C9BB169B17BC9BED943C977628BACCAC9BBD6507183D09F9E73C6F2A86BAFCBD50BA80FAFBBC2F7CE73C2C7BF03BBBAFAA
3AF6992E3C3BE813BBD256EC3C53148B3CFEB58DBBD71F4A3BD5F92339D781BB3C325A643C0825E13B1806D53BA0F791BC07483A3D6495A73C5425933D26C3EA3D0B71DA3AA2EBE33B979B9EBB8CE22F3B2D45CFBC3783DFBC32259EBD3959443BE1B6CF3CD4DEEABA50BF6B3C6B1B87BB8BADC5BCA09DBF3C96EE7EBBEB19B9BC854CC3BC8DA9A93C866F383D8097C6BB8EAEF4BD184F43BC4609F23D0AE8093CD3C10E3C911F5B3C8A37B0BC8556E8BC21E01FBB01A5C7BC935EBC3C3374C938A83370BC2057B93AC0B5A1BAD7D651BD50C8BABBCC70503B6B1E903B848576BBCB1B823D07E6583C74F2BA3999ECDB3C6DBDAF3B9FCFED3C9857B73C9304033B8C02C53C0AA8FABC358B89BC43CF2C3C75311138193B6BBC8819E3BC182391BC7352DCBB3C83DC3C4EBAD4BBD981633C8AE3BD3C085636BAFDFA853BF30A963C8A0E8EB6FF8456BD47D533BC12DC59BB7DD3463BF825AA3A1F57B53B49FD033D1F2D193C8B388FBC06430F3ACC92763C2001193C533929BB91A9953B4EC2C6
3B04DF803B5712F13C364BCF3C0B78F93CC563F63C0D671CBBFBEA3FBA3C3A213C0B62B23C6498483C2C13BDBD2A621BBC888AB4BC1ABC1A3B6C732C3D18A354BBC51C2FBBD929A9BB17AAF43992CCEC3B6A12FB3B52DE4F3CA06DD53C61608EBBD1255FBBE71C20BBEE80483C699F343A9E7EA73C8108BBBB1F5C493D0EB438BD4F67F23B633609BD1038B8BDE7EA073B843EA0BCB227AEBC72479ABCB77DA2BAA66FA73BCCC5BBBB13A4F3BC2CB4673D016685BB5E1B9CBBDBE2E93B53DBC43B4DD66B3CA4C5D53B0C1CA63CE920C03CE89CF1BBCBDD75B98EF1B4BAE08A443BA8EF1CBD2A52E3BAFB825D3B0955B9BCBE1091BA0CAC13BC1453BE3CB669B03CA73D63BB9E20FB3B32494FBD848FEE3A4707A83BE46AA1B92FBEB2BB87E36FBB2E30A93C34B553B9DDBE7FBD06281FBC67C8D53CD693CF3D148B363AE1BDA83C8D0E5E3CE26D69BC57EAC0BBC186093C15B55B3D0311C93C5D56673A9912C3BC4C0A593CA08BE83C4095033B00B1943AF814633BCC8D48BAE60DEB3BD66EDC
3B9A67B6BBE479F7BC8D42FFBAEF3BFE3B08D51A3B8016683B0915783CA4BF56BBAF96133C37F4E3BC8729F83D2C1FC7BD18CB5D3C8A2DEC383D06B6BDD3740D3CB7FB2CBC9F9DAB3BDFEF05BC40CF40BD3C6E243D315AC8BBF25FC93CB3FBA1BC04D0153CB0302839494083BB193117BCCCDA71BC78047DBB753D96BAE753D2BD2A323ABC31C7223BD17F9A3CB34B653B62E124BCB690ED3C277D2ABC6FA7DE3C68C3153C4D79D9BC393B6EBC55EFD33D35A0BC3AB4F50C39ED973DBC952604BC7587EEBCB029213BFBD583BB0FDE2CBD108A45BAB2CE743D00511C3C355E093CCDCA023DBE1A47BD62772C38AB1E7FBC4EA62ABB7F7BCE3CB5A19B3B9B909F3CA71BB03D35FAD5BCCA2103BDB00777BD5F8FB13BE715A9BCA85EF3BC2C20AFBB2617823CCF17613CD08D5DBB15112F3C51EBD8BB9B59993D83BD243C4349353C9190EDBAE6851C3CB0E9B7BD84DE08BC658AB83C9D963BBB555B193D1E6746BC666CD83D23E039BCF663A5BD9F4B9C3BA546973C80C822BC176BB0BC39C69D
BBE2B53A3C7E68693B9A86013C66485C3BB8E0483BEE8A5D3AFFA2AEB998207B3C316ADDBBBE531A3B387FB23C563279BB5CC62C3B3BC03A3AB8106FBB7490973BDBEE71BA7AA2E4BC25834ABB2B2B23BB9225BFBB4BB7B3B98EFEF33BA79DF53AC02D63BA945F85BB86A710BD0BBAC03C6A19433B76F09038B958D0BB292CDDBC4106D8BB6452A0BBCF61FBBB40217B3B9862D53C15AA813B87F5C63B4022393C5D11A03B375721BBC205D23AD77B4EBC51C8FD3B4E2F613B8319833BEA341B3B8FEC013B80BAC73C72C556BBF04DEEBD71CD4138CEADE0BA74FAA1BA7FCD59BC562BFCBB682DAD3ACCFB2C3ADBCF09BACF36353C92227CBC97ED463B63B8523B5597353B1AD19C3ABA0A1D38D34CAF39E15575BC0547AA3C3F4AD93ABF3F42BBBA33D2BBDC43A1BAB2494B3D2FA6E0BA989277BAC2E6C3BB802C263C3320B93C860751BB3791D2BBDC44A7BBC99E86BB0924E0BC846C133B2133FDBCBA10C73BB7FCD4BB8BED77BC507CF2BC1BC070BAB6594EBBA8A8C0BC7A40DA3AC10FC8
BC4496473C5C3C5B3B1F47703B6D8DB9BD219F893BFB29083BC43260BC2021103CA570ABBC208224BCF0BC57BC9B83993C44CDF2BD4EA6603C071A833D6641623C5C1A06BC33AD0EBC724033BC3664CF3BF89F383C394E323BC4495EBCB72AD03BF7A70FBC91092DBB6A9F64BC9D6FB1BC06DAFFBBE200D13AB658A83CAB7FFBBDDB637C3B55E3323D0A220EBBB508823CA7CE0A3C9F113D3C4DA1C23B2CF23A3B5CC939BD2BBB843AED83F63CC0B5303CB9FA7E3C9062BA3D2D69A23C6A458D3BF13905BCB239B13C9EDF1EBD073B9BBB979B22BC0023ACBB0059D0BB6399D2BB727698BC037D923C2B73383C3E276BBCFCBC86BBD166B2BD3D68703C98F109BD0D5C27BB11244EBBE4F8B9BD2E934B3B145591BB8672B5BB05C1463C755ADC3CFB5454BBAD9CA4BB8F40D03CCD4CF13CD8A85FBC2C8CBD3CEB83F03CAE9E253C203B793CFD2C9EBCEB083FBA87E7583C67CCCB3CAE0AC8BC22D8773B42C5FE3AA64F3D3AAF89EFBBE77F5EBD3036363C2F0314BC1D91F2BCB6A2AD3C8820F0
BCAB29E03C9BCB2DBB267187BC825348BC4F8A733CC5679DBC41B4403C428008BC7FD487BAE613A93CB08578BCF719C0BBCD8BC8BD0656423C0350CFBDC7A80DBBC2DBC1BB9724AE3C1DA5163B9770D8BC3DF1D83B3975CB3CA90009BC020118BABBCD7EBCFC4C62BA376C42BC2DD7FEBBAFB14E3BB084B039A627DEBD61F1F6BC2C9247BC2C6E573CBB0C4FBD7ED0FB3BCCD2FFBBF6148C39571DB83BBB7D893CDFBED33CB694E2BAC1A574BC65D35EBC3068B83BFBCBD13C32BAE7BBDA16D23CA97CFFBB8383E53B87E4C1BC8D693DBE0FABCC3C2810E43D1FBDCE3D27A2733C93ED4ABC3054D7B91F2ADB3C998AEFBAB2F7C43CC50B15BD038568BB8827D6BBE5A4633C518BF83C805EBABBBF823B3C886C313C4A49B1BB30B048BD095A3E3C64DAB63C030714BC7202083B1338283C138333BAE36EB63BC6453E3BCC3D653CF49A09BB7F48943D753D813C84F0DA3C1E0369BC3B38D93C885D6F3CAF98AA3C5A9AF63C79D8ED3C3002C739871C96BC487A543C1AFCF03C8FD698BBBB58B7
3CB27235BBDB91F83C923C76BCF35EE0BCB87B88BC65C79F3B0B2CED3B8563EF3C6D54D83B8F17413B816BB2BCE1B50B3C387AD63C8662513B0FD51A3D12B8A33CBD0F41BBBC72A6BC83ED4F3C7F51793C54DD453BB250C3BC5D22BABD2CAEC3BC0BA5423B2859AFBC0267A6BCC8E6F33C70C8663CF0DCB2BCD499D0BDC32E69BB983AADBB96CE503D9029F03ACDC1713C0EC5A53D02919ABCB093DD3C2208E53C3DC456BD411948BC5B21983C418514BBBB36713BA7868DBC3070C2BB9A02B73C344174BCBCB5363BDB424CBD080E68BC9360DD3C9A7CC63C80DEA6B9CEB72B3BF2C8423D2151BF3A3179DB39797642BC925E1E3C265E36BB8EC574BC7937FEBC20B445BD7F1867BC2237D13CC923ECBCAA7607BB40C32BBC071235BC187B2DBB4BAD44BBC5D331BCA0B3A6BAF6FBBA3BD4F268BC33EADD3CEE8BE2BBB69AAA3C167251BC8D94D43BCEEAF73C9C04103C3F086B3D13DC29BC5AC6343D224A9EBD404748BCC9E5403B92A139BD8601243BD86E3DBC950D89BC52A2B1BBE943BE
BB457B11BC47E38ABB487FC7BB5E4DC73A5201E939EEC7E3BBDF426FBC5FBD1FBCB44F46BC5B70FD38086C2CBCC522A33D3659973A841E523B5C86D4BCDCCF553C9EAAD1BBBB9C313CA9911E3CBF83713BF68243BC456ED7BCAAC7903D4DE6623C0C20B4BB9A00573BFA46493B8FE4C2BBD45A003D49C635BD3E0C7ABC0AF3E3BC3A611F3C3ACC92BB51C4B53C838DEA3B417B783CCC2CD73BC47B9BBAB4040F3BB7BC513C1B0BA33CC6A9913BCE44B0BC86BE9ABA85F961BBC17885BBE9938C3C3FCA643A3D5B723D4A9EE1BB65126DBDCA2C113C3613CDBC58FFA3BC8C6BF8B97E1408BD0F9B393CB9D902BBCED31ABC0F1E823C12E4823CF205EEBD30A046BCF6692CBC5DA717BBB9828A3C96469EBD18F5FE39CF3239BC179E8B3BD065953A5D5650BC68A245BBA6AC113CB0A2E7BC023C1B3CA508383CB9C3943D131502BC915D6CBD3A8C693D34EE4F3C83A8093C80A77E3C7A08A03D1AFF65BC4EFDCEBD854CF2BB1E6EC43CC8C411BD15EE7A3C045B27BB37D6CEBADCFD5ABCBB5CA2
3C352616BC628EB9BC5B9DA9BC5F3CB03D0851D7BBC47F73BBFF86EA3CA3C5013C398FDBBBEE5A0FBC66670EBB225DBB3C00A60B3C114D093C818AB03D4ECDACBCB2B996BCA1676CBBA3C637BC5812653B971F143C8660E9BBEEE2D13D9FE86CBB032772BC96600B3D0E67403CC15EC73B4D5276BD2C566B3CB7CFE83CE99ACDBB9690FE3C4D9B45BD8E8FE4BD19E65DBC82C31CBD1CFCD23CC3CE64BC12431A3C9A0D5A3D87144BBA498511BD19E969BD19A0A2BB0896AF3A8B1C42BC32AB553D7FCB3F3C5549863D374A703D47C9903D00A3C6BC0FFA11BC9554B5BC3576F7BA2E427DBDE1C74E3BA091423B039F9C3C54B7F23B3B34BA3C1252203C5650C53C55BC913CE629EB3D0A83A9BD4BF7263C9E7230BC5EC4493BA44C593BC3AD47BCC875103C4FE2FD3B9225BF3D04DBB3BC4C9EF4BCA00306BCE7F145BC4253ECBC6904D83CADD183BC843736BB916477BCCD2D6A3B41CC00BBE8919E3B1BCEB23D2EF4353CA93F803C4DFDBC3D1D0E6FBCA7E5ABBCB0731F3BCB333F3C42C233
3C1722363C3D3BFFBBAA41C93CC693ADBC6B5129BC4169323C098965BC2E3862BBBF071E3BD527C8BBDC02A9BD09DA673D0D73A0BC9DA0B03B143155BCA8483BBC419A23BC710E843CCD05E43BF45CC03CA86F20BB84DCD8BD5C6EE43C0C04853B33DDD2BB303288BC454B283CB76392BC32B1013D638F1ABCFDBF2B3D0FA4F83CE401493C91B02F3B19D9803CDA9E35BC0F9777BC4738BF37882C613CDC2B8EBD3BE3C0BC9EDFBABBC66C003D2317473A1B0336398A54AA3C37DEF4BC85DA9C38557D28BC87D59ABB8E20C6BCA2D42E3D4C7D7F3BE5DD7C3C236508BC05F6EC3BD41359BBE4DA083C7BE2BBBAFD91CA3CCBC5153B535A703BD1C3483B444817BC836366BBDCD5CABB1D5A323D5E30B6BCB1610B3D006DFEBCC975553C3761AFBC397ACDBB47010FBCACE36C3CB7E98EBCBC3B57BC18E6683CAAA7673C172B97BC9AEABDBC95EB7D3D969FD4BBCFCBDCBC817ADCBCF8DD583CB02021BBF523DABD5E39EB3C257C53BBC34A39BC1833B63C29A03F3A623EDD3B8EDB68BC824E71
BC1C3FC4BC9E3BD3BC2C57ACBC27C3DD3CE69CB6BC08505ABA83351C3B0F91A0BB67A433BB8B06BABBA4970D3D657B823C2ED3A63AA18A9D3C7291C6BDDA17233CB07A15BCF832E6BC8CA92BBC96856DBCA4A5743C3A43443C729346BD50975B3D1DC87D3C6797603BEE16203D0AFE053AA17F183ACEB8583C478F9D3DEFBDF4BC96BAFFBC8DA3C0B8D6742A3C14D6303CE680863CBFE301BC058F15BCA037E53C7729A23CCCEE243C8B3210BD816AF23CC1140B3C81F2EA3CAF61D0BC23C66D3BB67B5A3C1A24CF3BD48474BAF4D76EBDAD679DBC53D0A33D05B5093BE9929E3C87953C3BFC8E9C3C71E4A93CE2B36A3C312B97BC85A59EBBEDD176BCE97476BA203CCD3CB560FB3C8380A4BC9634CC3B57F5DA3CA6C5EC3C9207C0BCFD5B443A91B6573CA7B7EF3CB4DEBBBCEF90463D54E8E73CB57CAABAC4DF5D3D50D3F93CF3B412BCA6405CBBAC94FB3CEDAB16BC166C783D0752613D8AAC893CF93F92BC1556633CB7DAEEBC816D403CDD17E43CA3258D3C042ED53D0D67633CA4D2FF
BC0E7B103BBCD751BBB31EB1BCC9645B3CB126243C482B283C08FDC6BA80E408BCE7662C3CA98426BBE477943CDB26EDBD13CA7FBA5AF9E9BC390B7F3C9DD0A13B2A187F3C15F8C83B1096693C0094FBBCFD8E6CBC8D881D3CDFED23BCDF0C97BBEBBB2DBD55AC53BC0EDF96BC827F343C5478D8BDAC4E8F3D3038C8BC0F1DC9BC6A2E53BA5C44383CAE1FFFBB585D2AB9578302BA8CE2BABCEF0CB0BBD331203C792119BCD79C8E3B09EF97BD325E29BD67E5DCBC8C443B3C4D96E33C81D262BBD233DFBC657E3CBD0E80703B1046ABBC0FDADFBAA3B9123D35A5A63B6BCA9EBC0B06213C7D59CBBD02F1453C497A1FBC6DC56DBC1414E1BCB990903C9DC641BC68C6253BB69E6EBC263CE8BC82E3F53CD2D241BD0019E4BB0C0CF83B94414ABC77A6C13B6FB246BCCEDFFFBC51A3973C1FD3CE3B5EA1A1BCC35115BC9559C03BA0C27F3CB6169F3C65E452BC6E95FE3C4D9693BC63E42EBB536D87BAF3A7E93DE28056BBD786F0BC610DCD3C21F27FBC7FDB2BBC3D020BBCAD3579BC84D884
B99643EBBB54F941BC96AF84BBE2BB20BC3D1621BD2969FDBC6DB356BCAFE717BB6D0A453B861491BBDDFBEBBBB88E003CF1094A3B931CFABC1FC2D43D340F7BBB440F43BCBB57B6BC2805E83B894750BCA5E19A3CBF8FE0BCFEBD2ABC99E7DCBC9D93733C8F3CFA3C563C313BAF9286BCFA1F933BCB8AF2BB9A8C253C75C3BB3B8CAF963C84AE2E3D160059BC5F6050BBC0A26EBB79E4E03D6349AE3C65B987BBEBA52DBBC063503C44BA783D201303BB0F7478BB58B235BA8F8C4FBB316B753B6088A9BAD58DD9BC4346D03CC72D8C3BEFE858BC21EAFEBBB144433B95746E3C26AFD53CD1D5B9BBA0F3823C1F7AE0BB3A39473C692A653B7E842D3C90F65F3B6A1D953B834363BCDE752EBB2E1784BCB267A83B4D711EBCA3CCC5BCA7047A3B7245CEBC50AFBE3BC8F7DEBC9036EEBC372D2B3C4EA5223B5E01663BFA76E2BC9CCABABAA9AB553D85D2C13C511268BA82531C3BC71C41BC700258BBFD2F5CBCD42333BC94EB96B8C7EB003C09654D3C2B2F013A40684CBCCAB5B0BC9D51E7
BBCF3AE13C71CD9E3D193FB9BBC228923CB3639E3B98CE4C3B32B98C3BAAD9BC3BED23063C1F72D93CEE7858BDB46421BD012D3BBB2F5D6FBC041529BD11796C3C9AA4CF3CC76B2EBC10AEF0BCB513753CB26B9D3CD40203BD533A70BC8B4BF03CA44505BB33AD34BC5E3CDDBC760FCB3BF535F7BD12C0333CF485E2BD6979EABCD5AEB7BBE08E9ABC671C9F3B89A464BB7FDE003B6F60C03AB72F2EBAF7B272BC8F03DDBA7758D73BB649F83CE394C93B9BD8FC3C14A0A53CC8D717BC89A119BD0715333C509D4B3C8D7012BC62033ABDC521033C4F00C43D1D820B3C8627833B928BB23D373D88BC52A3203C1656CA3C5885183CBBC0ABBBF244F73BCB733A3C3E7B58BACECD75BAF91C30BD7A5A8BBC423073BCAB066EBB4E5FC0BCCE76C53AD0391D3C57E073B850D13C3D49095B3C9F02C33D17AE713C1C32473C83655A3CB4C5C63CE2DC8FBD21E868BCA08226BC81FE7BBD3CB883BCC35F3C3C97DCA63CA5A0A83BE40B8DBD9D5123BC5061D63BCE0F4E3BBE02D73A192544B9A68DA9
BCC480143BC206723C8D9C45BCB832BDBC3015F13CA575E7BB78198C3BD026793BAEEE5CBB58BDDBBCB28E47BBC757E23C89CA343D9593C93C2875303D005FE3BAE30D20BCE318503C6F8A233C5EAA67BC81ECF73C28081DBC618245BD4A87E2BC32388E3C68289EBCB5D68DBD15E0683C0C2C0F3D5D24D7BD37F7563C879DE83C639E853B12A5753D5807223C33F0DDBC2721063C4BE0D2BCD32C383BA383BB3C23C521BD8257AF3AC47C22BA4C74EF3B047F9EBBA9C98D3B4B3B0D3C9FD9A43CF26DF23B503EC93A8F8575BCB523433DB074D43B1BFE923994DD833BF50611BA0386FF3D9EEBEC3AE290403C93E0033B7B8D123C3F621DBCBF2E693B349DD43C9E8B63BD79E030BCB9FC403D8CC5BABCF9C3D33CF92EDEBCE870D63CB92C723AA8C82BBCB8727FBCB338983A6DD6E63C063F7CBD090A0C3CCD73283C6075D33B3D2491BD35F1A9BC76A7D53BC46632BB480EC8BC0D8D1DBD7562513D1D95A4BDB957C6BA9E1FC03BEB384DBC16467A3B41C0263CDC9CA6BD11DF913CA5E849
3D40C5853AFCEF00BB770225BB1A1840BB0A7ACDBA90792ABBCB4BAC3ADEBD14BC4DDA5CBAEF165D3C1464CCBD6AF1933C98FC4F3C1D54B63D08CC953CD605D03BEA14133B3133D2BC537DCC3CBB66893D0808DABB0E9DC5BB55E1A23C092E1FBC6C18FC3B6E6A9ABA35B71A3ACF2B78BBA2B276BC25BF463BDAA77D3C9A48D939A35F44BC78E7D5B91D1CDEBCF84FDDBD0A2F35BBC3EDC93CDA559F3CA97ECA3B3B20BE3B89C13A3C3866A63BD09AE13C22898CBC7A2539BC4D47BABCB5CDD03C9E02A6BC168DCB3C30B0B6BA9772DD3B522121BC7E48A8BCF25348BB94269FBADE33493BB81887BBE275C1BB34CB96BC517DE1BC141BFF39F9FD253BA2C5EE3CC7EBE1BD0AFBCDBA65424B3C2BCE5E3CCCCF773B1B113F3B3A29033BDD47693C580D4B3C34BA62BCB147203CBF9DE0BCABED10BCC387A6BC45DEBEBC90878CBC6D3B1A3B40083DBC002864BB86AE56BC7646A03B98BEA8BB81CB88BC92205C3BBA92623C5FFA43BB957D4DBC98E189BC4FAB03BBE2C5163C6B460DBC2AD535
3C8DEEE93B5E1EF0BBACF31A3C347C04BB94E052BC5E7622BB185730BBF1D0383AEB1E1CBB121448BA1BD60C3C2512CD3B4D05413C954E2CBA9487F73D13EB3C3CD1B075BA4D0228BC435E94BA818BD3BC81D77E3C2A19C83AC1275D3B33C41BBC02127EBB8F2E11BA991801BC824DCC3CD65BA13BDE40C03B40A7E3BABF54803B34E0E2BBDFB44EBBF044143C68DF7F3B6534EABCA5920A3C1E71CE3B1218843B2D8B67BBE17FE73C616A3F3C7064AB3C9442B53C086347BC1E1F613CE42E59BB683B44BBFC507A3CF68E48BBA90518BCEDFBB83AAF19F8BB632998BA46D5BEBCADA65837FF88143B1E0A753BA3EF973ADA12F83B21276DBC11A2273C80669E3C49634F3B2BBD70BAEB0CB03AA0E9383C20E7243C1983363C6F57F93C5E5048BA2C6ED03D0674B9BCD1095E3D0F6E2ABC9A8DBBBC8F79AF3B8B7A8EBCC347A33BB636293B76A1623BBB242CBC02715A3C8AAAB63C8F01DABC3E4B8ABBDF952B3B7F6B94BA7202DE3BCD4C5DBC78CE2CBAFDE4033B974DA4BC9582753C769328
BA55E9C439E4E55F3CD576B6BA3ED570BC6215853B603710BC037DF1BA56FDE63BB3BE1FBA9A20D83BC861CEBCDECDA2BC1DDCBE3C8AC76EBC9ED73B3C11275C3B7B380FBC261C653B82940D3D703EAB3C2C5E79BCB2C1B4BCEFCDCEB91623673A9AABB0BCA08A50BA0C69CE3C9CFC243B04A781393B22513C2D976BBD245B62BD7DBE473B9BB57FBC026035BCA8B6E8BC73272CBCD7C49CBBB06C983B719BA7BC3E7F11BC993009BB32AFABBBF78F2BBCA27D21BA91ADADBC110A3BBB523B273B7B0A80BD06871BBB047ACABCAB271CBCDACA61BC31F5DDBCF7D93439FDC74BBC47A635BCBAB3FABBF42F8ABAB3529CBC847528BBF90AC8BC05443EBB7D78043B243CDCBB3185903B98FF82BC512A923C14C95BBC03787D3BC97C30BAC442E23B3A0576BCEDA2CCBB39989F3BFDD7B0BC62DDC03B25139D3D22FDC73BB7B2EDBC3FF4CF3C6267033B0A50A9BBB3A835BB4766293C0C67C93A8D5532BB8ADF3C3A2987BA3A9971D83D19DC70BD64319ABC9A4031BC54515C3BD59D383B975EA7
3B3D1F833B52AD9A3B068FD1BC408BAB3B6CAF08BB0F5D3E3ADE0E1CBCA520533ADC5BCF3A42785C3AA1436B3C71722D388383CA3C0E335A3AC0A6FA3D6FC614BB5A67B63C363C05BC364389BC04401FBC6E55063A846D2AB9240AA1BBE68E5ABBA7D34BBBBD0C13BB4CDE3BBB8E05983B06494EBCC077753BC799C8BBABC35B3C7C57C2BC090530BB78EC023BCD96993B4C5A8639F38628BBB51EE3BC31F6803B0D87FBBBBF0F14BC0C86B73BC6CC5FBC989E8A3A3D05FDBC7EDFF1BC8D269639AAD9683C0E2A293C4193C7BB9D033D3B8A857B3AB88C94BC2362853B0B385F3C0F25583AF1F988BAD33F63BA8D2DF6BC149F873C8B8BEC3AFD3D9BBC36F71DB9BA50513BC2068DBB3F377EBBAE9B633B2AAA74BA123AE1BADD43E83C4B327939AA1B433B84B8A5BC7E4259BC850538BC46CD2ABCB0EE6A3AF825F93AB96940BBECE06BBBE60835BACC59513C9127D8BC6972AABC4191D9BC14A5733C611E77B995C71FBC9A73B43D3351F43C9C956BBBCE9168BBF43B3F3C30CAFFBAFD6ECB
BC75FBBEBAC09C983B6333AD3C3284C4BCD03E393BBF13B7BBA4075BBCDACC01BA8DAA953C097492BA9617A83DF21CDCBC2756643C45155ABC27A4583DCF7C213C013F8ABB4DDD9B3C2B89B9BD8E10EDBD3D0C083CE0EAE53B56D20ABCFA1EF13C4E64343C9E5CE03C804FE3BCD05B7AB9804D323C7C4B74BCC23C29BC0DAF95BD2CD419BB6F34C93D8089583D6D194A3AD17461BC696FE03CE1E9D1BBA937B3BC3BFE73BD0409D73CA0D7C6BA3E555FBBFC930BBADAE3A53C06921A3CD0FA97BC8ECC06BA3C25203BADC0A5BC863DB53CE8A4BE3A969BA83B40DF653C59CEE1BC55DC7B3C58E61C3A6E164EBC0797FA3B2CC3603B228C24BCCBC36F3D29F295BD030A743C6C2FD0BC4D40373D3C3E69BB89D84E3CB816DD3C17029E3A1FDAA83A45ED8BBC1A5328BB8461433C542F803CF32DCA3C73C88BBD0905723CB56FEDBBA66F8CBD4C427A3D1904C63B63FE433BE0A8323C9DE5EBBD3DEF27BC011541BCBEE9FBBD90E02EBA01E493BD4A992CBC002C4BBB8F772FBCEB0E68BC1AF74B
BBF478E7BA20D10D3C52CB8DBC1F5719BC191D343BD63220BBA5B3B33B5629343C9B25573B51173C3B4A015A3BC74626BBEE4F0C3B90CEFC3BFF3D943E020C83BC260702BBDFD01F3B97C48BBBC8E5BDBB84F7F53B0848983BBD6BE2BD410793BB86E3AFBCFD8321BD427A133BDF742EBC019C1ABB0F28D6BC15B881BD19CB103ABDA0373CCDDBCA3B07B8E2BBB1E453BC15297EBC31FF093C705114BBBA6E59BCC1D94A3B93AD7DBCBDE48CBB92C03CBD03346CBCFE036F3BC66CE4BCABB9873AC4E6C6BB720CAA3A21CA2F3B31CEF63E1D537E3CA40330BC91302ABC5FB309BC09665CBC92D396BCAB85E1BA2CBA29BBCBAC3EBB9870063CD7045CBC990AD83CADA8D43C94BB6BBCEE7696BCAFFEE4BBBA59CC3C540242BCCCF3753C6CB33C3B2D3C00BB865F873A03070A3C6AAE54BCB15879BC239773BBC00BE3BC9084FEBB5FF9C73D03DB62BC4F195BBC611FF5BB8327EBBC69708F3D0F93983A333976B90F52B1BC8978233BD034B73C00464BBC939731BA5F97CDBB540FF63BE8DD16
3C6F619BBC8D54163BF4D6F43BEE33FFBC8EC7CEBC7FF08CBB822EF13B654DCCBCA5128FBAA9256B3CBCB7A53D9C9608BC916AB2BD398670BCA0C99EBC1264E3BCBA9240BB907C273CC40ECBBBD266643B964851BC89188E3B568863BD11E1193D1C6BF43D285C873C39B04E3C4141243CA7E38F3C86255DBD034CF9BE0A04793D144504BCC2B8F53C5A0CF23D4E3AAFBBC382CCBC6CEED53BF11483BCDC5067BCBE9471BC3119F83BD80EB63D8AB54C3D07EDE33C1D502A3C848D01BC1825043B9859933C0339DEBC4B6280BC9A091B3D89F400BC6B19AE3C611BE03C8F9E67BB431BFF3D297AEF3CC625FEBCCD71BEBCBFEC3BBD002B11BD210A71BBC3A0FBBBE545CABD35360B3BADFEB03D74E7633C2F3D923C8536033CA079E83CD092CEBC60B89A3D467E3A3C3A15A0BD2A667F3D11DE5EBCBD09F4BD100196BC87FB60BD2551C6BD196610BBA5D8D63D5DD1EFBB35BF06BCACDD27BDAA56063C8C06CBBCA60284BD448D92BD2F77473C47AB0D3C36C0693C3DB7723C9D101A3C3B5042
BBCA8DBC3C876B53BC2F12793B6D97363C97A76F3B75B162BB094B98BCA780C83BE392F23BCA10213BCCB4043CD5545E3C0DEE26BC3EC0F63BA26DFA3C583B3A3CBB69963CD52653BD6F86FEBDAB2D02BB178472BCB58A943CB6D953BC1BDB7BBBBBB4B23C5EC4203B497940BC6A4BE83BCB93B2BD43E5EE3CAF49423CD61D3D3D845C1E3C1D13813C399C7F3D2402BA3B613B673C03AFD0BC9A40BF3BC395913C38C2C93C83D2833C855EEEBA5C63E9BD1D3BAC3B62F03CBBA140943D141305BB1C9FA43D6149BB3CE822653BF068F0BAFD243BBBE34DA4BD8B6AEA3B809FA9BBF34120BD06CE193CBE29483C4C33483B876B253B39FEFE3BB20C03BBBA9481BBC6A2BEBBE9CC203C7C135A3C92334C3C931E64BBECBE733AFFF0F43A93056F3BC729CCBAA6D6583B2B23073BE137F53BF4B5C43C81C1B7BDBF9B5BBC2722503B1215283A924ACDBD6ECADB3D9D284BBC63AE953B004336BC15422CBC5F1AA43D70DDCD3C4475DB3D47E3B53C1B5E0C3AB77A763C31FB21BBB5B997BC3C6F5A
3D4F48E23B7FFC293C558549BD123FE13C9E2448BCA250E4BBDB39523A8822C0BBF900703AE22197BCE0F30F3C0FD155BCC6EDD7BCE961CA3AE9F9CC3DB009E6BCC131983C9F9CD0BC9AAD373BD4C2C4BC0921CE3A921BF03BAE0486BD90F9E6BB7CDB973D747B413CF040133CA84136BC4A398DBD9F08693D294FABBD0E6464BCB467763CA91DEF3D8A2B48BD01F38BBC74D887BC9752C0BBC530C4BB5D668DBC58FFC4BD4ED76B3B906E10BCC21A6CBD025599BC830447BB037C8EBC2C8F0FBB3611033BB370D13B0A4F5D3CC9A90E3DF8456ABBAD4632BC37FA60BC3FC1E2BB80DCC43DC0812FBD2E77C6BC289D8FBC2495D8BCC960FDBB33B7EABCA8442EBC0C5B4A3AE91C1CBD2D3BE1BC286B903C1A7C60BCDA343D3B17A4FC3CBC78AFBC07718CBB7A07DDBB400C1B3B9282453C7F32E0BC75D271BCBCB74CBD08743ABCC9660E3CF1F3583E35873D3CD60D6C3BECDBB03C8C48F1BBC66173BD2A0A203DCE1E72BC95168B3C975E083B0D5612BC6056EA3AEDE447BBFA366F3BF70FAB
BC70C328BB5BB5293C174EE93B0A71B7BCC41FB03C335EF33C4A5EE33C0BF5883D03551D39A825813BA3F385BC8E286EB943FBEFBB0A6720BA553CC5BD466E4B3CFB3BC03BB692083A0D2FF73AFF26CFBA8005EA3C53DE5E3C157966BC0C0B243B2801783CCCEFAEBB363EDFBBACFA963B339B3DBC042C393BF9158A3D8BC01CBB54527B3C816B4D3C03B180BD14235C3C6C29E13D39F4AA3D0507A13C926A5F3CE244DE3CD257033C074CE2BB4A716A3C4B46C73B925FD13B10F2EC3BB2F5003AD10F40BB1500EABE02CC033CA625D9BD4976313BAEF2A63BACE08F3B1AF8D13AD00E68B994550CB8DB66933C7BF75B3C017DDDBBA5AAAB3B8705DFBBA28D2B3C83C95A3C2A3D263C48AC57BC1E12CFBBECDAFDB83A73543C5A6CC5BC5494AC3BD9B501BB29F20D3D1C766F3B36067F3C6F38BBBBA9D538BC7394DD3C502FB63C06A3A1BB970730BE6C1541BB584AF33C2E32B23B7A913BBCC337FB3C101D0B3B58F3A13BEAF52A3CB164DC3BD90AAE3C1422143C001CEBBA9FA3613B724AD7
3C973D843CA44874BC7B1DB23C32F820BC16ED3BBC97393EBCAFBD853BD206A8BC4695813C909052BB13237D3BBD7945BD15313DBCAAF54D3BF607223D83FC87BBC223ACBB2F640D3BE928A2BCFD7EA4BD58E6B2BD01843F3D790D41BC941AECBC2E03A5BCB5020BB941CBE53D16E07BBC46E55FBD3C90173CC11B1DBD1A4EC13DA717D73C7781B336AE8F4CBD8110463AEC729DBBCD74923B4D72073D17163ABB9CC3CBBB0ABFD8BC65DD06BCD5D4BDBC5B809EBCFD5BDCBCFF80B33D007681BB39EA1E3D2FCBA33CA6ECCA3D8C1BBB3D5AE594BA04D24A3DFC29A5BC9A6984BCDC90F03CC4BE9F3BA3565D3C04BCC63CF0140D3AABCC1ABB4D2AE53CDA13BFBB077FE63D886009BCF402753D139A113D41B140BC00BA803C4696AE3C6993D2BB23B7DCBC8A7AB23BBEE0ACBD2A3B7DBADFE7F3BC609F97BD310CC6BB1442E13BDE6125BA310AD3BCF356283BBA95393CDB303B3B91EB1DBB775977BCA9E9873D5326DABDA5AD5FBDBA05323D485E26BCE570BE3D027685BCE1D4C2BAA3A01D
BBB07E86BB55A14E3B5E0AFDBC1A2F823C677B203C59384ABC7AC4CB3C82EA36BBCDE7E33BF359DBBBB281EA3DAAB9223C3BBBEB3C00F4D63B8EF935BD1E7E69BD407AC6BB3BED5DBCC7051ABCBA039DBD9D7A243C971873BBBAEB9ABBA46A883C0934ECBC8FDCC1BC93DE12BCB5E746BBF8AEA33CDD79F1BCC119D2BE35DA30BC441E3C3C4B967BBC8571883D84D8B63A41F9EC3C8A6081BCA9E38CBC27577C3C17A747BC8F974ABC3E3F1E3D4DD2B73D2B7B543BA7974ABCCC2A703BB51487BCA6D29DBA528B54BD6806A13CB730BC3C4A4E973BC1D165BCFD93E53B16A4F43CA3E7DABC46C2E53C99077E3B4A289DBBD40C7BBB5A2EFABA902F67BADF7A2E3C2631543B8F6999BC96F060B89E17C63CA7ED9CB99762FEBC7C47F1BAEAC7A439D71785BCD50176BAA7307CBD3CD12DBC0332463D2AAA343BC3F9483D26EC7D3C60CC50BB30031CBC076E7E3C3C4AA63CAFC416396C9265BD0F49F9BCA1CC85BB6C15A43D0E77C73C8F5A3E3C99DDEF3C373E1D3BC9FF9BBA986B1EBC8C7CCF
3B818B6ABB786EDB3BFC7DF23B110E6B3C32F08CBBD4620F3C50B9A1BCDF4B7C3CEB2F453C8C1B723D2A0D583C754763BD3536923D6E0BD3BC28F9933D65DDCE3C540256BC0A8EE73AB5E80EBC36280E3C81B9703C6302D4BB427D703C56DE5B3CDCAE523BF39839BC889B59BC42DBD23CCBFF10BB237F013CC4D6453D990FABBCBC67ECBC59FCA3BD8FBDDCBC0648A43B026DC9BC7B6B7EBD6DE8CE3B744251BD9093463CB220FDBD39A441BB4ACD08BABBB6F83BA7E084BBC68C75BC739B6B3BBAA60DBC08CD093D6392F63CA356EEBC9FBB36BB1C10E0BC1A4022BC1790163B94AB083C4071CDBC187408BC035B1A3C079D1B3C60C88A3C1CD0A13D00E14BBCF5E8D8BCD6B2493CE54352BC9025C8BB726E303AF95F92BC4DC9D43B2AA85CBCCC9E58B7B759603B4E777D3B5152D0BB3095113B864C2C3B72D5813CC1FEA03CE991CDBD2481B13D4C79F43B6808A23CA9D677BC34BE2CBD171C8F3C145AFC3C262D04BC58224B3BE7A9B13AFED3083C5023A7BC1A1A773B8E595EBC44AD8C
BBF4F2D53B884329BB5FFBBB3C07F4903C670B433ADCCCE5BB43BCC13CA18FF5BBB30CBCBB02E7FFBC452044BD118BA13C5ED9BC3CBA77603C4911CBBDC3B8C93C8F1745BB84BFFDBC8000243D34DF753B88BEACBAD5923C3C060B543C5EC8E3BC035A42BB344ECFBCA1C41D3BBFAB4BBBF416343CC71ACFBC870BE1BC4D2614BCB8590DBB31F3443B97784BBC64818F3BF5ADF03B5AA1483C7CE58E3A88FDCA3C80D6CF3CC6AF90BA3C910FBD2BBB0EBA8E5F393C1FD16DBC77ABDBBC3FE88D3A0476E93AB050E3BBDE47B33CAE38CFBD3AE62F3C68F3B9BDA1E73FBB3FDD49BB24DBE4BC081C5FBB98B9FF3B51C3BEBC459E0F3BE0D5453C002F7F3B434139BBA2DF83BCC35745BB71F76DBC328062BCFDC9403C80FE75BBFDEEC3BAE2405CBC3053E5BBE03CA9BB3DB41A3BD8CA73BD2A38C53C20B5603D09D0763D5BFDC33C8760223C9BBB9EBDD9C564BBC6CBDC3C4A5ED33C8655063C901F4EBC2F5251BC9CBFA73C2D36113D497FB33D6159C93B83990EBC92E2383B886AB5BBFDFFFF
3B1E3A8E3B6142293B5D121739C9EEEABACCD8CE3AAB19CFBB606D963B50AED2B9D2FC6A3AF03082BBA2BC07BC9C0F643C1E6993BC3650DB3C4992DDBD8AE8D9BBE400EB3B51C1B13C0AA084BC99A19ABD28512F3C1F7076BB327E13BBBF3B45BBBE07F53B28C4023C0B47923C836CC8BC8C80433C90314ABBF69C09BC299B86BD8C7DDD3B38D2483C5473473A08FA7DBC388DE53B25E4403C04051DBAD572DA3B12675F3C44FCC53C9B22CE3C3C8512BBBE692E3A7854523AB33FB7BCA52BC3BC2D27C43CC2B769BC607EDC3BFCA8C93D12363ABB0C8AFCBBF980003C2CC51D3B91A5C5BC12ECD53C9D0542BBF8B7983BA85AB63AEA3A4D3BE661C4BB5B88D13CADFB523B4BBEA13AC5E115BBE0BC313C9C98263BDC556DBAAB49FD3B48D1303AF08F823BA084303BAA11EA3AB8311BBBF828DBBAA5AC83BB0BAE7CBB32EB55BC2919B8BA2D78C4BCF9BFFE3CB8A36239ADAC4D3C4B6D52BC829D453B8E0930BC88F7EFBC0E00D13C9BD7F73D140DF7BB90FAC63C2450F43C5A131D3AE1DFA7
BBFED477BBFE6A84BB88897ABCDF6410BCBA9E3CBC3FEE0E3BBF9CCBBC0B29D3BC926BB7BC8FB622BBEF6E46BC337637BB3784893CE4E23A3C7068803CDD6B6BBD02F70FBA1FC8193CC3F45D3D12C90B3C6AC19DBCA9CE3E3D2BA2B2BBF835B1BC89AC91BC3EF967BC0E95AABA950748BC1D72EE3B20D5B93B9A0267BD36C5793CF16E2B3C5618E23D3E7DE53C5D35743C711C463CBD2CD83CBD0DEA3C69AD5ABC4BFCAABCE5F0943BCA9DF53CFF1C5F3B859A9CBCA359073B0158B53C83144A3C800FFBBC814D89BB133F843CD8F3FE3DAD05823C1A499D3D75A081BC7FEF57BC3619273D25FC4FBC70BB733B81E6CD3C1BACE9BC983C673B9A359F3BCD50D2BBF0BF0DBC93A52BBCA10E613D39CC6A3CAEE918BC8EA50E3AEAD3D4BB3E18433BB71AB0BC4E2BE2BC69BF6DBD53257F38547F1BBC827BA7BA739D023BEB40E73B656BDC3B8ABF463A78F00BBC3674D73D3A2B88BC859E57BD1AB252BBC7F65F3A3C69A6BBA755FDBD1833DF3CE6EDA6BC64C241BC83F0B7BC9A2E3A3C987021
3C424BF93C010526BCA2AD46BADBE0F43D250252BC413BB9BBD383C3BC5E230C3BC5E8673B2537CEBBDE4D843DF0F01B3C346581BBAF458D3BDB99723C2CAEB83C4911613B8893D1BDCC786FBD4829E4BD88F7DDBC8BA70D3C0863823C0712C8BC6FBD29BCA6542D3A7542913C24132BBC72AE023BD3F2893C7137F43C2451E5BBDA97213C86F12B3D20E2593E4B5ADBBBFB305E3B856A4C3B9C023C3C339880BB9EE33ABD049F643C2A54DEBCEFD6463CED9BF23B8F87ECBBDFCC953CFDF9B43C1347CD3C5C58113BA21FB43BB5DFFC3C37775BBB77FC93BD7023CFBC831827BC448A8FBC63B7423B773CA0BA46C1F5BB38B17A3CA43DC83A01EC89BA30F9E9BC8F468C3CA2C72F3B12C412BCFFA33BBD1DADC43C78242CBC217F613C994C04BC0F94ACBCF9941EBC9A86DFBB9FEDC6BCD66707BC4A86B6BAAB7313BBADC7AABC8D908B3B9403CE3D9AB1993C0425DFBC70A0963CF13E673C6049DE3B1425A23C91F621BBD90D523DC41E3C3B98F901BC755FF83B07FD86BA39514B3C42F50A
BD41A8483AE21BDCBB38C9D3BD1A08373D6130A43D3C837D3C42EE523C87710F3B28A0E5BC10E58EBCB9154DBE0126063CDB5770BAC1FD77BC70F32D3D9EA69D3BAA45D43C9EB4CABC6911EC3993BFA23D391DC93CC6A504BC7ED662BD0D5479BD1BBA59BC43F0FCBCD93767BD307801BCA8F3CDBDABF7303D836100BDA71D89BD02D0F9BBC2EF003C8AFDFC3E3A4694BC23F1EF3CC6A6373BF58FECBAB600973CA59B5BBADFA1C339A458BCBB353770BDA885A6BB604448BCE8BFDD3CA6996DBB065E60BCBC77023D0A05D5BCF378A7BD658481BC19A607BC5252B13C6BC1033C4D345F3CE2C922BD020E393CA124C0BCC8EDF2BBF713E0BC8FC2B43C08553A3BDD88A0BAA8D737BCC75FBFBCDC56773BAC06ACBD828A45BCC9A3A8BC1A94123C453921BD1982F63C738EA63D4083E63C54E963BB8F80E9BCAB9B7A3B00E79A3C41954D3C9B6557BD4495CBBCD590C73D0597EC3C13DF3FBCDE5039BA9C03683DA1BA643D3C510EBCF3D25FBD6AD9553CDEF7E0BCAF7C96BD3CCB1ABCA8DFA5
3AADDE5E3C345CC9BAC814873BEDABD4BC6D6B393A90F729BB75C769BB9D60D73B582C04BC902C89BB3C1DBABA3F5DFF3BAB84D63B964BE03C9917B03C15DD813BA1D3FEBB6228CABC2E77C6BC6533053CD45ABB3C30E157BBF6CF5ABD6835F8BC9AE0F8BC90A66EBC9FC2BBBD538E953B8B2BAB3C0CD090BB64C1293CD3B87C3C4F30DEBAF8D9A73DCD9383BC04CC333ACC287C3BBFE1C6BC0FA46B3C373DF8BB53C453BD8252B9BC395EC03B84D1C33BC0C59BBC01169FBC122F4ABC81F5253D1553B4BC6DA3983B242E463C55D6E4BDCC14853ABB53A6BB9FCE62BC88DD043C6C8A1C3DC6B0E4BC8393D73CA76CFABD1765993CC8D50BBC85F781BCC6BD0FBB80B0EDBC939B7FBCE4C14A3C8E4AEBBC5FA0E8BC026BDFBBF7C34A3C3A7B6B3BE1AA10BB6DF3EE3B66D6D63BE464E73CFD5AA1BC728885BB8F0E1D3C3EEE663D33938EBBF36AD4BD1616133C7B3EEA3D0940A83D065277BB4F4F3D3C805C523A3AAD50BB7EBFFFBB60A4C73CBE89373C2A0FD53CC02340BD2131C33CEB3F1E
3C56EF98BB985FB8BB392DA33B8D8741BB0FD3173C9F8EDDBC098C03B8A01833BB8ADAAA3A960B18B99133343D2B625A3CD8A0723D5CA296BC61867BBAEA8EE4BC29F980BB0A151FBCA2AF69BD6C85393CB5086C3C87924CBCB09A43BC4D0B27BBA4878CBC8706CFBD1F7E2BBCD012423BB22D093D54355ABD439C693DD66EE53BAB3F2EBBD7699CBD01194A3C8D5792BB8EFACA3BF594D9BD17A744BB9F62AD3BC36AFE3D499EC43C9D3ADB3C3CB6A33C5DF3F1BA9C4E59BC1B6491BB69F8A33C822E413CB8EE7FBC5C47E2BBC3902ABBCD606D3BFE147DBC9FE62BBBAD3E3DBBD3BE64BD2E9F5B3D167D35BB8496B43C32842B3CEBA3133CBD9CD23C5D09C63D0BB6133C0DCA9A3D00BA1FBB2B9A67BC2550F53C354A9A3B812B19BC2FAAAE3C4228F63C7B402B3971FA6A3C641B8BBCAF8FAC3CC422763B6FADA9BC358604BA0E839BBB7412DEBC6F9F923BD33961BC00FD1BBC9324923C8A90863CA2E36EBD3712CA3CA125573C0ADF683BD616763CD6C3DD3C78D5273BA777B43B41743D
BCB689B0BB6D1F31BC3F99E23CB2A5123D0573943D0081E53C1CD10F3AB5CAFF3C612F43BC4BAFEE3CD45C61BCA157253BAF95CBBCBF8C57BA735C3ABDB9B219BC37601A3C665EEDBC3E75073D63AE423C00D782BC8ED5D13CB711D73C0F82F13ABFF315BB510C3CBB7E9E4D3C057097BA044CFBBD29BC393D7E5B2ABE188534BDB9FFB6BD10508C39A6720F3DA61A0A3A9498AC3B215B31BC387576BC84C4343B2BA6F33C7A8A983B7EA0DE3C8C81CFBC56D9453A18FF52BC2AE0E83C800F87BB9634D2BC74F4863B8D3A443BFC7BB4BE1F87CB3C3880AABBE4F9593CFEAE44BBFBE460BC9B9473BCC7ED86BAC4DBF9BC991623BC04DF0F3B08C1423987FD413C4776633D2A0937BBF892C9BD59A49F3CC80080BD514C903B8FA21ABB5471913C058E27BC1315C83BB8B9A0BB28506B3CD216E9BCD5D09F3C80CB3D3BF854A23BAC4DC23D1F0BAEBD3DAAE0BD65D5973CAD788EBB9D8610BD64D359BCB4235D3D4B1379BBCD2640BCDA705A3C58DD5B38D20AAFBC63BF1B3B853DE33C6E0A42
BC5506D53C2592933CE1333DBC7B2F7F3C37AE863BAEA8943C22EF1FBC0E28C43D6995D43AA02BB7BC2C0CEEBD45F53ABB858DF4BC63EDFE3CA5FE9F3D8FFB273CFA10973C7B7DF13C435FBEBB1A9E4CBD69F3843D1E41AC3BEA4D3DBA739A86BBFB83C53CF158DE3C8FFE39BD565F373BECCBB1BC905A093CC667223D0E1DD83D0E9D193C6F1A90BB15E126BAC3EE56BBAAD6A43D16FD60BDB098E03D066195BC38F4A23BA28DB7BC27AFE93C43F9533D0870CB3BD15D453B12FA373CB0413B3C2ED833BBB6F2CD3D834133BD547C08BDAE5EC6BAB734B1BBAC5E49BB2AF4513C2FEF37BA7CB1093C364CEA3C8B05513B484FB73C4A779BBB5A4626BCDBC5B2BC86C7D5BC2EA03F3BEB4AA23CDB5003BA06CAEABC87207DBC88F22E3CD679B23C5A856EBCB8BECABB1AC3523C3CB6C33B1C0E9EBCCF3A1BBC17DB08BD50C01DBCC35F953D460272BD1EBF763C297E1ABCB6F107BB9CDACCBCA785A63C68C7D43C07E3873D9A340EBB717EE9BE1742143B89EDED3BC5A0CDBB80F7633B3E97EF
3BE42D3F3C7FC0B73CAC28A53C676D023C1461A2BD0C99F2BB84D44D3C6A95BC3B1A39823BA120203C0419253D1147CEBCFCE9C9BC63312439B12DF5BCE8205EBAFC5BA63BB2BBA03C37138ABCBC5562BC2B4EE3BB548B423D0C1FF4BD0A33233C6ED8533C3B824A3C7DF79D3D343812BCE05DC4BD4A4FC13D0C3E5A3D52B903BC257EB93C373A043D7144AF3D81259CBB32B10ABD3396DC3C550FDB3C906FA1BD0DC7D0BDA75C59BC8777F3BCEC0B6CBB97DF2F3B4C62153C20A087BBCD16ADBCD26A663CA8B6EC3BDE6CA43CF8DA22BD499343BBF8F2B63CEEEE8ABC349C1B3AC610273D6B7E66BAB973C93C192A68BAB732E5BAF8EEB4BBA1694B3C8F64423AA3BF073C28CD0CBCAD95ACBBB4F15A3D07A30739E3B3523C074B13BC9AB0233C714AE1BB219EEE3CFBB0C53BA19FB33D2FADAD3C13D733B96F56893BDDB195BAFB8DFF3CB38DAABE0CA739BC1058FFBBF53D103CADBE8A3C3DB134BA8A8A323D68F80F3C77252D3B9F5B363C010D27B94270A8BB79E6AC3C6FB5E9BB8F1E1F
3C07255EBBEB5D563B4310BBBD8042D43CD168C4BCA67516BBCB1D6E3BC74893BC91DD9D3BB9A4D9BCDA59C33CB920B6BD158C023D2D2BCC3C995C4A3D479B21BD19FAC03C9599993BA769E43BD39E0CBCC7C14CBD4F44C63C4B86CE3BDC4424BC0CA21FBBEA4E6BBB1B6A66BC3A918B3CA272C3BD62E5073C83FF66BD26F0783BCFCCE23C05CB703B31198C3C9240CABC99F8063C3141F1BC92FBFABC6827C13C804EE23BADDBAA3BB43BA6BD12505EBD5A36B5BD223F7FBC9B692DBBEB1BD53BC9CAC03B8FA9B4BC73BAA83D4725643E04EF10BC89D4453CD02780BD1763D0BC304F063A9A7239BCA05F0A392CADB63CE00E4C3CD977083C904638BBF85E05BCCCBB603CB08CDDBC2CE5D23CD4D7B53D4ED671BCF3AC41BBA7977F3C4BEF66BC55C9503CEE6153BD135FF73C3AAD1CBC0C5142BC83E114BD681C0ABCC4EC153B06DB243B42AF9E3DA5EA523CEBEBBC3BD7D7C8BC6ECAA1BCC873F2BD14F7D33D584E37BD0DA094BC8934FB3D0A9D8ABCE208AFBB51DF6ABD0FCA86BCA7A798
3AD6A94FBD0B32B8BBBB378EBDEA65963BC548513BA1D9C0BB24BE743BB0091BBBE560BEBBBDFEF4BD1A011D3C3E87AF3CAA23603BF75542BB4F19623D348FDC3C325113BB955BF9B9EEA3E3BA17F2E33BEDF5D13BD5D839BBC94571BBB0D3AC3B15CE2E3CA7C4313BD696A3BB92C41A3BC0E3423B640DEFBB970491BD896EBFB9313B913A968DF3BC2F684CBB8F6F7FBB026F22BD2BF021BC22466E3C93FD893848EE483A9499623A6709C5BA7191333C2F791CBACF688A3C0A71B3BB5C4DC5BA7DBEF8BB787A8C3DB82286BCCA76293CD1A7EB3B181873BAAA839E3C3A643DBB93D0E039A4EC95BA3F9ADCBBC84C4F3C55E21C3B9869D23B45334B3C1BDF36BC21C3C5BBBDE1FEBBEE7CFA3C0CA910BC8586823BEF2600BBBA405F3B2A5DF33AAF8CA83A22D3D03C24F43C3CB215E73BDEFD40BCB863283BCF9FF03C197DC03C754B5E3BD999D73E3D5292BBB3F0E13BFD6FCEBC1836203B256943BBF93EC43C008B05BBFC4E17BC85BD0D38C0970DBBD86A903C00EF1ABBFFBE773B8BF1ED
BC78DF343D09C9BEBC52718D3C8C2CAF3BAB9B263BEE4CB83B903636BB274AEEBC4A4B973C36AA2ABB2D0E51BC22C9993CDCD87D3A1246BE3C3A89873DE5D8E8BC95BA5C3BC614C1BD10E4713BCED0833B4CE236BCAA4434BB9053E3BC92FEE0BCFACD43BCBA98DDBC87DD303BD6FB663C8AAD363BDE64B5BC66383EBD685F803C1C25363C314B193C446DE0BC7A420FBCD970F0BC8EC377BBABD05BBBC022EFBB26F8CE3CA98DDBBC87274EBBF17DEDBC7A0821BC997BE0BD2C7522BB74BAD53BD1413B3C2D60063D3AA60B3C8C64703E04CB5DBC49F195BC9DED083C5B268F3C312537BC11BB633C10C635BB07208DBB1C081AB9AC21903BF1D80A3C041AAB3D39D195BC0AF3A93C7ECB293BFB73DCBC53174E3C314F4FBB6267ACBC0B871A3A575A77BC801BE1BCA72F1FBC1234DEBD5105943C4BAA033C097251BD14FCA0BA66C6523D380FC43E6963713C4CC13B3C96634A3BBF2E01BD475A293C71C43CBCC965ED3C9BCFD0BB82670D3C1928ECBB80400EBBD6F2843ACEA5963B3B120A
BBE411C2BB34FC8C3BB6B8AD3D1A0BCEBD06658B3C02385C3B2143ACBB1BFC543B84172FBCB4AA513C1F5956BCDCB88F3CFD0E81BCBF90FDBBCE802BBD8A13503CD3F6673BD00FD1BA976CA33C00788D3D1CEE783CFBAAA0BD0250B1BC980996BC34878BBC28A34DBBABF516BA80F1EFBCC6134D3DA65149BD21C0623C8D78283CA94A64BABF1B053B91FFB13CE0583C3C3209923C84ACB23D05A966BBDE711EBCF56B55BC64FC7DBBE059F63CB818FA3D5FB0F83CDCDAD03C9EFF57BB8F26B9BB0A3273BCC53C05BC5D603DBD1FEB40BDACC77C3BD4CF2CBD6BD4743CD07667BB1D33E93C206B053C7FB41EBCCA1AF4BD305A9A3AF9BA253B3C06F6BCB76281BADADBD0BD9A8B583BF0B6B2BCD8034BBD7930813C8F3A733C21C114BC8D35223B35BFADBD0845723D0E8A1A3C5D572BBCA258B43C0D16413D29E69E3CF765E4BA61A8EABC7537C73D8A4AAC3D13EAFC3B79657D3D110233BCBB50C5BB5061E0BDBFA8493C5DA6363CC0DEA1BDE899B93CE1C5F0BBDB2AB93D090984BA4BCFA4
BD23F3963C3F25F93C934AB43B9AC2AC3AADB0793CDC4ED83C8A3AC9BBE4853F3CC230DDBC5986273B360D6E3D725FE83BFF9D613D2880FB3C0DAD09BD8DADB2BA3E0FD4BAC74AC0BC3C3E533C480E9DBBA2B1FABBFDE8AEBBD3E370BBB2FD8EBBCFD7B93CBF8CF83CFF180BBD4E4BA23C49EA8A3C7DB144BCD56FA7BD654674BC870F33BCCB09393D7A5F1E3DAF27443CB0EC413B0B3BED3C4D032E3C88DCBABC46E17BBDB03F6BBC1F3EC4BC8C2809BC5E48363B28472EBC2DDECDBA28A3063C455F0CBB44230FBC493A753C884F1ABE234FC53A3B3D64BCB99385BCF13D4B3C9A0CE13DA4756DBC3332EE3C9143C6BC7CA626BCA098C93B9FB6423BC0FEC83C45E360BD02CEB3BCF1A34A3D3E5462BC0CFB0B3C1A2145BCE0C6FABC89C0233C6101F43B37CA0B3B5A6F44BC61A2223C8808C4BBF69D243C87ED2EBBE872F83C3A61F0BD09A4433C30CC53BBA724C23C5148633C88BBA4BD2076483CF489FBBCB2F4ACBC0FE37E3C97F3143CAC07ED3C9E80D0BBBA14ACBD0866CA3CEB7E3E
BC0D1B99BBD0BFE6BA9F3D56BC71B3D93CF1F2613BA737A6BB5E9CFB3BA35FF43B8B1294BB2BDB233C2FA6E0BD85FE76BB76DF53BB73C759BC3623ACBDDB02CBBAA83D6DBBA9C4793D3400253C9755493ABE326EBBD31FE939C9D61FBA0FA8163CCD3D333AC7B9B43BA74C873B3A51523A5C99E33C283ADFBABCD9A4BCAE92B63C2280DCBC0B37A43B1B5AB13D4B121B39BA3E1C3A87BED5BC509CE23BBBACF8BBAB4ECEBAFB79813C14B7A3BC74F169BB5298CE3B9C1BEA3BB57106BCB134F5BC6BC7513AC1D20FBCFA8FB5BD672A33BEBCFC653BBE77783C3273E93A8BBF463C1050813ABA435D3ADEDCB23ADDE3A5BB33495C3B913C0DB9FB5466BC06BEA0BB451FC43AFED8B0BB6224C23910AB913C6D5E14BC30AE99BB8D0A7EBC8F68803CBEC8BFBBEED9433CD4B4A6BC1A80143D1758973C4A6E963C2AA8823C9561863C5F54B4BAB3AB2DBD1A1DC0BBC1A05D3AC538A53C7307D43C8D9AA8BC4EA0873C7D3F723CD6B844BC39E4F1BCB2ECEB3C0A8BFFBBA7B0B93BCE8457BBCB15A6
3C10E50EBAA9D3C33CBCE926BC112A1CBB6F8961BCD0D5243C248057BC95B05ABC7FE0C23C1172B8BCE03673BDCB6F57BC721194BA90CF5C3C9A28EFBD77C9ECBB01AC53BD2D56FF3D497A333DDC2F463D6E58293B847CA3BC3B14B9BC3597433D42B86C3C9F9407BBD2F3DABBF935083D123B393C3A9C9FBBD8ED4DBD747BFB3DE35D3F3B028004BB321CD33D73A7A4BC67FC72BCCBD2ADBC5AD7CEBCC8EE24BCCC14DDBA322FF03C9E4B4BBB97A7D8BC7273AD3C831D8B3C672DF2BD0A4B70399A0379BD813A7ABD238ACFBC02652B3DB9B5BB3A2A1D72BD409830BBEE26A33A5691203C1C7A51BD2DBF60BC06D7C4BC507B51BC9E750EBCF88B693C15170ABC906699BD20C5B43BD72380BCFDAB89BC7BA03E3C4508353AE544653CA7BA8CBBEBBA743CA551B7BCE408FFBD1F7E8C3C9D14F13CEC53EA3D8082A23CADF339BC2619DDBB8FF4A2BDCDAFCABDB2E3E23C8111363CD626C63BAC9D18BC88C7E2BCB5AD70BC24E0993D4290EBBD949975BBCDCE9BBD239A9BBC3C873CBC780CD3
BD4085D83C546FD53BC86062BCEE8729BD013EE43D2376143CC3E0CCBC9201753C0499653BB35C3DBC16DC513B907BF2BBE079F8BB4090A23AC35256BCD2CCE9BD8E207D3BE8015ABA0ADF8BBC37AB263C551F363D6421923CA916B7BD08864ABCCBE3623C89816E3CABAF04BD40F8213BEEB7A13CD563F53BAE62353D23D8BDBC0389153D1035FE3CD2D072BA95D8493B9ABB24BC02993E3A9A37B7BC0215693BB54BDABD2D43E4BC87817E3D27D9A7BC4DA335BBE3DFDBBB213ADCBCD9040DBD070039BC6F5FF13DD95493BC9CC699BBDB9FB3BAC1DB2ABC65D07C3BDA48ED3CD3F5733D618D453C6E5C513CF54E05BB5260553C5285753B821BF93C113C183B5ABF523CD72567BCD35CCA3D9751B23AE91FCDBC44C80F3AA5A42C3CE15D883C83F788BBA51EDDBD0A35A8BC7F10DBBCCB8E84BD2C5D10BC81416BBB36DB26BBEA2F63BD3B23DB3B46A2F63C990C533BD41619BC24B13B3C4AE193BC0479593ABD2815BC9875B33C9B800C3D0186B23C406B4FBC581E073C32E3DCBB1E1BF0
3C2AB603BC2FB2A8BC191D4D3C9AC771BD1654D8BB09ADB83BB54B0DBB084DA03C5757AB396535483C889C33BD6DAA493D034DFCBD4396E8BC1B48F2BB688151BC3D0C18BC567DD43C1D09B03D1370243CAA81933C79358F3BF92FF73C5DF795BC172E80BC10C48E3B1D0D12BC0D3A77BBA6C4373D3971A03B3D67623AD4BA7B3D2631003BA68BF1BD310622BDCA0D7EBBDCA0433B848BD1BC2FDD6EBC6BB9ECBD0A8AF73D49791DBC3DDED73BF213ECBC4EFAB43C983FF43B7208F5BC243F4FBC4FC386BB34950D3B5F0632BC38874B3D8D60F8BA078FC13CA9200ABC11FC753AAAB1AFBD6366673B25936EBC9013EDBB91BC27BA68AECBBC5302553B6C93783C2909873B7B4DF83C2BEDEC3A0C94ACBBFEA4A93ACC0C8FBB2C43693BFD50B2BC935D9EBC5E461C3BCE1AD73BB19E19BC264EA2BC2BEBD63C71BC77BC07D93EBC6FAB4ABC06D6943CC8512CBCD29318BC154650BC0E52383C70CD17BC68C2F3BD39659CBCDA5FA2BCB923733D5559953C819CD1BC020E673B930D7FBC5611CC
BCB83FC53B13A1A0BCC2EF8EBC0945B0BCBB970E3CF10C143C8EF999BCD514E0BAB5754DBB38A2463BE42988BD279CB13CD5605B3C5434D73A0F03013D31A1253D2503BDBCC154C9BCA2D5E13C57E4803CCA52B73CF76642BD0C1B123D2BDCF33A8372763B5BA61FBC4A7570BC97C14B3CC3433C3D5EB1DEBC136189BD950A923BC9A385BBCFEA75BDDD500CBD58B4D0BAE3A0C33C167469BBF0619DBC0B3C233C4949CD3DFA7D8B3C9A7F7F3CC3CC483D3D7F2F3A8AFD043C21C82F3BACD3B1BB88F0D0BC547FB8BACA1DCBBC21C9953C9EB036BC23F0C8BD00540F3C10B70ABC0B5B85BD7F1FFABB17A4CFBA421C883C4A60A9BBE620323C999AE73BCA1F06BCB1724D3C1F4B083D17683DBC208419BCC67AEC3B9429A2BC06205D3C060163BBB5B0473BEA3B153C2C51563C49F174BC082D763CF41364BC3616053CAE8E203BC3C122BCA198333DCD7FC43BC18B43BBECE5593C14A3FA3B21E99EBC8E8457BD83618F3A37F650BB512795BB96F8203B35CC59BBB422883BBBCFFFBBA8AA12
BCB91EC3BAF1F29E3B9455BCBB91D9F23CA98E5E3CB34CA3BB983CD2BABA90243C052A293B8BFA7CB9FE848DBB816A9BBC6C73623D0BDDB2BC39F719BB8B0097BCC64B0D3B132799BBF99C9CBC0EEC4C3C1339683C365E0F3C339557BC99C38A3C124180BC778223BC0790673BE96C793C1C5AD2BC9325BE3CA6BF33BCB371723BE22E673C27EC6F3A96E671BCECE251BB815182BD38C5AABC610F88BC5B8F303B611D74BC8557BCBAFF7852BD27938B3C474FD7BC1EA417B9DDB39EBC16CD1FBCB64B0ABC86870E3DEAD3D43C2E5C2B3DCAE917BB1199A73BBC147C3C852E893C0734313CB28C3EBC6B637C3BDE6E553C01F9FCBA8A38B33B3EFB9E3C6439AA3C31AEFB3BCADED6BAD8308EBB9E39B83CA43AA6BC05A402BBA16D76BAA3ECC33BCDEC7BBB712CB73B4B914EBC5C02653C211AE53C63F715BBE966393B1F14FCBA046F273D10BD05BC6F2C2D3C095CEC3C803414BB6052CFBD129FAFBB87B1D23D0970333CB62671BCE121B23C6E7623B9F808A33A8721653ACDD6B63C1990D9
BC01875CBC58FA2D3C6AF001BC5D941D3D1E1B24BACD526239ABD7B3BC02C179BB96E4573CDA4DA73C69F04CBD911ABBBD22A033BC95474EBC0155E73C35BE31BC18EB9F3C8726D23D2BCBA4BCD99A82BCD59582BBF23E91BC8B02D73BFB8C803CE6DB04BBC8E4483AD0C4493D702CDC3BC8B17CBD5931FD3D46A31A3D060137BC5F95F8BC464953BC0FC33FBDB77CFF3C17752BBD1370FEBCD0FB43BC5640823C91E268BCB087993C917213BD22DD5EBCCBA5B5BD026A8EBA25D4083AF791813B34CE723CF84EDABBE6CCA43D213A3D3BE3FD1D3C1AA1143DE2C32E3C0CBD2F3BC51FB3BC9E864DBC3F91263C97D4803D51D0C2BCDDDC06BB0DF2A63C2DB0AFBC9AD50B3D418578BB38B24BBC0230CC3CADD07FBC8049D0BADD0F96BCC26BA4BC54E25A3CCFD84FBCE1D5B23C84A33F3C118AA03C4181ADBD17C829BCCB5E38BC76A5C43AE8296B3D50FCBABBFB0AFFBB882C14BC92A2A93C86E892BC0702CC3D9C27BF3C3D7C92BDAC0FE43DA1900DBC949025BC31D2CE3BA08FE23A455276
3CB6E2E63C87AD23BCB181C4BC17A7D93A971C30BC0ACE49BB2E073D3CC0DAC83B145227BB89B0D7BBB9C6AEBC942B743C1A83DFBD1536F13C1FBD3EBDA6E62C3A7CEE76BC32A7753A9906A33C3EC427BD180543BCA0EC4DBD00F2843D5182B1BC76B39BBCC3885C3BA354573CD855533B2AD12C3D4789EBBD30B8FF3CE8DBE83CB50DDBBC30CC6FBD068715BD80B8DD3BF411873C7167CC39A5684CBA88DEC63CC16EDA3D64611E3A4700CEBD6945A3BC852624BC54241FBC6D5A613AA90B6E3AA351903C186157BCF738AB3C68FCC23DBD39DD3BE97A23BC8F7876BBF892A6BB3EE58ABCA6051F3A86B4FC3C44E1673C4BF5463C2F8C503BEA274A3C4622F5BBCE54DB3D14F7063C90B2203D143E673CC048C23CEAAE97BC7417F3BAF3E60C3BE97F1A3A9ABF00BCBCB8973B8EB5C7BD04C499BCEF476D3C5723923B81EC3F3C4759F7BC811B32BDE8642BBC2DA8083C523AAD3CBD3E213CC902703C049BCCBD5D528ABD2BB7323C9E05463C7DB0B43C171C85390B7056BBA9D0A03AA1793D
3C2530E9BC2C003C3BC1C443BC494D09BB762076BB78AF563D144913BC3B5800BB64C2033C4FEF1D3BB790B2BCBC1E753C42A96CBAF900ACBD3F79553D4980B9BC2555FC3BD33A793BCBCA893C1FF3C1BBF7B4903CA2041F3B9866133D1EC9F93CE52F033CC73FC73D3D0556BACA2C2C3C9CA449BC30185ABD2BEA6EBC58FF1D3B233C1F3B69CE5A3D1FD9393C06FE383D36016DBC216240BC06D9BFBCC4795639B38D1BBB653A9FBD36B5213CFBDA55BC4B2E453D4953053D0BB8F13D0F211BBD7526223C5339F1BD2BE6DDBCAC02ADBDD0A04E3D1955C63D371DE73C502F20BBDD69273D0B82023D3A462C3C4CE00F3CD339EF3C16FCB5BBC0A914BC4FA164BBA1AF8ABC52013F3C3E2E793D036181BADBB51DBCA345A33D1C1A313CC1DBA8BB9169883BC0DBC1BC932995BCA1F47B3D18CA2D3C28702FBC9547423CBD47CEBC453EE1BC3ED5AFBC1380AA3B4C77BDBC076E9D3B1726A6BD8358D9BC4F9D1B3C95763E3C4FDB42BC1E718BBC8D64DA3D15684FBBE3EE293CDC9E52BC61BFCB
BBD875C63C3222CDBC92ED3BBB453BF1BD01F0933D0AE9373C93E01E3C9FD8AB3C773DE33B8A6BB73B3F9B0FBD6228143CEA18F43C34CACB39EDBE1F3B59F3C03CF298A8BB801CBD3BC88B2D3D0A01F93C9C52533C0C8C3DBAEE64A73C700936BCE63D45BB20533DBB9932F8BD3BF5B2BBFBDA893D630510BD327AE3BDACC8043CEA5E74BC38AAF4BDB4AF38BC8D274C3C3306B03CAD2B12BD008FD0BA8C52B43CC85EDE3DC8025F3C2786E63CB5E26A3CB3B9113C6B4E52BCFFA041BC120EBC3B75A06DBCC500F0B942CD34BC6C9CD03C6416563C786A56BB3B68373BB27E733C98E3CDBDBA29273CE44513BC458919BBC4AF1DBB0BF1B53B11DED5B9ACFCA43ADC062ABC34DF343D49A8823B8A851BBD0CF18B3AD1B98138E2BD393C1342E83C61E3873C74C96D3CD38AEABC78D84FBCD443C9BD021B1E3D1C9A31BCCC77BEBB8100CC3C895E533D01186C3C941560BBB23070BADA11CBBD6764FF3D4BAAB2BDB09052BCC6D321BBAC0978BC82E1693BD4F58BBBC90FE83B064F363CCA69DF
BC67F8F7BCB9BBBDBBAA722DBBCC5C283CD3DF723C7330FFBA976D9DBC0DF900BCB68568BC82D4303B9B3D263E04B00BBB47895C3D08CFB8BC64AED6BCBBD5CABC8ECD6B3D468916BD23D6C9BCC40241BC97DF24BBAC6683BB3634A5BD89E8D83CA161DD3CD7B50DBB281DB23C507C423C101F11BDD5400F3D4DBF94BD8656713BB2A8583C4E71103D66A904BC398400BB94E797BC38E6593BEA42F43BC82863BCEB384ABD5F1A443C385853BAE932EB3C926BDBBAEBBCF3BC9EC09ABB4349B53C0CC3943C8157F03AECBF573D2DB3DCBDC2EC663A8449A9BD25D2583C7E91AFBC28ADDF3CDA2E65BCFED1D23C2220AC3C475C50BB924B3C3CF26EAF3D28D1D0BC3263933CBAC415BCB49EFD3C7557F63D3B4723BD2715BEBB4D632CBC371BC23BF5D7EDBCECB6EC3BB7B06D3C906ECA3D14C71B3C5957CEBD80B0313D256C72BA2229C93BB71459BD9AC1283C4978D23D0369E7BC93B990BD372E52BD0A76E23DE71B483C87C72A3D3CA9D63D2E24AABC1BB693BBCA2315BC4F3F583BE276ED
3B6B4D413BB21FDBBC51E14BBCD8B4413B890B833B66A729BBFC2513BCB6DFC73BB9AE9EBC8A6218BB520D09BDC041933CD166FBBCAD59053CDACA573D389BFB3B18AEE0BB8205DE3AA88FC5BB77AA653D39D854BC83944D3B2DF7FB3C4D53DABB197D3BBAD255ABBD3B05A8BCE960943CBC4225BD67B9963C5D2EF3BD95BA303CCF7DAE3D06ABFEBD370D9DBD1283D3BC46BBB1BCC5B5893C0118C13CB0D2393B5542083DAA61963CAF2C57BCC37930BCECD3EDBBC3E9083C42697EBC9464E1BADC07BC3C5D0EF83CCB48003CAD12C23D3898C7BB3F2783BB3777BBBCFE32E5BB9DF936BD3B9628BB917B2B3C0C8F8DBC93EFEEBB8EC2B4BBEF67EDBC9BB63DBCE854A43C52622D3C9CD670BD7E7A7ABB81C9F1BC805BA6BC2FC2553D5D54E73CADC410BAA73A66BC8C25FE3C16179CBBFADB82BD49976CBC17E2AA3A90AF3DBB21DD963D1874DEBD4932E23CB8B7913C9D35543C914A863B6201BF3C75BFA13CE1EBA73CBABF5DBC49980EBC1C4C9E3B28CD9C384AC808BCF420E53C84C6E4
BBA762543B3FA1D6BC441AA3BC0B52B4BBF125063C5C9C343B963008BC5EDC03BC608718BB5F9581BB3790853C50C0373D6F965E3D771CE8BB81169D3D7428CA3CB662B6BC763CE9BD5871073BC282AC3D4EC9503C60923B3C4E2F073C992A803CA2B4BDBA931956BC0EAFA2BCF2AD253C9191F53D744F71BD717534BCD224D93CA3CF6DBBE9B29CBCF3F0E83D4995493C87C6453C69D30CBD25C0923C881FD03C317ACA3CE2B651BB2A6F7E3D4B013D3D0EA7C53D1788B6BCAC14583A85FF513BD05091BD046F5F3BC28CA6BD09BDC1BD9CFC2E3952E3C1BE01494FBBBD33D93B0917FDBD39E4473D121339BC9B5DD9BC9953FD3ACE07283D2FB4793BD50716BB10FD9ABD7187C83CDF2A07BBC5A080BD071BEB3CFB747BBBC4E7573C3CB9BE3BBCF340BCE559E83C6A310BBD1188C5BCD468F6BBF1E57E3D2CBDF03D6013133C48E03A3C2016023D4B8DD73C9153DA3CB382473C0045B439ACD92ABCA5D799BD9C11793C2881D43DC3F76ABD1428DB3CC3A24FBAEA5FC43CAF6B59BCB1A6CD
BC8436F13C9401473C899F9D3C1BA6C23D23C50A3C78E2713BC5A2DC3C0CB7D43AFA5DE1BBB4AAC23BEA4099BDCF3C68BBE0BB763B5ADFB9BBBFC0F13D0D0B7BBC3B526A3A663C033DE8BE363D1601403D8121113C9865F0BB69037CBC231C5C3A898CB53CB2685E3B787392BC800F9A3C987E74BC8D7EA2BBA26534BC6207F5B9A32FB9BCAC9F6ABCB9F501BEA73B093BE8E3203C0D639ABC423984BC456A093C2E4C7D3CCF6F81BB9EAD153D27D5FDBD341F09BB9BE0743B226B19BCD53ADABC034803BBD26398BB5DEE46BC2FDBD1BD828B4C3BF24E463D3C5AFE3B7DBC433C0F13363C8243B1BAAC0FEA3AB028263B3583743A1A414BBB902E8A3B1158953C689E8CBC53B741BA5DA9803CFEA1C83D10EAA6BC5D9CB53C43F3D5BC5684DB3C7B91423D1DFED53CA712763C13F55B3C65074D3C2FCA2C39E7CAB4BC9DD5853C997B79BC28BACABC71CC9BBC6FBCED3C1589C0BD1059A6BC99F6323BBEBF81BCA48B53BC8D3B8FBD274E66BB578C7A3C708070BAB8E623BB68142ABA633F03
3C3B9A883B866DF9BCB231FE3B1C0534BC0F611CBC061D633B0EC3DCBC4065613C20DE503C5862E13C9185B03D8FF740BBB738033C5521C2BC0B66DABD19A3363C8F4F5A3C6CA614BC86D30ABE013C47BD68CDB03BA122F13D384C8E3C951DBFBC1091313C8DF6233C002BBF3C50BFBF3B879B693C819688BCE6DA113D09FF33BBD1F961BC9E332EBD5F2FA23DA101023D049C0D3C755EC03C4400473C40418F3AFD197D3CD04C4EBCA1B49A3B82DE16BB6063DBBC6DEFAABC4C4AC73BE6147BB9F1D91F3D20850ABC0138543C8251FC3C8FE3BCBA160A65BB933716BBA2105EBC4BA56EBD424DB13D9802C3BC2BD8E33CF369453B987F963CEDE83FBB7D9068BCB62C323D2D0B7F3CD5922D3CB2414E3CCD1AAD3CDC81383C54AB063C9C9407BBFF50EC3C2EE9ABBC679764BD838E49BC8DA3E83CC5CE7BBD6FD9203AEE6A353C2F94B5BD426263BC6D1EF63D6C10C1BCBA2877BD0D7A84BC822B813C1E21C0BCE74D13BCA6109C3C1C57E13CB3B3823C3729DB3D5687493CEA70413B6310AE
BD00D067BC3DBFC33CD44C37BC6ACE473CAF94D13C03C987BBF8FC303CA85518BBFBB3393AD1B498BBEF63773D2A412FBD1BA12FBD6D6D96BC8FF723BC8A87AEBC47C8463BC17E503D6BFF5FBBD33CDDBC92B5E3BC50C3A3BCBE4F27BD23C2D6BBC1D5BEBB15A7663CA815A13D0A1515BC4D1070BCA63F363CC21CD83D50FEABBCE52C613C096E203A1F98543C746F44BB94E3A83C9E1F463D5848B5BB8952633BCF452DBD3E7A33BAD8D707BB020FEE3C31D3D0BC17F81F3C8DBF03BCC11236BCC33A6D39AF337A3B69C06339EB5C62BD875472BC7544873DA9B20F3BEF5C493CE3995F3CD528E7BCCDFDC83C93AB26BAFCCDBB3C319D21BC87B293BBAE53AD3C355140BC59CEBEBBCB3DE9BD508D1A3BB2D66CBC81C24CBBD92061BCD855503C02ADF43CBF54CC3C28458D3BBEF0253C1DB8233CA459213C55158FBC664AA83C2EDC193C98D714BD5CA8573CB7C3A23B55CA2FBAC7DDD8BC4497823D5BEBD13D3A69013BB9E4EABDC572F5BCD7B46FBB385BB5BB9C200C3CA810D4BB93BF0F
BB237D1B3A88197DBBA089543C164626BC79BB8C3BA44E533B9AD75D3C20457EBAEE4B973A01D232BC0F3974BC4B05B7BAAAAB36BC52A498BBEC7915BCB6C9A3BC96DBC2BBBABB533A81D89EBB5EC462BC82E4DABBB1B230BA0E0FB43C2D21583C3E4DA83C25FFE3BC181FFB3C69190D3B80959CBBC92FC7BB7A4F373C7367DABBF391CCBBFE58683C7742FE3B19D5C53A8CF49EBB9DFB773B5F1B183C77736BBC4EB099BC9826C6BB4E38F73BC646E23BB776DE3ABCCB7FBC1C5C11BBD5B26CBB7CB206BB0AF1C4BB4255F4BA81DABBBBB58806BA1888E2BB21F60D3C04252B3BB06BBFBC618BCB3B38C7D53AED656ABB95A234BA6B10E3BB3B576A3C1429C7BBFF9FE73BB438CEBC1FD610B8F91EDF3B91695FBBDAEE23BAD2CE30BC708ADABC3F3C72BB65D9F7BC7432C0BBDB698CBB11DAF83CF8E937BB7180A6B99D0BB6BBE86EBD3C151C8B3AE90D703BCB3CEE3A97ADC2BA8735C33C44E5B3B99BD69EBC4D9EF83BBE4B8BBB5F62CD390A8E2D3B231E2338F25FCE3C026587BBC4B0C1
BC8B7A4A3C6991B53A7F862DBC013FA9BC9ED1863C9F820B3C93EEA13B396257BAB09949BBDA7FACBC389A1ABCCDE5B13C9C7E393C931B01BD064AA13BEC9A6EBBB64C52BC54B92A3C028ECA3D2E7141BB10297FBC6AAD33BCAB8E183D3C29AB3A88173A3C7CD7573C8126E5BC6630663BD231523D0351BDBCE8D27EBCE23F023C97B7C13BE00DEEBDD0D8DEBD47978F3B9C33D6BC3EF3A13C1304EABBF2B68F3C3E79B13D8045D33CD418473BA099C2BC9BE6563CA9EB503A47E83A3BBB3558BC734F723C1075F73CF8F898BC1A66053A8A17C83C209B1FBBB66BC8BBE03A483C1F84DBBD6C5B023BEBC0173C225DAB3C8C4E5DBBAF1E8BBBFA1C2ABC4659BDBC8CCEBB3ADBC86A3C837CE3BD6575A5BCFEB350BBB59BBBBC81DE26BCAA28F53C59A832BC196F033C0DFD76BBCB022ABC726B5A3CBD24873D5880BBBCAF1C7E3B1CECDA3C6C72F03D1C8A10BB19DE07BD29826BBC8294F6BBAB2BA43C39E4B9BD569E6EBCCDFAFCBC2BEF703D0D822D3B6596B13B1849FB3C237DC23CD23C9F
3B35629F3CD20A35BB1F39743BAD609C3B9547D53C5AA1F43B3297BDBBE6D95DBB8F1CDC3BE28F713C641DF4BBD5ECDBBB2BBC1139AFB6C3BC83E56B3C352BF03B73CDF33BB95767BBD0B7123C6BD739BC42AD2EBAF987DC3BB4EFB73C72792A3C35E3D9BAA4CB253B5F4D1A3CDB5AF63B1034043B0B33413C85BF9EBDEBAB0FBB882859BAA70DF9BC82D8DCBC87307F3C812E74BD53699E3C95A51BBBBA53313CA387983B2910733C59237ABCE2A5893D0791333B1DC8C73C5E43EF3B8F0879BC5D622ABC1A23763E27316ABBB4A7A33D8D401A3BDB54EF3B0803063C65DF31BAE2B0E0BC179C203B650E103A455EF93BE2E3CE3A7926363B8AA1F53C708D0E3BBAE85F3C391CC63C59DF4BBC0670773AECFBA6BCA246BE3C7878943A19ACE1BBAB512D3C044E923A471375BC179C6A3CEBEDDB3B9F70C43BA7DB543CD5F6ED3C65CF42BA9A7B493E01B992BB3999E7BC0F7D2FBC38A5A0BD339D433CBA5FA33CC0F5063CABFC4EBC46E13EBC8CFF63BBDFF41EBB814C283B37C0E73BF43C6C
3C986AC13AB01FC9BC733FFA3C3DAC40BC6F8439BC88B66EBB6D9E01BC69E6D2BC39048DBB7ACBC73B0BAB3ABC8879C83BDA416E3C6412513AE485193D14AD323C26992DBBC5475F38E402D8BCFB6A033BB709EEBB92A7C4BD14A616BC313536BB45C813BBF9212ABC4D7D04B90CF1FA3B6CF9703C7C16E6BCCBDC08BC49A193BC259AA5BB2CB29EBC192F76BDC8F2773B34191BBB64537EBC01A0C53C860840BC2AEBF0BC1D0E34BC84617ABD1AE649BC971439BACB27473BB7A3D1BB70ECA53C19D1AB3C43C00A3BA4CC543BFFE2F23C129C3ABC3484E2BD00E8BFBCA0FD86BC035D0C3D688686BC299441BA416B733C8445E6BA6FBC9E3C9692433C5643D5BC4726CC3D07863EBC017C143D3771D6BC52CE933C896315BC23272D3C0B2B41BBFB447BBB95DCE839CFE88C3BF9178DBBF9BDE73B7D8843BC3E13E03BC77F1FBB7E3757BC5B31DF3D4C56CD3ADB4AF0BC89EDD0BCA702F13B92776E3C4CA3B1BC20E296BCD1289D3C3A19C53C4BD8783B0453213C91DAEDB9D3492F3BF80012
3C45525ABCA2A8BCBB06E1863C53C3993C69C3FBBC88858EBC9777CD3AD6D81BBAA2757B3BDDB6CEBC2AF2133D111FBEBCA2181F39B891953CB218063D803B663CAE7F453C67AFA5BC6E7DDDBD268FA8BBB71152BB49D41C3CB0FA63BD5615F7BC1CA3ADBBE06F9FBCA85C6B3C5270DEBBD8A893BCEFCA903D0225953C63DB87BC95ADBE3BF1506A3DC43E0F3CC79C06BBA2984C3CA4DF68BC4779C23CE131C9BCA6AB57BD5E5105BCD64506BC10E82F3BEAF2DABCA9D1D0BC29315BBB84AD25BCD254D2BB89450ABC0011673BDFD73F3C8A3B99BBFF97423BEE25AB3BCA64E4BB7742B23D67047BBC1B31563B1977F1BC54CE893B1C63403B9C93E13C3D22973C7775203BCFF747BC9B95563D3A40833CEB74B33BDE33B43BE319B23C8D31A63C5092B7BC0DA5853ABD5DB7BB38CF6A3B8E4BA2BC50031BBD2EDF023BF69C70BBC4F857BC1A6146BDB3A3B33CA175883D3036803D20A51DB980C32EBCACE0333D403D60BB3C9735BA88B8AABD2219ACBB828D7ABAAFC403BC3BC3D1BCBE18B3
BB666B97BC80102EBB9917843BEE16A43CAA38F8BC05B92CBD88B3B83D164B0F3AD1D4993C718BF53C688E643D3AA7F1BCA90502BC1D4A5CBB897C4ABCD3552EBB2A6E82BA595F03BC844C8DBD613B6FBBDFE730BBA1A0D0BC1BB8C8BC5AD2F2BC527AD6BCC0245ABD1051DBBA9BFF4CBCAF146CBC7097BBBD55E4FFBC73EB81BB821023BB2A6965BD889655BBC53DD3BC289B023BCD3FB13ACF1B0DBADF6048BCCD60EFBCB7AF10BD6B1976BD4009233BD6F1C53C981D7CBCB1ECA93C350089BC3DBCE03C5FDB8F3BD79D2ABCBA25D03CB4B7183CA2FEEA3CD3DF1EBC7451FA3C4D4E66BE0F52CA3D4A2A48BCC6F7ABBB6051DE3C953AA73B13B98139FDED303CA1270BBC520ADC3E03BF6BBC25C234BAC3A7DD3C52864DBBF9CC4ABD2760193C49FDC4BBE804313C1B34123C5EBCEBBC0D7DA33C2EB17E3C23FE8EBC021EAB3C03B0C6BC06897EBD877C163C182922BC27F8923B22F021BD4047FE3C6D1CCC3CC2446FBCD28C92BC562C54BC87BEC7BCA0390EBC9FAADC3BB889653C375796
3BD20D563C0C58FDBB232DDE3C4261663C34A08BBB202093BBEB70273BBE25793BA3E0193B8200983A3EBF883D43CF763B8CCC08BCC8C4CD3B8CB4233D6B06D1BD0AB87EBC096536BAC0B6503B3C0790BC81334FBB602564BB1205283B0B8F1DBC18B816BC427FEEBB64A2C7BB891204BC2D33833B9E20863B0766B9BCE1A00EBC220F7F3C22EE793AEDDC46BBF3EEECBB8B99233C278C3BBCBA194B3CD8DE783BBAD714BC60D060BBACE14D3D8467953CC0840BBC21E95BBC75C6A23C6C6D10BB964F99BBD075E33D17923D3CA3A03DBD43E6273AD67070BC66B9ACBBBECB64BB4BC4D2BB422D26BAF48977B9CC0C0339818638BD028B75BC179DA33C06C020BC121AB9BBDB4CC0BA21F0643B97C9333C445A41BBDDFB94BC0926073C5745E03C77254DBCD6ED003BF3DA91BD0E5A69BB9CA1FFBCD89A6A3C1EDAB63B81B38CBB425FDB3B2972C73D8231BF3BCF9E3D3A82BDDDBC947108BB6E80DABC7A2388BB5F5C1F3BCDB786BB18C260BBF5F66CBC190BFDBB3BE0F7BBFC62EBBB95B687
3D29CAA03C21AE4FBC84AAA63C9D3D0FBA72B37FBCB22E6B3CF5FCBCBD655DD6BCC08836BC467430BBF80EE2BC9AADE23D1CBBA0BC071B1A3C8D5FB6BB9C43D23C28C9D6BBA5E8AA3BCCA3743C4AB2273DA71066BB9CDAD33AF19ED33D0871CEBC6C0DE1BC27BC34BA0623163B04F0D8BCDE756BBC544E79BC52E64D3BE4F5D1BDB7AA2DBD0820E83C9B33E53D2F613D3C4DEA19BCB7EC4FBC6313A43C9DDC193C7E56DEBACC97C03C30F3D13DBFC2DF3C69810EBD1D7EC43CC977CBBC22C8BFBB1755D03C11BB20BB9301D1BB05F80CBCD4810ABD11E7113D32A825BC5897A7BBA8691B3C96BAD5BCDF1DF33C8062B53B012F75BD1F5CE2BD064B0F3C6BFF8CBBE71A14BCC12B42BC30D2D63C0C7FA5BBE8DE4F3B088D4E3B909BDF3CDCAB4E3C0C57CD3B5FFF8FBD1E8CBCBB20B9E9BD356A40BD5B9EC33BCB98A0BCDB6306BBE21E8CBCE5DF52BD0E2B97BBB694AABD00F1A2BD079086BBB30ABDBD0D8C673CB049B23D7098973C48B441BD0B7B583CA57F54BC7D5BACBC2969903BD26627
BBC59C6A3B5F5BB4BD60FE673D44F43DBC75A5BB3C070397BD0A86143CE8E986BC2BEFFCBB8C9498BC0AB00EBB54B9013DF47154B9912094BCB4FA12BCB864AF3BAB786B3C2830FBBC34D6363C6523723DF5DBFDBBC083163D447C213C08D1D4BD121746BBE55412BBD2E3D9BAB5884FBCA3280F3C006332BBB51626BD9A1AABBD006FC7BB6FA693BC12C73C3CD66473BB9889DD3B7AA7E63D993FC1BC9A5757BC48188C3C82D5B8BC28FCC23D64F298BC75959D3D928A31B9F961953D4AF879BC0FC849BC1FC730BCB4CD2ABD23D037BCE9AA0D3CB225FFBCCEE4C13B1354473B89DE103A5BCA923CDA59A9BC8A0295BC6E40773C9888F6BBEFBBEA3BC3DA3D3C2BF107BD7821FDBCD23063BC09328CBBD16EC33C429E503BE0E45CBD0670A13D4B1C693C01CF62BBF32AB3BC25356ABCD1AF173CF459C23CD7ABF7BD2C3A7CB8E5FA83BCF3B20F3D2A79C83B9C2274BCC241DD3CBC57973CA49FEF3D0583193A85766FBC41280E3CA8EC34BCCE4F34BCC69265BCCD5BDCBC730921BCDD3811
3BFCF71E3A3E5607BC5D41CCBD343073BD627A36BBE57A223C16CA79BD1AF213B9116FEABB749A44BB7CA5E0BD307515BBDEBA293A89BF83BBE26DB13D83C13F3CEB60CA3C870279BD47ABA4B748266FBBA11B183C4679543C0C4796BC8BB0BB3B0F333C3BDCEDCFBC7BC00FBC7918B43C5ED6D63C8A85D1BB2908B7BC19D0ECBC91E5F3BA705F49BC9460573DDDB40E3C5EA6093CE31391BCA6149BBAC4FCECBCF07708BC015FEEBC1DC8D83D3508B3BD20091DBC830EC63A7ACE0F394A1A54BCB5E297BA25A86A3D3366B4BCF1AE32BDB894DABBFE34CFBB42AD1B3D19A3213C345EB6BD1D07F73BED2A183C988602B9F7E138BD130502BA363F9CBC8E5A2FBBC17D353C3DACCA3CD6C51F3C7C585A3C541894BC4EFF90BD1C54FBBD3277B4BCA7A76D3C4B46993B86FD45BA545D6D3A269647BA02F632BCC62A2D3BB6EFD1BACD17393C17B9DC3D9A15933C364F6C3C8FBB7B3C16825DBE047FC7BC0CF989BC3F7F283D00BE503D0AC20BBD07FE943A857916BB9AD46CBC4EA9A8BD21702F
BD24769EBC0F968BBA933287BB1C9A663B71539A3C6EE0273BA5E9B7BB31F08FBBA5F1ABBC9F6F7EBA5AEEC43B678907BB1B5E7D3C0C07E3BB3D84343D0647AEBC043A6D39A71DBBBCCD3A213C9155C83C220648BCC9DEB5BABD44AF3D2DBBD33C5E87DE3CB75BE23C0871E73C5D5EE63CAC71C73B24A7983C93B252BD2909B2BC4D514B3CC06054BC446F77BD6F08903BC41E8BBBEFC335BCF1E5A3BB73123CBC7E527BBBFAFE89BC24F7BA3D35092C3C51370C3BD575693C04B7573AD1CFE43C349035BC02FADF3DA502143BE2EE5EBD2CCFD5BBA96970BBEC45243B84C1073B19F241BCB2B69FBC9482523A00C2A53B95307EB9EFD52E3A3FD2FABB7479F1BC5C535FBC405FB83C936DE83C56422ABB098FF0BCDE38893B5A5DA4BCC92B5C3AD5C31FBB8AD1393B5021C6BC0C50A33C1E3BBCBCC83274BCE30E573CC276E83BEEC598BC8AB4F93DAB8EF13CA72DBD3D12D441BB2D6E5BBD5BC0AA3AB71018BB5ED620BC2AF6163C52AB913B449DE33C0779F6BCA60E75BCD176D53D18EFCE
BB571E3D3CBC25C13D786CF9BC8B9B59BD2366213C9ED971BBF76F1D3D9BFEE1BC60BB333C8535E93BFF3542BD5ADEC6BDB6C765BD4A9AA6BA82D49F3D4235FABD293005BD553387BB84D29FBC6DE20BBCE01F363D4BEF22BD9650CABB9BACCF3C7E3573BCF5232B3ABF9F703D23E5E3BD12B139BC90E106BBD85EFB3C9B3EBFBCA24F08BC89E90B3CFA663CBD6ACB68BDE6F199BC6ECAE43D382021BC2D6A1F3C1ACDC1BC9FA4D3BC3150B1BDE67BF23D22565BBCC74AAF3B6E9148BD0EC528BB1D3B323B33959ABB89EA833C05D21ABB8997323A2CE5F7BE6D5F713B031E773C75D26EBAFE267E3B96472BBC452DAA3D6205213DD8B9CCBCFBDF5F3BB53A723BA9F7DC3CC4022CBD6DD8833CFFF7EB3CAAE52BBBED992F3CC5DAD33BDFF3FBBC2164B93D2EBB01BC1AE44C3D3B62D839A1C774BD3353163D1270613D9280A5BD05B35E3C8345E13D953C9EBB2A75E43D8E410DBD59E0B43B993032BD8E336FBB7CF590BE7DDF923E22CC193CA24C7C3C3BADB1BC9AD7BD3D8B93323D19B5C5
3CB5440E3C8011F73C568D413AEE48623AFA18733B4863D73D86E920BCE5E566BD1701073C9CFDC3BC83BE57BBD139A73BABB40CBCEA012CBC9EADF1BDC0687E3C754E86BB54BE823CD741873D3C006EBD6998CD3BE89C51BD909529BD9042963C3F4798BC0FC189BC3AE255BCF0D14AB9D257BDBB4E260E3D2B368ABC9AB2003D9AEEA4B7ED24653D295900BC70F872BCF70D6E3CA7961BBCFC0231BA2AE0033CBBAFC5BC3CA6E4BB9925D13AF284AA3BB5D4C73C3A4495BBE88534BC2D791CBC075931B984E2BFBC80A81A3CAE12D63CD34A643B8B423F3C2896A93C401B6C39FF37A13D04AF33BBB964B2BB9A09CB3CBE50A93C6478D43C047DACBBAA8D8EBCF84F1C3D9532373C4E4697BC2A9F673CEBA00ABD2254BA3C500388B8470BC83CE2C96A3D8135A93BB0ED093D3BE1133C8E12573D6576643C82BA4BBCAF96C83BFA20FB3D5DFA21BD23409A3C2D502D3C89CC96BC8837A8BD4E32B53D2F35B2BCF1D0F73D4B16153B8BD9013D8B0800BCACE5643D0DE12D3C4D5C63BBE7B61F
3A464FCD3C790D543C5E0293BB87487ABC07D9613B96C323BBD2CC52BA86BA103BCE114C3AE64F42B8AD8F5F3C201A703ABDD276BCE6B356BAEB33B4BD6BEDFA3BE043E73B181A1B3C773F28BAB53DE3BCF547DB3C462DABBA0D0B9EBB87BBE5BC1EDE4FBB57D18FBB91763C3CF58543BC9C50C9BCA7AEC4BB0086F5BBFB25F9BDEA9BFC3CA3E45ABBBC7142BC88F5FB3AC463303CCB2E3B3BE060B33BDC11F93BB5DDB63C2D12233C1A540C3D6EE0A2BCB68E68BC310CDB3CF9F75BBCBC0C19BC7BBF393D0CFEF63B17E6853BCB4E44BDB18E3EBC10DD40BB3989DA3B0630E93C5B489CBB2BC8B13AD0D8933BCC0018B913FC793A9E6D1E3BDC91763C40BD3BBA986A3C3B49400A3BAB1E6EBC12D0203C8A0AAFBC1B7FA4BBD508F8BC1EEBB93C8396D6BADC430B3CB70AA93D0B11143B9D85483CBA933B3BD1A31FBC532F623BF035243C7A5B303B314CF23CDCBA4E3D00673F3CE1D8F33C3478D83C8A65B53BCCBC5DBC9FF7A43C28CE3FBDA450A63B1627B739DF1EC93AA49DDFB96EA53E
BBB0CF423B52DA3B3CF26FB93C5DC77EBC0656A4BA44E6AABBB7906E3A8FC782BCC219673BDA6F48BC20DBCF3D30B9BEBD8B3F9DBC713867BBEF0B513C1B5101BCB3FE6ABCECD467B9863496BD9D39D1BD977D2C3A3102BD3B4E85673D06C9953D5376ACBCB6C90B3C0CBDA23B8094F33C9F50EB3BF150DEBCEE2281BD03A3273D1AC1B8BC1B0C6E3D0122583D3E0CF73B2A98C9BCB4C5DBBD1B23CB3C57546C3CBD3AEC3B24B18A3C03D8363B85FB27BC5360DBBD5570253C318483BC3B16FEBC2B67BFB98398E6BCD4E8FBBBC9F4C5BD84E3E03B7E3B6BBC36836D3CB1D2F3BCB426403E1318823C14095FBB8F1563BD335852BC872CDEBCD4DAE33CC112F0BC65C7E03D97B7EBBDB959003C943B9FBC477DD93C9D48D53C817DCBBCF4D4083ADCCEBFBC4492913C66EEB4BAE2BACB3D2BE1AC3CE08CF03BF3E41C3CB6B3AC3B2318B5BC5DBD9EBCAFC3753AB0809A3B6D0BC2BCA77DB93D0B75523CD71F7ABC1895F7BC7AEFAE3CAB85333C697B52BB7DD45E3D98B0BA3CA3CCF9BC1BDCAD
3CDBAD8F3B809493BD2C01A63C7B931DBB653987BC9864283BA770F23C5985F43C1E3200BB5A2374BC2C870C3C8C0FAEBB23E8443C1EC517BC40D5A63C7B67C2BC2085AFBCD390C7BC2138F9BC144E4F3C9FD4E2BC1A1C1EBA7B513FBC1E3D97BD1E846CBC94BF523D020591BC8356083C1BFF043C8A93D0BDA3CC183AF4BBC2BB9130273CAA19A7BC9C16A93C3027B1BC5724693C67B34EBCA2BBF03C0CB5EF3C8C17293CC27FF3BB1C5F9DBB23D7E13CCA005ABDB8C1EABD50F6FFBC79D0513CDE70D7BC526602BD5B033BBB6D9B793DCB102CBD6AF35CBDE4F6AD3C0234CD3CD3DC48BD4D6278BCD9494BBC93C700BC8DBA033C479027BCC32313BCC9904BBB0462D8BD2A09933D383C97BD3F97DC3CB62644BB03E4D3BB5DE1D4BC4164E6BC27B7E7BBF4DEE6BC9014FCBBD09CFFBCA714A03C77FE803C019D7EBD00B647BC586BEA3C31D067BB2FE34D3C90955B3CB6D931BC046E913C596A94BD67F0DABB6D236B3C493F24BCC274D03CA17DB9BCDD9D6ABAC21219BCE46FCF3CE2EFE9
BCDB31FA3C8E52E43A02D36D3D3FBA2DBB2D8FE03C672BF9BD468C8A3D17868D3AF02FCBBBAE136FBC7903DDBCEB6396BC84A9D23CB893D8BCC1B2AA3D6ECC67BCB532763A7EAD54BC8E589FBD9939CE3C1527BCBD14BF76BB82110BBC6E1F1C39CF2AF7BCBD7EFB3BEA4949BC69C135BBC0ACAABC99E5C2BCC2BDE8BD5C5BBDBC9DF2F0BD47BC303D30201F3B104C86BD293C20BC332570BCB6CCA63A81D25B3D0116BFBA205A3B3CE8144EBB71C979BCA19E0D3CC40E2F3C71FDEE3CA1FBAB3C43ACDA3C11510ABC8D6AEBBCA6F5183DB3DD493C0FDB4DBB7138183D867C0ABBBE3F243DED0B853BEBFF383CD1A754BD00E58CBB59CF7CBD075947BCD02B2B3B6CCED8BCE83C25BE0113E83C00539ABCC311063CB758C7BBB525D2BD90D12B3CB4C406BB3C7852BCE944013A28DEF43BB7D2EE3D7DC79D3D166DF2BD0B04523D154BA43CBC3A7C3BE6B447BAE02C99BCC7DC9D3C2D247C3A8C78163C418649BADF7A9D3D5CDFB43B08502ABC1F88E5BC8B4B483C005F37BAAFC223BD04C0D0
BBFF1EE43B7BD9E63D2C8F753C4F2967BC480C173C9CDFD83D98A25EBD936DA8BB8977C1BCDD08A03BF511C3BD8375ADBC62EED43D23B8EA3C081AC2BBB559D13C228A2DBC20E1F2BC6F985F3DAFEAD23D8B0C3ABC18898B3C3C94CF3BE2EAE7BC063E25BCE19A5FBBF2C9DC3C3A7B92BC46ABB4BB9A554F3C8C5D2DBC770D28BCFA6494BBCF3F543C6D5E703D4F44C13D5BFCA8BD2E7D61BCFCD5AABD4B2F063B69AF59BAA32B173C0344AE3DA22F8DBC3B4721BDEE1EE73D24F8CABD0801953BA304583CB4A4A4BB8649003B982B84BB8127B1BD86D8D7BC609E59BCDDEE3DBADCC5A03C2DF8CABD8C72183D0528D03BAEC693BC8F26ABBBA4AEC93D5662E93CC71932BCDAEB383BEE2B523D075D223C32CBAEBD0009CFBB4C23FA3C957A13BA7782DB3C1A28353CA3C5EE3C8A5986BD421125BC9CB0E8BC7A8D31BA769BCA3C37D0AEBB1C8D50BC45027EBD6625E83CAC086CBA438BB83BBD4964BCDD9C71BB28B2653CA8E71F3D05CBD1BD1842313D26F861BD85ADC03B50FFA6BA849B98
3CA837953A94C05DBB9E0C40BC11905BBCB68E14BCB062803CA7F412BD4074023B15E10FBC29AD683C8A76383D16E8B23C435DC53CC85527BBB305853C9E98E5BD3C314EBD0285403C8B31843CF4EDD03D068976BC979E52BC2173483BF95297BC19A017BD1164A0BBE1F8853B4CBD1E3BD493963BD8D559BBE4FAFBBCACE572BC1AF8A13BEED633BB704EAD3BA4CB733A3A3E72BCAD7C2CBCD51A36BD996512BD65A27EBC31F5653B4DF1E73D00520B3CED6BA3BCD7CD22BB27EB003C3F87793C58C14E3B945C46BCF8086BBC09A04ABD2902EDBD099B28BBC189EFBD0235A1BBCA20303B66881ABCA321BBBC2D4858BC025295BC211D06BC4253B53B917E76BC8CF89ABC5A5C63BC1A098EBB2A9CA53B12E682BBC586E1BB5B01DF3C89207ABD384AAD3B80322ABD50D702BC99B893BCD092F3BD7F26913AC6DE28BC9707DE3C5D9A3D3CDFCCEEBE6BCBAC3CA3B34B3AECCF573A0198913C7027C2BC8557AD3AF249843BFBDAE33AA3B9A2BC7E43C03C3B8831BCC68F57BC0A556EBA7D56BB
3D13CB9A3B73CE673C80D74A3CDA0F1B3A3904B83A831A6BBD28943D3C92AD3CBD644A6CBC66AA9AB96FAFDB3D42986ABC25BA4BBCAA730B3C6664E5BC66D03BBCE579F7BBBD8E14BCFDF8D8BCB46E15BB50C0A53C45C51DBB882A7A3BF5409F3A9C4024BCA9D257BAB308133C4F0D9FBC8DA4963C93AF2CBD75983ABE06E4D43C310C86BD290F90BC0A90A93C74CCBBBB107293BC8D8F2E3CB2A51FBB3A546CBC3DC3CD3B8C00A33B587C2A3C29B32A3D47D0633C56002B3AE73AA4BC4CF63D3C1A8BF83B929659BB3E9231BC90E74FBD7A7B7E3C80C159BC1097EABC93563BBCFB4B40BBAE89F93C2791D6BD108729BC63DEC1BC0865D639AF97B63D2D12703D304D5CBC9EEEC5BBF8F0CCBB755195BC7B41ABBB9F88D23AA2454A3C8B40E73A5553EB3BB74FEFBC777F8F3BFF9802BD03217A3C9BB39A3C87F87D3AB8982BBC1E9D733C972A403D34B5B6BB284A12BC8C62F0BBBDBC07BD814A09BC6AD819BCC5E8B73CFA6A47BB32FF7CBCFDBC8EBB37A3D63AAAE1D53C64B1F23CACD41C
BC24134A3B8C4853BB7E61E3BC074B74BB3E9E723BF417BD3C0EAEFCBB82285C3B892FAABAD629ABBB47AAB7BC5647D738AD3AA03CA32BF73BE7609C3CDE69B5BB1E5EA6BB0A39E2BBD3149E39AC0F893C92DF6E3BB11FCB3B5F63333B0D63663A3B46E4BC0C77C93A676014BC6954833B1DAB2D3C41FA9FBABF7AAE3C4104C93E110958B950F681BBA682423C125A363B01EFADBB8612C83BED19B9BBF25516BBE932833B7BB2BFBC02DAE83D05E949BC984AD9BA8A6F25BBCC471E3C5459D23BD6A9A0BD4A177C3C2FB508BC5EB6F13D20F8853BD3FB073BDA29473C618F4339E55B5A3B325F073B3D020F3B469A41BAB9DACEBC47BE32BC5D4B32BC2BF3BC3C9E3262B9CD8015BBE80C193A29A2C8BC075C013B7F382EBBC1FDD5BAC419C5BC04AE8C3B5031253AB8E276BD220BB6BC04A575BC12327B3AC3D26C3BBC38D5BBCE3D3BBB8D0E7DBC3EA70DBC38D03A3BD347FFBBDEC11FBC5E2D75BBD0B007BBF822073BCA4B923B72AF963D44976DBAE45D25BB483161BC03EA613B3C01A5
3A6CE5B23CBB6EC43D2578A3BC0F762BBC1B33F4BB77C8283D5FB3CABD227836BBD5856DBC26A889BBB8533BBD44EE2ABBC58B183D35C39D3CC5F76F3C078C333B94BB283BA6B1F1BB0A20ED3D61B1D1BD807FBFBCDD4C13BD2AAB563C9477A13C9DA2EA3D07F6C2BBA521BA3CA8FF80BC8F19BD3C718AAC3C1738CABD15EBA7BDC7301C3CD63CE2BC9218193D30D4DABC031DDB3BA4CEBE3D0283F03C806EF3BCCBDAAB3D03E76E3CC46100BCCF5DBBBD032AD13C3128C43C7A3739BCA99B7BBD085328BC9C3930BC2D01DCBC3776E53B86F30E3C0EA6CCBD0D35E83B624E37BD1B39513DD62BE1BCD12EF6BB9182BB3D81A6B33CE00CD1BC0921343C91B781BD2D94A93C8E4363BD4E468A3CAA8B943CDCD96ABC5B31383B89908EBC99850BBBA3A8A6BD0FE24F3D7B58D73C5659863C61F14A3C873688BCDF562D3D2F41BABC7A22D4BC83423C3BE31CC33C7A09EBBB2FDD9EBCC04B32BCC9BB8BBD2AE213BCAF61993C696B00BCA18D483C7C0A023B0988133CC11E3D3C182EFABBDBEA50
BB6FE51C3CB5CF5A3C8EBEB03CABE7703B7993CABCFD01DD3C9A8C15BBDCC1163C153431BC0A5F7C3C47BF13BC50E23EBC336B06BB391AD2BBD524BABC100BA5BC58AD943C125FA43C2597C63D204A77BC86F0F13C29963FBC0131A4BBBF12AB3C733A2F3BA454823CB443D33BEC55883B6F34A9BBFF11A2BC29CBCC3C1053B6BBC20F9A3C928919BCA03989BCC9E68E3C3EA7073D06F4FDBC6EF2F43B9BBCEFBBCA874DBB056F56BD7FB51C3B2BA616BC1E1D5D3B3FF0593CC86BC1BC3A21C33C1EAB66BC97FC9A3C913B32BC930E143C6EB5DD3AA2E2FA3CE742AB3CC1C11C3BDAABDFBD6B69B7BB955B97BC7611783CAABF0ABB1F41A2BC29700B3BC9A69ABAEFB95EBCB3DDE23D34AF97BACA940DBC8AD13AB9DAB36C3C4A28393CC7B176BC5EBA20BB11619ABC2A8411BCD13479BBF5F2B93B1EE322BBF4A4E53C0CD597BB3E3893BD240D363D06B31C3C57BBDA3D18F6E6BC42987CBD1BA2253CA2C5DC3BCF9657BC9C268ABCD4B5B63BABB71A3C87FB57BB7F33613C8FDD4639BBB1BC
3C61AD66BC45418CBCF5430CBC741783BC263FDCBBE55F013BCAE588BC244BBB3D1C8EA4BC02B5223C0AC462BCE096D03D8C304A3BF884EA3B9F2F9B3C5C3AD53C0AEFC03CF2955DBBB2728E3DA208243D9729A9BCD0248FBB481425BCB906DEBD891CFA3C9EF1DEBC7F4735BB553991BCD1AD5A3BB772383CCEB9863D1F30F6BCA3D2133C187A8DBCFF9045BD48DC39BBDB27E83C4484933D32FED7BBE22CCDBCA74F11BBB3CA61BC7988DB3C5ECE1F3C73656C3D413954BCCAACD83C2B3AEA3BDE5C793C2754523C9FD1273C63ED853D72841DBBBAFD113BE5FE66BC8A881A3CC29738BE1A3BE0BC31FE6ABA80A9D33D23B94A3B925C083CE323B4BCD555863C69EEE4BD9143313DBF0811BC8472E23C552701BC707A63BCA8885F3CB95FEE3B809FF4BB6CDA2EBC73A094BBB42F40BD761903BB047516BC119DF4BD17D171BC0508B43AE2F5233D900D82BC67B7A0BB9703DE3C27573BBBD8EC04BCD1BE433C4EAE683C7BA550BCD80A643BE92B2B3ADA7BA5BDABD85BBC8FE1123C0B13FA
3BF82F72BADE0338BC98F7D33C548D8D3C52C0ADBCDA310C3BF96FCCBC1CD91D3CBE45FABC0690A0BBCDD7D03C5385993CE6DC7B3B8F7D1B3BB9E53ABD394DC83D6D75BEBA3A8C7EBD6A66E83C08ED24B93D1F33BD00C85C3C0ABA253CC921213C30BDCD3D9453713C9607FF3CFECBD43CF725EBBCCE62593CE3F16C3C10D82435A63BDF3C3443963B33E5113C7C92773C2BA53E3CA020523DD57D7D3C6FDA033BA18B493CE592BBBB845FBD3CA6A8CB3CAF74C83AB2DA433C9C89473B0212233D057C7ABC4B6B653C48B364BC68031D3D1C1A83BC8C02D03C10F4FFBCB5257F3BB03B8D3BC9D513BB8739CCBC8A3B383AD1DD5C3B81A10B3CA7C49A3B1F42DFBCA0CE23BD278BEB3CA37064BCAB0F26BB3536BFBC8C57EE3CAB2899BC06327BBBF31CA33CACB2753C8AD291BC9889673C1A2A653BC3FBB9BC80CA8E3C55E6923C8A4B5DBC4576A73E302D183C273324BBBDCDCA3AFDB3AF3D9B57693CCE221C3BB9557ABB952880BD672CDEBC3F628CBC1690C2BA69B9BBBC7E301E3CB00D18
39B3951C3C146920BBADA1DF3BF4ED37BD08133EBB8F297C3C46B040BB4083353C911BE4BBE3E2F53C227C65BE01047C3CA84BFBBCAFB295BB2556643D2E33BE3CA01D1EBBAB6CE53BC28C463C96ACCD3CD47BFABC35C30ABAC49DABBBC77225BCAE73053AE178E4BC15872ABC3AA581BC60324DBB77C68B3C1F90FE3B0188693E2EB91FBB0599E73AB993623A8E9A0EBC4ECA8EBBEC3A833BBD20073CDE41C53B59C1723C3C6CE8BBC8EC2D3D2DA39CBD496B9E391F7CAABCB82957BB35C3B83B7D1AD53B782A343D2C53EE3C87563E3D1805063A8F3F763B9E1CE63C2CE1073BE1AA833C864F593BAC5B303B680DC43B51A345BBDB65BCBC399F593B8DC5B03B99121B39B1C622BC1CAFB239E10A6A3C730142BB976C37BC39AC57BC2B5090BB89DF6DBCBB57083BFBB60C3B3F184BBC8576893C58BCCF3B491A66BCA8FD3BBBD0A8E83BF0589D3D89F9933B76DA623BF76FA83C460CCDBCF806AF3B58925BBB3B7C733D5592773C8194DA3C2E8DBA3AC1DC473AF1CE7B3980E1C03C21A142
BCF8FCE03C5471D9BA08F6823B920370BBCC2CD43BB16DDABDB3CBF43D0F29BE3CA019DB3BC50AA33C0FD4833D3BB241BD689001BC7DBC64BCAD54ADBCEAE7023D073E043C2E8611BCBC7C2ABE19D856BCF7900C3B2A480D3A9722F2BD5785673C4F95EE3C0CD6243CC2D9723C06ECAF3BACF7483C042A49BCF527D03D49E1F6BC735B063B1A9285BD3AF3D03D88DC653BDB7C7C3C01F495BC4DC0DFBB7A46D2BC1060093CA6ACA7BA05DA3ABCF745CC3D0FE1DFBA416910BCA230D3BCB677953CAECA473AC20B523D565A74BBC50E69BD13566A3CA1AA4C3C4E198F3C4B55223CEEEC2EBCC6F5503D5E25973C87D65CBBE0108FBC369140BC4DBD2ABD3521E43D1316273D2124813D6A2D763C09E959BD1FB8DE3CB5495A3C0771D5BD20FF9D3C84959FBA2DA90D3C841188BB198A623D2C56D13CDE0D843C1885E7BA476443BCC8D33E3D6A8D57BDB446963D4B7AA8BC2F3507BC17A067BD33B73B3D162CB13C1EC89139DDB1C2BC2F5903BC8AF86EBCDBBBEB3C70E6283CC87F713CD3C5ED
BC7EDBC4BA6E8C803BEA1C35BC64EC1BBA2E8CCBBB74FC723D1F4B35BCC6FF98BC071805BC8034A73D343A4FBD2766423C8F2065BCC233A7BCEAB564BC4725853CC6BE38BC9DC015BB50745E3D70B5563A2F5A033BC44442BCE7E2E2BCCD39DA3C1A93363D2A50983C48E73A3BCF744E3C15D9583C2268FE3CC91A03BC1E501FBD466265BB0EEFEDBD2E8842BD1430CFBC8923D43CD865213C1E16123BCA1D3ABB6C9F0F3CB9CB923BED3CA03B8B076CBC6112C93C30367C3C9E077ABC93BE8E3D8159D53C871AA5BCF1DDA23CFF91BC3CF1829A3B6A2C963C0F45CB3B9C0651BC9F9304BD53E7F2BBF153A3BBC4B9753DAB32333C8044BFBAC1E57A3DD5D0363C4CE0E43C0801333D64B0FF3BD39FA13CC9BD79BD4B4E7B3C10F714BC4A5219BCB040C13C63FD993B46CE6D3C9908673C4520B73CE7AE9EBBE8EA0D3D0D799ABC06562B3DB2344D3D7A63D73C84FD223CCFBA6BBCFDB6F8BCC13675BBD5A1A83C49340BBB3BC8C7BBDE77C73D49C7643CCB8466BDB80651BC6D2B3F3D25BC18
3BE953413C9E26B43CE6E1C4BC8D259BBD64BB15BB5595903D091B283BFEC1793CAC861CBA691FF83C6C0C28BD4B6E2B3D4E56DEBC3A161ABB97EA64BD3EE33C3CA80F98BC12DE733A1583C73D7966BE3D9A93EABC9EB7983BC28E65BC53D7023CADBCE7BC8D4A333C20C85D3B74A1EF3C534152BB98847F3CDDACDB3B09500A3D7B951CBB23F412BD639BE7BDA16D793ACC3E7CBC968D623D12E5873BEB11143C9E2E78BC5A2EE73C73DDACBD94C692BCDA7A893CAA27C8BB2D99D9BC27138FBBFE6746BB66D094BB2F7930BB1D5812BD9BAE67BB866AABBD0EBCA03C7D73963B5340F5BD8F2E0ABBC38F793C186D023C459BB73A9FD4E7BCBBEDB9BD068DB03CDD89D3BD0FBF563D91C6C9BD64B40A3CBA44CBBCFE41C6BBFEB5653B8EB55BBBBD6400B934B8953A9258153CAAB23C3C505848BC8AD1E53CC890213CD3C8DCBC7100B63CBF2B90BBECED89BC1122EEBC89BAE9BACAE78139F5CD503CDBC5593B3FDEB1BE28F7203DB6139C3C4BAAB439DBF383BD8197863C045BECBB3BB4BD
3C2B826FBC6889E4BCB1E234BBE9F0D33CFEC0FB3C37DA55BD0CF4E3BCC8E61DBD053484BBBAE156BB79470A3DD28B62BBE064863C300A32BBAB9EF23D37C6943C86E0A43BDE964239F6E93BBDBC28B6BD04333ABC06FB56BAC8C5873C549F3F3C59E0F7BC575F72BC6F5F0D3C9623D3BCEF91863BA9281EBCD8E0003C9241C93D684753BCF76F39BCC7803D3D99B7CA3D3FA60DBD383B1D3D80D70C3C5F578E3BA46D8EBC25CB4EBBAB56BFBC4CE3503C72B516BCD8DC8F3CCDBD6D3D1671F9BC2B21803C731B833D8880DC3CCAF963BC3F1A143B83829B3E0A112DBCB40165BC28187EBD9F5D463D096AC3BCBF3CEEBC9FFD3EBD131C4ABC8C47CABCA3A4F73D0D361D3CFD29803C9E7752BC194EE0BCE099A1BB8DA4C6BB8B30023C00F904BC2910C8BC8F3905BC401E3C3C4DAAEF3BEE070CBC6090FDBB9B82E2BC9B0E05BD025E68BBD3655EBD3236E639C90161BD5A92963B8A043B3CE37C0DBC6F98683C511D123D2F9BD8BDB10C69BBF6AE94BC1240A13C42F799BBDB37EB3C35A45C
BC889D3E3A0B5475BBB644083C1B843F3C39C9103BC0EFB2BCEC86F2BB0E7B8FBC9C8E293CE6FEB43D990C603B90BEB03CD35E933D05D9DABD0D1568BCCD9D813C248CE9BA4BF031BBE2D3BFBC9232853CA1A0CA3D5D47A23CC3DAEE3CAD5A693B6FF4D63CC72520BC9321673B30919ABBEAE0043B9A7210BC58EE4FBC7258F5B9C2A2333C4165B43D632C2ABCB02DFBBD03CEEBBC4C466FBBF54584BCBD69C2BCD6127FBBF6CC573C52927FBC9E7CD13CD5D4133D0E4649BC1A3BFD3C84AAF0BD4A9F533B33DF54BC24C1FEBCCCB1203D4F1053BBE3E0773C7324503CD898613CA3C5073E13A509BA8342F0BC03A8EBBDA9C7263BF9CD713BF71A74BCE6EC0EBB03616C3CE45FF1BE0C4CF2BC86780A3A024D3F3C8750023B9A5A2ABC6E8FC7BD7379643C8F97353C9A25CBBC2395F43D9707DE3D0497463CC737C1BB95C5B9BB1471DDBC2A128EBB8DF5BABC750ED83B5BAB313CC32E64BCFD90313B953F8DBC0545B03D000583BC6F0A2CBCBCC973BCF8E1963DF68F223C656C3BBCD60C7E
BC9764C13B3674543C05B6B53B7F8E8A3C1BCE493AEF6751BD2045E63D65E2B8BC33F6CFBBB3F7C53C6735C53BBDF5EBBD2ACFCC3D025FB73C9C46AD3C9B0543BA73416C3B7CAE64BC92D636BD5C8ADDBC7428E13CBEAEC03CFC68543C356990BB9152063D01B7913BEA4EC0BBE5D93ABC6DF8A6BA930D03BA0D05BFBC37594F3D3DED6AB988AF273C39E468BD0446FD3C9B5424BC6E11173B5157453C4C20953AB59D54BC5D48B93A9C5C53BD4B21903C640EC5BD009D813C4A7659BB9BCE3D3CCBE1F53CABEB6B3C8DAC43BC44DC6DBC9FF295BBF3A9C0BD038F2BBC30DD613C4135563BE466D63C86D6693B5AC10DBD89273DBA4B0E3A3B5A815EBD20B88E3C6EE3C33C14AD95BCA05975BBC6E9AFBC97039F3C408E60BBFC322A3C94708CBCDF99473B02B61C3BC3C36ABCD071D53CB629EE3C20DC4F3B908F1ABAE44016BB9ADB213C10606EBC501AAB3CA009EEBD48A73E3D0292F7BD8782C43CEBBC873C403EEA3B45DAB23C27DD88BC3106FABCCECE953D4017EEBC06BD683B447294
BB48B1B8B8A11E493B0A8E1A3B866F1E3CED87DA3B1FEC38BB85DBE63C38E8743BB8C74C3BD308D33C50F5083DADD2EABB9E9A0F3CB3A302BC01B5EBBD6935203C591EC53C61FCB33C29E508BCB7FAAFBD9A5920BCBB340EBBAEFA78BB6382A5BC7B47183C4E7C04BC2926C13C68D071BC4EAAF2BC2902B8BC5517413BA422BF3CB14DDB3B6F848EBC4EE2A63D0730B53BE8CA603D12F86E3CCC8421BA91E88E3C0BBFB83C69EDDA3AD636CC3D14DBCD3B96403FBC697E9BBAC8CCCBBCAD5E55BC0010A03CA778C7BD26E9953C810BF6BD1924F1BA2BAF063BE34CAA3AFC3FC83BDE40BDBB88DEF33B8FD4FEBA9F4EAB3AA8DFDBBC74C06FBA389C4DBC89FE87BC076044BAE1E8FABC007FD8BB06A982BC4DE7A13BF3FE33BC2D41543AC50955BB318817BB3DD7CD3C4FF8E9BBC98127BC85922F3C614584BC5C9887BBAF6164BBCAC3CEBB173E223DFA82153CE5821F3C7F1AD13C21D720BC1B477CBACE32743B391B413DC735E7BD0A61B33C53E635BBA1215B3C51FEBD3B1D075DBC9191A2
3C5D0ACB3C345E273C98C7A53C378CD4BC89B5843C726FE2BC8179B23C19EF8EBD2C36863C2DBA47BC4A235ABCFACDB5BDA88E143D1007123C071521BCF5DEB4BBF54F83BC2655093D2657653D0470E33B467962BAE01E5BBD4705B7BB11EF8B3CD6AEE438DF0F823BE128BEBC673D6FBC3EAD11BCBCF64FBBE62CE63D3148373C9CA609BC943A5A3C93920BBD324E46BC9927E9BB0095A93D348EC93C0E1CB5BC81512DBC8232603CB0155EBB589B2ABC089B24BC90A10D3D063014BC668B293A7AE22D3C06A29F3BF5819D3BCF9CEF3DB0F90E3B0F52DE3C03FC643C3414EABC19A4B93CE9BD5BBD2BEC22BCD957273C7B5226BB251BCFBC052B4B3D875D693C8DEF5F3CE21DE3BC8D37763C0CDC04BBE9C81DBC225A42BC7877AABBD3A4623BC0509F3D2626E73C6320F93BC817FF3D601C35BC812EA43B1E49EC3C84D7E6BC441E503CEFBBBB3D2EAF58BD0794BABC973A98BD06210DBD3A32B83D2899433D292A22BD2973FD3C0A3A7F3D99EF5B3C596F8DBC26258FBC9318893C521346
BC3FC1113C86C92DBCBCD3FF3C244BC63D2708EC3C7E33C6BC17A0B23D36DB41BCE7A5C3BD00AA5E3C9D87FB3D7679703C5B71FF3BCB66F1BC06F0F43DBFD4AEBCA1DB663CEFEC14BC45DA58BCB1FD20BDB1EC1CBDB82C4538FAD1A9BBD512633C4AF580BD144C87BC883DCEBD25C4D03C28355CBC8381A3BD4497063E3D58373DB441DD3C395D283C23DB07BD6E8123BCC470FB3D07F6DE3CC9FD8A3D6841A6BCAB21633C368107BCEF63C0BC973D1D3A41C70EBC63C0693B0A845FBD2C45A93C84AC823C5B495B3CAE3404BC8443AE3D89D39D3BFE3499BD22958EBA609B7A3C2C6BAFBB5F58DBBC1CEF73BC08D5653B59981FBD25A3853D20E2A6BB573F6EBBA13A1EBC2468FBBB0245F8BC49D03EBD0D34B73CD52DB3BA6212D63CD6FEFA3D15D50BBC3732ED3C8D0A7E3C3C1BCFBC891F383D07EC9ABC4809B73CA82069BAF196E93D2E51E7BD6F19393D6337BBBD0CE9953C64C8F03D11664DBC79954E3D8F976E3DBEFB0ABE2CB1B83D81281F3D00DF513BF8DF913C25DB59B8832A1B
3B64BA573C8DAF293C143A74BC20F924BBC301B4BC3ACE6AB9874A363C770B6EBD16716DBADE553CBC8287BDBD745BC43B7BDFF4BCE662F43B4BB3E8BDD028733B80DA5A3BA9768ABC73C08D3C75CDA2BC5F30CF3CC334B8BAF38307BC93395A3C8A85D4BC3B05003C3A40D63BF525B83C583C1B3C2CBE07BB232BE3BB277C4FBCC81F48BCB0874D3C4459B13C632BFB3C7D3FAF3CFD42493C2ACD42BC8D542D3C46567A3C1428B3BBDFCA2A3D141F5F3C0251673CA2A5C13C2DDD6EBB9B86503C2C145EBC74A42EBB1C2393BC93C47CBD9872193C44FE9F3BDDD9123B806CF5BC9151E83B07EF5C3C2E1D82BB7BD6A73BA28592BA2F3122BBA22F443D0303DCBCAE72903BBE3AE63BFCF7D33B1BB95DBA0C51D03C14F29B3C1752153C3667F6BB99C5F63BD9A0A93B55DA55BBB37D173B8948EDBCBCC8013C8EFDF63CC4D15D3C62EECCBCB9789BBD92274FBB958C273B4CE595BC8012D7BD8DB7853BCE25CC3C063345BBCD34C23C4A3208BC4ED2953C1F8B613C3262C6BC38C7683C19801C
BD367BBDBC05786D3C8B50CD3C1440123C4D4CA43C941EF1BCE0DF793CA538B33C1DC34E39C413F73BD2AE093C29F0CEBD6A87F5BB61C2ECBB77805EBC2292D9BCBF43433C9BD9133BF5E9F5BD32F595BD29734BBC792BD2BA91C153BA66FF313C0B32ABBD1CBD6CBBC9B9A6BC9F3F523CDADACDBB4C5879BC5CA8F33D1D326F39F135A1BB25D7FF3B2F8FBFBC855BD6BC415433BBC414283BD74A3ABB5E7CC7BC90E801BBFD44C7BC58938FBC310B393D09C3E1BA5429F5BBFF74B4BCE074B23C16FAB5BA380EDEBD2C949A3B1756F1BBF8E7083BAE9055BB5755A73CD7A6A43C5F3302BD58CD7B3CA494693C7E9115BBD921E3BAA5D2F8BC842DD6BC96BDDE3C14AA7E3B358AF43CDE7E973B92425BBC158AF73BFEC125BBB80E38BC817AF6BAA7C6033C0BDE893AEC7E053B48102F3C3A38BFBB2DEC5D3B3D0597BB40BC713C2BA007BD39A1C9BCB50872BA0E2A073C09A13C3D0219113D06AEBF3C4A97AC3C051661BAEE45ABBCA78A333B297DF8BC81E18B3A65567EBA929E9D3CAE53B0
3BF108D43CDD2F85BBFBF36FBB71887DBD1655BEB9BE2F1D3C9CA2B53CF94CD13BDE984DBB9C9B78BCBB7CACBDAA72353D3A6F0A3D56C81F3BE03E0C3D36C50F3C91A14CBC50A8D6BC675B243D5EBE5A3BE3F7D93CC76C7F3CE104603BE15F68BB1F12D13D0C6FF73C6DDF1EBB96DA04BC3F007C3BB598D73C4B6786BBD82D9EBD262D3A3C3A59B83CE7C2EBBBCF24BCBD0215EABCA2FA50BD47CE3CBB4829663CB245D23CC67CFE3C6E524E3C15FF2FBC80121C3CCE0164BC727D223CDE9BB53A949ED7BC2AC1B8BD2AC76EBBC0C0A53C48D55F3C4A30B9BDC50917BCD633BF3C3E4BA93D862EF8BCA22DCA3C5C6EEA3BC861343CF84B983D549D88BB520242BC974E813B69DBE1BC9BC5523C20483E3C844EE43C8262B43AB8299AB9B34431BA81D72B3C0194CF3B4124E03C231608BB6851E63C6F06A03C1656833BEFB3F5BAC839AD3C8788BABE334671BD0537CFBC7B44E43CC534D0B98712A53BEB5F97BCCBEBC4BD28C7633DD44038BCAFC8A5BB5D65953C1E1C0B3C9DC58BBC26562D
3C4BDA36BB617D78BB46386BBCC13C9EBCF2FA9BBBF95D743C65936FBDF6A3E23CEA19A9BA71F9DEBA4FCAA13E0A2E213C1F7F35BCEA14C13C6167D1BCC0A21A3D0AA2CABC55B36E3CDD7040BCBA16B13C6E4ECBB94F1C8DBBC5B6643CF9390C3C018141BC034EDBBBC7D4713BEE090339DB587C3D146549BC2828F03CCEDD11BD5C99D7BCA048EBBD22066B3DA7784C3D75ABDFBC9BD40B3CC43F7E3C504CB7BC555932BC3052883A2694EDBD145E9239EBE7413C575B003C8BE7163C4A23C33C958C53BCA511FF3C5FE0DD3B51C07CBD034CC7397953E73D9C285F3C9960DC3C163799BD8AAB1E3C27AA42BB7C90CD3D3224E4BC23CE71BAA47A7C3CCF1A4ABC6B543FBCDCCCB83D0EBA00BBFD51CCBC272CB43CA36472BC95FF30BBD26A68BBCF55743C7E1F9D3CCBD0F33CA41A873CC94B65BB80F3A53C3674693A1F82993CEEC4283C6043A33CCFBD26BC6EC547BCD52D04BD654F26B9A0EF593C477936BBA2041CBD9B2C6EBD6DCAEBBC09E12FBBA2CC87BB7C1F59BCA15BE0BC40216E
