BC8F1A193CC96A4CBB04C0FDBDCF50A5BD7F27AEBD70EE4D3BC8C7963DB74725BDAD63FC3C81F5CA3D59C5803DBC00D03D811CC1BDCDCC933E1D4DE23DB39B3BBD260DD83CB37077BE7A23E13D7CC334BDBCBEFEBD910B913D674F6F3D2E6CD33E4B2546BD7E7B0BBC2CF744BE2EFE9BBE82C557BCBB992F3D2D987EBD66A3D9
3EA500E3BC39520BBC7E2FC2BC1A76D3BC800A113CCC10993D20053CBA9224BF3E745F5D3D71165DBC8B5BAB3D03B6D93D249148BD1E7A69BD0362C2BD39B964BC7349ABBCDA4234BE21DB913D61B8773AC6218D3D2F625F3CBF3728BE92A6793E81D9EEBC9068CDBD90F1533C3379C1BF26DD9EBD8CDB363C4DF1EB3BEE33AC
3D632874BC44686C3D61C6A93C2EEE26BC9513FEBE6313703D3084A7BD572C173D974C49BC42F7BEBD1513223CB08A4BBD8989BCBD2B6014BDF78E8B3BA8DCFA3DA76547BD6B6234BDB0B0213C210AD93E05A4893A5E01B3BD6248D83E18FFCE3D23D78A3CB0E5C1BB12AB073DFE53E2BDBEF42A3D816AB23D552120BD20C3C5
BD6CE7773D8113E9BD271A903D9B2275BD13629DBE12563F3CEEC2EB3C9862773D823C70BDE2BD56BDBF8CB03C557758BD7DD594BC9691833D692015BD118EDB3D6C5421BC3315A93E8EA72C3D8D2DD5BCB2B7DE3D0025B33CB7528B3E3E3A22BDC6BEAE3D8AB6C03C8A23D53DC9B2A83EE6D75E3C03668D3D192DBC3CBFD6E7
BE09C3273D299E4FBCEBDDCEBC8FEEB1BA97EA83BD7DA4BBBDBEB28BBDDBC97FBD3D613B3C4F5A07BDD91C43BCA3B249BBB873353D357AC73D93317DBBBB2C063D09D1453C873AE73E234F3B3BCE37CD3D133A42BC9627393CE8CEFC3D5ACEC73C97474B3C9FC5A6BC748460BD68787A3C2155CD3DB011C8BD2ABD913CF3239E
BB921C75BC1592B93C0AE72C3CF57A6D3D7981CB3E2E0B703CCC8A923CD4801EBD4DD6743CB7FFC13D212997BD141FE83D00A5A0BDB0F5B93D5E1B4A3D4F60B7BB591FD73C09162ABD16E52CBC9082173DFCC129BD95CD913D087B6BBDDB6D35BD6FAEC3BD4FD1133BF397C3BD1C2395BA7F2B15BC852ADA3D87B25DBD1F5D79
BE1724B73D2B78183BF4D922BCD0D46ABD168B83BE7DDD843CA9777FBC80C394BCA8C9D03D14AAA9BB97031ABCA4D04ABD13DA833BA1E6F0BD98D992BD7E74EFBBC0960BBC9F4021BD32DA8D3B5EE3B03C372CF13DA9C939BBEE06D63D9871EE3C34FB7B3CB6D4B83C863C5A3D7B3AEFBE88FD1F3BC7CDC63CC0B5743C3ACCB2
3D1A7B333D0A2D10BCE3592E3E0442FFBCAB536ABCF86AA23D44CFDABDCE61493CA2F1F9BC33C9FC3D7AB8FB3B42E001BBD5C9103CBEA217BDB181C1BD0E28423CBD5072BD0F9060BD163C65BC4694BABC61C20DBCD75D453D3FFC2F3E8E15F2BE02A1EB3D15890E3CE296593E5C0C993EBB2937BD999DFF3B8285CB3B39F61C
3D7E01EE3C91F9233C6D3A41BD5EAEE3BD8FA8E83D15663DBD6E773ABD605BB63CAC1124BD0386BFBB8AC6AD3D45AD9ABCC722243D772B4E3D25B0B8BCC253683BF708E2BD1A2F4EBDBFD2B33D2C18ABBC99C71F3D679855BCABD440BD078DBE3C2153153D3416C5BBED09D63D26C34DBDFACC90BC421C82BD6AB49D3C5359D6
3D206558BD27E5A9BCA7ED8FBB6A07D9BB43C3E03CDC5024BD0A51ACBCCD53233CC48CBABD5065263DBC449E3C029A1E3D94C929BC7607F63DD35AC03D857227BDAEA0863CE560683E8D797A3D789F66BD7BD9BFBD6A60CE3C42C8AA3E4225953C9A406BBBDC522ABC9029CEBE8412593E93644EBDB575FC3CBFE7FD3BECC793
BDA0BA323D37FCDE3C091FBEBD0140C8BD5CA26DBD4CC969BDBB45BFBD58BB5CBB6540813D259CB6BD2C3FCDBD3211C03C94E8323C4420E73C3B2065BD620DF0BCE982433D846A55BE66CCE93C6761A5BD449BA93D86CDA8BC3A160A3E2D12EDBDB162D13B0A6B4D3C9384FE3E09F2383EADEC8FBCE9147E3B879417BB30CE7A
BD15D996BC936423BCB63E933D48C3AC3D27FE5EBBEF15F4BD1F743CBBAF5E293C380F833D51A3723D42E5CEBC14F0AC3C26F235BC45025D3DA4F5513CB02C603C987092BBDC44293E191422BC9756233C8E5600BD190E1E3C0FC5B3BDD5B37B3DEF295FBD2DDC7FBD197C60BD937C69BD6ED789BCC43D5BBC16A8C43BD6428B
BD357A533C32E9D73C1D06D23D0ACBA63C9E6A63BE1096773D8BC656BD2BBE453BCD12433CDF33F5BD6FDE0DBC64B8F8BC86410ABCB621DABD40EA653B0098BF3D1D652ABCDFA356BE01C801BD533B8F3CDE14B93CA96BD1BD01BB2EBE21C04D3E05D633BC651F4FBDB2A7553C87AC803D21E9FE3D668FEE3D3EF6EE3CE82589
3C1798A7BD37DD9DBC35DBCC3D050F2F3CCF187F3E15CF7EBCB1C663BCD81BC2BC7B81B03D2F8E2A3DBADA6FBD12E5363DCB592C3D8D84D7BD4243733DA3FADFBD9E28F53D10E500BE01AAB4BBAA41B4BCE6C6B8BD6AF2C0BD2EE4FEBD5261B9BD1B9631BDA172D43C710DD0BDAE9C06BE96B8CDBD80F7B7BD0FCCF93D051A03
BBFA52A9BC841211BDAD5519BCADFC883D0D5444BC9D776DBDB1522BBD0FA63B3D662CF0BD98E42C3CF54A183A1E9C57BC8D56F63D01249ABCE59913BDF57AA3BC1771A2BC45A382BEA5F8DCBD728EF8BD1DB80C3C28CD813D65FD21BDC6A386BD3F65243BACBC213C9A599C3E16FD0E3E8193873CFD9D27BD75F3193DDBC0BA
BDBEDC303C5974A03C072D883DE15A75BCC9B0393D22F81C3DA9864A3DCF8619BD1624CEBB8F71A8BCF0893C3C972841BC3602143B2F02EC3DA65406BCAD38A1BADAE29F3B3BAA3B3E1DC198BD6667203DAD3F423CB85038BC487EC93D0E74953E6D67153B23BEFEBC4758E4BD944F8EBD226EF23D759F243CF713C2BC729218
BC18C3E1BB424E9D3CC43FCEBDC391D5BD81673EBE142796BC8F76FABD575BF73D93ACFCBC1F9F2D3C63F2193B1A8696BC546874BDB5D65E3E099B6A3C9C314D3DD3A890BD1A15F53E173B853D44ABAABCFE4ACCBCB29134BCF914EDBE532B8A3C3A9EE4BD3F6939BC98383D3E67D24CBE8223433D25476FBD46AB7B3C5290EC
3E138BB03C42309A3D27E0A9BBFB0EF6BCF202653CD1721EBBFAAD48BD2BFEB13DC8DDEE3D2D1C423A2D4AA43D695E26BDBA1A97BCF1AC943D2769F4BBF4212E3D23AC4ABD81AD063E05036F3D596E07BD5B965CBD4060453D3C76DC3E52FB07BDBCB1C33BA92616BDB4FDE2BE0AAC14BE03DAE13DAE90133D185D8ABD87615C
BD8CA4C53D611078BB86FA553D3C115ABD171D063DE79E13BDAC56953D91EB923CD8A6933D9B6B12BD4D29D2BDC51B543C7EBE1B3D28BBD83C3D7A6BBDD95D52BD11D2203DB0F4CABE323911BD50FE493F017B5A3D57DC903D844F873E5FB8B13DB273F23D31DD3A3D732798BCCAA6B3BEC557AA3854FA5BBC748953BC7E0D03
3D4D77173C5A7BB13D839D67BD95B082BD930F4FBC029317BD6350FD3C3212A33D9D2152BD6BCAC83D781E77BCE5E609BC808A2CBDDBCF1CBBE1FD773D2C3CE83C5ADE69BD16C60C3E81FCD43C8F84003E1BECD0BC8F28803C847C40BE31C8973E3F7F4C3DAE1A9F3CA9B23BBD86A4273EC707C1BD1003703DDE54C7BDB9305C
3CA30AF03C4BCDF83D4D2D94BD539DE6BCF7FFF5BDB164C8BB347526BC12C4DF3C1E6075BCBA7241BC31322DBCA4C04DBE1736DE3D83F4053DF2A6CB3B1075BB3DD55D4F3D12912F3DF88BA83D8A8BD0BD224B013D6998D1BCE3336BBE042CA33DF0F61F3DCC932BBCC1150A3EB8B6EFBE08D74C3B375818BCDDEB12BC323442
BE17E067BBEB9F0BBCB7F7963D4891EA3AAB90933D47C6C4BB83D04E3CA761D33C92ED003BC22C8E3DA986753D65CC26BD04D4A83C00DA6ABCCA018C3BEAA9C73CF4127C3C44205A3E35B5BB3B84F718BE233BBCBC67D52BBCDE54AB3DB77C673D8E80E5BCB18AE53D485CD73EAA1C10BDBF7B213C6A16C1BD038DD83D45B08E
BDAC5D423CEC8FDDBC1DD6CB3C67A9B2BCF88154BE069B94BCD3CA273CA867F23E06C5093DA7B04CBD6051633CEEEBF5BB3A4DFE3DD627A1BCE0E784BE83EB773C98207ABD8628013DFCE9EB3C8AEA9FBB7983423D844487BD2F4B2F3C047EDF3E106817BD2DAE56BD9EBBEA3DAEFD5CBF186A223D8BABB4BD1DBB913CA2CD92
3DD820F8BDCD60B63D0DFED83D8D4E1F3DADE4E4BDFF36D23CCC21B4BD080EE3BD9108D5BD052BCD3C99E083BE09044C3C8A87743CC35A79BE1FA3FDBD86FAD1BCA2A634BDC83AEFBE1F840BBD42AA0D3BA7A7803C5B37CFBD354EC43C9EE2DDBD81A7CFBA3E098B3C91205DBC2BCE11BDD5A844BCD15F0AB9D3B2393C0E10EA
BC30517F3C30A8FC3D180BF7BDB06895BD3712D63CC86488BD15D4B73B863C3BBD47AC59BC84B8CFBD4E4153BD80BD243D116BE7BCBCBD4F3CB6DF7A3D806EA5BB8DC28BBD101FBB3CBF50953C4E4D353D8FC73C3CED8951BBD45F9CBD676B3BBDD01531BA3FB0243C5EAF60BEBEC4B33E99788EBD7AFE4A3D84FB0BBD565BE7
3DB394353C4E1FDABBE29BD93DBD6B47BD02FFF03E925EFEBCA0BF77BDBE98143B977CBDBCE06DA53D20A7AB3D5CC0EEBD680E2F3D19CE4C3DAFC4E23A3631C43D181358BD0C289F3F10D89D3DE2EA49BD6C36DCBD648AF4BD13C04BBEA04883BE2FE240BBF68645BCA198BB3C8A7DCA3E72DD233D2E40B6BD405BFA3CD3CEBF
3DC2F0473D11AD41BCFF588D3C97A932BD7613213D57823BBDE9BE9B3D916D0EBD22FF213C9852C43D804D94BD04ADDFBE039FD83D34B7FD3DDA01E2BE1670193D929E223C5FBE653C9EFC293DCACADEBEEFB086BD045D1F3D13B1FD3E78695ABE0FC1A23E182513BD6C937F3F4906273E875505BD960DE0BD9367EF3D1C9809
BD167212BD4A2F223C88D30C3CE61EA63D78C523BD5689003E22D91EBD7EA86A3AA722933D03128BBD180D263CC64D5C3E0CB2ADBD2E8270BD9B047F3E31986BBDEC5C28BD5DFB30BE069264BD93364B3ED50B2EBC8835CC3D1849C8BD92C896BD9B569BBDA5A6C2BCA92E27BF2CB6F8BED53A563D85B3173DA19E12BD29928C
BDC66247BD6EF7823C83D45ABD1C50C1BC4F658E3E024F80BCD622263DBBA1C8BDB523D6BD495EA0BD43FA45BCBA2C21BCCA5FE3BD80E5D33DA5894B3C95C1A03C402213BCFF639D3C454B48BC8166BCBE047E103DDB60EF3DA77D63BE89D5B8BD2AD4893D4D79693BDF3CD93D8F75D3BCA67978BCB9142D3D51E3EBBD10FB4A
BD0C92873CAA634BBDE2C0363D1E35E13CDD467C3E0F3185BD6C62E1BC3F1B1A3D9D553D3D5F4593BC9C9200BC54AD9A3DC39ED33DB89301BDB60905BE07F9A5BDB673BA3BB8BD383DD665783CBDD74EBD8DE0F63C4C03973DA137EB3D189C01BD33948DBD59D903BCEDE9F63E0F8521BCDAD835BDBA5A4ABE0C5B1D3DB1C34D
BDA698AA3C79DD54BD57C1823C87CEBC3D450994BD1431543E01D40A3D9698D23B8A8F623C360AB2BD9F781B3D13E603BD16CE083D826A44BD1125233B077A813D70AECB3B6B7A08BEC0E06CBD0837823B108BB6BC4D998C3CCC8707BC989F5FBE17D22EBC8337CFBD86CED93DDD11F03E4D81D23CB9E0FBBD9A2FBF3D0BC235
3D6DC25C3BFA3D5B3C7A67A03D877FB73D43D201BE11D1F13E10365E3D58877DBBF0C03ABC4475423CAE5A3DB9DE12443C25D7B8BD0436A23D416AA33D7529BFBDA742583C611CE6BB48FEC23CEFD1443B910780BD9ADF4A3CADBBF1BD2B514C3DE325E13D1162C43ADB97593D9EFE37BE8593DABBC21E56BD31BFF1BC57FE67
3CA383603C6B026A3D0D56BBBD0B6B46BD5C6F42BD954C5C3D513542BCE3EF2DBBF1FF19BD13DBCD3C734D78BC9E5399BD760B67BCD8D100BE08CA023DBBE0D63DB7F043BD1AA603BA0F268A3D392523BDAD5411BDA69C79BD2B2C0B3E518510BD5EE55E3D2A8173BBA54D0F3E55DE61BE7F36713D2E26073BEFB4F5BC2076D9
3EB409ED3B6CA2D4BC9B4EE7BC2468A5BD5182BA3E1F998C3D20B0BA3C8BC5883E4469213DA7EFC23D73A36CBC465B853C3857C0BD246924BE15361EBE1516E1BDCC88883B876818BDB850F1BD222EA6BE190DCA3D8BF130BD1BA28F3E51305EBE744C063D94B12BBDFE9E1CBEF03526BE8AF112BBF0332C3D8AAA803C398871
BA999ED1BCC2E6673CDE2C4A3D0E30C8BD3007CD3D6B09973AA545B03C6C390C3D9FE3DE3CC3F65EBD2F44173D73A484BD8AB2AA3CB9B7ACBD980E3CBC5AD12EBCC91247BC8767A7BCFF576C3D816CCABBFA046D3D112DC43C4CE659BA8CA870BD6038193D9908E6BD1C84553CE7DC42BE424DB63D1ECD9A3D3C2078BD8E11AD
BDAC8F8E3D1A95443E1295F8BD4A31B1BCC6B0B33D569B94BD5369F23BAE28153D01A655BD8CAA50BCB41416BCFDAA3CBE0FD261BCA5CA0EBCE453613D905B8C3D4668AC3D42B817BCB81E87BC4D971E3DAC42EC3D54B2B7BDAD288BBED27EFF3C89DCDC3E08B1503D3FFB97BE945E1C3D65D9823C87C9FE3E0C1A4CBE00D9A9
BCB8C0B23D8003B5BCE722E23C44E557BD12D61D3E1DA98ABCE37E0DBD89D600BDA0CB6A3CEA421FBDA396BB3D1061F93C043B28BCFF3655BDBF96AFBD5A52C5BAD105D83C576170BC4011773D9E95D63D8B7D483CC9C7253D5EC67EBE2EF4023E5AEA7B3B9188D1BD44D94D3D045A62BE59765F3D584D753C3F740B3B6ADCF4
BD2B094D3CD1D3673BFFF90D3CB619C3BC6F02AC3E36DB9EBC39157BBCA9D5C63C39000ABD02B9D1BD8A4B93BD8186BBBD16B5D93D8578993D9016C43CE1B78F3D7D03B6BCDBA9D73D3D112E3D1FAF03BE4691BA3BD6C8F2BCB27C9F3E0D1B0FBD2FD29D3C945818BB6FFB883ECFF6483E232D7F3CB204A9BD67928E3C7A6B87
BD0BE80D3D0AC1DC3D6CAB2ABCB74D363BDA6D4DBE182F423D0577A3BCCBE9343CE8989DBC79E2A7BD239073BCAB1E2DBB8E6974BDF383EB3D17C0543D1006FD3D321E2B3C31747D3E0FE6ACBCEC7D153DFC3FC4BBCBB674BD2DF7A23E373D603D9DAAF4BCDFFA853D594A1DBD96ED3DBEDC765A3C8D95633DEB1D52BDB4EBBE
BD28257B3AE57000BD042F3F3D778F1C3D274B113DAB1014BD0DE2883D5ADC42BDA8C6E3BD3304963DB09D813C6225003D8355E13DA05C38BD84F7603B7699D2BD3EC6D33CC8CDF3BC926CF6BD9B51CEBDE5283E3CD5253ABB9FFCF8BDE9FC3CBE649D12BD8D9E50BD2138D4BEBFEC663ED635FBBDF6905DBCA17B29BB69F572
BDBD13AABCE10E35BC98DA48BD2CEDF23D4DE288BDBDD1F3BD00EAFC3DA0001C3BF6D7E13C18F2AE3D5583A13D1CA93A3D54520FBD32F66C3D444CA13D23D108BD582DF73BC9554EBECB31E1BD975BB53E3B2E56BC8BE68E3B88B955BD83A95E3B7F4C31BD3A88D1BB253CF9BED2E0C93D0B8CD1BD538E403D50B5943D0E44A3
BB41F11E3C40739A3CEF6BFCBB8068BC3D7FB8C83DBDED963D1FF1A6BCD488403D2E1927BC1EE4993CB801A6BC82BCCD3D55BA79BD50ECA3BE2707FA3DF9A761BD1B205B3BF766F03EEA6335BD7E7EE4BD19E417BDC2F892BD750F4BBE42E22F3C8F86263B87CBED3D80D208BD11AA193E9823A7BC8545D73C1E6776BBFC1A6F
3D9AB770BD0DBDF2BC87B13C3CBAC22DBCD1FA00BDF00FF63C45C67E3C87DBAB3D930558BC3BD3F5BC861A64BC88EBADBC1518C63D54F1893CA41E87BD97D3BCBBF9AFFABC779680BEC59BF73C60A2CFBD56D5893CDC0AAF3D85E70A3C9FA264BE0346203C7224593C04D6643E2AB50EBDDA3D073CAE048ABCDF9933BC9DA0D3
BD6AD5F9BC420A303C4899B93B9713F73C8BBF363DF7A83CBD38164B3CA563CBBDEE36F03C27BB613D0E154FBBA9377D3BF0F02FBD14A74C3DA290AC3D07AB4A3C7F74B13D3DB1423D8646F9BCB37FC4BC9F5DD63B380B58BD55DADABDCFCBEEBC135956BC000FF83C5AE7B6BE1F52D9BDFB8F5DBD3442473C8B116E3CA6B86F
3D6425D2BC102CC13C00E596BCBB482DBC6D9BAEBCDAD7A8BE4EE03C3DD4DD61BC7E538FBC59BE7B3CCA3B92BDC78251BC4AE9ACBD3307CB3D3774603D225486BB4554573CEC1080BE0328F23CA107003E807B7C3D83FC7B3D93EC283E5BF147BD96BB73BC9328833AFA86D7BD24EA4F3E0DDF57BD5D01C4BCAE564CBD40124D
BDD9D570BD508212BD31B39D3D04B5EFBAA84650BD73B40CB8A2B780BC14583B3CD6DCF43C51C1D23D6CA06BBB9101863C9D13B03D8F441EBB5ADF03BCA742A1BCCC7DD7BC8554DEBDB1A5A6BADD0B93BE0E3740BC82BD473DAA2BD33E21AF43BDBC489BBCD381E4BD59465ABCDB1DD9BDE89B063BB241FDBDD084DC3DBCCB38
BDAC1901BD5217F93BD7A13F3D1925F23C26DB11BDBCE64FBC36C41DBD65F1A9BAEEC2DABCE8BBA0BBBECC6E3D02F908BD50173ABE0774DEBC08661F3E109B7F3D916926BD3B705FBE8A9AF4BD74D1BA3C826DB73C292EB7BC75EFCCBD626E23BCC4B4693D1FAB143BA9312E3DCA91C63E80D55FB7ADE3823DA1BE9EBC96ED11
BBC48F213D693945BC564B6B3D5CBA06BD125CD4BE59A4F43D284440BC717645BDC3564C3D54A2B2BCCF9512BA893D77B9A17825BC07FC1CBD53426FBC229E55BD14505B3D1812163CA88186BC374A1BBC619F763DAD4254BD443A1EBC99FE943D2C7E18BAC5C6AEBBB4B9333D2AB24CBEF614FABCC16916BBDFB01E3D3D2FC9
BCBF0E23BDB5B3873C918A50BE1D27F13D27642EBE55F4F0BDDF23643D9E16983D6F517ABC36CE5A3D2257253CD03A52BD8BFEB3BD4384FA3E5351B3BE1BB18A3C8FF392BB0E68BFBE4E58E8BC15A28BBD98F244BBC81055BB9205943D415C06BB225DC63B0FC64BBD87C60FBD8222BC3ED95F48BE09AA8F3D388198BBB9C46A
3EA549903D1C2CAFBD7450A7BDC050D63C86D1783F06272E3D6EC27A3E03418D3DDF58483D99181B3D82B903BC156D6B3C8CEF743D720EEE3E49CE20BDAD5F2DBE00A3A6BC9DCFC73DDE4F0CBD002030BD00FA153CDF34353DBAA1AFBEDC61333E40F3563C9E8417BE39E9CFBD680042BE9C867E3C87777ABD956B513D338F38
BD5F14223D2D791DBB6B496D3D4CE363BC8B2FA83884EEB1BE28A598BCF22BF33D7FA8103C99D915BCEBB70CBCED447ABB82C4A83CD9AAB0BE0012CFBA84381BBD56365EBC15EB7ABEAC82DBBC8642153DBB3C143D1A777B3D40A6233E42C23ABDDA5EC03C4884633B55B20CBD0A74AC3E214E56BC83AD753C6732DBBC3B9604
3C1DF1D5BD0097313C8B21573D211821BCA40EC83DB8189DBDD895123B9CBCAE3D1253BBBD83DB56BCF9314EBD35ACC2BD9F59ABBCF006083D6F60D1BC10AC323CF3223E3C27675E3DB74C53BCAE3F8BBD0336303D90AB36BB986DB13ECB822D3D52B81E3D8A7CC8BC131EAB3D826B76BE3124D33CC351FC3D9C5679BD6B23F9
BDB82CB63CCCF6763D2CEAB3BDC75261BCBD5CB8BE7D15BD3D1AC232BD07F9323D77FDA7BB371BCE3DA4A4EBBD8A571BBCD047ED3D9E76253E0BA62D3D332EB63D9F136CBD6C83A5BD823E1C3C529AA53CA80D76BDE6F564BD9E3DA03CAE590A3E49E08DBC5F15DCBB915F9ABE2C9FD7BEB32A26BDC74507BD839E2D3CF038FD
3D8C7F0BBD8318DC3D8D7A41BD899AC13D5C6BFA3DF378443D9F0A943E1047733D5632C7BB9C1582BDD4F8AABCF74FFF3D8B1DBDBCD4C00B3E3B822C3D0D52DCBC1D78B8BC1AA2F9BD8D1BB0BCF4974D3D8D8544BCDB6A6A3B9BDDD0BEBC258B3E3B5D69BDBF8724BD4BD7DDBD8A918F3C6D1B143E0106D0BB3362D2BD80D068
3C65BCAF3D2CE8013C701B81BD4052163DB58285BDF18E65BCC53A3DBC98F3F03D3B33D8BCF2FF2ABDC9A447BD8FB88C3CA37EBCBDBBE09BBDF6D6E8BD925275BD462F1CBD143FE23D7E493DBC854E703B5979F73C937545BDB53862BE0F68443DB7EFC43D22461D3D1A88FCBDF56691BE43F8283D869D733DA99EEE3915C474
3DABBD79BA46ABA6BCF53D193E05064E3D022B5EBD2532EEBC97AE28BE6C7BDFBD93DC253D172D103CB068AABD4A33F63D362583BC5E4D063CBF8F4D3D4A5F6CBD55B2C43D8E179DBE1D194C3BD2A045BD74D958BCD2638B3CF618AC3D7FD757BE109FC1BD07C41C3CAEC9003E04344BBE0C02673BE6DF023C96B2173D002ED0
BD2752A13D262CD4BDC1DE8B3D036223BD0C9760BDF43B36BD92117DBE2503DB3D7B02B0BCD51E763D9F06BD3D830D16BD8982023D1BC596BE105457BD858840BC2F30B9BCE026933CEAD63EB99562163C23ED093D3CA8893D9801693DD17C28BE31730A3DF9647FBD1EA5763E22F773BE1E675EBDFEFF65BC9A7E6C3D9AF337
3D04090DBC84C056BD098EE1BD0A1F63BD088688BDB9EB963D4FFF2EBD4A34773C7D54213B92953D3DC12B4EBC64851E3CCD63FA3A104CD2BCAE3B6C3CBFF47FBC31A0B63D63AEAF3ED384993DCA19DA3E52BD1ABD9EDB88BD34BF4C3EC2ECDBBDAC68ABBC38A8C13D108E79BD94B3E5BCB75169BC5A0DDABCB332823D3062F8
BDA1AA1BBCBD06A73C3982D8BD2B9F4BBC803F83BD26D45ABDB888563D11C319BD95668F3B8AAA14BC189E80BCF1486D3D460331BBC08D283BFF64C7BD835A32BC75AD11BD019110BE94B3CE3B337C9FBDC1CD1B3CF8A502BC832D05BE08E8883D00FC6CBD03954E3C59D88A3BE9BA3EBE9FB7C3BCB44A0CBC814CE2BCF2ABAD
BD5B15CF3C9C534BBC269D5B3BD957E53BBCA5BD3DDA2A943DF197E9BD29D302BD0281B63D18577C3D86A6863CF63E49BC5306063CF16585BCB34B543D809FDFBB47F22B3C7421AC3D3860003D0EE1073DDFBB81BD5820703D0A50E6BE3BBBEEBDCAE1D7BB7B0546BD3815C93BE91BFF3EC424CDBCB39F61BB9F3BA53C939C87
BD508F693CD0C8F83D1A4F18BC482555BD1E1ADE3EB8A88EBDBF7F8A3D095193BA9963BB3D8B54FBBD1CD29A3C483FB3BC9DA0113CE14292BC3F6491BE179D8BBD5781883C1B77A43CA6BB5A3C8FBC64BDB846C53DC36F7BBD6EB674BF0A1A1E3D2F84D23DA77AAEBCCB50B33DD10F54BE134A91BB7BB3703BD9FAB4BD06A2AD
BBCC6294BD1382383BEC6538BCB58B70BD757AD4BDBC56163D92AFD4BC73208ABCB75D703D5D83C9BD25FE45BCFB551D3D7AE9CF3E166A0DBDCF0225BDEDCE24BD00491A3D95DCA83C7250CCBD08229A3DF3A4603C184F30BCB131AE3C9F5A223DB710F6BCDCA1873D418BB8BDEBCAEDBCD7BC453C9608E6BDEC098B3D0B7315
BD9DA6393BAAA742BCF08CA0BC0B26F13CAE8CF0BE4140D23D49BD04BCBA3C403D35587DBD821350BC996CA63D57B38C3CCB4E2FBCF66D7ABD2EA44D3D10E5CABB1A57CDBD104BC8BE1769623C1A530FBD9F6901BCAFD2A03C9D96453E3DBB5E3D8AB8D2BCD755223C309627BCE2FB26BE319907BC162B443C9435C03D15E984
3BDAB4CABD2B3F123CB2B2FFBDCFDECF3B47FC283C77F0EE3DAA88343D3A87FA3D5ECFCA3C6A2C1E3B465274BB70A2753B1A20D8BB5590E53DA26B1EBAEFE4BBBC941FBE3BEB1359BDF843A3BD7DC801BC7682543CCF5045BC4A38023E45D3C93C8F510D3D9C6D0ABD54BB95BD60F2DF3E0206C7BD977A993CBC2E58BC35A3E8
BD87C7543DCF59663CF7F181BE1B598EBCC08DBBBE6E1F53BDDA40053D03E16B3D3571EEBCC6E1E43E1F1A583DB09691BE4FA0FB3DC86EBC3DBE28B6BDFBE1403D5DE8283ACE4C943DB489403D2467383D2BB699BDA52628BDBF29453E8B6FEE3DA375413E3B79B3BD7B45E43ABECF2C3D0469B7BE1982E73C93789DBDB9E2A1
3E65BEDD3DDD7A8EBD8CE26A3CAD1F9D3D1A9FF83E02BA7C3CC528D93C95981B3DF3256B3C972216BDC5EDE03D9F5E5C3D867F8A3D06476E3DAE8D27BE25ACCBBD362054BC586A5D3E9F4B34BCCC03043E2944493D8D24893D716F753D914041BDB327443C8E8691BE48CC7F3CE961B83EA61520BD00A338BD7A5C733C8B7791
BD879C43BD58B8EFBD40F43ABB4E44323C1C3D303E2800CEBD5C31D53B38C5DBBD031C10BC1E9032BC09A22BBDAAEEAF3D70A871BE3FBD19BD2A67B5BC3626783D265258BD53A4EEBE0127463C4B813DBCB6F7153C13167C3D2464383DCB6A7FBE21902FBDB0C76B3CBEE85F3CCED50F3D325E77BD0A95153E3609C43C9C87F7
3DEEC2183CAB2C263D36C33C3D867F103B8415733DE9AE00BD614ABFBCCF56B93D997850BDC1BC983BE45242BCDE0D2EBD96611CBE45B34E3D5D18963CAF3B843D1B07FBBC3196D1BC85176C3D412E193E45E4A73C011AE0BD0CD4513DB0E970BD96AD61BC613448BC9AC4693D300D70BE3E58703D2ED2C23DE09A2FBA026AD7
BDB86E693F3032F33DCF2364BE10B7BE3DCFAC97BE3929A53D0B46903E97A9D93D486AE73C3294C73EBDFBECBE3CC32ABEA15DF63E1164CF3E0EDCF7BD9399213E6500D9BC426DF9BE48C05FBDEFFCCA3E0FC2BEBE19A52DBD86C4EC3D70E62EBAB521BE3E753932BE330B22BD62294C3EA2860BBE614A8DBDBE05B2BDD8A324
3DF8B0983D571B45BD86761BBD9FC9FF3C85EDFA3DABCEA13BD944FD3D89CD2E3D57247A3B8086003D1243AB3CE22CCABE0745F5BBD613523ACDCDC43C84C7523D762A223DE5A16B3E464B86BD84B3C93DFF5891BCFB5FDA3DB3BDFABE2808C63DD0A4EC3D6C00533C174A0ABE1DE2953E4A3C2A3C5CCF7A3CDE9B363DB250BB
3DBDA4CCBD5E8B4CBD064DB1BBB0EBBCBE1D512C3DB417E3BDF834973D20ADC43D80C4893D69B732BE0CF1DB3E291FD1BD0A84C6BD5C0B79BCA2E48F3DC8E924BD252BF83D39C0353E7141A83D01E3423D2E99D83E346C3F3D95FEDDBE0D2F323E2C3D313D8D1F033D3F18B9BDB58F0F3EB30A303E149C6E3D6175713C59E654
3DDDFEF7BE061F49BD7349023E21318CBC2130DE3E0952FD3CEB5437BDEF10E23D2510A1BD117235BE1DF7A53DCBE74F3E6DB54CBDC8F7F4BD92E2323E3B7D90BE1AC0753D9B004B3E52B25D3CFB7A17BC552C033DD16A423D854197BDBDCBC0BD5143CFBE68BCDFBCA1695D3DDD033FBE1880A43E8288123DDBF1473D124B4E
3DDC9A09BDB1B9313D8FEA5E3D158F84BD8A2D053E50D80FBC9F82D93D06EF13BBFCE60BBC98C0173CA5DD0ABCDDCFE73E149244BC854F12BD11B6903C056318BDADA708BDADD6783E5B1D053E05B61ABE04314A3C86D41CBE05A6C2BE987C99BE1A810EBD858869BD494C5E3E134DA1BE9EDA14BD44B4FC370BF96ABDA89A5D
3C722E22BCBE771A3D0A7EAAB6A062E0BD408E363DF0922FBE473A303D3DB369BC0ECD173C57ADC93D2A0773BCE0E8B9BCFBC8693E130C6FBBB66B30BD6026A7BC122C643D0E6234BDD42D353C83C01ABD9F2ECBBD02E2E6BD7AB391BD5DF07A3E00DF283D2C58E9BD4847623C507440BEA2FA153D20C81FBDEED3DA3D46DBC6
3DC9EBEABD2CC3E7BCCA39703C6D6F93BE85F61A3E0A19EABDE5F4F7BD987498BC8BC9DE3CAB241CBEA2D0FB3C670D4A3DFA09923D80357B3D0210C33E696D95BDA5564DBDBF10CD3D4F82633E4A4FFEBD7B20123EB494D83DC49BD0BEA1218BBD212847BDEE3DF9BD114BD43EB289CBBDAD94033E81137EBD2A969FBD98603E
3CDBD7AD3C9BDABE3D3F99293D82045F3E681F8F3CF9D8AD3E2F9AC7BB3648793D2F61343CD97BAF3EA46AC73CB4727CBDF6D072BDACA1D43CC25FE7BE61D3413E001B513DC829B63E08500ABE62B4763D9C361FBEAF129ABDAAF81D3E9CC094BD8656E53D98EC87BDAD6A64BE9FA253BDF3E829BE840CD93CBD4EE33CCE4D08
3D192B7EBCC446F5BCC20F183D232B4ABD25C41A3DFEF96F3DBE81A73C1C2BC33CE425A7BD2A852A3BE9A5663D52F4DC3D7CAA3CBE102A36BE134814BD8FB8CFBDAD70B1BB60CFDFBE01428CBCF9D972BE84D8843D7D8831BC5E5012BD92472DBD68C516BCD725993CE7E5C13E43615ABD9317D1BC511CD23E2A87E93C32916C
BD902B8EBC8534A3BE492A0A3D77BE113D55583ABB3E0A0C3C5B473BBDBA2A24BC058C5A3BCBFBC4BE0BB5033E4E7BB03E0C2E6E3BBFF811BE2D7A423D194BABBE00A99E3CA8404EBE07F022BC8171A1BE3B121A3D6F43D03DDB939D3C98A866BD5B89A8BD9C0500BD39B9A5BE824303BEA81DA03DB2B56FBCB30E963E16A1B1
BDAA97933B8DC429BC5B21953D3898733A89CF2B3CB3D71B3DFF64153D9A612A3D7C0E073C7D5FBF3C34DD6B3D77437BBD5824F23D9374BD3D94F30D3D1AA3EC3D8E35C6BCFD7951BE8F05C8BD606068BE348190BB8D11C33D0CC977BC179AFF3DCA8CDC3CEF422FBD9AFD5E3E6F96F4BD5A8C523C0C6912BD009ABBBD1B1BE1
BC16F7F4BBB5786FBD19D8593D7C3DE23D5A2782BE29F1EE3DA1D8023D128F9B3D5FF09ABD0785F2BD2CC939BD1D55E8BB2F5A3F3DC95DCB3C2BC6453B87C1A0BC8ACB5F3DC07B4C3DCCE175BE0133163E17A374BDD007B63CD450DB3DD7B379BD3C7E493C92512C3D03CDC1BD8CBEF03DD10BC13D0B04ECBD3DA19CBCAA253B
BD2BF9693CC4A4883CCE4590BE1033C7BDA11C55BDD28444BDB0D2353D390A1D3D89F43D3D0F09153CB2C3FD3DD56F13BDD00C08BD33F0DE3D90A4FFBD06B66B3CA84F1DBBFA22C6BE8423F33C9702AFBDC15E11BCF6A385BD6813343E07489C3CC77B493D8B7A323B5DA8A23CB172623DE7B0513C8D49563D5EF4E8BD4F058A
3ED8BF523E1C4C42BD993387BD1275743B74FFA93DBA75F93CE02618BD8465C63E1B3F983D7299843CADC835BD8CC31C3DCDC4793DC86A1DBD5ABBA2BF2D1D14BDD2FD2F3CFBE2DDBE26817C3D309B3E3E4304EABDAD4A3E3C9CD44F3EEA2A99BEBBF66F3CF0026CBEA32AC3BEF5C9C53E4CB0EDBDF38DB4BD9036E73C5ADA30
3C7E1CB13CC01F5F3CC40BA6BD9CC4F5BD570911BDADADE5BD0485823C63F475BC258222B9BCCA57BC1EA9E33C940F65BC9529DABBE399823D157579BCE99FF33C4D099FBC850FCABDBACF023D1819B2BE688212BC107A37BD04432ABE919B3B3D938D1F3D3CAEF5BC89CF3D3E4426293D9E5DD03A4325BEBC8FFF6EBC036C0F
BDAC138B3B92BF483E154B79BBF77F8BBC6BD2A23D394A653C5327153DDC94563DBB9567BD62DF563E0060BFBDEC35D9BD7B3440BD998F52BD97C834BDDBB9F53DC1A987BD576FFC3E7CAF1B3DA2D6483E5FBF24BDC0576DBE26310D3D9727DC3D9AE67A3D1D9A613CDFA24B3EB5B601BD75337BBD3FE1E63A9B8FA5BDD7C984
BCD517423D3940F03C098D74BD239676BD14746ABD4209FDBDBDCC563C4725D5BD6C08B53CB5C657BDD83470BCD77A5EBD8C4B8B3E5E71623C0EE8AA3D01344E3D99328E3D01606D3E3C60CABC8991F3BD528B9E3D942F1A3C9E251DBE005C1F3D2D9FBD3DB3BBE0BD5F68C1BDC04E7E3CC0A2983D023A3EBDFA284E3C923230
3BD15D493E8B9345BE18DEA5BD477D383E1CA1BB3DA0376EBD3AEE323D86D5F63E1B97BC3CEC420A3E36B3743E05BE70BEDD68ECBE21D94E3DA29ED23D2C90303EAB79773E94A3B23E3C8C9DBE19A5E23D68DFB7BE6526DC3D978EE53EB750BFBDC95CF73EB6B1EABCCF4CD3BE6747F93E33ABFABE093F933E3773613E064C58
3D08882D3C0244903C61AECF3CD5711F3CA77019BC5C7CA8BD1ED66C3C192215BD655A413CA53828BC9DB5D03C4FD47F3D093B6FBD9759AC3D1F04AF3D2E78C4BD2FB2B33C1FB3ED3D04467B3C825D093D11BC323D33738E3D59401D3E636EF7BD9633FEBD05514B3D0D819A3CA47F853ECB67373D3E57823D40FE863CB94A6C
BD280858BEA8F69EBD1B53A73E0E40B2BD58ACD83EA75CCB3E34F46FBDD015053BA5A30BBD750CB5BE9F354A3DFB513A3ED2DB16BE96444FBDD527233E86D93DBE943BDD3D221C283E01442F3D72D2E93C8BC25E3E2C1DDB3D7043BFBE01ED0CBCBCAA5BBEBB5B10BD97855CBE1829713E81843D3E9449543E0A636A3DE2AB11
3D814088BE78DE893E1CA787BD2BD4EABE2282753DE5C2813A0C486FBD8F0454BC4FC311BD5F10FBBE1EF78CBE1489F83EE2DBBE3E111C3FBDCBDEEDBC31665DBEB846B4BE8A1567BE3C614E3E2B604EBD5DC9DC3E275591BE58BB35BC0A4BB33D91118DBEC53579BD442F4D3E8A8276BEF7AAB03E1ECC48BE2E360FBDF2585F
3D8FB10FBB81B8AABD74554ABD1FC1B13D368CD0BD2DDABCBDBD3A40BC367B553B9ED821BCE867CA3C7DDD943BD5C7643C71FA863C7BF391BDEA8119BB51EA2ABD158E3CBBDA0B493E0F7174BC714EE13E2564B73B6BBCCEBD199561BE985F2C3E3ABA7DBC96956DBAFE66E0BE50E3203E7371B33C9719FDBCEE2FED3D94A26B
BD10281C3CE32F5F3C6E4B9C3BF8EA31BD6187ED3DC3BAD43BA00840BD21E4BEBD7ADA2D3C83A4BBBD99652ABBEDB363BC1D002EBD81F7803D978E7F3CDA7A5A3D15CBA93CB80A0F3CD507C83CE8509BBDD77B953D272E863D17133F3E2A744BBCA1188A3C52A281BCE9CCBB3E1D199ABDE2B3673CBABAB53DADE768BC60E7C9
BD72AEA13C96D432BC2F1C1E3D12D0A83DA45342BDE115F23D67EC323CCFB0723D4B31A8BCB0D9253D1540923C022B833B76D5DB3D4292C1BD26F576BB8CD2A6BD397C11BD0E706C3E0BED47BDA7CA343D6724C0BC968FF23C1DAE643E227F0FBD4402FBBB29134FBBCF56E4BDE563ADBE031699BCF3D26ABDA4135D3CC63584
3D8C4714BC86A171BD9D7E2D3DB66EC93DC58DF03D060A5F3EBCE02CBE1F2FDEBC97CE863C5012AD3D0FEFE43DF95A773D99D971BE7BC9F23D85B5803B612388BCD70C9FBD3605233D8F7727BDF6E5B9BD4E56663C468FCE3DC45634BCC7A5A1BE2EE5CABD245021BDA83EB73ED93EE6BB7A979BBD211AC33F0633BC3DE863D9
BD416476BD82953BBD6CC7BCBC959C463CCFE33DBD2385F03E01ED90BC9E6D7B3CF1DA44BD1155673D546152BD93558D3DD56B973D8A937B3C9895DFBDD1D24CBD37AB5CBD0CE7C2BE260344BD73044D3D625585BD05BAD63D32C00A3D887DB4BE32FE97BDCE3F5D3C5923B3BD8233E0BE30C69DBD79EAE43C37A146BBCCF7D6
BD8BFDC63DACF7AF3DD2D497BCD735E23DF15A20BE1B412EBA8FEE65BD80CC423DD4F1D3BCFAA2053D26EDFABD63E440BD96C8E83DBAE3383D68BBC2BE024D3E3D261E2CBC88C560BEF64E4BBDCE9E6EBDD2EC4EBDC8E71CBD83032B3D662B193C9B80593D75F3E1BD1146C53D8541F2BD626606BD491E47BD839152BDB78C52
3D89BFDDBDB2BE523C80230B3CB673353B3C521ABD81DF5BBDA78356BC542602BD31A1933D1234B23D89AFE0BD932FCE3C30505C3D1FCB14BDDA93F93DFA8D263D3C530C3D0F1F8D3E0B084E3B8D2DC13D84E588BD23D6A5BDAA6FC5BC936FF7BDFC8834BDB2C7DB3D9D3EA6BD8CB11FBE64BCCABD0589A93D6867A3BD4A7B19
BD3E331CBD5702F3BD015408BE1AE013BD988A69BC9BEEE93C8365923DF84571BB40B8853C803463BCA6913BBD1FAFD03B788CA8BCF17B8E3E67BA403D519F503DC22C79BDB28644BD83391ABCBE84EF3E1C268E3DE467F73D2760C9BDA439743DA271C93C906D82BCB84802BE158B3C3DC286EF3A31BA013D289F233C7BCF4E
3EAE33AEBB0BAE32BCB9196FBC2D275C3CB1619E3EA6AA32BD857DAB3DCB212A3E501378BA121AEAB972C38EBC9CC4F63CF0FDE2BADAD93FBD877EA9BD410B54BD92F28ABD0977CBBE99BCE03B2359C3BDBF6B1DBC9F9714BCD48A15BE92A1DC3E428A673D179721BE0E952A3D0B63BD3EA66EF8BD109E14BB7264053D867731
BD7E17003D038A153D914F79BBA2CDA23CF85F31BD87892ABE8D618BBDA91D23BCE7C988BC10B54EBD7A5E3BBD3D4306BC23BF21BD5D01DABE106BEFBDA879F33CE92A43BC1F22113D6C30C0BC45B815BDAFAC393D3255BE3CFCD6583E7285D0BDAE5AA03C0F0C833D856CA53D281FDC3ED6F6223CF4C330BCE81B41BE0030FB
3E1AA75EBC99D9C33CDEAA623D9145D4BD706D3FBE518A5CBD2818A5BE13314F3D92C75FBDBCFB4D3BC1C222BD687D60BD90D2B1BDFA5FBF3C937576BD4AE7BB3D778D87BC0C8F533DD0B6703CA2F35D3E14FAC03C8F11F0BC9360BD3EA86A72BE2385E13D56E78C3D8420E03D22847BBEA913B03D01897B3DCAA79E3B699746
BDF8DC27BBA776C53CD7E947BD852DAB3D0BB9263D82F3703D8CB4CBBC6169B1BD7E7C86BBD43A5F3BE401F03C8150153C2E9276BC873A7BBD1D23D9BC06851ABC9DB6873BA38D3ABDDC587ABB0412A23D0510FABC81FC713D198299BDEF3BBCBC735A66BCD24E4D3C10A6DC3D2DA3263DB7B7553CE783DCBD04EAA9BBB44188
BDD9B2D43C784FA83D168D833BBBF1B33D3491ADBE3244F13D21EE3CBD5C95B53D1CAA293D534789BC7A83AABCB4EC9BBC8F8B75BD2C1276BD80187DBBFA09C33BAE513F3C92E5113DB8F6B0BD0E78FD3DBA5FE8BCF3B5FFBC0F9CDE3D9454363DCA03263C34E960BC41A0F7BBE75A18BC5A4F803CADC48B3D1FFA70BCC60C7A
3D7A8800BD4F6DEC3D043014BCFE40033C81E9443E0E317EBD2C2B4DBCC38F7CBC3BD2733B1B3192BC627FCBBCBB87073D397CA7BDD84432BD6282E23D7668963CA7C97B3CCEB89DBC9C8355BD24752E3DA437543C77D9E03C14B411BE0198923DC34897BD897B82BD22788A3D66F4743DAC09FD3C82BC8D3C40C46ABCFDD3F5
3C2E9DD33C477D133BC276CD3C63F1193D32B962BE1793BCBDBDA5B2BE6C67443DA243FA3BE11ECC3D4AEB263CD019D03D8A15FCBD398098BE056776BD3EFE37BD75407B3CDF0E563E13659CBBD7374DBD10BC2CBC48D02D3BAEC0293E25F5833D105A7DBD035E21BD0F30163D17FE95BDCF2D4CBD69F6E33D8AFE35BB82A934
BDA54E78BCD4650CBD02DA18BC18CC3BBC120B2F3DB18D84BD5AA7643D488DBA3DA33963BB421415BD0F50DC397AECAD3BBD9BD43D0355EC3DF31BDDBC56D9B13C0DA52ABCF90D2D3D8DBA8D3C16B114BDDAD9BE3D302F64BA6A3466BC87CFD93CF5FAE33C0D35C23C8367C23C437FFD3DC1395F3C8E6659BCEA25163CFBE7EB
3D6EEA173DAEA6C1BCD66E8D3CE645E8BD29AC2FBEA1FA18BE0D3F9DBD5F65AB3D0D0E2F3CFB4161BCDB18CB3CBA61F4BD6DEC2F3CD15EF03D93AB823DBD62AF3DA922F73C5046543E6298E23E0922D13E27A092BBD4F3593CE866343E8ABBCFBD4BA309BD3488E33BB5B481BE3F5854BE91D368BCC7E6C13BA173B63D48F93F
3DA39317BCD48F933D190099BDDC683EBD38342BBD3C4FAD3C7DEC07BCCCA5CEBDCBE4C33D4BB0C1BD1B672ABBDDB58ABDBA30B4BD629B4D3CD5935FBB8A28533DA6A4D5BCC99DD4BEB8A1FDBBDCE7C43DAB05BD3D836DC63CBF4726BC983E923E023E693D6E09AB3C2C34D4BD9E83663CCA24633D08E4FD3D55E976BCA768AB
BDE1AB43BD06F1E9BD066B353D8AA1293D95FF363D6C1B983ABDD9A1BC46DFB6BC8F34C7BB3C50053D8650443D1D86733DBFB4B23D91C6E0BC9A2A7C3D54E02DBD8A80E2BC5F299FBD8A01EDBCBCAED8BB0D83EBBD670F38BD0DDECB3E3242E1BE3BD351BD8681A5BD5A66493CA9D3B6BD225180BD9FE64EBD6C1A403CF6A834
BC00F016BB3C7E43BC997AF93C21521FBD19CBCD3EBACEDABBEA4E8BBC1525CA3C878301BC5E93AA3D707C623CE428EB3CE25338BCAC6C2EBD5824F33C3022AF3C6B9A40BCC06ED1BC2C759A3C8C29A6BDC5FDB33C812BC33C361E8FBE9728963E3C0F45BD5590513C9F769EBB77908EBD138211BD9977093C408F16BBFCE87D
BE1C9B943CA6471ABDBBDB27BD4A8E21BA1EF536BE0AE1903C9496D0BC2F28AE3D968A8B3DB30BF33C929FFABC94CF9F3D3F9D2A3E1E0C7C3DADFA80BDDA2C09BD819F19BC41FCE3BD8985573D845B4F3DAFA607BD08CF21BD89D04ABE47EA663DFF5B473C126C0DBD5A8659BCC58DBF3C9F0BB7BCBC3C7ABDD21FE83D7C0607
3CA2DC8DBC2E46F2BD74E5023D71E81C3CDFE0AEBEC77F8CBD952BF4BD8C7984BC31C1FDBC7A2536BC80B8863D0E7EFFBD256B2DBD8DCEDD3D9DB4DC3D4FA7943D35E8B9BC4791B0BE6E2989BD1E3B82BE1A0429BD2EBDD03DC3FE423ECE1935BE7D8E133B975BF9BD143E72BDA54D1BBE2F0DF33CAAF1BA3D4C0EC73C6B7D9D
BDAE0D59BC8C0D803BD7F638BCD99D6DBCC58573BDB47E9A3E13E7EB3BA6483FBCB95F21BCD28EC7BD20B349BD25E87CBCEB7A6A3D2F752E3E3399C33D7A6F3D3C2C1C403D119D073BA3B34BBD9C1BD03DA30EF5BDDDE077BC856669BCD102BCBE69BCF53DAC1108BDA507783DC4729A3E9B06633DDC776D3D0A67D5BD675273
3B7341D2BD85E1C33BBBDF90BE3365D4BC42DBDBBE538105BE5631E23E0902CB3C4AAE0F3C19323B3D790BDF3D9B6217BE99B9CA3D96011C3D8687B5BDAA67433E3E91ABBD87B256BE2C1365BCB984273C0046A13C93D2773CC2AEE73E3ABFD0BE1AE4A03E761E8CBDA6323E3DB953A4BDB861EDBDAE64E73D015057BD65B699
3E4920D23C81DC00BAE7093FBD882DEEBB5324DD3E8717B93BCCFE98BD5AA6F33DAEFA2C3D45B2783BE8E979BD26EA073C44BB33BB3BA9C9BC820BD4BDA535813B8AF1223C8B0FE83E5709B43B71ED7BBDC952063D3FB4723C9482D0BD623C7DBE8026C5BC8C7915BE3148723CB873CD3D8A85A4BC883A883AF1CB15BCD3D1BD
3D735426BD9E0F993C780537BCA442543E4E2A2C3E4FD9763E768FE5BE21C1543D6CA8F7BD2E95E83DAB43943D0CB7733DA28E29BE7F0B0DBE5239D83D9A2649BD946413BD8CBAE83C592BA4BDFF7654BDB83954BD0B90373CF67B553E88C1A2BE866643BD611AFEBD683AF23D4F73FF3E670D40BD5676773F0E3F453D8D2B77
3DF55CD5BBFD2A713DC151A93D27550F3C7893583E045C493CB8267FBD74F4763D96A0EABD87AD2CBD8665A1BDA3B5223C5C8076BDBEA504BCB24A28BD6CAD753CC67D6D3C6C44EA3E44813BBD74EC3F3D10F9F33D49F34CBD9A3F2B3D6B0AD7BBF277A3BC49A3163D4D457B3C1BF8BDBBD4F0033D9393D03E093DADBCEF1756
3DDBFC5D3BB0E92ABCAAC13EBCEE52363D5BA4A83CF88ACABD315F23BD1B288F3D943258BD755F953CAC7527BB38D0B9BC7EDDBFBD2BBE6C3D3BBA463D3F83F63D86CE9BBDA6A5853CA543793CC99027BC8F1D6CBCB610E63D295C11BE82DCBC3DF27AFF3D04A9A9BD54CC8C3D599BB93E171FEFBCC0C61B3D2CC509BCF4CE92
3D9F3B57BC9208A6BD97E975BC1046AB3C8311793D8F5A49BD2AF4ECBCB0CD823CA6445FBC471507BDCF096A3D4A3023BDC75B9C3C953AF13B88806BBB8F308E3DA01BDD3D78E2FF3D99BB973C5F51973D135DA03D537D9D3D171BEEBE05AF02BE03619F3D2ACF35BD707E9ABD4AE2BB3E82478F3D5EDB9B3B044A943D8C617C
3E1778F23DB8667ABE4C4A62BC64F5493D721F6BBE00C59EBE40894E3C26A79C3CF8DF0E3D510E243DD3F4083E2F3716BDD43D5BBE800808BC16AC103DB7E4973DBD737F3E8E5569BE55EBFFBD41F630BD842E39BDA9172A3D1FCDF9BCD5AACEBDDBF7A83E16618EBD7097A5B9FE4F003E84B0B7BCFA8B493DB5A06A3E7630F1
BB89B9EEBC62AB7FBCB7A18C3D6FC11E3D57696A3D1FAB1C38858A77BD768EB7BD3F66C53D17B5C6BDA7D163BD2BB699BC061F9ABBCCBC40BD7B0631BC34100EBD51588B3DF061FC3D4645BCBD8D38F2BD6CD748BD86F280BCEAD7273E3D4A8EBCAA37A1BD2E7EC1BAA672353D28354A3CA382AE3D91065D3D24AB003B04BBCD
3BFD2AACBBA16E453D5FA53DBCA08549BCE6830B3C56EC2B3D47E15A3CFB19C13D658235BC9DB19C3DD387BDBD1F94453DB93F78BB9745133AD4A337BBAAC96DBD49A4D3BD6E68EEBE530F403C31183C3BE17554BD435766BD04C5BA3DE3262A3C0A5A64BD89AE253D0F955E3D33D727BDD43851BD7A0982BAB44F2DBD7383D8
3B4C1025BD02F275BC9C6BC23CF1BF73BE7EE516BD98D03CBEAF95CD3CEB9A4ABC7A7E62BD3BDF18BD82DD19BDD53DC5BCF84BB03E2F7E493E2560A4BDDEDEA53D05C13ABC323CFB3F0A5A0A3D5E82523DE74D853DDF6C15BD543E7EBEAA0C6CBC390CFF3D4516E23D19D3D3BDE70BE3BE96BEF3BC99E6D9BEE21BA3BD282EF5
BC53F74BBDF957623DC10CC4BD227EA1BEC0EFCDBBC3AA0DBE6F18B93C16A14ABD9ADFA7BC736163BEC9A82D3CB31AA53DC1CF663EE7D77E3E27E0833E0D82F1BDBED95BBD4C41A5BE4BA57C3EC39CAEBDF633103F083C68BC0A52CEBF002BE83CE50ACEBDA1FCFCBD9D9D713C984A8EBE9DB0283E96D377BE608FE0BD7339A3
3DD3A4DC3E13BB82BDBE8DAE3DB95A8B3E9396B03DD1C8603E5DC1A8BCA1F1993DFF9E2C3D6A04C33EF4E28DBD4D6205BE1939F6BEC07265BCAECCE1BDE3E9163DB452FF3DBB87883C411549BE966E973DFFE10FBF0096593CD1FB8C3EE8D9B1BE95E56F3DB02522BDAA439FBDBD20673F294EE4BEC18E4B3E249AFF3D193FA3
3DD5D8B23D4E75983D5429A83CBF9075BC4E9ED23D89F7D33CED81A83CB66ADABC740BDA3B98618B3DE6689ABDA4FA213D9B6FF3BD9269ACBC07D96B3C81EAABBD9CEA82BD3F10AABD4FF34B3C1909CEBD9E596ABDC4911CBD21B1BDBE6D33893E7C5F01BD02EED73D06B7583B041AD7BD22CEAEBD43635A3DB4BA42BCFB53BA
BD4878BABDA3847FBEB0DFD73D72C0B7BC7127A43DA4C3A9BE2DA2C4BE0495F93E22648C3D01098ABCE3F5A43EC9AE92BE10B1A0BE803862BD2F27B3BAAC2EF43E4278253EDBE2CA3D3279603D328AFCBD15B0B13CC465C23E3688393EA658B9BE5C4DFD3D6F9E6CBD2E66D13C1FA67E3F05CE163C8EAC723E0EE92B3EB39A04
BD3EF1C83DF057A73CBE22CABBED00F9BC4B83D3BDEE7FF63D4B41E33D34CD113D2B889B3C67811C3D8AC0C53CE98F97BD92367E3DC4A6CA3D9DE6813D2B2B1C3AF829923C0E18C2BEEB51023D7273ADBE147BA7BD8CAAD13CFD467D3DBC28A93D2E1A4D3D9186F4BD0C699F3D19778F3E2D6BC0BD470A1DBCEFDB7BBCE14135
3D88AFEE3E229EFF3C52E29BBD8B07A93DB5821C3D8F81813D3B33673D876FD73DE131E8BBC9AAC8BCC95B60BD0778B13C403FA3BE1DB8943D2F949DBE5A982A3D9489D43D532830BE496DE8BE554DBE3C87C6DCBEB2558B3B6545FD3DC50AFFBEA9EF78BDE18F87BD97B5913C2A5F843C91D1E7BE96A144BCED6A25BD5896F5
BB95CD833DDADA643D0D339CBDB3E6BBBD914D7F3B673298BDEE25E63DDD01EE3C8868B03D6B1ACC3B55A0EABD5838BBBDBBD7753D61EE0ABB36C1CABD388C653D9ADD483BC0D49CBE7C96963B2FEF1ABE0168EA3D967AC23CD66F483CFFD65BBB5071893DB38F843D35E6F03CBE3C093DFFE377BDCEFE77BD26C9DB3C58F536
3E81315C3D84484EBC09903A3BE9BD5C3D252A323E924CD3BDB5D1C6BBF6C5423E44E7BBBC83CD95BDAED79A3CCA81103C473A013E2B01B5BDB48B39BEA23D203D3CA49EBD362B5A3D6C2C49BDCBE8C73D3F4EB5BC1294683D4AAF323D8CF8D1BED72F813B85176FBE526681BDD3FF6E3F32A968BDA2A4953BC9338BBD49FF34
3DEAD510BCCCE6AFBC8929C43CF264CDBC753E2CBCBCB3913D163EE73CFBCBE3BBF7ACA73B9BE2B7BC9A6E08BD4194403CAF05D9BE2C65213CD728D6BC1461CE3A79AC15BD5883BEBE937CDA3C56EC203BBB181DBC8AC08C3D348F94BDE4DFA03D07B368BD40A072B8F71DD13DFAD8B1BE9D546F3CE96BF73E3BEC58BD60AF53
BD7B1C953D5273253E9E1D81BC9C5A2B3D3D2A8D3E2F143FBDD501813C8EBAC03D02175DBD4586A1BD4653F3BEACFC123E2228F23E468CC8BBB6A414BD8928D2BE3A398BBE9E9B203ED7216ABD648B013E4CAFFB3C186503BE96C61CBEB4AFB83E7BD0C2BE01B8F13CFCCE763E18B1DABD5B71923CA35099BE3CA1B2BEBEEFC5
3A574113BC9ED867BD71FD09BC3DDBAE3C8431CCBDADBE653DAF4547BD9C1363BD54D642BCACC60DBCBDB6B83DA40C94BC96D62BBCA6C56BBDD1BD5F3C4B0D153C56854D3D30F0B9BD9C5AD23BC9FB9B3D2A41423C380F8C3D1D12573E1F3D5FBDCEEC183C2E90053C1C0C843DC55AE9BC12E3A23D9121813D37F1653C93DC05
3C849148BD3078CE3CAE4BACBAE6B6BBBE2328B6BDA61436BE234AD73D331864BDBD5D8D3D2064BCBE6CEEF1BC610161B9F369C93E3772D33C52E6C73C596E8CBCEA27BA3D52EE673CAE7B3F3E05082EBDF18E013E43360ABC1935E8BE1FDA4E3E0A1EA43C88A11A3C68948BBC254F50BE1E64DC3E2F64ABBE016720BBF648F5
3DDB4E2ABA102D3B3D851B4C3BB9359D3D608365BDCB1D9EBB2DF8FEBC1EE5483C9B0E86BCCF12603DB16034BD8F19FB3D7E54F8BDBCA53EBD51693CBD842B9EBD89D1BDBD70DF8F3DCF0B27BD698F703C4D1AC13C5D4478BC1CFAF43D699CAC3CCC8C8FBD5E59903C97D65A3D8510513DFAC992BD8DD5683D5A587FBDDC9EF8
3D625745BE8EB2543CDDF9C23DAA9A53BDD2125A3CC9217ABC0F2A4EBE112208BDAF0BAF3D228B68BE7E93693CC13EFA3EC79788BD0DD0A5BDC0F8FE3E1A74F5BE9847B33D889C523EEB4FE63DA81632BE2FFCB23CFAF909BD952DFBBDA3A7DB3D0A330BBEB5904FBCC26817BD5B9830BEC826A13E5ECB8CBD03C25EBA23F439
BC3735B13D236860BC6AB7BFBD39622F3E27405C3DF755563E09B4AC3D22553A3D8F897BBCF2CE243E5571B33D1569E1BC1E4CC0BE1A94FFBCBB646EBCF27EB03D30035CBD7DE700BE30D74CBE187FEC3DE8BBEEBE29A4CA3C3E01283E601FE4BD048E083BF5FEF83C8076313D9220DF3E5282CABE09E03F3E0CA3EFBAB6A008
BAC32FA23D82401B3C8E3ABCBC06013D3A3E55DD3DC4BAA9BD389FDB3D1CF49E3DAE9ACC39EC439FB90C2196BD0FF6DABCC922443D5F6378BD9DEDF2BD1E873E3D0429193D59D7633EAEB81C3CF624EF3E26132D3D9018D4BC5D4A663DA665453C51818EBCAF80C33D9EED9CBE1B869DBE45057BBC7A4F37BDE44DE43C402C83
3D8617CD3DCC38213C008C37BABC44D1BCFD3885BDB6D9EE3D4874FD3DA465053D44021C3CBD3E16BAF13C68BC638008BE3A0D073D428DC63D8DED78BD77139B3DD4DF3C3CD58F7FBE84F732BC8F7E87BD4E11BABC9D1FA33CA58AFBBC8A31C9BD66467C3E4420143C829C223D7961063E73366C3CA3E1933D1E74B2BD69A616
3B67F963BDE8552BBCB216C33D2451A23CA838323DFA4E0E3D0D696CBD8F87CFBD77BBF6BBE925813CAED9A13C7CD7B23E343EE3BC4E68C9BDD19A3F3D3ADDF3BE0D7A87BCEE799C3E87D98CBB7AB1D43DB07F25BC7BFE95BCAEECA53DC683883D7EE972BE0EABABBD3913F5BD893246BD5CDC4F3BA3F089BCF73C673D964B69
3DEDDDCF3CD633493D1B3B553CC524533BFD948ABCAA40663DDDEC12BBAC65753D2CAB3FBD4297FA3DD6FC2C3D90CD6E3D847A7DBDCDC5273CB25656BCA51A3EBD2749A8BBC3670BBD2B97B53AE9D57BBD3C1272BD22B252BD459F5BBDE6F6203D571C04BD953B2CBC53121C3C47EEEC3E69D0A2BDB3726E3D5F19B3BD216B33
BDCE0CA0BCEEB2E9BDCF14C8BC0FF3CCBD491ADA3E04947EBC7926D6BCA0CB3A3DDC4382BC24D30DBE0413673DE6003BBD32846B3CD181C43DECC271BD79C2653CEAF2383DB6BD12BE04F6B43D0307EC3CC85E4B3DA82A593DB523E7BB9AEB0EBDB688973D8EAC023B9ACDF83D6C04493DE7949D3DCA5528BCACDE153DEB8A96
3D2C76EDBDAAAF803F0858C1BD6C796E3D4C7EDEBE498F803DF5F14C3C872F293D5378A8BD87314B3CC02015BE87C0343E85B0733F057E6A3DEBB995BE4417B2BE2322D8BE4A8D08BEF47F8CBD44E99ABDFEFA7ABC936BD4BE93A345BEBF006FBD2CF304BE77D1A1BDB506A9BDF8F1F3BD32DEF5BD5A9417BE9F1543BEB65E36
3E443305BDF38ACB3D2BD9B33D7E9B8E3D9389FBBE86592C3CABD8C13D5D56BA3D4E3E143D0BC74C3CB90622BB2D17113C9895BABCA3C2CBBD8D15543DCA45A53D978AC33D007B8A3D226254BDAD8F7BBDFF21C6BDBE37C9BCACE2953E1A9114BEA81951BD42CC71BC938F353DDFD3083DD2EEAFBCA29D76BD91009BBD1CDB0E

