BCA563E9BC046886BD49A4CC3CA6FD0ABCD0726D3D0698E13CBE81FE3DE9A0A9BBA58F03BC6E827BBD9807053BF93E06BDEF6FAF3C7DD7B7BB8EE79BBD2289603C44A1C7BDE82324BC99301B3D75487C3D8B3F703CA85933BD2431C2BB42CDDD3D3EEBEBBC63AE59BC93AF8C3D6AC7E4BD7F38E9BD20AADFBB6CD80A3BECB393BDB8CCA0BD69CBDE3D508245BD630AB33C8BE3033D73E1D1BB3D5A693A65CB143C31F7D83D2F32B93BF32693BD5B12E7BC98324DBD01B94E3BD6FBAD3E23ED953C35F76C3CEA9059BCC325D93BB49EBEBCB6B92ABD769ED3BCD295933C25E53A3D7E0904BBE62D9E3D843D5DBD82E78BBDB26055BD487BABBC8FBCC73C9EFB12BB0DADE33D4E2C6C39A1E7A63B1A7D0C3D3F9A12BC5B9EB7BB438C15BD3FC4C3BDC090FABC9BC71B3D27CC5DBD03441FBD1B5300BC955BB8BC89570B3D36BE303B11D8693E0B53133B1033B13CE6AED73D1DC7563C3ABAB8398FC2FB3C4A5BF3BDA703B43D88BB663D73B841BB3073123BCD7D7BBBAA76AA3AB2A264BD1C1BBF
BC93C0AFBC80291EBC5C5ED73C88F751BC59C7D53CD8E150BB8AB94B3D3C6DDDBBC47972BD933A5C3C64EBA63BAC1A2B3CA266D9BCCC115EBCCF9BC4BB0D97A93C9A77AFBC55FF7CBD1C2E5CBAE9159E3BDC70BF3CD7E7AABD405DB3BD02E2873BE7F47F3D0E28BABC9E43F2BCA85E38BD55A68FBBEF0B1EBBAD892CBC3DA38BBD46C194BDA5E34DBB72449EBCE59024BC1AF4B13C95205E3D593D3CBCF0954EBA06B5A13D08A7F93C6F013F3C2760CBBD830C2D3CA38EE63D65BCD53E0FC4843D2795F73DF680C0BD96F4CEBBC64D3BBB6B63A83C9C8DDB3C0CFB12BD199BD83D1BCD1BBBA6E59E3BE4B1203D887666BDDCCE3FBCC1FCA93B50B598BD1481D8BCBA7914B8D68CF0BDD5527C3C3AA94BBD9E3A69BCF380BC3CE209093CBF51F7BC969C13BD535542391BF17E3BB57D65BC0147B9BC8213F33C911A19BC6C05343D10AD883D3079ABBBD356BC3D307E113D72AB2DBCCDEAB23CFAF0DCBCF3C171BD52F7B5BB5AB0403C30FEA03C7331A03D035417BDB0F4FB3CB1C4FFBC3CF91E
BC4ACC1C3D21CA40BC93C9CB3CC318933CAC607A3D6C0352BDB37998BDF938653B6DFEBABB95AEE73D1B65D73B17E4B3BC610FD9BD929555BC3FD642BC62657A3C556195BDBF9C7A3D177197BB37BD343C2947DABD1EA9F9BCFDFD59BD586456BE44232A3C31473DBC145AF7BDC2DE38BCDDE511BDBC93C53D0FEBCBBC94CF543D71CA10BCD55715BB09484CBDA19C393C64C32A3B5E627BBD633A54BDE91FD2BD1370373D323A7DBD8105F2BD7688D4BBBCA6843DD72E4DBE06121FBDFA70A4BDCF59D83C808D783D73FACA3B944729BC09072F3D67CF2EBCC854773C8588093D0BDA45BD36C3B1BD94FC553D5FC216BD87CB1DBDA27B68BC139A71BC8CF326BD033E1E3D19AF99BE396544BD6124E3BD206A403D19866CBB21571F3BCC9DC4BD85F37ABC39FE72BB6BEDB33D12069ABC3D44BF3CB82337BD864C93BD234EF93DCF3E853DDDF5F83D3F97543CDDFC693C29C912BCDC7ED1BD01C879BDAB3EA63D7E9032BB494337BCCC5C46BBBC87483D1BDD48BC1F1308BCA365FD3C93263F
BC4E4A633DFE45093CB9D6DA3C268602BCBEB4AEBD5BB7023D6FDC543B9490C2BC7636B939D69B1F3C3247163C908DAF3D71EB52BDB4EDA3BD08C531BD410537BC671EF6BD1F6577BBFBAEBC3D106BE43B836759BC4350C0BCA6CDDB3CA6F024BA96E577BB253E7ABAC55D5FBCA59C97BA9FBA343D3C302CBC134617BB237A3DBCD02ADDBD2432153D3D3ACCBA9554383B9DA8A6BC4659403D4453763C38F67DBB2E7B0BBD8C2DB0BC0C8D63BC38EDC9BCEC6A83BC9C2C4B3D27A30BBDC77393BCE96BCD3D2A0D413CA1C0F03BEF03693D11390EBCD6ABF7BDC1E8D33B9B7F6D3BC67DEE38808BBABCCD94D03D9F597CBDE2CB03BD80C381BCD731763C2EA5E839E30FF23D010D71BCA40A4E3D78EB6C3C8795843D05592B3B66F98FBC2F501BBE0EADB0BCF5D0FFBD082F1D3D1309383AEC3986BD3985A23D04DA5EBD3E47E8BDC53A6EBD5117453CB4685F3D06C305BB04F2B8BAE472F73D1DC9C1BCDF4C6E3C97F4723C5221AE3D0CF53A3D0570513D278B20BD1B3253BCB02F63BBA3C0E4
BA811A0F3BC26770BCBC9EC8BBA1FC053D052F3E3D8906D03CC2AE9E3C0A497B3B9AE8853C8B818E3D1BCA0B3CCAA13EBE02F832BCF897F13D154FD83C8BC3F93C55E3EC3D32897E3B43955DBCD99E55BC22408BBD132E25BC6B1BD83A45AAC13DD3FD8F3D089CD6BCED7CA93B8636123D2A42E03C9A2CC23B48D9FCBC18A24B3CACC96EBDACBB193CE75B573B54C21ABBEE39F4BCE2A9FE3D29629BBD2C34B0BCF86B18BB63A5D83C6E81853BC86D163BA956263D4D294FBC0EEEE5BDAB6CE43D1DA0CD3CA2E63EBD28932E3B9C3508BB60A2A93D91627A3D14D1A2BC861EAC39B61D123C9787F1BCEA65C33D3F16DBBD55A1F43BB8F70C3DB7EF9D3DAC04C5BA2C7488BD26756D3D7899F73BF1B48C3B88E4523DAC9C473C62B47E3C9E99B53BEDE79F3CAEC2663AE443D3BDA2F6FDBC270F55BC3F60523BFA1D523C9189F53DB319AF3D2A2D1E3D7F01C83BBB3A91BC467DB1BDCC310A3C3492D2BD8C75103D4531003CC06489BC9711FDBC1F139C3D89D4F7BD0CF1AABC2082623D14C7E8
BD49B7773CC49EBDBD734DD93D518976BD7446AABCD75AA0BD7E390A3CB5D5DABC577ACBBC207DA23D20DEA7BBA3F2CD3D2247823D2D09ACBC35A1253C182EE53CBA33A1BB419FAB3C0C2D7BBD19439BBD3B7EF53D031C7C3D46E9E5BC8C9A24BDE67B17BD3D3099BCF196203C8AB90EBB31C9093B985C123C8993F63C8A95A83CA7CDBF3D56CFA33C21A4A33B2E615EBCD0DB4D3CB7A4B83D2593B2BDB0E77A3CBC92C33D1082893CC8DF523CA9EA86BC825044BB6B70313C04DFB83DB274C0BD419E28BD2F902E3C593547BD0D2EADBC804B053D4815ACBC0BD83EBCC83CEBBCC5A3FF3C3620823D46C90EBC9BAE22BE8F6EFC3C9B78E33BDF45203BEFEFEBBB228377BCF111A9BD86CDF13CE75E1F3E2ED886BD8BE9733CF78FC93BAE0E13BCBB2A3EBD6C94183B61AE8C3DB64BB8BB3EF2823CB23CB73CAE9C3EBC154D693D78A018BA10E0EBBD8B5A72BCEAABC73B8C4FA03C688FFFBCAC38E6BC773C24BD191D32BCA257BCBC336253BB238366BD079AFCBC46C61ABD003B34BCC76976
BC46406A3C069175BD03437A3C86251EBC63E73A3B9B50893B86451BBD93A18E39B22D073BDD7A6BBC35AA123BAE4872BD7A663E3B65BFE93C3DF40FBCE678B03C132A95BBAC6438BC314D9CBD2250FABD9244313CBF9E8BBC40934CBC66DF003D2378183C02BB3CBC3440683A192D213D8985E0BCEE38E9BBF19BB2BAC92F6B3D6B7633BCC1E082BC947031BC7F34B53C4E6DEFBD412036BD3B4E91BCC8DC3FBC6D5C9F3C978974BB3529ABBCB62B783CBB403D3C60CCF2BD25E72CBB5BF52F3C95C4673D01F65D3D189E4ABB95884F3D2F06D5BC3F2BE4BC6224103C22EDC63CD4170CB874F8DABD124EA0BD3908CE3DCEFC60BCD510A53C6EA574BC915673BB150E083D32491DBDD5CDF8BD20DE43BDA2A666BD26C6FBBC464F2C3C62396F3A69465E3BA31C07BCF6A9EA3C98ACE43CD78972BD1353453C1565433D3D5BC5BE02B9253BE8C5DD3D1600A53B9A3E4DBC25938DBD0EB7AF3D07884C3BC4E4D0BC83A2613AC3D2323B92D4293C4811BF3C4108B93CFFE112BC4F670E3C11DD0D
BAEA0B233CE38D43BB3FAA7E3C8CCF8F3DD2F0D53D31264EBC8EB166BD486D9C3BBF8770BCAC76EABBB00CAF3D16A7F3BBA35209BC973CF2BD37ABBFBD28FC82BC57F6B8BD0C5159BD2F8F04BCBB73353C0B7FC6BCF1BF3EBD857D41BD2817A23DBE24203D593A1BBCBE4775BBEFFEEDBC284511BD710CD63BB38761BBE2E3733D00A6783C921E243CEF3ABBBD88CA523D58ABBABD25344CBD55A7833D6696E6BBEEF3903D47653ABD48C139BD603E82BBB739603D2D6252BDBA09753BA5A125BC3BA8913CD4FB733D267E04BC17F9D2BA037B003BFFCB193B1758D6BCD8E52B3A36B89CBC93EF95BCB32E873C9E549EBD6A890EBD0B5BFFBBD8250DBDB879E23CC450FC3C2D10023DE2E525BD048C3A3A8526C2BC72EB183CA99A093D262997BD34D5E73D3C963D3C2749923E0226DB3B18209C3C7690D2BCAAF9FB3D0A27ADBD683D803DBD1DE13BD8A68D3D29A51F3C8E72F13E0130A6BC6753823D1B7A243C359161BD25D9F33CE89611B9F33D653D373572BCB1F9453BFF56B23C5A32FB
BBDF6E6B3D62CE47BC1416A5BBA12B5ABCA82B1C3DA52994BC70F07B3BEFEA643847DD7ABD4667F63D23D15DBD37EF983CC47724BD5376BFBA3F72EFBCB6F4DE3BF96996BBECAF6D3D9DC745BA123211BD5D8A113C929815BD14507CBC077FD0BE9E0614BC9125833CE8E73FBC59BA093C44CBA4BD348317BCA4B2EABCE9D6B73CB15BD6BC611B87BD6DCAAD3C8DEC2BBD06CC5A3C21B1F2BD20A62C3A6C5BC93C6C7731BD3E98BE3BFBD42C3D79EA14BD657C5EBC821231BCA1407BBDF3C9893D355765BD0850293B4A8E39BDBF2B3DBC078B0C3C5D8BC1BD9C3AAE3B9F371ABC0A4D30BC4FA1163D372BD23C8AB1DE3E0849E13D8B04D5BD6FD28ABD755E3CBBA2F796BD86A210BC84DE0ABD154F89397A1C283C83AE05BC41F7E0BD1E94C4BD8376F93D3DDA7FBD4AF4C6BC5ECA403AC7BD063D88F81BBC9043C9BD41513FBC6F55A6BDF63D79BC0983883D0DA2683D3BC2243DEF0BE2BD7E20753C6397FE3D2DF1593D40798F3BC94809BD78708EBD64FBFEBD0F1B713C0C70EB3CEB2ADD
3BD2A774BCAAA2093CD0717DBC2FCC9ABC8D22073D416595BB191C213D1277D23D9018DE3CC67F03BD9F0660BC6058DCBD8B99283D3822EB3C91AB253C273EEBBBB814DD3D616F42BCA75260BC024CE7BD3AC99BBCA7C3B1BD5B81B7BC9BFAA23D28F2EF3D2D52BB3CB7F8EFBC2D6EFABC31F6C9BD04C6DB3CE74F41B9EE16D7BD5265E13CA180713DD9E7273D42D6C9BC599B28BD023ED0BCEA7BE73BF59DF93CED588A3D3DF925BBA81A5B3D7640423C499680BDF355D0BC3C77D4BE0097AD3D2D983BBCC0D4F33CD3322EBC123BC7BD85DAFABCA81E2B3DD698893BE277183D9F09113CD928AEBDB25193BCCBFADCBE097980BD7B975ABD1423C53BB13E45BC97BD00BB800EB4BCB28E7DBD15342ABDA71ACEBD67BBB4BC58E6463C13EC6A3D1A35773CA7D0763D6F6EA8BD18886B3C0B91D3BB9205763BD0CB093D8C2AF23D036F133B928ED5BD13B8803D07E504BCC4FFDE3D57F1BE3CEA1D7FBD09BAB7BD80D8F4BC146FE3BCA552EA3D1BF1903C3BD7AB3D4649283A0DF3E8BD023032
3B7C7EE33B65BC953C85EB203C8546873D972154BCA61F563BEFF15B3CF1F1493D31EE61BD0A2501BC7BC5453D0CBB803DA1FF76BCC25D4C3D17DF4BBBA45D78BBDEF485BE00D61CBCA52C20BCE2158ABD8DC817BD196811BCCEAE2A3BB373093D9E3B53BD4757B439060FEA3CC5FFA7BD8FA432BDA875C6BC9B90AD3D1C5850BCDCE0923D388975BD8A41C43D179C7F3C728BFCBD008114BB68B7DCBD775447BDF5259C3D44C0CDBD5577A33B7F1F6C3D72F6B63CAB91743D0B3B753CC60D91BC2A5C58BC238D643B5A71F13CF209ABBDB8AD933D9D1F7BBC406BF4BCE9746ABD390E0ABD1D863FBD4CA6663BA88A52BC971687BC34C5CC3D11CAAF3CB240E93D0457D2BC315D5ABC667030BD051B243D9BB0023DA8DD4D3D393BD33BDB70F8BD1308D5BD9A53723A7160C7BCA731BE3D3C64AABD5A8CA3BCA77BBC3CB3F7013D3935D6BC510F73BCC8FF813D55F79F3C91BEA03BAB1CCB3D3325713CE2BC24BCB92FFFBC00338E3D0B1906BCDCEDF2BA848894BB7964F43C7AEA84BBDAFF2A
BCD7F044BD0A0594BB0BA0413CCA054ABD8364AEBCDFB62DBCD83F8EBD5D55AF3B8715DCBCCB2F273D7DF0B63D205D603C86177ABC3B286E3D99E28B3DE5EE17BBC8B9E23CAF159F3C8742863D249C953D4A041F3B1107E33D93AC093BF07945BD001BC3BD597126BD1958E0BCA5734B3CAB171F3CECABD8BCBAF481BB0DB1683D95D301BD86061BBCFE947FBD43A34239275BDB3D51D7CB3D776F99BD303BDDBCD32D553C43AA68BC92B057BC1B9A10BC948ACC3D1123F7BC112FDA3DA03501BD19461C3D3ECD3ABD867E993CCFF9903D6DF752BCC30EF7BD6EB343B97F5A53BD91E06DBBA3B3F8BD0E1F243B9EE7743C9D22303D278A513CB64E53BC0B24103CBC7EA0BDE5CEF53DB79E733D76D5D8BB38CB323D1551203BDD8633BA97CB8C3D3F81553C62EE81BD4D8A943D0F49BABD114189BC206FE73C6DE710BD2B1EE5BD1730563DB0705ABD754822BD44A3F53B8CA9B83DCCAA6DBB6184E53D225AC53D4C3E3EBC86D7853C271136BCAF8BDA3A84D989BD6C50C03C145D653C3EADFA
3D4B2D833D5B3532BC223F0CBCC4AB853D30A7EE3E0487DF3D2E63F5BC2642143CF29BFDBD47A4EA3D123180BC9BDC02BDC21AE5BD3A6293BC36F232BBC097173CE682E43B5BF82A3BA6266A3C26F8003D545D483D7DDB70BD097057BD22CA253CE9E1BC3C12D316BCAF28763CA81686BC88FE03BCDD46D63C1B3B5CBD1040453B191BA2BC1C7E5BBB76EE4CBD8236E13CBD530E3D724C7A3CBC21E43A5A6869BAAC4B99BCE555CB3D230555BBFB78EEBD8F95543C41976DBCD26E3CBB96515BBCB329B43BFE4312BC404733BD996FBCBD1AE481BC189474BB910ED33D14889D3D2A9607BCAF48D23D60DF2E3CAC25F83D8785373C41971FBACCA4C9BCE7B6B4BCEC568DBBCD2442BD3CD4F7BA8BE0573D136A523C17B89BBCCA8BD6BB86A32FBD795107BCE558223D404F8EBD3DE0BEBDACAC633C16F980BCE4E5383CCAC0AA3CD98F513C4EE0FABBF5BC133D7E41AD3D0024FABDD285BCBCCFF6513CA756B5BCAFD84A3CFF911CBBD487C03D1E36183C0EC415BD3508A2BC1C98733BA26F7D
3BC9C3AC3C1B9CFF3B29B917BBCD9090B9FFAECC3C125ACE3C2EF111BBBE3C0B3A634F523BD55AABB9E0D2473A8242E0BD29D15ABC42A094BC45FF7FBD03AA273BCDF034BAD89320BA7B2AF63C1E11F5BD0FC1453BC9E19C3A199F163BA7460B398DA8983BA051CFBC26BA363B9725743CA9C8D8BC496B5E3A38F745BC5432A8BC06439CBB8364B73C8718643BF34B1E3C6A4A3ABC8CADCF3BB82F643D6460AC3BC148E93C2FE620BC56A5083B8BA638BBDBF508BD57262C3CFA25CBBD614CAF3C61CB24BC11AC623BA70A083BC29DC7BB6FCB3B3B3EA827BBDB51063B970BA33B41BB73BC0B3A7D3C8378153887D93A3AA1953FBB8C865ABD01924639F004A83B67C3153CAB2E68BE7AA7C93C208D153C9600E0BC00030DBB8F42843C330233BC40FE43BC3423523B88E2393C00E36F3B4CBD68BC439B73BBF812EABBF7E9F93BC1B5BD3AB73BEA3C2A39AEBBAE58B2BB9DFFB4BB03BE5B3C4F4407BCAFE419BC3056A9BB1EE435BA9D7F7DBBA1EC46BC7F63E63C1E7F93BDCC99FEBB73E6A6
3CDC72BFBD882BB7BD7B5B6BBCEDDBD7BC297BD6BD9DEC143CFD09B33E144247BC854E533D496900BB9340E43CAD60FA3D0504793C8A73423D45F4B2BD57A78C3CB4D3033D3831A3BCA688253D7C28373D4B51D93CEB09063D32D793BBB7E9533DEB394ABB79A983BA849C2B3BB99134BD3316593D7E99F53D40508E3CB8E987BDDC81B4BC9C8CD53DE612633D0CEB85BC0F88A03C0DAE713CE347C9BCA31C3EBD724B413D18E5E43A476453BD1E7084BB928D1CBD2C50B23C8236E03DB65E643D4647A93D82DD31BB2982D93D4454E63C586A1F3CC5DB733CAC48833CE1ADF53DE74F113C5F1D8FBBFE13B0BCFF1CA33B2888DABD4AAE7D3CACA6803DBF9A0ABCF2D9C2BC9B0CB6BD873AB83BFDDEF4BD828335BD281273BD181DDB3B883F9B3DBB6C10BD2E72D13CB37E97BD2E1A24BD0CBC2FBD19EB2C3BC4DEB33D43CC6B3D710BF93D90D04E3C1BC028BD22EBDCBD5FFE7A3D83A9AE3CF8D0B3BC62FB53BD623F6CBCE597EABD9D06503DAD2C90BC8E0B5E3D4AD0F9BCB202CCBCFAD6B5
3CD8CD313C3FFD9FBD51DA73BCD1FFF93CE06EED3D0306513B50F0A4BD632347BC9772023D32093D3D269CFDBB2C03083CFE8BCA3D30C95F3BEF4A3DBD3DFC03BCA3EB213D6C8BEC3C83C4FD3D9B03F13D9FF4E83C2034D63B98535DBD30773B3C5E712F3BC4A82FBBBCA614BB8DFF8CBC7220FF3CF94461BAEB6D71BC5641B03D7A8F0EBB1000F73D09C2EE3DC083443CCFC6E0BC9821F83C93572D3E059D693D6C7C03BC586CEB3D8DAC6F3CD108C33CF742893B97FEAABBDF01A53BD50C2B3C9D01DFBAECB4303C1CFFFEBD17FC623A03EBC43DEDA4893AEC88BC3BF6FA023C6E2902BC9BC35B3D76ECEB3D288908BE01B07A3D5FEB6BBC277DF6BC8E0851BB81D71BBCB01297BDE6BE92BC8CC8B0BD951B713D2C785DBC036AFC38F8DDC7BC34A2F93D16A9533C32639A3D3F47F1BC83AFDABCA5B8A6BD047D5DBD2549E23DF7676E3D4E4FDABCCD0E0D3AC71086BCD10B583D253B1B3CC31479BC5BF3553DB8882C3CB702DE3D0840043D0FA9843CE136CA3C2E1FC23C7B8CB93C8F904D
3D1683EE3C93B39E3D5C3532BCA84AE0BD6820D3BCC5D4223C37C7F93CD065183C9B89CEBB96A311BCB557243D00F7F9BC2D6267BD14A343BC8330533DD5CBE2BC91F624BD0639753CDCEFC0BCC1C3213DD4B794BD042B913D0926EF3D1EF585BD22B5423CD0DA243B1DB7C8BC880E63BC92DE91BCC608BEBCEABF09BD0D263CBBD14A25BCC390DFBCEB5692BA846C6E3C34F8BDBC0165EF3D743B5C3CCF24863D40FBC5BA9F99DF3CB259203DC1CFD8BD46EE353D1028DE3CD32237BC61333ABCBF3541BC0B64723D042346BC2B81FB3CAA64A03D31D2433DCF68423CC1017C3C8A255B3B1569F83DAD9D913D54D9D43B521D26BCC28BFCBD373FFD3D6A8EF53C3F84B93D1596EE3D673502BB994DDDBD9C37FB3D085E1DBCB021EE3C89AD13BCD232C43C1DCBFDBC066E35BD202CEA3B7610663DB29FA33D09C58C3B7373033DCC26C2BC1C1E9ABD85F8D9BD4C4FC93B9853573DAB0F66BDB17EEF3C0E08633D311E39BC387C913AAB4535BDB7CC0BBD996526B9FA4500BC56578CBDAABED2
BBA0BBCABC8DD281BD053911BBEED42CBD70A3213DC691363CFCA147BC1120403A6B0CBA399414AABAF164EBBBD61F223DD4DF583D6B7210BDE160743C694A0A3BA016DD3B2B1125BC24B7DF3D23E86FBDBBB772BBCAEC2C3D14B9FCBB3F99EFBD0D3279BCF65BFDBB67E582BBF96503BC777E24BD22A4653AC4A7333CA6DB39BD465EA43C37AB46BC330066BD5A4BE13AE65697BD2DDC103D27FD4FBD10E4BE3CC6814FBCF72A97BCC0D6753D72ED50BCC54599BBFBDADBBD30426FBD53A0DDBD1D0C633C5CD5393D48F5E83C79ADE0BC9AAAD7BD055479BD8F92E03CC97CC4BCA5897ABBD8F42C3C992615BD45E58CBE20EF79BCEB304CBC138FE73CD8C48DBD12D86DBBE994FFBD7166013D17815A3D42B4F33D99DB89BCDDD3273C919B413C45C7BB3C40FC763C5F1F673DF98ACA3D1E8AF13C95A9C8BB7C7C45BC9B9AF9BE95C5473CD148D7BD219964BD003F643BA70A603D417571BCAFF7FC3DB3E26C3D3B72123C8D3A1ABD2D8F813CC9CFA3BCC313633C777DDDBD0B3F8EBCE3F2BD
BD01EA6ABDC3AB2E3C4983F03D0CC49D3CDDF2C5BD95C339BC080157BD29C3FD3CF2E75E3D89417BBB931866BC027D04BDAA4C5A3D8891D33D1BF21DBBE5BA4C3C1480183AF5DB15BCF495C63CA5336E3CC8F6D4BD0933BA3CCAA0453C8AE1B3BD31E2B23BF1658DBC06AD26BAEC25ABBD1935E53CD400A0BC4635DF3BDA5FEC3D4697F73D1D5462BAA4CC5A3C718A86BB7076FCBC814F263B55E37C3D68F6343CCE92233D1D60CABC26900D3C65EB873D6C8DBD3DA56E803C7093223D69BDE9BD69407FBD40BE41BC8D31FE3D01102E3CA0C20CBD57D4A43D971ACFBD02DD72BC4CDE543C9FE8BEBCE39D953CA5FC16BC27417E3C99A5CDBD4F2D68BD379985BC3E3B56BD483CF03CA2D2273D23BB68BD4CC8CABCFA0FDB3CEF0F05BCEECDD23DB944D9BC80FA02BCB099F13DCD079D3D1D327A3D80C14B3CB93E7BBBC98582BD6974813C02CA7B3CCE1D22BC7BEA85BD89D946BD85B90DBD8295533C7DC77D3D6EE73EBD27A3B73D4D9BB5BC96252A3CACEAAB3C81FC87BD0F1DBABC52BED5
3CD42CED3CB8556EBAB6D2B8BCC3147F3D040C2D384D13B43C8B2C86BD5BA2ACBBE8FB5CBD4792743D412A1A3C7466893D1B407ABD4C8C1DBCA7F26A3CD2891C3B97493CBD0EDCB2BC15D326BB355C4D3BF2BF75BC6FC4B03C125DB3BBDEE6EEBE7AA1F7BCCF24C7BCB880F4BC05E98E3CA6DEAA3BBF127B3D080F7F3AECB9803D3119A3BD0DE6BABD745AC6BC7E4AE33CC19C9A3BD9BE453CEF4726BCACE5BEBC5FA196BCDABCB43CB97858BCD604F6BC87FF6B3DE6846DBC7E08543DD1DBD9BD07CF563D2057233C9E09513C06175C3D06FFA03C8DFAB4BD860870BC608FC0BD1D538EBD01D9A9BD735E3DBC2C2B183E0A13D73D4498323D639C73BC0FBBB43A63CD603D6F382F3D8FF71F3D276A92BCAD51633CE1693F3C265F0C3C1102C6BCEF0E17398E7428BD4F199B3D32F1723CC7C35D3C84E5713B4C38E7BD8464A63C113B35BC76B12D3D5C4EAD3C10FD043D2DBA3ABB13946ABD136E663C06150C3DA39F593C19A7F4BB5E8602BD08764B3CEA45B0BC8032273C349E523CEAB4BF
3CB2A9F1BD9CD7B33C5DBCA93C9CDA43BD10DC203C1145053B82C9E43BDEA22BBC80D76E3CA2908F3CCD24D8BDA7A482BCCE1D20BCDB94E5BC4A44773C5A03ECBB28A1DFBD7F78F2BDBD9F6F3C5E28943BE7EDAEBD8D3C7C3CEE0715BDC2E2553EF4C1CABD0CB2DFBAC2091BBBCF4E7ABC9BABB53B5133B6BD8539643C8AA2A73C82115BBCFED674BE1A08B63CB61A613CD346C33BE1B21F3BFE19D03D43EE4BBC9E05A0BD304B5E3BA52A4A3CC78B80BDBC36153CEAFE1E3CEC9B763D81817F3CDCB047BDBF9AF2BC6B5208BE0B3EDFBD211FE0BC91A1FF3C0D07CEBC383BD8BBE0F570BD5908733C1E5F74BB2590123D0288233C58E4CDBCD9FF1DBB4FE62ABB8F361EBC8BCFAC3DA87C213CC9D1C63DAD0210BCA9C5E3BC037BDBBD2475023CCA8A313C099608BCE11877BCACDE47BD8EA233BC10522EBBBF3046BCCB953D3B47E8E3BAF44EAB3D3C52DD3D0E6616BDB57BF4BC7F1F093CF30E663D186D233CC09F6EBC6EFA663BF5BF66BDD345C3BC5F619EBC2141193CDB4553BC9E96E4
BBC32BF03D25F0353C7E456C3C28CE3D3D0DCC213D83D990BBDD260DBC14C833BCF61CB2BD888F55BA5FA759BAEA487FBD164E9DBD3C8DDBBD0E79BA3D3A04F7BBDD1A35BC76CAE93D28CA6F3B300D873D27FD973ADFF807BC297E66BD077B2A3EB5D3D03BFFDB413A3D2F3F3C7870683CB5D380BD0819893C64F871BC3753423C0787BDBCF47D55BDA009473C978CF6BB8F0F13BBEF7B0DBCD7686FBDC23B78BD05475ABCD5A5593D3553F3BBE884023C1E4E1E3DEAA04D3CD0BD863E036B36BDDB706B3CCE2744BD9739B939CA93DB3B984D683B9CAC11BC381397BB728D74BB5E4200BCDDEC7F3D52EB2EBD37EA393C19D070BBA4BBF2BC230DAB3B8AD4A13B93CAA73DA82F86BC3FE5A73D18B8F63DE42CBF3D1282BC3C3C0086BBC95DEBBD39CCE23B17EF603B5B85E4BC0F0DB63C1D469D3D179468BD9DE025BCB6EE7E3D0644A6BC88859637EB58CA3C1080513DA825C3BE5C6C1CBD2575A03C82A4153C890D5F3CA2B43DBDAEFE0BBD19E8DD3D1D912A3CF5F9C6BBF5B1463D9813BC
3D1351C4BD1C6FB1BD98917BBC49C314BCEE3DA33C5B2D083D0BF9283C7E8D093C7F2AB9BC7A5A06BBEBAE493BB89134BC9813B0BC90933F3BE67956BE0F26893BBD54B7BD6692A0BB606ED83C39F1A33D18A44638861425BC1B23293C9D02DC3D0A199F3CBFE497BC9C644F3CF2707EBCC41CB4BD4BF1F6BC9A5F13BD140E35BCFA7705BDA2767B3D19954FBD2BD7C83CD9E78DBCE65536BA26A72EBD694C3C3C43108FBC9200F3BD2E7F36BC7B1C45BD3164333B109A203CE4DCD03E1C03953D07BCDC3D624600BC0B06E6BD09A017BC40D097BDAB8EA63D0894053BA3DD2C3D929055BD61E042BCD2FE9D3CB826A13DFEEC1DBD415DE7BCAEE4E3BCE6D5A0BCFF9E71BCFA83E1BC5913A9BD3E8F64BDA2D2F23C52FA193C033A803C8EDD033A6D22F3BC382A463C82EAC13C716BF4BD07CB553BE35594BC154501BC276F153D86F6AE3DA7881B3CB51493BBF785123C02B5E43D547EFC3B137C913B1D85D43C0D7EC63CAAF0D63D193323BC0308ECBD6F4D0EBB4EC6D8BC8368173AF3C580
BCBFC72E3DCB68C2BBCF9F433CDB3952BD32D65FBD3F1ACABDCF4EF33CCBC1B4BD9CF8B83C64C359BD869ADA3CF4F9DA3ECFFCAABD0A29C3BD08F95B3CAEE7C03C812CC43CC262CCBB414ABFBD1E2CD63D3E03EDBD519A55BB431AAA3BFD33E43C45BC8D3D48D3F2BD40467FBC3171DABDFFCA0E3CF6676F3C36B07E3D5C0F923DB63B8BBC40609FBD237234BE0AF7363CED9F0D3D857CB0BCAB578B3BF2A9263BB9DDFBBD29889BBE116BBE3F06BCA63B3D037FBCA462C7BD98C0EB3D60E28B3E074327BC82BA27BD3C23B63C7559BB3CC32EB13E2A4A78BBFCA8D2BD21D0183C9A463C3D4242FD3D4DB4DEBD4E9FB13DC08650BD93E0DEBCA649FBBD37DE3CBCE1FA1F3D93BAD33DC58DF5BD94AB13BD0F12CBBD1851073B145A5EBC7327D9BDFFED10BD8190473A394B69BD18E06CBC66FCA0BD551B9FBDCC5C313CE5597A3C208D4EBD26CD88BD686BD5BC63C6153D0EEC303EFCB6DBBC0889FE3D5F015ABDACE2A7BC2E5F3B3D8DA85ABCC44DF6BD588290BC3E635CBCB74ED9BCAA5138
3CFB08C1BCC2CDD93CA473BC3D5E7E043A7C1D8E3CD19224BCBB550C3C2CB753BB56BCD4BD0F69353BE4DB913B8AC020BDD994483CEA3598BC5027F3BD1136A9BD286698BCEF034D3D25940D3CA9532C3D295A2DBD615818BC49AEF4BD60CD63BE5CA287BC8D2D22BCBA9F243D2EC992BA5AB5C7BD36C7A03DC4F96BBCC5C32B3C964DB6BC1A2B84BCB3A1A9BD11E762BD8167B7BC63F8323C13CF763CA00C98BC40DBFD3D93EEE6BC4A6BDA3D4533503D02DA3DBCB9DC48BCF72204BCE7BFBBBAA56062BCFDFA4D3CAE53DF3D7FA505BCD1A66E3D397BDDBC164EB53CC8C2663C54B69D3C21264CBDAA37333C6298673CA6EC28BC50E820BC6CDB6ABD09C17DBC98C160BC8388793CAE607C3C1D12A73C3D147439A0FB793D1E39473B83C131BD25180E3D0C25503BEE7E26BC1127283D74DE0F3CE8D56EBD8D48F6BB6AAE093B55232D3C81A7353D4762CCBD062C2FBC9EEB8CBB3DB6E9BD20C222BC131EEEBB98EB433B4C0D9EBAD758BEBDE953943C5435B2BC1FACB6BBC201113E3E2DD4
3CA477873DCA7C67BD70C7A6BCC84D0CBD3CEDA33D7083253CBA4E943DBD7141BD470437BCF3E43E3C182C743AA74FCC3E66A895BD4DAF4CBD4F1742BC88DDF2BCA4EF3CBCBF2A933C491296BD0B0093BD9267AA3C8003D5BCB80421BC7239F6BD0FC6313B3970C73C8B3C71BCA3CEFD3D5FE9DEBCE75A3CBBF549D5BC90D969BDB2217ABD173F5DBC73A095BC409B1BBBFF665B3CB50352BC0BFC56BC5C5F54BCAB04BCBCE745E43C1BE6FD3D77960BBD80D5C9BD5BD28A3CED2ADEBAB1568D3C3464ED3D56F507B9EBDE79BCC2FAE0BD21B7043D035C4ABDA3A0623CA089FDBB995C00BD2745E6BD4DF526BC0D29133C1CDFC43B8B48493D0B2C243D29778F3CC013D9BC3BB8353D02575BBC8758C03D1586E93C94279EBC7817533D304BC7BDB2FB543C1020653D2EE585BDC5FFF1BC6BDB40BDDA9208BCE717DFBCBB64FC3DDA260C3B505FF0BC358A96BBA679783D0E44423D0D51DD3DEE8CB9BD493542BD25A85C3D10C5DA3BE1E6B53C9976BB3C82371B3CEE4C253CC007CA3CBA1306
3C92E0943D90EE473C30FCE3BCA3DAB9BD3704B9BA081855BD04DB86BC9133F4BA40445B3CDB2CE33B6C2C153BDA1D7BBDB9A31C3BFC3ABFBC8A32313CDECAF53C1FDD17BCACF2C2BB9985D33B2D0BAABCB6B5E43C031F043CBBF6C23C302F0E3D40EE1DBD225751BC9988173BE7E40C3C279B223D1FAA34BD688EB43CBD66193C7143EF3CC64E06BD36D75CBB753D6F3B0834F9391AC7C2BCFAD858BC922E4A3BB41721BC5B0F0BBCBA946CBD0156B6BA63AEA03C2F07B7BDCB6170BC8492F4BD9CC8E2BC74194C3D553905BBF823563D0FDB9FB9B73706BCCA84E93CED320CBD116738BC9B425D3D0D8EA93C4D68C5BD2C08A2BC627CBA3C22130F3CB7206F3BCED1DABD6836423C6AFB013AC53D2C3D28E0773C356A4DBC9097163C3F188ABD0E84C53BE414363BD6FFBE3DD001E63B45CF29BC240DBA3B06FABBBB678496BDA2E63EBD511D31BD041C4C3A589CDBBCD18DC6BD9ABD833C1303943D672B3D3C96C8AABD01C9EFBCD3BAE83CA7F73C3CAE58C83D2D15AFBD11B430BBF7FD17
3CA660B13C5AF8DBBCDB0676BC8993153BF4BEF83CA5EB063AE805B23B6A85313B8747E23C79BAEABC7D8A0CBBDF9C143C8DFE273C45A277BD69AB2EBD4EF9FABB4C375DBC97AE65BBF9916FBD10CF52BCE9F990BC8E8A78BD1D0C233CDB3999BD18CF4D3CA54CED3C5BC16D3A3FDF3E3D387D773CEEC5773C143EB23B7F98C8BCD870B9BB80DE4DBD4BA20BBCCD5ECB3BF1E0DABCE01CBA3CE4CF77BCB4A39FBC405EC8BC2B23963BB8FF4ABD213A953D08EF8ABDA725B6BC1A6FB9BE1B8D7DBB3237FEBC81DB153D6066463C51F930BC77FF7ABCFD9146BC9BA4923C2BA3673C8F8136BB0DCE6A3C0555713CCFD185BC397608BC017A6E3C97111CBCAB3269BBF77A663CD17638BDCC49423C73728A3CCD915D3B885212BBE5FD2ABCC22F88BC97E1E73968051F3C5B3E603BD2418C3C7203ADBD494968BB9DA661BD2B6085BD288B01BC1BBD453C4282AD3D25B86EBC8C40D2BD1ABB953D369244BD51E4623CE07F5C3B94CAF73CA43F86BCC1A3D53CE56F353AD05AD5BD20B4763BD2585B
BC64CB503D5DA814BC750E1C3C928D4E3BF3428CBC4950E8BCB9C354BDA5D1B23C8EC3FFBAE3B4DA3D51C5E9BC616FC23D8CC156BD797ABC3AEECEEB3AA54B39BC6C9FA93CB61320BCDCE798BC9F0CDB3DB7CC3CBCD853463D04AF7FBC6F67EF3E50A0A83C1EDDD53AFD71F1BBAC736E3D45FEA13C9CD8163CBB905D3C7B5CE03DA5066B3D15AE34BD663EDB3B5474413D00C626BCDFD2E43BF25ACB3D507D78BC33880EBCBBAD84BD3652B0BCFA9B483CBF2EFA3A6FCE6BBDA01B28BD7BF750BD69F236BC98034C3B8D05C9BADDE2B83D84B2FE3C86C7D93CC7D8C8BBE73B91BD71A283BC9038D13D6E2A313C9CB2993DDBE25D3D0788CA3D1EADA2BCDB97B2BBFCB26EBD3065033D52CEC5BD0C93493DC5BBBD3CE1FC683BAD2BA7BD0C1AFFBCD0813BBCA0EE27BD1E7ADB3CB6C032BCE8AAFB3D21D5263D363718BD210604BC550AA73BAB10E0BBFA6C02BD0979C2BD1AEED13E587D52BCAAA30F3CAA36CC3D962DF2BD9B3F3C3B7628E9BAA647FEBC97A8BABC61CE883CF1C7073D68136D
3CE93844BC0CBF983CF97D0DBCF16CF63BCA51DABD29DB4D3CB822DE3C0A51A63CC64801BC549FBC3D68C8C53AB2188BBD7CF6B33C4BD8F63D1F80B6BD0A5D423BF658993B561F3D3CA6CEB6BCCB136DBD2C3D813A4B6861BCD04ECCBCC1DFAF3BAC77653BEB2B9ABC2669CA3C117A32BD02CEDFBC5BA2093C6DB8403D13C3D03CCFF235BBE65F553E5B50E53CEE44013C2233F0BD50BACEBCFB77D8BD210C3EBC4C18A8BD9C715C3CB40062BDCAC9FBBD9BF083BBCC1116BD4E056E3D2C8747BD4E91A5BCBB810ABC247B1D3C884D993CCB2389BD25E8DFBB6FC5B1BB4E9AEB3B25147F3C4076C23D177E6D3D4751E23D8F92793D0D45043CDDC448BBCD0BD1BB88811C3CA27752BD8260D3BC3389F13C0F7365BBE50518BA82186F3BB0F7503C8F41583CC6EF68BC7139B43DCA45E73D8C9B59BCB9C7FEBCBC3394BC26E16DBD07574B3BA58FD93BA1DA713CE260F53C515E3FBD57C4C33CDBD4A4BDC9DF433D83B8A3BCB792D1BC2779BE3AF684633B6A56C03C146C353CF902463C4B009D
3C33F9343D25EAE1BDEC8E88BBB8100A3D3773E3B8FC9FB53CC09998BB7AC5BBBBDB5AAB3C4D947DBBD3C3B33C1AF04B3BADAF7FBC2C4EB4BD06ABFDBD1C9D00BCE4D461BC0D9490BCE41CB4BC35862E3C774CF5BC984A85BC2176B9BC2B7E4DBD1F97CD3B8878D53CBD601DBBC54B64BABB504DBCE1EAC0BC62B738BCB105C0384385743AB4CF903D19381ABCFF2D2F3CB5C9CBBCE3B9E2BCDA36063A6C7DE63C43A6DD3C85901BBBC2C45DBE0D7BECBC240553BA934A41BBF3CCD83B6A3BCBBB3FEFF53C93D453BB2F84D4BC8B6ED0BCC4D6C4BCA13B843B1213863C4FED31BB125186BC936ACBBD93DC053CBD5A48BD5D8F97BB8E4FDEBC00EDA73CA61F433CA5FBDBBD50246CBDB300A8BCCC4F4BBD972D773CB7CE26BBFBE6923C816885BD461276BC86618A3C4BE165BD1C07B6BC2A58D23BCBEA6D3C9A2DBCBCE001753D84497E3C2115AF3BF4FA5E3C4A4884BC85376D3D05BD22BBA730D4BDB154A23CF728C4BD02DAE23D3426C13C7022673C5A092CBB8F52DB3C099E7ABCBAE00B
3D54AEA4BDC95722BC82A694BD61843F3C371F983D149852BD93C5CBBD4E4598BC0752CBBB6ECF3FBC96FF1EBC0DDB48BD1C0F463D8C125BBC800EA43C8445333C8E9FFA3C1B7E883C995758BD12361F3CF2B48A3BE52975BBC2F2CBBC89C1BEBD618D7B3C4FEFC7BB74A3F43BC37BA6BC4DFD5ABD2CECBFBD296E22BA86865D3D5378843C8A1BC6BD872F213C429752BC64EF2BBB7DC810BD90ADA93CC004B13C3097773D11C312BC0683553B2610393CB74AD7BC7B9914BDB51AA83D824D8ABD5950B4BCE14597BB0F24CDBC407D89BCE124093CF82B403D4D2D683C54B9063C0E16FDBB15BE31BC26FD5ABD89F89D3DDF817F3D799A193CB558D0BCE53980BB555351BD17724FBAAA3BA4BD88E691BD43FA59BD3FBEA9BCCC41DB3C232CD83DCFB6843D5A7EEB3CEEA332BD81661FBB853E4DBA21216BBD0C9BEA3CE48D1E3CE524653CC243283BC61DD7BB9BC3BA3C87FEDD3D7056243BA232953CD0B93BBD125069BD5C1DABBCA8F3573BECD2F6BD4E46ED3B295D273B127953BC1D14D4
BD5124733D99E5FDBC9F3CC83D376E78BC075BBFBBF1E6213C2BA993B9D71FB8BD741C6BBC8EFB65BD8989743CF05C19BE50BE603D01342F3D9A6560BD7AEBCA3D2A8A30BC3B9777BC8552553C1124B6BCA5B3C8BC86C9983CECF90CBBF993D5BC3BE7A03C88490DBD8239353CC4FBC8BD7D679ABCF944523C018580BD11E3783C80BBE13D8A85BE3D1D4370BD9E3C003C2394583BBF1ACA3C04CBF03E104A6C3C1A66F83D2A83E0BCB874A7BE0F0C933DB627633C8C2E7D3D771495BD38FFBE3CD61E3DBC6542A3BCB6F96DBCD9204DBBCDE84EBDCCB2F1BCCAD3A53BDED25A3D3806A2BC5AC657BC8E6F643BA6BDB23C1EA2313D1CD950BD1B8C2ABD7CFC5ABD26E0C93CAE90343BA8633F3D1D7BF73E0B7C87BE09B0C1BCB418CABDB1D7B9BD4E3B9ABD57E0143C99A692BCF0652ABCB2B8933C0DD6B1BD36EADD3D2C28C9BBF7A42B3E0C95DDBD0CF1B5BC9925903CF963FBBE3142DEBC702B913D586621BDAF64A13D819584BC145CCABD2BECC4BE019360BC2A79E7BB858FB53B29C512
BD4AAD6B3E10B63ABC96EBBF3C8C883F3C92B4563D077BD93D3BB7BABC5C5B3ABB57D893BD65C543BB09A565BC86FB4ABE2B6CA3BD8C9B013C82EB8DBC7BEE5B3C9004343BE695FD3D23A3C33B9484053CDE2959BCA0B89CBD9101BABC2C43BC3D97D5293CDB2441BD09067BBD1FE3D1BB9102103C877B2F3D935AFDBCADF4633D3326E5BD3D0D7FBCD5F9E8BD3A351DBCAC57943B055BC63D3ABD2CBCCE020D3C1BFE503CD9E508BA93D8F63A83C6E6BD666B99BD6096423C3AECB8BD93AAFEBC1711303CEE6BD53BBB32D33A9F98B03C14FC50BC8D1544BD0369A1BDA7C6903C56E047BC43CBAF3D558E2C3B9CAAB2BD0777743C7AEE7CBDC209DA3BCE42D2BCAA06D33D58ED4BBCA6B4CA3D21C0ED3E169DCCBE1CB80F3D502F36BAD96985BE5216D6BCAF6380BCD5518A3D92BF0CBCCA8AA8BB899730BC83CC5BBD90A6A83D8D4AB33D8E07E93D45E2673D8836843D1AFEF9BDBA5A973C9131B6BC12E98BBC121D263D7FB814B98C23383CBA40C43D07D99CBCADCAE4BCF86DB5398BFC82
BBB0A48BBB561D283B7194043C3A313E3DA206DC3D4659A63C3A715F3D09B3D53CE3D03BBBBDED7BBD2BDF5CBB0E1880BE363708BD7216ACBDFED202BCAA210DBCE550C4BD60E889BD6AB39CBCCC0DA23CFE0914BCE1404ABCDD69A3BC831DD53E30871C3D0C5ECB3D415ABBBD1411F2BCCE24D5BDC1D53E3CA79D22BC4C1B46BD6C834E3D2A9F65BCFF71C8BD858579BCC8EE4CBD04C85EBCA023AA3E78A960BC38D562BCA809E0BABB71273CEF7D34BC9C7A6ABC565E46BD94DC193DEDD5ADBC282EEB3CC4C4C83DC9917BBD2C135B3D43CE433D75CB8DBCA71A8F3B5AFD993C9EB584BD44397BBDD22F61BD69470FBE111405BB433AB0BC04F412BD0679CEBD8DD116BC6E368ABD3ED2A8BD992958BC7D9A84BB4CFD3ABC11F306BC06BA1C3C24DD6F3CF9247EBC6A1F873E0607F03D2D27D63CE5AE9EBBF6C9023BB1C05B3D88E1A23CF806B83E043EB63C36E5F93CAC4D4F3D9672E4BCD4D4F53A8DD7B93D909875BD359F7ABCD2A5DD3D3F97693BFC76AC3CD59F9DBD3B4A223D778613
3D33A6073E95058A3CAE9553BD1E99D23CB069853DC1F7FD3D05A2B23D8A4AC6BD35CAB93D619F64BBE2A1C5B9034C1F3D61DB0E3D0AB402BD3967A1BC33F3A0BB7D8B8C3CB33F91BC4C83D33CFAF926BCA938DBBC522B7BBC05E2003C2385FFBCBA2DE43BC3D4D938447061BB99CE5ABD0EBAF43B51456EBC82EAA63D33248FBC750D2DBD094BBEBC5CE5C2BDF7E826BCE90D68BC635D943C0421833D5A1FF9BC6E9256BDDDFAA0BD70A69F3CDC421D3D7ED59539F3A224BC0C21D83DAFD9453CC50D793D184BBDBCA8DCA03D3B1842BD011AC93D137E003D872004BCC9C5193D82844FBC9169AF3BE2B2EE3C9655F33E9B9607BCB5CF4A3D2400983CC073D03BCBC3BEBCC806AEBB26F78D3CD0821A3DB322803D163D803CC0043CBCE4F613BE96FA423C2AE8B63C5A530BBDDE2EBC3C471D5BBB5869283D0010393D191FCBBDD3BB59BC3BE5E23D597E633BB82F9ABD2A1893BDE0EDD6BAE1F4DF3E01EC1B3D5E05B93B9394B13C567AF0BC2B3E2FBD088DC33CF4C41B3CCBBB003C55812C
3CA3375A3DBB9BFE3CD74DEBBC756BDBB9A544063DAAB016BAFE58F6BB59927A3CBC6ED1BD267C8BBB8C223A3B805559BCAFF394BCB62753B94C4B5D3C1C991FBD2EC27E3C8E50F53C813E173CDC58B13D923FEEBC9CACECBBC6B70F3B9F4B1D3D77B790BB01FE853D1A051FBC42748C3D50D7BA3D9969D8BD3CC70DBCE915E83D2BAB0EBB2031D03D6BEE423D8FF435BBEFBA39BCB4376ABCA0368D3D184D2BBD5ACBD83D6EE00E3CA57B69BBBF12E83D047F013DBEAAAA3CA455423DB01C4E3D5A7ED93BDD4637BB27C3663CBF6AF1BC3926283D24B156BDB9C9F53C58A5B2BC3286433C363F2FBCE64982BD0A06713DC10FAD3B940B973C03B6323DB37E09BCF715E0BD74E8053DD85482BD4458283CFD61803DAB1E5FBC4053C83BAB5DEDBDB66B3B3D3F24B93BE48B2D3CFE20C03BB022AA3CD27721BB175E943B9D4E793DA9B429BBDD8D263C9EC62F3C4E65183CE8FFE53D2E0D3EBCC55856BD534C193DB1B50D3D4E8234BD0DCEFCBCE9A4003D804FAD3D584D943C752E463D52F633
BAB71365BD63F7463B61F83DBC4B7431BD802FCABC5B5181BCC722C0BD9F176FBCBEA1B53D1131A43C77CBB6BBDCEC7D3D49AC80BC6568A5BBEA116B3C6B400E3CC8E4843C841DDE3CA074933CA66ACDBC0AA49D3CB9F38B3CAA8068BD10FCE4BE193EA63B8C5C9DBA9E7492BB639DF4BD5EF9E23BDBFC213D3CE48DBCACE7E43C9E8CE83DE55F383D7A1E8DBD015387BD2396F8BD036F3DBD894B463CCE65BB3CAD27513D0205B23C9C1938BDCF01C0BD4348303DF809543C8120A1BE6567D5BC9B560EBD11AA7BBC9D166EBD144F9A3C75B8843D2EA1E23DA664D9BC5658B1BCEF3270BD2952183C5DD9DDBCA731423E3187923D4DDB6A3D9D68E1BCE9E48DBCF8F8F4BD258419BB8ED4E4BC91BF473CDAE382BC2195623BFA96E6BCAFFE833D865987BCF28A213B64F2433DEFED41BC9D1F663BD4838839B2042CBB00E377BD8BA3BC3AF1885D3B6C6785BC715C1FBCAB596E3DC55012BC3FFCA2BC9CE3CBBCF6D3203BDC8CFFBC2481CDBB185DC43BBF97F53CABCED7BCFD326FBD0D79A9
BBF8B2253C50F765BA27550D3BDA23BF3CAB68163C119F003C14F0E5BB9D7FC7BCB789233C352857BC477251BC2F9A02BC8DEC07BC8421DE3C5E0F3ABCF4D1B13B1DE5173CA0AD4DBC19DCE2BD16A8BFBD7F2C2EBAA875E93B25A4F9BB2E97993B976603BBAD24463C04B497BB9F8483BD2FBFA8BCAF9D243B6934663BC8C7A1BC77874B3C969A723D415AF23DBDFDE73C937B6CBD98A282BCF83378BAC1D5C13A961EC0BC94498E3BE7A2E8BD7A9A6A3CD2AEDFBB9FEEE03D697DB63B07E6C83C86D86D391B1066BC999389BC13ED3E3BB9E5EEBC5FBBDBBC6128453BB8E46A3C245DE6BC0A9AF6BC1F64DC3C2FCBAEBDA50E54BB9896F1BD6CAF753C04471A3BAE567D3CDAA72CBD9045843C212551BCAAE1823C857532BBA243C03C2B4570BC88A7373C03AD0BBC05908F3D6282523C8ECF773C983A013B14D33C3C6FC4BEBDFCFACF39B59FC63D07426D3BD8CE0BBC10A20A3BD6F4DEBC9360A5BD8E3D473AF6F9E2BC4135DEBBB6AAA13C684FF9BC0EC62D3B837CF33D54EE47BB1D8714
3C7FE048BB1A8D0CBB08BE85BC2D85DA3C89B4773D4040E2BCAFD20ABCA931033CB6304DBD19E90BBC9E553D3CD45A393D9C2CCBBC9F19B03C65CB9D3D06A227BA90D9F5BA8590CFBC719EA03BA80AD2BDA5C588BD20614FBD110E73BCBE377DBD6F9F133D5E5A1FBC875A3EBB32AAAD3B8CC730BCD6E4A6BBFAE8293C1D3B2E3D549A503D754B793D91A1CABD89958D3D06547EBCDC5152BD7D141A3D8050573D3159033CAF4EFDBCF9EBB83CE5B1123C92F3073D628EB4BD8FEC6EBE1074B23D5B37D23C747F3F3CBD4C8E3CDA51B63C1E21CA3DE219E4BB38AC8ABC2FD8BBBCED95B8BD09461EBD119382BA88152E3E0443033CA623CA3D0C965C3CAB40EE3D2955C33CBF46AF3B298345BD72C0643C785D3C3CDB4E883C168F88BB853131B9F728C43CE5C5A63CDE63EB3D8078AD3D4D2FA13CA6F274BCE0DB47BB8DCD9BBD41C5913D8BD1BF3D29F67C3D227B643CE24EEF3D930421BC3471CDBB001BD6BC04E74D3D7460713BE3A2A1BB3D5EB2BBBD33E7BD191035B8F0E6B0BC8D3601
3CAAAB5A3DB1BC7ABCE5C336BCC7EE373D8694F9BD3C2342BCB961723D06DBFA3C7B3019BD25BD0CBC2D6040BDCF940EBD95F914BD02BA68BCFEB1D5BC54E1C0BCF39EF5BD39D7D93CA196563C5603783CE331B53CDA5C0EBB53F2F7BCE0B9C1BE0D9ED1BC0AFEA13E02861B3D1F3AEE3D2BE5DDBD78E9A9BCE379C93CF8AE67BC7C6DCBBC27190A3B850A503CDF5F0CBBA32A1EBB4E05C43D1BB227BD156FD93D32C61ABD66FE643BC02AB33D8CD85CBDBB3D86BCEE151ABDD70EE6BA6F16AF3C897B2EBC5492643D5C48DCBDD620EC3D2ADC87BD43F588BDA74D9CBABED453BD4751983C8967CE3C73F269BCCD5B10BDB70DE03DB8B55DBDC2F5ADBD9B164CBC6B03F8BCF22D7BBCD82B37BD504383BD25BCD4BCF04974BB75B8F5BCF4A9A3BD0A965C3CBE0BCDBDAF868FBCFAEFB2BD2825BA3AE56756BD3503DCBCA86586BCB9D5A2BDCABEAD3C801386BC615D8DBBD528713D9CCB58BB0CE52DBA41A4FEBC0AD0BC3CB5F5D2BD3CB3E33CFEDC313DF07E63BD591503BCB5C75ABDBBF7BC
BCE8A4313D869A153CEEB59B3C85E75E3D2BDB423C403FF7BD0D87C23CBCDD573CAC27B93BB21331BD544BF03B67FDE2BCB023703DAB2D7BBC2261493CA34E8BBC9B9D063C38ECEBBC38DA1B3BE69A4ABCA1F905BB83D2FDBD029C18BCBE72FABD92336ABB010F653CCD0FC3BC6C08EABC84A544BD21392E3C62B0CD3B8EBA43BD31A7D3BCC0B7043C867E6FBBAE11EC3CD0713CBBE45370BD115D1FBD07311CBCE936063D7DD2D43BEB6C2A3D0F14913E1A1C623E276E563D45E3CE3DD4486ABCD2FD11BBE4DDC0BC2451A2BD13A64FBD9A86ED3C72CC113D0E9D863D37BC4D3CE9CB7C3D17271DBE0591FBBCFBAD673E4E3384BD3D21753DD7ED9F3D4E55CD3C12D9903BD62EC53CBFB8CEBC1EBF713E130F773C329688BD83AAF13D68B748BD7B5A1BBBC3F9F23DA644B5BDCAC0CCBCF1C29B3D350BE13CB7FE9D3D254C15BD063FF7BCC68999BCEF9BF13D3C0F91BC2839CC3DC84D3DBD5603EA3D6AE645BDB0D993BD482EB0BC49765C3B66A25EBCF4FEE6BBEED6B63BEAD79E3B7A4714
BC8FDAC33DBBFBAC3D0045B13D31F9B93DDD7293BD40651ABCF4A8F5BD413C6CBCE725F0BDA564E8BC352D423D8BD9D6BE059BD6BD062B75BCCD92F53CB16A6BBD4CAE7ABD30BA4C3CE6607DBB9CB857BD5883A0BD2D57153B24CE7BBD119DAD3DC80DD3BD9D587ABCDC65BFBC4D1D77B91C9B4CBCBE19FABD136F023B6E5D8D3BF68C41BCB14C9DBD678F96BC3DB043BCD23070BCA4F2FDBCD70D9BBDBF4D87BE01047E3C26EC8CBD86003ABE478F70BC5C2839BCDB7E99BC21D256BE2BA1D8BAF92DB9BD0D5615BC4167883CFBCF17BD87EA2C3D2AA42EBD40B628BD1EAA6A3C39FF323BE60B343C1445CE3D0C1B323E17B4C5BD4B2B103C6920BCBD1ACD1B3BB1CA903D0E64BE3D12B81CBDA473F33BB86EFD3D13676B3D1042DD3B9E6756BDB947AEBDAEC0B2BCB6B7E8BDA981863B1DE78CBD577081BD8B3AAB3CE20BB4BCC730303CD967A4BDA107B3BBE138D93CE7EB10BDFB40B93CFE43E33CA6B13ABD06FB6FBCD956B93C6CB89C3C0D0435BD54A15EBD0928633D2D7B3D3BCD3E9F
BCC332103DA86C543C0C065F3CCBA1ECBBA71A7B399E4186BC425AF5BD0386C8BCF2FA763B50FAC13D0B391FBC2231B33C3AEB1CBB5A3CCEBD0E31B93D80C687BD1E076E3BE33D083AD97EF33D8CC0CEBC963D2ABB80709A3C7F06E13C2D6207BD07E9EDBC4FFFC23D8FF73D3D0FEB55BA698FEA3CD33160BD457294BC89AFBB3D2EC312B98E1CB73E1127D13D976829BBEB0B923C746347BC92A14C3C7952A9BC09E5543D2785FEBCF59F85BD2762BABD07610EBC3A688ABD2B91CEBDFCEAC93C8E9004BC6ED58BBCAFB7B43C0310D33E0484C8BC82A499BDAF465B3C2EB4F5BC7BE0DB3D289AA2BD0F033EBD0428C2BDA7D4913D43073EBA87B72EBD46F84C3C757DEABDCA75CD3DA0AA78BAC9812D3B5D7E13BD193D9BBA75EC7CBC3D61EABDB8EA323BC24048BD1512C33D8C9BE4BC8DAA8DBC88A6E53CDB4D3FBD9A22223B967ED13DDFE846BD00FA0BBC510DBA3BCC7AA8BD0E9E7E3B1AF33D3CD2ED743C44478C3CBA2272BCAC23CCBD078AE33D3F745EBD6A7F4EBD275243BC61D602
3D279EDA3E303AF23D314370BD1422313C9313CA3CC8BEA6BD3662EE3C675AFDBBA81424BD792A03393EE37ABC68BBCFBDC46273BD6DA2453CC02288BCA8E6363D523CCDBBCB0FF4BC47A5F33CA6DF60BD0E85D03B4BD22BBCDBAB05BC8E28B03DAB12D63CE3506CBD34DCBB3C3F12AABC84C7063D10A36E3D1C74F7BCF487DFBD42ACC23D32040C3C736B2DBD8FEF03BD012C8C3C1FF6A83C919D9C3C1DD9303CE0E5BD3C9D3E803D5AA13CBE088E083D63564BBDAE1A4BBC1714E3BD926872BCA15CF4BC8884133B656B48BD9C4141BC90B2503C3B3380BD9B706E3C2512A73BB23C3B3ABC67553BE56D5F3CF9337F3DA5EB183CCF69CEBD807FCE3AEEBF3E3D17FA66BAE32145BD9DE0AB3C41AC7CBBBC9247BCFD59583C2494713C947C67BE3B13513AF531153D65D840BCD2E308BB02965B3CAF8E0EBCD77663BCDA963B3C78F24D3D19D8393D2EDEAE3C4D386E3D4F2DF3BE153E97BC8EC7753C93B7C1BD7286C53D72BC5E3C9E3BBA3CF8A0643C8D493DBD8764103C3F847ABBEE265E
3895201BBC7DF319386B3E9F3A917EB13C1F5BE83CDCCACE3C3169B83C333C553C2263923B37FE0CBB999125BB679F863B9451FF3D08DAB0BD0E4EEBBD8191393AAE8ED6BBC1E36EBBC7DF27BCB90438BD2C2BDABBA948F2BC6AD8F3BBA8DCC3BC378B913C1E385C3B061365BB9BF44F3CD547D23CCAC77C3A5BEC6BBB0AE8EDBCA08F8C3C1068EA3CF1B06A3B59CB363BCA57CABDEBF8E83D62D4843D0582F63BEDAC7D3AEBF67CBA93C0683B44D5D23D7FEDD0BD13E6EF3CD83E02BD8C2F28BC5B91113B7C30AB3DA78A8CBC1FEF2E3C33B603BB556E8DB99C5EC73B042FDB3D08FDA2BC447E33BBC079A53CBF8F2CBC26A2BBBC96BAEDBA9BC72F3BA6C6E5BA9EB88C3CC412D2BE30502CBC84FB3B3D05A02A3C9ED43E38D6667C3CAE84153C74C923BBF3D942BC31D8E23CDB8E2E3DC4D8453AE8C5573C5F2DD43C09AEC23B19BD03BAEEB9DDB932DCB23C3C1E21BBABA82B3C40A2ABBACA512BBCD5A7AC3CAE4F4D3D812FDD3AE1EBFB3C4F68EA3A5270C9BB4301E6BE3684ACBC0EB1E0
3C3CF31BBD8D0148BC24B113BC9470B9BD6CAFB6BD9DDB64BB5CB11DBD9BDB03BC1DD4D73CC7CE4EBC526CD63D2A2B5DBCECEF053D236A133B8E69ABBD99B9293D5CA7913C3E5042BC062E033CD4EE003B0FCF873BA39EC4BC9438A4391F74193D8A7BA6BD2435C0BDCCE203BD5518D8BD6CB6C23DA0AB3A3D769BC8BD406EB6BC0F94BDBDB5FAA63BAD7428BCD2607DBD5A1CCC3B7422AE3BF753A73CF4B5E5BD9F38F83D08638ABC1D5CBA3B8D87F93DA4B4033C8977C73D9C9B3C3DA55F1F3D7120283D2A7887BCEEE0593D906C313BC0F22ABD09B4FD3DC457AF3C94FFC33DDF6FC6BC8D0EA7BD808C6C3CB2E1983D00C76DBE0242F13DB32DC13BFAB7383CA07F45BC8D2A85BCC557213D067AE93B406A1B3B175B3EBCE872AE3BEF77303D1D23A8BD0EB2873C1E8798BD8C9A94BCE388FA3CC62BFB3D2A9604BA7184EF3D87A4993D9252873D9221C73CEC47AE3B861BAE3D3C55A8BD222FD33C9DCF84BB00357EBE0C52B2BCAC0E3DBC578F5BBE07F70E3CC99D5A3C36D22D3DCB6482
BC1F6D6ABC3EDAA0BD9AE53A3C4750E23B7C3E6DBB8EC7243C31005FBCF0363C3C7E45393C614F4E3C45FCA33C66AB44BDC253693CA80D563C832ACEBDBC8DEFBC9C183F3D175F793C3F909A3C4C28EB3D915BA53D579A0A3C3E0B2EBC8CBF1F3D8D358B3C327D373C1A446ABCCB8ED13D6A5579BC93472FBAA82BB93C8A920ABC5E8794BC07648A3D3D2FAEBBBBEF4D3AF21D2ABCAE5A2EBB9666E53E373E6D3C4EA5D6BD1E08943D0F68ADBDAEF2893D2E7BBA3D1580F63AE29B413D039260BC5E073CBD36D49D3C6F4F8ABA8B5202BCD2D1F63D56E1793D6D4866BC170F223D286FDC3CA560773D395EC6BC386E453E858D1A3CA331763D44A74CBC411A40BC5799B63D2F983D3BE4878B3D144B61BC8F49A03D3C42A43BE9F533BCA127FFBCEB962B3C843A36BC88F69E3C3F3CC3BA8215723D319E61BCAA5D883AA154243DED84F3BBD9E3B93C686336BB88511BBC7FED6CBDD265CABC5110B7BD8FD0EA3CD0ACE53C6CA9AF3D0645063D49DCE4BA4CB6853B63F1DC3B4778C9BD625834
3D04EF5DBCA3AF723D97ECE5BD0505B43D94000DBBFCD52A3BDC21ABBCB1375D3B92BBEF3BEFCFC1BCF20FC23C082791BCC1EAA6BCC46964BC18091B3E1A5C29BD0EC0B6BA547B8B3AACFC10BD5CBDD23DA746FB3BC9D0E53D4D81883CF0B8F53D4AF1AFBBEEDE303B990A5EBD18DC94BC6E4E62BCBD7B65BD36E601BB044FB6BC44C6A9BD750EF33A92AFE0BD00E48DBC5543AB3C60DB773D3965DFBDA3DCCF3D2BFA2EBB505D243CC9AC8A3C86A22EBCC370C5BD7311A3BCFBCF7E3D286FB6BCEB6B9C3C8DE6393C937BABBC23C9433D0D7B523DD8F7623D5FE1693C17C917B92AD759BBB35D3A3DE294493C4129AC3D3EE035BCE73A16BD2B1057BB1818793C3DCEA23D436BDCBD4760CABD237836BE0FBE0EBC928F0BBB43EE453CA27A073C4888D8BBC28AFBBC1DF387BD0D2FEEBC2813BC3D64A75FBC09BE63BC2E41563DBD3C93BD3752EFBCE3D303BD68F1E8BC14134D3D7CB647BD1C63EFBD42C9B93BFE9F073BF13F65BB2B06CBBD0D17983C6684703D363F79BD24E35ABD2C24C7
3BE9131CBDFA5F033C35DA4DBC45F1DEBD160C3CBE0E4091BC881D7ABD0B53F8BD1671FF3B035DC8BD2D236C3BE255113BF98D02BE0F44F93E9A40D63BCB1210BB9434F63D1B10983CA34FF63D25D008BD4A4A8A3D462F263D67B3563D414755BD92CEAABD3D5BB83C3A76F33BDB7637BD514C1F3DF6B48A3C8EBBD53D1F00073C32E7483AF55B043DC268B03E14CBEFBD0DCFA3BD5905AB3D88B204BC2828AFBD416B273C0983DFBCE2F1243CA065283D7BF3D9BD9907C73DF8492DBE312FC73CF35A1DBC7D98C6BD12E6DFBC7CBDEA3CFCE8563BF825F4BDC7AFCD3B6602FC3CE160D2BCCD16B43C2456523D7E25C93E3931A73DA12E0CBE0751CDBB904C3CBA4D5434BD83FEB93DBE57103D51AE45BD26BC3ABD42689BBC333624BD8C96E93DFDE6BABCE5828EBD2221E9BD1A9F223D896389BD553BF1BCB2B5573D920016BE4F89E43D07F439BCDFDC56BD56986EBAFBD0ABBD2E44B43D322E163DEF471DBD4F67BC3DEC4C20BC3C01E7BC4022593D8EFBC4BE065DEA3B8E00EC3CF2C5EB
BD4446CABEBD10DB3C8825F73D3B26083D806ABC3C6A22333CBAB6553CB48E14BCC1DF333D6A208CBB747D073BD0C217BE0AA3083D5D4E84BD3CB0053C8909E73C2770BF3C98C2F5BCB20BD7BCEDBCD23CA23DE2BCD817C63BEA98F7BCB92EF2BC6B15D33CAD158CBD151389BC14F402BD07840EBCAD67D1BD105C7ABADF8CBC3CD3F6AEBD2BBC55BD470AB5BC9C753C3C01B9D83C3895243B210BBCBD05C01CBC7DA8A1BD4A1CBEBADAD99EBCBFC8A7BC68FB3ABDA3D1A5BD4FC6AEBD9BDC84BD485B41BC79F3FD3C50F3523D21E0613CC249533C0415B13D9F3685BCA500EEBAC7A7CB3C072F4EBCB98BDEBC657CD0BDC3D05FBD53698D3D1094763C97BB023C27DDE03C8DFF87BD38555C3D1A8FFABE2904FFBB09AD8E3C5C8B17BC95CD053EC27B2E3BD7D5DCBD12234F3E1D453A3CC17FD9BD0A865B3D26886BBB9A4C50BCA270D43D9806CE3D34B3DFBC30BD93BD88A758BE2A5C893CEF9ABD3CFBAD633CA4A8C7BD902AAD3D22A5AE3C2EFB46BDB743FEBCA2719B3C5EB4F4BB9F7AB3
3CA7B7E5BCBAF064BC226CB1BCC9D1023C46A95E3C8C51F83C1D619EBC76F915B9D7D8F53C453A54BCE5254EBCAABAF13CE348F8BDA7B13DBCF791E13C6E6F1EBB1D8ABCBDA28AA8BCF8AF80BC0D96723CF17C66BC91F8B23C54DB42BCC0BF96BDCAD2383B5BD4363C82E7D13CC55BC73D2265903BDA6F173D98CD26BC55C4703B8999C53D2C6EAABCAE20CBBCDAA7D8BC9A72E8BC8770FB3B9506DABD83E8EA3C9A01BBBDAA1BF73C285E273D62FC75BBB73744BE0AE634BD8A8E82BE34B6393CED879DBD07E39ABB8DFB3139FFD2A13DC408503CB6FA203D17835ABC93AAF4BC997870BD8806F3BBE97075BD5A073EBE0FC8CF3C4D7679BC12FEC33D0CF9643CBFCC923DBBC71D3B754907BAC666ABBD828372B9EDB2C93D110730BD0959193CF4AB84BBCFEB50BDDC303B3DDEFF893BA7AB44BD35D1853B31D878BD0F47723D0B73D43BC481DD3D7F705CBCB9D44FBC08FC813D570B863D535EF4BDA6AEFE3D52C44F3D72FF623C0BD595BD1C02683D1C47A4BD0AFBF53AF5AFD7BBD7ECAF
3C3BAD2DBE8B0E65BAADDD29BD17E05D3CBBBE283C494D113D0ED6EFBB1C983E3C23D91FBBA1D1D8BCE8A556BD44DC493C8E1431BB8EDC8DBA9E5EBC39CC499CBA0DCA2BBDC7EE3ABDE87A543C5D8ED5BC91144CBD8EECB43B25715CBDDBC0F83E4959623CACED50BBA40B12BD53598F3CCA7F79BDE878E5BD981EAFBD8BD5493BC47EDFBD1C9365BE3313C03CD4B4D9BD5CD0A23BD517413C8E9C4F3DF5D43A3C282A12BD9D6A083B7FAEFB3C571505BE8A4232BD2431DE3AF7A0D4BDF69E1DBD2392ADBE0A8BA43C33640FBE233781BCFD79853CE7E291BD87CD103B124A7D3BFABF90BD7C44FE3CFCAC583C2F18F3BD1DA1E7BCA4A55EBDB72C733D1DF7B63CD4B8EABC9087D8BCCDC06FB8A088F2BD12382E3C1B8596BC272E57BC9EC9FCBD5C1D0ABB9756E2BD91FFF63D3E84E2BD6BEB123B45BDD23BA275ED3B6D7EB7BC6BEABEBC7E590F3DD134263C6BEC55BD7E43CABC86BD663D8586253C04D3583C1A0B9DBC14CDF4BB514419BDB1256FBD458F09BC80B1E8BD0AC094BD2DDD87
BC8E227EBD71E2B5BCDC9BEB3C9C8452BCB03C00BBFC85A53D52F44E3AF10D2E3C262EBEBD89EECC3CD6318A3B04E063BD251B96BD69CFD63CB4AC083C9DF2F03B4BE2AA3C9AA6453D9B00493BE9CFE43C22A449BC6470C6BB5310ED3B6B1ECE3E0D3CE53D132799BC9FC0E63C7BA8853C032B143C3B1A023D4237013C4ABB493A2E37C53DD711B0BE0261F93C0189ECBCF3CB0E3C4C54F03D2C74E93C89A7043C6532F6BCDD320F3D707BE2BB4981C8BD53738ABDCBD8C3B97EAAF5BD283B40BD55DB8ABCABFFFA3DB911693CB757353D1D1B0FBA994D17BDA1D50ABC901B75BAA9A8DF3AB044043D213141BBEFECA3BE002D203CDDE741BDB5C4643DA46D7FBCA1ED1F3DD84941BCE129193CDA1F503C8E6F3BBD88827F3C8FC7883C11EA4E3D96D5B73D2E9971BD6E71723E014A9B3D45372ABCD6CC4BBDCD3DC73AD4A1C33D8986F4BCD8AA08BCE1EA7EBC1F06583D929803BD9A2C243D110FB4BE0CD2B5BD19A5193DC7F22CBD649E583B71129E3C95AA303C23D125BD8075043D632EBB
BD656DF23E255EFABD8042143D29DAF03D36494B3D33631E3D9A81B4BCB24B1E3C2E5F24BC970DFCBD0478D23CD2F9563D006D183D19BA4E3D690250BDD789C6BC91E8873C009D6EBCA8F0893C08E3473C70E1E2BD2A2BC9BD1DACF63D1AA393BD09CC60BBBF2EF5BCBC596A3C54CBFDBC7E62E5BD6F92C8BAB2D2A2BC86EDE93C95E5913C27F842BD0470ADBD78EA553C8A905CBD1F1666BCC522413E2A37C53C90EA91BCB8BAF0B9C791973E46D7A93D8C8DB7BD0AD4FCBD0A60A63C3C00EABCF682E73D73E3CE3D126A383AC72EF2BAD56B6BBCBEA12BBDCA64A43CA337833D985CD1BC96605B3D125B583D0261CABD839FF9BCC1EDB8BE12A894BC66A79DBD2F09EFBE1049E03C60AC453CBF0571BC88B07BBD959A58BCA09DA33AF4DA80BE2E48C43C6FDA3ABBFAEB903D997431BC2FC98B3BEBC2FC3C611DD43C6F896F3C8E7C2D3DE9804F3D54C6F53CEA958D3BEB0422BBD40C64BCC2D60ABC627EEA3CBF79E13C8F89C0BCD1A562BC659005BCC57EF4BBB9EC1FBD0746523AAA5656
BD6627CA3DBD22E4BCD6E963BD0958A3BCA2DE1EBDE59990BE02A8983D88AEE23CF40162BD6114A5BD8B75863B9743AB3EA0B8EBBD87D87BBDE3A2FE3D25314FBC9FA58B3D041F2B3B1D95BEBE1B78313D3D2F92BC8493EE3D3D39F13CB3B8F2BDE891E6BC9C528BBDD21712BD19835CBDA7AF41BB8BDFA1BD1AB8AFBCF232FF3D48173FBC998B12BDAFD7FDBE4B46AD3D25BC9B3D21A1EDBD976ED4BD87323BBBCD3905BC745F85BE45AF0F3EA707F63C3656B8BC36F54DBE63E190BD0DC3B43E04C362BCFDC26BBDE338B63C876220BCE3B2A03D88D484BD5221C4BD8F7005BD081AD9BC430335BCA7EC48BE257B3ABE9E72A4BE0D17B73C98A0B8BDF0A101BD5D42183DC1BDBA3DA94BCABD9379893D4EC960BCABAE213C65E04E3CB465B0BE9620E8BDB51B973C797C5BBD8702F2BC9CE846BCBB3885BD94CEBCBD60509E3CA71605BC035D91BCDA1A66BD6129923A47B2BA3EA4313A3C0E82463CEDA75FBE0EB9A8BE07BB623D428F7D3D10BFA4BBE41AAFBC898F58BC7F62D43CBFC296
3CB9E4F7BD9762C8BCB48B8A3CA42B1A3D79E8A33CA4FE8FBC8379823C9C800BBC195CC93BA8712C3C1DB47F3BA5E7043A973CFA3BC4F3FEBB9C3C9D3CCBBFFDBD5704DBBD0CBCCA3D9D2E603BC476443D3E864BBDE432AB3D0E8EB2BD53C183BE19AD273D21C4D5BC76C90D3D7CB095BB443093BD9A722E3C9DD53FBD37AF45BC994D76BCC9CBF7BDA247D23C3AD8D7BE139045BCC6788DBBBD395DBCE4BFD6BCE047A23CE303FEBC19084EBD46036ABC0E86933CD19A52BCF5BF67BCF9E3AEBAA59C25BD18FB943D1BE8063D8F6F19BA8BA4D6BC90E56EBCE7D3403D439D84BD0C4C8F3D00AEDABD97452CBC5974ECBC526D63BB9A98D23C1BD090BC3A7DDD3AFAB5CDBDEB68A2BDFBBF173C0A795DBD5764ABB97A13223CCCA3213B2E5E403CBFE7AD3CB994FBBC38CB2D3D3514753D4AC5B2BCC6E1E3BD22CEA13D3918B23D2B10C23D0DB7673D279F42BCD556F13CCE6844BD98FA09BD2A77883D24AD33BCF678FDBCF28998BC446799BD913440BCC760DEBCA49A803D2946F83E2D1701
3D2787793ECB6CF2BD47CEA4BD03EF70BD178F95BBBC18A1BD0C690B3ADF3ABF3C9E5D53BD33174CBCE71CE8BBFE38213E71E2CBBD5686FB3CF16A54BD0BFAC3BD0B9532BD39B55A3CD5300F3C6E29A43BECB4223BEA2630BBF1B972BB97CC54BD4840B2BC5487013D2F6C57BC551DDE3D8889D23C20534CBB46BD4BBC8DD43CBCF154543D0CE7353D23AAD63BB9FC37BB6EDED03C342B1FBC5F27ED3CA9AEB23CCB0EAF3D57E241BCAF3FA03E162FE83DBE568C3DF1CBBD3D6A5E303D43AD0C3D346B55BBB9466A3C164C3ABCBB8D41BD9921223BE7B4A1BDB73DCF3C5E57683C95E865BC87F330BBF32D8CBCCC31763D24A4183D11CCCEB8E036103CAF25BEBCB38E94BC30A8F13D42637DBCCB2F453E9067873C431D8ABC5705FF3C825BFFBED2C5A0BC7751BD3D97ABBDBD91FFBDBC8A17453C1C0261BD2212BE383A9E063D7EBDA2BD911D54BD4C07BE3C7E77133D33F4263E249F50BB8B2422BD90A713BCB2BFCC3DD3BB01BC086182BD5C40783DBC314F3D0F0FA0BB809B7D3A682A53
3C570F32BDD6AD2D3C2DA187BCD9E844BD9D5E91BC459DCCBD8B2B5EBDB098C23D0C19703C6B3CC93D0F1682B996DA78BE26F6983D98D3533C6D0BD73C180649BB18B6BF3D1AC70CBBA7FCA43CA67A74BD413F0C3D2150573D8275693D28D2C9BE0E935EBD9D4DD73B3632053D548AD43C52BD88BD226AFEBD155542BC94F7A43D71BA4DBD4FBFD13CBD2E323C00659EBBBB1493BD37BF16BBA4D8E9BB38C996BBF156BABCBB8949BD46B2DEBCD43B19BCE4AD243C9CF524BD85147DBAADFC9B3D0F6797BCF5F1C1BC017AE1BCBF781ABC756A36BD226870BD47B8B23D942BAEBC05F4663C913AFC3D3E8855BC1465193D4F1314BD55B4D03D7660CD3CE2F583BCB112BABDC3E32A3B87E0FABCCF971CBDDE9B993D938C1DBD4CD936BBB8BC453D9B649C3D0A2B4C3CB48876BC44125F3C2168D4BD955B6B3C6BBF0C3D28FD8FBE024C8EBD0CE26DBDBEA4B9BC40D80FBC34C011BA920AA23D6883463D7402C9BC86E799BD5B6D89BBAB0FAC3D25C855BC5B381E3BE72545BCAC61B73AA5D8F2
3CFC02BD3D3B5E61BBC01577BCF117063C7C16A7BBD145523D82CD9A3CC02B92BBE1E3263C43E7143C0B6B22BA3739A9BD6025843CC5D5E9BC25E4E1BD97A597BBC7B0D43CC2A196BC35B0B3BC165CF0BC1DC8C93B439EEDBCB3811E3D1EE296BD805EDF3C7252703C430F76BCB4B0E3BC8A086A3CC6C31BBB53AB46BCE1C918BCFAA89ABC10C1C63C66F9093CED1EEE3C7456A5BC1EFEADBBD56D833D076FCB3CA6C4A13D0B60E23C13A5DFBC2787573C2028413DBC52343C5C436DBDAFF1D03B85AC16BA19D4A7BC0520953C308F7B3BA4CA74BC660B6A3C80ED083C56EA813CC8EC4C3C4D4046BD43C9C83D4BE777BDA9FAED3D0E64A3BCC97F55BCAA042F3C79BF013C8AC51EBD90288F3C03B4A93D5AE7033B280C09BC34ACDBBB0D2AE8BD469194BB2236563BA705B63D599A753CB82FC93C6C93D63C8C6618BC017B563DD2EC75BB072F943CF7FE463C68611DBBB40A7DBCE8E94ABC42223FBE196AF83D668AEEBC0603943C8C92AB3CA920103D80CCA23CBDCD923B94B903BD4583A1
3CA198E1BD804BE4BD04A9A6BC5CBEADBD3F4CA03D76A1EEBD82FE17BC77A9F73CE62742BC76A0023C9E2C173C1A44D03E2B9F67BD986785BDBF3EF4BC043C40BD0BB897BB04F960BD0A61A1BC7005D4BCA7F05CBC3F822BBD469C27BD0A1B173EA3E5C3BC6EC7323C4CCD6CBAABDC493CD104E23BC4ED1D3CFD883BBB3E3DF03CC76E49BD18AA62BC903C6ABBF89A6CBC0401EC3CBA5400BD2D83BB3DA673E8BB73D197BD33E25DBBBD5EC13D9016FDBBBBD43EBD622EE5BD6A68BA3DB156513D8682093CB4760F3C87959EBAD487883DDD09E73CEACC083C6D7387BCCCB552BD303171BD0194A33C9D8CA1BD8B2787BC44F43EBC5C82E73CBB162F3DDAA3AABBE39107BD51F254BD70EF66BD848D31BCDE8DFA3D8ABC033CA1D01F3C8B93F83D1818B6BC89686ABD0E87DC3D49D3F43CD672523B0516603D74CAA7BE003CC4BC16B749BD3DF4943CDA5B423D058F0FBD4AA0343DD699723C1D469BBC12F0643D77197DBD419EDF3D041B10BC378F04BCD417C7BDC7B7BABC37044BBA7CDFD9
3D04EBE93D2591933C054206BCCFC6F1BC7D42BABC492B0DBC9E5E3B3C98C8613B5BAC8F3ADEACB3BC80EB393CB1D7D0BD83B2F6BC1C01ACBC9F60D0BD4288F43BAA3EC23B4BEA2ABB8027AABD7AEC67BC1536C73B5B29C1BD1CC4573BAD3D4CBD3DCA383CAD6DC6BB81A5FFBD172FA83D60398F3ADCD3413CC7823C3D506384BC419846BB393E883E1E7AC03D3C0A643C41492ABC63B721BCBC5CF93DA49DF5BCAED984BC089CF93CCE4D7E3CFAB32FBB83BE9EBD6065EABC1E8CFEBC4184D2BD43E807BD2AAA8DBA376B2DBB3C25583C94EB4EBC9C9B0B3D3401FB3C0582E23CA3DB9D3BB852AC3B1D111D3CBA7034BD6F706BBB4873413D17A984BCD87EB1BC58A7F8BC5BD813BB060BF43C1F72B2BCF37BF03C4B1D60BBC365F5BB36F82ABD4BCAF7BCA3F2F2BC8023023E10C3783D005AEDBD54065B3B11EE2DBC3177C6BE1438EEBC13C54E3BCD52333D37597E3B9EDE95BC876BF33D467F00BC72D2E93D00B769BCEA1EC9BBFB03973B90A37A3D2F8FDC3CD225923D39871A3C8AF785
BC97FB03BCB4CF21BE147E833CCFD577BCCF91DD3B6C04F5BA7DFB9EBD322785BB5FD4783D1612A63C2E75883CCE5811BC5C2800BCC892D2BBA6D442BD8F9759BD0BCA46BC573CB23B3F9C4DBCE7E43ABCBF654D3BD4DCEDBCAF9CE9BC9E5357BE29B5F63CA031E93BE086133B08EA3E3D15061D3B67F9AEBD3141913C4DD75F3CA024BBBC1274223C2F3924BD627F2A3CAB2D2C3AA46D7B3D1BE0323C23C167BB05A90638260805BD1FA20ABB063FE43C2B1F54BDA16093BC49807ABD65C122BBC467A839A8DBE03CE69B20BD14F50ABB91A82F3D9469E33C4A087CBC849173BB9A6E413CF6A710BD68E1C53D23C1E03D8912BE3D16DBAB3C9E193F3C1031F13D43D5F2BD25B5F4BC9C8254BCC67AD53CEFA5F03CA3D0AC3CA5C131BC365FC23C1056963CDC9E7ABC123000BC96D0B2BBC396FEBCEC31DD3D39BEA4BCA9AA18BC8531E13DA4C9EA3D5858573C58A752BD0649F8BDE8FDCB3C9FF1933BBA3CBD3B04BE293C55C6333D4AED403D83D703BC587090BC518CC53BD4F758BCC1FBA8
BCB8E9D1BE85148F3A02D4E23C89D001BC85A719BDC64AF1BD8AB179BD75A6BA3CBFE0F5BD5A837ABCAFACE7BBDDDCFDBB14A655BD3A1252BB6FB3353C74414C3B2532B9BD3848003BBD080BBCA039B13C8E83303C28063E3AF4A1FEBC2521BF3D06B62F3B973C9C3C8849863A7EF1EE3D3AFBE63B0C3727BD11DFFFBD40081ABB88979BBBE383C9BCF5B88E3DB5E39E3D44E4523C2A7BA2BC25644B3C141A403C18D3C33D8CC77F3D21D2DE3D0AFB39BD46A3ACBC2B8574BCEAA5C7BDBCB29D3CC567FCBCCF4329BA8A8B99BD2008EF3D243A61BCDC54EABDD0F8633CDD312FBD3E56593C2BEEB23CAEB84ABD30F9CEBEA633C23B2094FABD58FAFBBCFE1346BBE77F7C3D4FEDE9BD35EF4BBC82176CBD57E09BBCEDBFE7BD00E0433BF57B113E851BEDBC828DC8BCBC29FE3D9DF524BC1A4690BC9C7E53BCD11D5CBD8EEB143D950BFABC22FA6ABB8D9907BC4EC87C3D4020193CC3E90F3CBDB72FBDC9E8E6BD90A90ABC879301BCDC2E00BB0F74B83CFB066FBD1F8C183B0A0289BC6EBCB5
BC2D96A9BD923991BD897EEF3CBA6976BD17FC083B276E553D81C084BD4BA972BD15B459BCC84C7DBCD0826A3C8F2F17BCB8D7123CA15A7D3D9C49D0BD204D483C2B1A44BD4DCE9EBD292629BCAFC32F3DA3F6543CC4B3303CAF5B12BD1DB60C3C58BF62BCB8F46DBBF44F3EBCAEC10ABD91E2BF392F1CDF3C48CFA1BCFE7C68BC3675FCBA1671E53D8ACDA7BD4B1AB93C6D4D723D025792BD574CD13E0DE4B23C8D9C8F3CC5777ABD93468DBE15A7B13D84A5CD3D9AD89E3C010D1C3E67FE153C03AEA73C9CB4DDBCA4B044BC973D7FBD4953F83C8804E6BD271ADD3CB3F9E73D7D45003C332D3F3D36267FBB9893EBBB1795D43D04227ABD7E0FCEBC54F318BD25FA2B3AD4D5A7BD694C8D3CBEA378BD8F4D3DBDD0AC3BBD1ACF7ABD4BF9283D82BC5DBD051C133CAFCC92BDB9F4D9BC7BC1B53C9E8B58BD389B3CBCEF73E5BD69688B3DC6C4623940AFCCBB91FBEE3CBD7868BDEA0A92BCDFE8193DF2C48DBDE1354D3D8B436CBAD90B733BF16F93BDF5FBB73CB38A2A3C8848FFBCB354CD
BC3C86523DD00325BC79FC84BCA73E533C647EBC3D12DE86BC9EE6263CD70B65BD4DE46FBD41A4933BAFF5CD391437743CD69505BA90648DBD4EB19BBBFFFC923C9BAC2B3D42EC503CF119AF3AE369D33CDC1B1FBC6ED6E9BD6F16E9BCDF72223DC62ED93D2D6789BC5EA807BC05BF6ABD80910ABCC438F23D1D5F66BD3F6BAE3D331BCBBD8D46393D5981073C0D65E3BCD8D63A3D49D7F83D8B5FE53D8108F93CA1802D3D218975BBF759743DB8F77B3B8BDF913DBBD207BD8367DF3D986B1E3CAC29283C27C7643C9A3DC03D0C58C23CA7E70D3BF876D03C96F007BDDFC5123BF2A4A6BDE4FA6A3CA2BD993CE2214A3D0499253DD7FA99BBF2E558BAB6C2BCBC6DE46A3BFA6FEDBCD47F113B34C28E3DFD403EBDD243123DAF84A73C8E877EBD8F161ABB6FB781BB9C18903D8035D3BD2D8538BB4A6E43BD125826BBBDA8003CBFD0763CF33EA83D3AD1D73D2BD3523C6E7AC5BD91B683BC12D1B93CD34791BDBEC73C3BA443E5BC845FCB3C319C343CA3A5F0BAF3A606BC9947FCBCFB19CA
3A58418B3C7C8C1C3B0057C53C5C2FD93D6034493C9307DBBDC38AFABA04A5B6BCC0D2EFBBE3E5E8BC72045DBC260090BD80A111BDD7633EBD8602BABC15AFBBBD328FF6BBE25F943C80379E3D1C2982BD4DF9BB3B6488D6BC94F826BCEEC3AE3DBAFD42BB7421563D2628D53C1CC606BD0E1E34BBB9CA433C97BA83BC003D5DBD8BE0893C024A9D3D002385BDDA19683CA2A79EBB87F6E8BD9F75383E11A5E6BD8B75163D8F2D38BCCAB626BC25335DBC6A2348BC6E79A8BD42C595BDD230F2BD9CFFFF3CEE9AC03D9832D4BB8D98093C379B483B09A19EB990C63B3D5913F83CC857263C85D6EBBD773E16BD78B36F3EA0E26F3D14A5B5BC21D00FBD7E26EBBD0EF3873C6A4F96BD8AAA86BDFD8936BD4B3830BCE55548BD80FA6BBBD3F312BCD986F53CD9D5283C124C7DBC8F2DCD3CCFAAF83D694299BD2C7ECE3CBAB6C6BD9190E53C9FCBEA3E1607263CB895043BF3354EBCF7967DBCC81A923DCE39293C613C9D3CFC2DBEBCCECC2A3BF588A3BD30188D3CCCFA3E3C270D2B3D11B7AF
3D0DF3B1BC2BBC68BB04E987BCDBE4B03CCBEC4BBBA224E63D48C8D6BDBDB188BCDFEA353CDEF140BD730B18BC5ADEDC3D9B8B973C8F1D88BCCEF9A43D13A1DDBD0481EF3C939606BC852CE1BC815FBF39DC3DEEBC5E6D9C3B7768633B9F51F63D3809ECBBBCCA673CBF44A93BAF6F7E3CA190823CB6744A3BEBAC0B3CCE0F7C3D355628B9CE6B63BCA1783BBCF71B11BC8929F1BBCD22953BE83975BCFCB17F3D29A4ABBBD7B7B0B83BB4FFBD385A04BCD494FFBCF5F1443D1C15F4BC6B7CF4BBA0139B3D33B28EBCABB7803D24455EBC8D6EA03CBB573EBDA97ABCBCA3D844BC290B17BB21865BBD5CEA29BD5FB232BE5FE4AB3D8ED69E3D5379C03CF194133C5F871FBC9F2FCE3D2F45093B331DD9BC934F863DF1AC2C3CAD2C6FBBAD25EF3B9B7B493D40C24C3CE5AD0DBE48D81FBCABB836BB18A40B3C3C1DB03D580F42BE1381A9BC8D61863CF5C286BB81D949BC7F1E22BCDD0C783AFDDFD13E46DA12BCAB49353CFE2EF93CC26088BD4456733D0FBF913D56A6153CD39FD1BCEB3DE3
3BFC38F93C16E78CBCA55048BC0CEE0FBC086059BC0ACD60BD6501D93CB29A063AB44459BD5B2A7B3C9A7AA9BB5C3144BDAC910BBC0E152DBB27E74B3B41AF52BB67E4A93D8303D13B783FEABCABFFBCBC9FFF1DBC9DDED1BC6803F23C1E8A273D965E2B3C807063BC3EAB2FBCEF851B3C4849C43C0DA3B93CBC9ED2BC18C6E03D0AA057BAC0D492BD986AD8BD2D8486BB28F31DBC9E966A3D8FDC083D18D84DBD2B9AA8BC37E24A3CE0E3113CC34F3C3C568C57BDFF3BEFBD389F3ABDE9EA453BE61968BCD5A60CBCA5D73D3CE08E403C75B4B6BB9196D53DDDC597BC779BC33C68459B3D5544CDBA34A4F63CF8179E3C43D0183D07974DBC9763203D611D273BED57B23CDFFFD7BD68D2593ACC14353CC876663B7162863C8C3CB93C36F633BD10082E3D13FB20BCB886033D8234723D9102913CCB3709BC84768B3D8C24CB3DD3A8223CAFDADF3CAD4CAB3C7BAC093D242E24BD9E299BBCC164E8BE040744BD110408BD0CE057BC1B01353CE14EDCBCA1DD8A3B7A18B3BCFBB4113D4895BD
BC4D14ECBC3BEBF63C9F0F043B5033B8BC8CC4463D745AE8BCABC6173D1FA47EBB4C81B9BBA48595BBD90D2ABC81AA6F3D6F44CEBC5B54273C216BABBD0E584FBBCBF5BC3CC4F94BBC812BC4BD2B2021BCC2E3C83BF9329FBBC02E03BCB3C37FBE22F8F03C41D48A3CC8BEA53BD73EB8BD4C4FD53CB14135BCE5BC6DB9C77102BD4F93F1BCE125E23DB0AD633C886A4CB9887507BD6564923C4EE83A3CAF08063C254CCB3C4611163BECD6F43B9C4F653CCAAA30BE05CD20BD2F1E723EA11CA0BC479BAC3CC110063CF00782BD128457BCA18CACBC09D0DFBC74EB243BD7090D3D0160833C0ABEAEBCCB76A73D14D467BC836271BD0D0E04BC0313F7BC8B08C9BBEAAB8A3D0A4E15BDA9E4C2BB1A2FC7BDE4BA3A3B10928EBAA20C33B80AE29B3BD0885DBD18D7D73C5617603D5935633D208A123D5711CD3D721C6A3C764385BDD6294B3C0B76073D37470FBBEC9918BBE29B6A3BCD068BBD44C4393DA9D95A3BC114353D173FF9BD0E7D583CA985CB3CDB5229BC785811BD00AF33BD24C38D
3B75D52B3D4FDF463AB000293AB607D03C7B2EAA3B6BDFCA3D06352DBC5F6E26BBF07EEB3C7C4252BC1B08DB3ABCD2343C606C5F3CB84A073BF58BC6BD0E6072B6258BE23D32922ABB8FA92BBC7047C8BDAC8791BC20D0813A791F41BC06A87CBD399E94BB7B76E63A74FAA9BC443917BC9298A6BCCB7302BBC5306C399AD0C43BD4E556BCF4F2EDBCF4AEE13E02D5703A9842CDBD7F2EDCBCA9675E3C2D64B93C85FB0BBBA597A43C8336DC3B9B1BF73D23B4A8BC05D8793CC19C58BCFF646CBCC3F1803C4ED4CB3D3A5907BAB112EC3CBCDFEDBCE718A8BCDE98423CB955183CC90FA63C0B36D73C8A89863D231A69BD472988BD1CC871BC984949BBDC996D3C5312873BEA5064BD72F7103D0C1B42BC4761D33CC3B28FBCC72F72BC10EDCCBD4F7ECA3C817E47BCD81E573D059A7E3CE7B901BCA91E273C104EAF3D091EA63D1673E13BCF92593CA50A563BDB5F95BC77DA8E3BA8EAB83CA937EEBE12E9C63B8BFBB0BAD64B5CBC0751923BD95E223CE074403D657211BBD4A496BCCA8865
BD119B563C2464613C063EB83D43481C3D0AB6DB3C435AF9BD4FCA523D406E69BD413D41BA894994BD8355A73D1FA8CF3D8CE058BD230BAEBC4F31993C8672F4BC3C591EBD8752C1BCF596CFBC2DC0E0BBA814F1BCCF99B8BCBBB7D6BD4CBDF6BD4018113C10A90DBCDB12713C63F848BD349B393C90B4573CB32A103CAF3ED7BCBC23F2BC84B7E83DA2F03B3D3FFF5E3D2B0277BD467F88BCECF7EB3DC692B93D2DBB57BC3EFCB3BD50530DBDA4C9093CD18409BD85D942BCC3C7CB3DFDABF1BCFF132BBBD6F48DBB92C46F3CC8CDCD3C2A5DDDBB303D343D226DC0BC1EE7FABC634EFDBCF4B1843CCCCB023D0458FFBD62D688BCBB41B1BA71F305BD30DF73BC44F0D33D647985BCD645C0BCE6C326BC87C1BB3D91D2053B985ED6BC913CF8BCF95EE53CBC8F923CD9C2E03E0BB8EE3D3480B7BB2554D2BCB73D7E3D9B8E81BE0122BC3D0190783D8451F1BB74265B3CCA8EC4BD07AEC13B9176B73DB820C43C3139AA3CFD72C83CE4428F3D12A6C3BA7AFC74BCA5B9DC3AB0BBAEBCDA117F
3BF484BCBAF24A643C8FAF9DBCEEA5E43C517398BD34E334BD413C97BD7289393D04EF32BCD8E2653D744B87BD9314873CD854C8BD90385C3D1F21583C0006283D312F0C3DA85D903C1005793D1FC0433978F9333C52003EBD3F3DC7BBDBEA2FBC14E8993D0A57263CFA92FD3DC2DC453C095E24BDE34BCF3B0ED916BD843D053C85EA523CD3DB903D7F0B543C1F9AD3BC20A42CBCD5CA89BD108FC5BD9E94223CC65210BD8029DC3BD87FE83D341FDFBD11A6AA3CE5AFABBD8652F93CB75792BD231AB2BCD5AA2A3D2DB437BE16A58B3D35166DBC1F57213BB119F03CDE74D0BBB3A38A3D3713CE3D5D72D63D2922E6BC6012633D40307F3C6B45CD3BD1D96DBC8DD504BDA55FE53C162000BD422AF5BD0FDD50BD054A8CBCC3E12C3D2343733C443A0EBC0B2847BD7173D8BC25B4A1BA8F4D5A3CEF79F1BD404A62BCDB37FABC7F708ABDAE3DB5BCD41D193B92295E3AC335053D802765BB969E4F3B226902BCC625E33D0E4E8FBC29151BBCC493F1BBD9EE43BD57B199BD27F7D8BD9928E0
BD4434F0BD10921A3A59E6993D279E8F3B27CE993CD8DCD33DEFEE3BBD7D1FA23D8C1A9CBCA676A13C033DE3B91DF01C3CC079C0BC91BBA93CA669FB3CD53649BC434162BC9A96663CD9721D3D01C5FFBD3EB919BD28F52DBC866759BC030A083727AC753B83B3203BB1EC96BCE5575CBBF4078D3CC4A7A53A2443ECBCA451AD3DA46D393CF9535C3CC553B1BBBF52533C2AA429BA5EE03EBC833AE83CEE05F1BD35C0253C5A9986BCDDC3263E0EC9683D8D58B5BD6AC5B53C4496CFBDC1ADD5BD85BFFDBCD1E573BC04BC833BE6EB2CBCEEF7E9BC19CD40BC1655F63CF7B77ABC79F0F43C364DDDBD57CB3E3CE56E5DBDA080CABCFCE601BC9114883D072161BC1BBEAABBE3F8643D6BAF093CDC1560BD24B9353C226215BD08C5FEBC8464533D0F8DCDBD1930833C45EB86BD4E7A9B3C1D1A733D8FF4323CDB46EC3C816F59BD1D07DF3C887E53BC28C48E3C90376F3C0E87AA3C8C9E11BD914D303DAB9F203D334F82BD084E6D3C5D080EBD4561C93D49D5ACBBD6C0773B8A38943D009FF9
3BC6F6CA3C2E2A503D8AD40E3C17AC9D3D8352B83C0F52BA3CD865193DB44528BD114284BD571EED3CA0F9E53D3C9156BC865AFD3D315A6E3D5BBF563C2979DDBCEAFE9CBD2B3AA63CCB9EE8BBDB47F43C4A68BDBCFBDB51BC0620B4BCF2C118BD83A485BD60E6323D1F5894BCB278D63C8925ED3D295905BD0734F13D4F9BE93BD3025ABCEF19E5BDB30A28BC800C0AB968D01D3C14ACCDBD2203D1BE2631E6BD5C04123C9CDB39BC8D4ECD3C3B5EB13CF17C013CF1A9343D4DC4453E8B61883DA1E7FE3BBA3BFDBCE4E2D03C77ACB6BD8A0EC43E20FE31BD20495DBD8FCB9EBCDF4A04BD214FBB3B8E21F83CE0713CBD7E5EB2BAC50F63BC080DF13C84249D3D28D17CBC8F6D6A3D447397BCEF41543C7E65B4BCF2A7F33D8939C03D5369383C88D170BD6453163D0B9666BDCCC49A3B0D271BBD8A266EBB885B563CA5177B3D84D261BD2562123C1203713D92C7B63CBCB339BDDEAC483D9330A8BCC84B82BAC245753B8307CD36AAED193C3475EEBD29F62DBAD059BF3C28BFF33C6B0F07
BC0BFBA93D828472BC4603163C7D8A16BD819AD6BD0B5C31BBF36C7E3DDD3B80BD31634C3D22DB11BCD0648C3CB612E1BD92FB623D44F777BC9BC1933DF61C5ABB9D903B3D1D9020BC316E7D3CB13FCA3A725CD43BFF44C23D5E1FABBB651516BDC1D1043D0B0E65BB1763F73CEA8132BBAB6062BC96AEF8BCADEEFC3D18881BBBC63D03BD2A7FF33C3939373D2EF8ECBA9A9D1B3C2749C13D2077B6BC85257A3C3D2F22BD26CB4A3AD4E1E6BC4D648CBC91AEC3BD1BEDD5BDAB8B693E44CA0C3CA495C73AD74349BB25BAAF3B8A6F2BBB524E053D36B848BB8BB764BC830F0EBD00AB433C46E7D43C1842CA3C0F8015BC4664B0BCB10808BCF577EDBC091DB6BB9519E2BD0E3FB4BC3564BCBD156DAA3CFFF618BD2DF9B23CCB196BBD8A1BF5BD8BD3583CB58B643CB1B05D3E232E523BB607F3BCB6C9883BA99C9B3D3BE8533DE2A9533D9C7672BB824B28BD5C27D63BB0E3983D882C943C6C6E83BAEA8717BD092B483CC9342ABD1959923CDC83AD3CB80B183B8F245A3B829DE6BD1586F7
3D5F2491BC95851A3C9F660ABD4F6CA13C291B2E3C576F533D405CA53C2AD0B53D4DF1F2BD0D862C3C6051293BC975F2BE0378C3BACB04F33D1789CEBB92396F3D5E9F6F3D1DCEF53CB73C15BCBC6FA93D40701D3CA6A720BC3A1C7ABD09B762BCDC73CD3B678A20BD2848B33D17D80CBD56867ABD298C4B3D3C4962BCE3BF003D8DDC01BC161C6DBCB2AF323CD0AA8BBC8521B33C4AB4823DA27739BCAEF1ACBBEE8ABF3C8691C13C4FCBC2BD84311BBC6FCADA3CFCD4273D17E1B33D9352F33CD46D8B3CC92D353CD97170BDB90BCA3C792D413BAA72AC3C1FB477BC17C8A83A9F56B6BD1FF89F3C9CE5333C434A38BDDDCA743D53DB183D04176E3B2B9F01BC030B7B3D019198BD02922D3B2F74DDBC80715B3C42EC363CD62672BA39AE1A3CE2CF083BF01647BCBF73A93CA36B78BCC2F2FC3D273919BBE76A30BC43C2BF3C772CDA3CD270A13AA157C03C10F1993BA5636A3BEC0D0DBCB0E2C63DA13638BD08B9023C57187139C2011F3CA0CC5BBB40EACFBC2E1DCEB9F398D83BC266F9
3C32F6B13B863C6BBBC540C4BC30ED4E3AAA3C81BBB558C43B899D473C9F825C3AAFE615BC2AE7183C04BCE73B1D70DF3A88F6F03C490472BCEF78D2BCF13627BB09449ABC488FE03C1F2FF93C488200BD2F9690BBA55697BB3B548A3B9C9426BC30C35ABB11489ABB1E5A9FBBF1F964BBBEA1C43C1F51063ADAD0373C35581EBC6E41553ABEEBAFBC6D054A3D7FD4F03ABB3DEFBD9C51323D55DDA23BB68EDFBB7A70F83C401E36BC5FF4A73A88AFAC3D31E481BDBBA5CD3D0B0C87BD02E4043C7E8CFABA855CF23DAE9E553AC989223BA84E34BC50FCDBBBC0F1AC3C7D0D5C3CCA9DFF3C24EF4D3CAC3A143CC2C22FBD4C2DDBBCC6E1DB3D0ECB923C63CED33C1CC9A8BC84D348BE6A4BD83B9D0C1A3D4E4CD43CC57092BC8CD8EB3C503610BB0F01503C440BD4BBDA210FBCA5AB143D3D4A6D3C1DCFB8BB6678793B882283BC8E2CE5BBB03E48BA5B51F43B92633C3C1389F1BA026290BC1C505FBD2E92CC3B94B4173D27C391BAD3B7873CA77B23BA8118E03A9EEBC6BE801CE43B25C9B3
BC44476CBD7FF85CBC9A13173C925D3E3CE3B0523D5B9DC43DB70A8CBD823DA0BA8C935DBD2125083B8E83C33C17D252BD5F39303D9966B2BD05ED3CBD29BEF93CBC3BF6BD100DF13D7C37103C833E4CBBD556C8BC59892DBAD7779A3B2060E83D2B3D81BBB5CE3ABC475AF5BDB783C5BCD4696D3E2606023C12E5BFBCFCAA413DF911A9BC0CE7D9BD45CB44BD10DBE4BD5CD4353D6DFEC53C548D3C3DEC0DAABDD83D1F3DB69BDFBCFF767E3D52A6153DCF7FE83CE80CAE3D900DC7BDD3BEC6BCD3BFEE3D397011BC8213693DA0E110BCA9F72F3CB7FFB6BD52741ABC85EDB93CFF1684BCABAC3CBD379FC0BC79656E3C0148DEBD55D306BD18376D3CA432A73D84A2D6BCFBF4493C3D208B3D9578BABB3D40EBBCF65D803C8C1A5FBD173D5A3DA5B7C23B40E900BC829B60BD3D93C93C1F349E3D026D993D3D11C9BC5B53A0BBEB28143CE003AFBC1A1D893D09FD983CAAB923BB81AC7FBD46C3C53D76CC343CF51E75BD6BDDB53CEB58F93CA43609BCF3FB983C98BB9C3CA8DED63DDAB4BD
3C01E2433CBF04B0BD07D791BC5EFBB4BD38B35F3CADD8803B8B07593CEB108F3D4387073C53C4C4BD4C78AEBCB285FEBC7A03E7BC15CE2DBD3DDC06BD76431C3D20188A3C484F5D3CFAB6A8BD2F8AB73D7C0CF53CEB3700BD58B98A3ACC4E6DBCF8FBB73C9178F6BC94410B3D1A4DD9BCED5706BD79ED223AC356DC3C14865C3D76DF433D693B0D3CF81434BC33F5273D9F13603D21704F3B9E32C63CE7EDC43CCE2FC9BCF6CDA4BB6B6848BD8976693C852271BCDFD350BD1482B0BD1577FE3B4D0D33BD058E243D0CAFC0BBDA281B3AE70CE93DCDD76B3D1E05DB3C833AFE3D5EAC153C48A88D3D67A65E3B3DD39EBCF1E4F0BC537DBC3D32550C3D4DA0D7BCBC0CB03C4B59B8BBD68754BD470B0FBD101859BADCAB24BBEC4C18BB5C484DB88B3D413CF886D5BC9892C13C97F9403AD516D13C706B8BBC8ADB693D941D293DB4A1263C83ACCB3CB2C7B13D0C565FBCAFB8C73DE751F3BCF9FA123C428FEA3D85C39FBCB1619A3D5ACC2C3B8281C23D6CC64FBD58CDA13D6165063AC99581
3D4B4614BCD56CA13D7D98D9BD0B1FEEBD44FB273CCFCC72BC2978BA3D53E9EDBBE1BC863ADE5AF33D25EC073B56314D3D777661BD0E178BBBEBE7A83DB57678BC1897AFBB154141BC6D99E0BD85F2963D5079E2BD133C573DB430843CC03CC43D832AF13C235992BB16534F3D448C753AD5FCBCBD8484B3BCE72081BDA4B70BBCDCAB8DBCF7B8AC3C108B8C3D38B5DD3C46B4173C71D75D3BBDB66BBD9478EF3CA27AAD3C92FB3ABBEBC0C63E411F7CBC816DF33D11934A3B87095ABCDCE6B83D91F6B93D266CE93BA5A52DBCAABF0D3CCD7CBFBC59D339399A1EA5B82BDC8EBD095588BCF32A6F3CC54FFD3BEABBB8BD9BC111BB3AB3C63BAE73FB3D1AD1293D08448D3D82840F3D4527DC3D02E87ABCD909F4BD55E3ADBBA933413D4980F83D01F42F3C863079BD068DB13D188B93BD72E8083CB0C5E63C6AAC4ABD54D3E23CB0E5B3BCA37C19BDA9FAD4BDF02355BCA155B23E1E3D7ABC9EEFC43D0051B8BD49D6363CB045B0BAC7C2D83CFC6CF3BC8B831A3BF577733C5F8BADBD3FF783
BC2FF425BD21AB2E3C9C299D3BDDD8C63CBA8731BBA746DE3D5D1A19BD4A0E94BD1918DA3D761AF3BA2343453C2E8525BD43EB873D8407EDBBFE2CAB3D1CAB523CE51F863C9EF8A53C566F3D3C21D3E7BD1C8AC53C3640563CF17CF63C39A1EF3BA46F9FBA6562F8BD361E69BD1F097B3CAE00F0BE009A27BC9A12193D96B4C2BD22CFEABD41DE40BDD20DC33CAA6ACEBB54DFFABD590D2DBDA459E5BD8993F13D827C23BD1A7A71BD056EA13D60398DBE1A370EBD635F0F3C8730BABCA32484BCA185B63C8B9DE53BF6BB5E3CDA9D093C3F682C3C8C0C5F3D998CE5BC9AEAA0BD05F86CBB1F09483C1AB2353C9468BEBDDC35B6BD6B17C43D5CB45ABC73B7803B7764FEBD8B284FBCC6A5F4BC1F7D173D5211D3BDBC6B003CA94F29BCBD4C563CDFFA04BD15EBE3BC9FEF4EBD59223B3C652F9BBDA4C47039A96199BD402DF0BDFC9DA93CD75671B59B0FAFBD20ECB5BD5C5659BD6627853D74C695BCC7E9503C967A46BA0388493CF5C470BB73055FBD81D70A3D5F8CDCBBBC748ABD277C94
BC999AE2BC1133263C3B284D3CD514D03B0097CF3C03B954BD2FEF8E3D83DCFDBCC85D803CEF77B13C56BACBBB9E37EEBE02F29ABCD659963CCEB4E33CA59E94BBC5207CBCCF1C09BD507109B9F72E3DBA4840453BA4277D3D29120E3C285EA2BD7034A23C808CE8BBB7C59FBCBC2B273C92FD8D3D226631BC63B532BC696370BDBCA63C3A07B6E83CA6D9113D95BA73BBD97A713C28B68DBD8D4C73BCF026B7BA1403D73C574D0CBD0C23143BF7F6F6BD57DB823C8E73823DDC7004BD55CA61BD1AAC49BD414C4ABD1E24473D0ADA03BD0998B0BB9D28183B25C1713CB8307EBB09C566BB0E97D63D3C81A7BD459B353D5C0126BD55B5F13CDDCC4BBCC536F63D4786423CF94A103CAACA893D0ECF073C52A1EDBCC4BE0ABCDB9E7EBC1EC6B13C1DF37338ED87E03CA34E053D4F0268BCE823F9BD12F7713D6E0A9FBCE37F9F3BBF2DD63C28B9FABC2C075EBD494643BD0788ECBD9521E73CCE74FEBD825F813D9586D33C8EEBCF3D8619AC3CB822E5BD27E622BD244A0B3D30BD64BC183880
3CF5DF223CCF55553CA592FBBCAF16BD3CB4B7473CB02C04BD883C903CFFE6D0BCA96C693CECDEC2BCDEE0C7BC7448B23C3AAA943AE37BFCBCB441ACBCD8FB803B9F15083D0E046ABCA1C417BCFF5F803BDEFFFB3C1A5C083B8332E3BB700025BDB67DC33C4B09733BE633143D0A8BC23B5006E1BD147CE23D339A493CBB16C3BD9CB080BC43E2BABD1172B63C689BB13B85354ABC4E1E223CDAF088BD0FC6883D28C4993CB190213CFB9A28BC6C5A69BD26E2313CCE11A13C53E1D33DA87FADBB9828903D0E3A753CAA687CBBD79F37BC12D6B43D0090763D398181BBE8EF30BC11446EBC8BB4D9BD9103A4BD1E9B2F3D603F233D53BF313C919AFC3AA04758BC5BADD53C915DAF3BAFAF1BBC148E01BC04856D3C0B13783B0AA3263D288630BCAD46F43C82032A3B613FE13D35781B3BCA8312BD490572BBFC844B3C884DE13C620159BCA29AD23D4B3DA3BCA0B048BC45D6BDBCD96C1E3D507A9BBDA4831CBCCE3A8F3D23C772BB46A12B3CF88385BBA28D923D26092EBC0623E5BCCBDE31
3CCAFEACBE0E8C2F3B3FFBA4BC4C23DC3A210A6739F154413CDAE4173D7B0227BD1FFC443C2FAAF9BBB8D355BD8605FEBC1D2057BCE746B5BB8A3F49BC8E1DC73C147BB6BDBDFE9EBE236FB03BD00FADBCFE6CE4BCF776303D02F308BDDAF2663F08D11ABC87FF0B3C962D8EBDDA3C043C8069D0BDCC88D8BDEF6406BDAB59903D1B5F1BBCF73449BCC8A6CD3CDAFB2DBD249C933CA5B160BA570B1B3E1D93AEBB1666F6BD074494BD011F7F3B12D752BE1CE8B23C52DD493D1123033E0D712C3D521E18BE07F941BB25C146BDFF5980BD43AA1A39F82255BDC55A8D3C595DA53CD236EDBD89221A3D7BDCDCBC2F5757BD278F2B3D1AC0EDBDFBD0763D3676C93CBCA6193CC365E23D0D87C93CB2A4883D104FB5BDB42833BCF2C8883C58743ABBFCF6F2B843A420BC905A9FBC88DE04BD9716D3BCE39B923B04F37DBD01292EBC14D9653CB92E693D7591603C50DF9DBD42D6633CEB92013D773C433C232FA83CAFEF3E3C8E0F74BC952FBB3C6478A7BD810468BD0304BA3C2DF0EABC99148E
3A05B4F4BD100787BD05B67EBA791728BC7F4C3BBD021FFFBDA917213DA4D997BD25FBE2BC973CD8BC0108083A90EF593A4FB56FBA0A79083C88C17BBBBA34C83C399FEBBC216BE23CF901AE3D0F16B63D7DC9423C94D9D2BBDB995BBCDBB4B83E000571B793350CBCE88CF43C80C8223C6E26ABBC9C89803D717121BC32DB30BDC7EA10BD25CB4BBD2890D2BC7BDBE73BA4A92EBB75E1E93D72EB3B3C88DBF13CD2E1BA3C5CC57739D0B005BD07911F3C791C563C8E3D493D109B9F3CAAFA0DBD8C18B2BC8EDF6C3BDF8CB23C1969973BCAE083BCECA0093DA99144BCFECFB73C80D0C2BC483DEB3CF5BC14BC4CE7133DB3EC7F3D1FE520BD012E9ABCC624823CE9C6DC3DE8FEF8BD529974BBEC3F773D1D648D3B9CFC3D3D0378A43C9614B33CED885C3D2B86C83C7EDC6B3CFA13AB3A36505FBCCD2FD2BDBEA2653D7D80ED3D9157FC3BBFFCCABA52374FBA99BCD93C6600D8BD4850F53D0ABD2ABDFE4ACBBD0718BF3CE277CCBD829CF8BD36E155BD358016B938A41A3BF37CF33C8204AC
BCB18526BC0AA761BCDC354F3D060D943CB1B7EDBD6247693D966B93BC3BEAE4BCE212E0BB493F5EBC7BE4303C84B5D83C9F0142BC6A915C3C2FD62BBDE15CCF3C659595BD9010073CB13FCBBCBDEDC03E0793E5BCB5105D3CCF6F943CE87D483D6D79A8BCF9CB98BC642D76BC662260BD30E35ABD95A6FBBD20594EBC822EE83C64EFF3BBD574CD3CA52C7EBC20A57F3CA752D33CC3D774BC0290D93DC1CB333C8860D53D5CA0D4BD4555783D47BBF93D8A11803D3BADE23B94C081BC120A57BC271CCB3D62B3A13D260AFE3CA70DCC3CDDBE77BCAE9D693BF7F4F9BBC159593D649A38BCDDA09E3CE1DDC73CF1EA02BDB752A83D1B0CBEBBD57D733D055DFE3A8D652B3BFE7795BCF0D5C2BCDC8E42BDA94E3ABB5EF652BB5AA5C0BCBC3ADF3D2725CB3CE4F097BCB0BF523DF81C52BBE9D14E3D04262ABB22E079BD0A87D03D2062673DE5A0B83D8844F13C0FC0A63C915EAF3C167297BD4DAAB93C5F061DBC6300EF3D1B5DA83CA053F1BD1D7A8EBD887FEC3D51BFC63B07D620BC51CE63
BD22356FBBAD73C1BD230B0E3C99DC463D6B93FDBDCE9E88BDA7621DBCA36E81BC7C9B27BC820F67BBDA898A3C3B85CD3F077EECBDD7C6393C6AE5A53C8014373CD38DB0BB1FA9A73CE2E3EDBE1E70A93C56853EBD9C67A1BC0718813D4ED520BD4E0C263D61982CBDBDE30EBCE28B99BD0F892F3D9ADB273C1C0D0CBC54097F3DA0B255BAC9DCA6BD6E1895BE1DDF723D29CB073CFD3491BDA0AEA63D26839FBD03DCF73C8705D7BDFE47903F2F14AABD187BC0BBF801ABBE239D7CBDBC68713DF89B37BC74E6D2BD9FBD15BD02E3F4BCF2D7183DC13957BBDBAFADBDCBF83ABC6A19893CA77BAC3D4D7980BD6C97F4BDEA0916BD76F100BD9EC9BFBD9126ABBD1AA33E3DA911EC3D888D30BD2BDCB23D47AA19BD2A62883D772697BAE3C236BD742B26BD6A9B72BC506ED8BC264DF43CF653FDBDAF457ABDB6E6E6BD747896BD631983BD69B9FBBD671C7B3C951AD33C826CC63EF7B7AC3D94ADDE3D66B421BD3AF08BBD15369D3D55D359BC49EF7BBC955ED3BD1E0B16BCB9C2753C8BA61D
3CB9A21C3C450D323AF56F0B3D5BBF28BCD5B1AD3C9302DD3C54E6E23D4FEFC03D1360C33BCB78ABBCEF4CDB3D16ABECBC805C37BB910E8DBD6030D1BB1EA6D23C38832ABBE1E2D23C1B1F433C507750BC10705BBD7545EDBC312E05BCC54F0D3E2659B93D120951BD22308B3CDF2A793CC58723BDD4C9E53CEF0572BD4AA27B3CE4E9643CD416213C8DA725BD25D3CABE0620EE3BFE675EBD0DA4F8BD66D6DCBCBAAB763D31A1C43C18F899BD9E04D43D89A8D83BF14FFF3C21A8FFBC05B943BBAE3AE8BCC0B0B73CCCBF403D37499ABC1EB4983D81B3C1BD034C9F3C2BD5FA3BE27C48BC79876D3AEC041BBD2016FD3DF6288DBCBDF853BD7A47F0BC9ECE4E3C4E4D00BB3D04253CB79F023C9E15A43E19DD843C30911BBC3DBFA03D165043BC16E4A33CA0BD983A0FAB413D48AAB63CD21D323B437466BCBF7D89BA51DD853D0E0B69BD5B75363DA6076FBB30AE7DBAF08D19BD2B4B5E3CADCACDBC9892EB3C3A67473C7726BD3C171D80BCF620713C5ECD8DBBBD3765BBE1D19D3E0660C6
3D28806A3C7CD0EFBD62C461BD371C1D3C3B3EB7BCD0CB253D860D93BD9C0D2BBCDF6D0A3BA79037BCAC4D873CC2A6403E322A643D572ADFBD286F20BB37836FBBA01D903CA50C583C29EB42BCB0C0C4BBD9492A3C0E2097BCFBA409BC0E781E3C4771C5BCC7591BBBDA397F3BE84CCBBC5D2D0FBD08119ABCD9FD13BC0B18083DAB3896BAAE6359BC64D80CBD83C6AC3AE054B8BC27BEDE3DA2390D3AED4C223C70D850BCA421AA3BFCA92CBBD12D0B3DB9CCA6BD49D6C6BDA987CE3D55FEBC3D001CBF3D187F7C3D4EBE15BC4F0631BBCFEE18BD010FC3BBD62CB4BCEC11903BA801D23C7DF0E6BD1797FB3D994741BD4BFE343D9A4B6ABD810D3D3C913923BD119544BD87756F3D4E686F3BA98D48BCFBBBB53BE7DB7E3CA35D273B1C093BBBCE95983D05593C3C960CF0BCAC90813CC07CEEBD03AA35BDA4B3DB3D09BF2DBB8428CDBCF9B77D3BE6576C3D1B6B5B3C8AEE5D3C8D01F33D0F70573D07F655BD8C3570BB477FE1BC5AE9D3BCA728813D7686C63DA0EB07BD89F32EBC0827E1
3BCE34A2BD581403BC723E98BC2B192CBCDD82D8BBFFD2ABBD0DCF1EBD016CCF3CB44C0D3CB2B8D73CAE5EDFBC829841BDB895AEBC8279BB3D6B9DA0BC000E543B8571383C90A0C83B91DC7ABBB6F515BD332C443BD2401F3D5ACB213BB63800BDD41BE5BC9991133C3C9A9EBCC37B493CDF12F63CEDA47DBD8AD153BCCE7C7ABD4FB0D33B197A7CBC7F76E3BB8813AEBBDF816CBD0C7644BDB9F310BC9349FB3D1A9720BD45A09ABCA4CB7CBDB80A37BC469F13BD9593D4BCE1B1BD3B12AB773BF0209DBD3FD3683CF2633FBD90D197BC18AD77BC35E2BABD6415EA3D95D8C7BC8AFFA83D59EA4A3CFE0F813AF1144FBC276376BD950FB13C42152EBC827D8ABCBCCB7BBD95F29EBD227CC8BC6F8EC5BD9698A83BF8F675BD851B8FBBBB05FD3D79D3C5BC6D0E6E3D36DE97BE1AB4BC3C2DDB3DBDABDF523D48BDE338A11F8CBDDE213CBC7153F5BD0F6C60BD3DFE67BD21AE41BDDA70F03DB184FB3D5AF1AB3C90E17FBBDCE03E3CF21CC93D044C75BCF927D43C0036C3BC985009BCFDA128
3CA663053C20A8C9BCE925CEBC6A5910BC9FCC733B19B0893CAB9EBDBDAAA3253C032BC7BC741B73BCF7F6F1BACD17D13D553618BD3139743B752071BDA63B33BC74124D3D048093BC8A0AF4BD871A17BD2684983C2A53A0BCF32228BC3499733BC28238BA9670B53C9B2237BC4B1368BC85D808BCD0A3A6BC77E7C0BC945D463C853B5BBCA97632BCC602CB3B466F4F3CC0253C3CB1AE3E3CAC46FCBD376F70BCA3C41B3C2605753C4F65C7BC349F413CFC5ABFBD3929193CAD1D72BC2566B7BC4005F43CA0E0F73B12D42C3C4703C1BC89D629BCC62AE23C148B8D3C074CB03D4CFE043CCD9185BC9747323C5260493D1FAC6D3CC23CF6BC024C273C9BBC933D3B720F3C27E21E3C3BBCBF39A24413BC3112C53D562578BBBD2C853BB6BE51BC8AC6043CBB0B3A3CD65484BCD8330EBC22FBAF3D3DBB6DBBE72E143C64FE483D9F38F1BBA3B4FDBC725E4E3D25AB643CAFB1DEBD0EA692BD3484CEBD1864003CDF18F0BCB508183D139158BC93CB94BCAC671A39886C8BBD147C8E39E54EFC
BD1581A53D9FE21CBD0B1A5A3D0360BE3DA134463B69C793BDBB16EC3C149C443C106B6F3CA5707DBC270CF1BB9860033D1AABE3BD4F4DCABD6FA1453BEBBA34BBC6F5A1BD079BF5BCB0F32A3CF4D3B1BD51AF51BBD3702FBD0243CE3CC85C4E3D44D83BBB9ACEA13CE04B433B82237E3CFC4650BC66C80E3B8DE6783BAFC7B93C82C05BBCE6D9D7BC14E17BBCE172F3BB217365BCC896D43C2D23083DB4EFC43C239B40BD186CA73D021A053D1065FDBD4623C03CD400F4BD92025CBE2A4FC53D61148FBC275BE1BC38116EBC829AC33D3DB9853C27B6693B9E39E8BC5A65F5BCFF1683BD163D573B332B21BC25DDD03D40678ABD679489BCB59898BCACB1C3BC86DC3CBD6C7CA93C3DC257BDF3B1F63DAEACE53DC86CDB3D0B32283B70D0DFBD9ED9C23AFB1D93BAB8E6E73D54A2783D2925263C6B2DB63D8E9E333D26A5BC3D3812B4BD2724173D5E9FBC3D117B83BD3E6E903DC16886BC4ADC87BD8AB4EA3DB16F24BD8AEB5C3D13FF913D10C9DB3D47945EBDE42327BB608FEF3BC4ACA5
3C3A2DE6BCEB9DB3BB89B701BC4CC61E3ADBA4553C8470B0BD70DA0D3CA0968EBBB065F6BCDD935C3D424C0DBB8CD637BD5DC057BC66A952BB5E8CD6BBC57C203C450B55BBE9C763BAAD19B7BCF81630BA665E243B89E7523C99CF693C16C63B3C79859B3A9495D1BC4C044C3D3381C23CC04CAC3D05260E390360A53D2B851C3C40B508BC4D10AC3D235ACB3C3421E53C336F863CF2FF463D2A05BF3B92F8ABBD070F15BBB267183BCA45493C8238D33C80B83B3D637F393BBC27C13B20B628BC8AACA7BBAF1E0ABC872495BBD4AC4A3BC77B67BB8392933BBDF9B8B98A2101BC97D9B33D387B58BB2F0DA0BD196B1E3C4F50283C5C57883D785B593C5EF2553CBBBF673C79F635BBB51AA1BD10FD533C1AF3DABD43E5473B011EDD3CB21C623D236BBDBB924C37BB73B86F3D33C6D4BBB6FEEEBA1EBEDCBC1A57B3BCD9B524BE8CFA933C2D27A4BCCD1A08BD00B0533CACDF8EBD6DA4403BB06FCA3DC66E26BCC77B363CB2A311BBECC9C63D084512BD01F7D6BBACB818BD032EEB3CB2C420
BC4B9A13BD10AD3DBE03D36E3CA5172F3BEB15AABC68F0A9BC5D41DA3D04F0833C70AAC83C4C0DB5BBC30E0BBAFBF672BD148CCF3B8D016F3D3B7C2FBC7520B6BD1B4C07BCCB7DFEBCA08AABBAD263B6BC0474D43C8326CD3CC8554CBC88D7F23D607F153C51E4DE3CBF831AB8B2D1863CF05A6E3C52DE9EBD0E0FE1BC554AA03C736F8F3C9B66B03D429023BC940DF03C56FA383C3F05D3BD0831253DF3C1C33BD48AA03CF14670BD64A1B6BD5E9B2D3D2EA8123DE0E78B3CC452B53B911DB93B850E973CCA857C3B0A1FAABC5D8145BC96AEB9B9F35F15BC96E8763B903D10BC7ED6CBBCAF663BBCCD43CBBCA598D2BB27B07D3C642F693D5BA1D93B3BCB113C78CCC1BDB61859BCA658EFBCDCD9A33D7030073D69F22CBAC7C41E3C8355F53C9EBF3F3C665698BA36D8F0BD3D7710BCB1A3F83C8562BA3CD603DB3CA28113BD010D913D90D4673D0AAD8BBD17FA05BC7C7005BD0F7DFFBC25583E3DCC06EE3CF82E1A3CF7A4573D3791353CA054BD3CD3BFD3BAC61B70BA8EA88BBCAED1C0
BD5161973CD7ACFF3BE3839D3D0E4CE4BD1AF0FB3C6218DABD8FB6903D9A28F53C326F99BC67E0EC3D1E4C393C4B1D1BBC55B137BD195708BCBF61BDBD28988D3CD1C71DBC0335673CF020CC3C799228BD773719B9F55046BCA3B2B6BCD928083D129EEB3B9531D1BBCB37F1BC3693AEBC8A385CBC865E5BBD4BCA78BCEA844CBD374399BCE381D5BB58131DBC656E3D3D05407E3BA4D4A5BC18EE3A3B18276EBD20125FBAF10801BCA4F0E23CC742553D8E9E2D3C8589C9BD5157B43D00AA08BC79C991BC9ED01E3D0A2CA7BD3F84E53C022F83BD28C4053C9BF64B3C481E743B977ADB3CAB0C00BD2CA6313CD355033E6DA56ABDBE654BBD7307EFBD3DAD40BD29AC453D24669DBD93B59EBCABCA2BBCEADCA2BDA9F986BCACF67F3C7C940CBC8D2837BD3DE714BC9AFB293E54A1B23D1CE806BCBA1666BBB9D819BD8DF7653E0C7D2B3B2DF4AC3C49E7E23CE321683C5FCCE43C7A22AF3C803DB2BE34E6E43B814C79BCD6E2D4BD0356953D29E4CCBD3A2236BD4863BABC289B903CD889AB
BD0F7C9ABD23AE4CBCE94E083D5ECA743C10AB5BBDB0726BBCE7D4C73D90F13A3AC907E2BD81646CBD0CFC193C1EA546BE0B7A8D3D49AD64BC8D1698BD6961D6BB4F8909BD27604BBCD296C9BC86B4033DA1F9E93A99596BBD2491CE3B8AE3443D50BE6C3C98F805BC4B55073D45BFA6BD6965F4BDA9C4B2BD0EEC5D3D08898BBD9F39863D393FF0BDAEC7E83D12B3BF3D01D71C3CE4DA393A85A6A83DFE96D23C359E7D3BE5DD453CB2998D3C2C9A133BE8CE63BD351CF53D3013E6BD4586293D0054B13BD87AC13D272362BD0C11CB3B8EA999BE2ED2B83D4E51D23D0A4EB93C8AD2E2BBEB0F3D3D8B9D7ABDB84DEF3D8A2937BC9E7138BC2D02B5BCD49118BD45CC89BD079F11BDA8F4F43CE2A103BCCEF8C63C574C0BBCE5CEEBBD0302CA3CBC5CC4BCE45F0E3BF52772BD08954ABD6E2582BD41C366BD26029BBC98083BBC7690B23DBA36AE3C93CC203C7B8E5E3D531D14BE524E963D70BCEE3D110E663E05589E3DA879663CF79C57BC5802873CE55B5BBD13552E3D2CC4443D451BAD
3C94233FBD9BAEC83BDD2C38BCF5358F3C5290ED3AD3CB3FBBFA73B93CA6DF5E3CD8C0CDBC3A751ABCA3AFA0BBD733273D327A923B89E4D93C7F1712BD5160783D2C9FB3BBDDD9183CE5508C3C9490EB3DA9EFE2BA14D203BDA50484BD0A39F8BBC315393DA003DFBC72FAB73CD7D1C3BCA06A12BD13F3823B707B3A3CBE72DEBD83030F3D485325BCB6A8533CBF0DAA3CB6AC793B069BBABD3C0C1B3CB0FECCBD00E0EABC32DD993CAFC6B3BCEAA131BBFD89EB3DA474B93DD47C373C7CD40A3C6ED55A3CABA115BC9717B2BC50F38DBC943D0C3D259A743E47CD3BBD699CBCBC9714CF3C90824F3D88284A3D15F8043C6ECDA3BD8E5345BC52C80DBD8E9C14BB9463363CBB3606BDA96116BCF7B12C3C97BFF9BD1502B63DC33C70BB826ECC3E18D6203CE8A2183CEA33AC3D8E92BD3C0722E2BC40BCC3BC577ADABCA6898FBD4D60843D210F8CBD52D5AD3D70579A3C9AAD783E15AE733C3275D63C3247273D30446E3CC34BC43CAA291FBCBD491EBD215A2C3C900146BCD56BF73D3DDB5C
3CC6A9FB3CB90899BBF2F1FFBCAE721DBD128FB63DEFB9713D0DE552BD29753C3D3DABB1BCFBCCD13C966DDEBC50B8C8BDC01F45BCC7F176BBEB76883BA4445DBC0AE2C4BCAECFCDBB5754413B2301AEBD772F2CBCABEF803B886B9ABD77086ABD896DB6BC2E520B3B840A6F3CA7AA323D23D3083CB339323D20A6FBBD4F9E9D3D868B613C85C856BCC7F6253D31FF8F3CD44521BCB2499EBD3A2004BD5720C4BB97B2CF3D85D9FCBCFFB7EBBDD904E83C9616923DAA7407BD172C633E231197BDA960C8BC846E98BC97D895BB88A5463C373F1C3BF715323D98FD82BBB0C909BA805DDFBCB0DF68BDE092423B9618ECBEB8565B3CAAEA283D36EF67BD4DB6EF3CEFF769BCCD27C6BE1595DFBD89A2033D15E815BD976446BC5937E9BA835C63BD1414AF3D7340D0BC8439463D514F3DBC872712BC9D923F3B072EB93D925B69BDD39A213D5022A63DC2E18FBC0220643BE8F283BBF315063C50B635BC11E502BDB1CB223B4FE208BD62A710BCFFB240BCB9977D3D947C3F3C82FC8B3C843470
3D97733A3D91A4643BAE3BE7BD9DDDB8BC7796B03D635C81BD7F76FD3E1419AEBC3B60603D493F3B3DC432BA3B3A587A3D85F9DC3C64F947BCCC8504BC51296ABD0A3570BC8F2913BD4573FF3D225F0CBD89309DBCADB804BAC714B0BAE4DC2A3CDB05473C9930D73D52BD98BC776BCFBDAD353DBC16F7F739999AB2BCDE5158BDFB007B3C6E64A2BDA236E43B4FDB30BC3182AA3C203952BDA1433C3C08CC57BD2B934F3DBCF4F6BBFAE55FBCFE9DF43D4BDE52BDE08F3BBDAAC73DBBB82E533CA859533D9D62D5BBA4C19F3B1CDE5D3D2DE262BD8343383D4FEC55BCE717B33BC639E73CF30B4BBCB0CC873DA3F9003E6D9135BCDD53F3BB8380663CE609493B3AAEB63AC8A8CDBD3BAE24BD6F68F4BCB2F70CBC4C8FE23D1A3E443DD3930CBDA40EE5BC97D245BCDD47293BF79284BD245809BC43B4E53D3DCBB8BDE8B67DBD02DE75BC6DFE1E3BD11976BCFA3C36BD29C7DDBE5A77343CBC9D973DA25A143D845F353D1F8AED3D053F18BACBFF453D652D943D9E118D3C3613DE3ACA58A4
BC71AE8FBD78F008BB91E35C3C53DA1E3D14CEE13D83D3533D483891BDB814783D896755BCEB9B3A3D6116653C1E01793CDF6F4FB96ED65D3D791F163D233354BC2CFE5E3D7D43A03D21DCD8BD4891B63D071B0ABD5679DFBC238E8E3D1503AC3CECC325BB875552BC8870CD3C0088A0BDC7AF28BD9936E7BC74716D3D3271883DA9FE9D3DF57DB8BCADF0CE3DAC2B09BD295A98BCAF32A4BD6AD1C8BD0D1C64BCFFE5C0BCDC87013CC138A8BCECBFBCBCD90E1A3D0743093E2F9FD43E7DDC143CD0CB2E3C43BBA2BD414B8F3D2C77F23A51F2073BDACC073E059B2FBD15BEE9BD5552673D3143B2BD8D1831BDB2076B3D3407253DB66CCA3CA6A3B83B40E3CB3C2D3820BD8E8B083DC971A73B03E73F3DD9EA273D13539F3D3E4EB5BB77EE073D65A81A3C1CB04CBAC5A1D83D3B6B7A3C59E49E3D6FB12FBD5464803C3B4BC8BDB13EC43D24C8543B1DAA573C19CC533D150C1CBD0E3589BD571C45BD31CD613BC09E7B3B7C540CBBBC7C823C8B0BDEBDFF85693D6E193DBCB05B973D767181
BD8028CABC9F38FBBC863CE13D6B3220BCDFDB1F3D179B233C095D34BD188AA3BBEF95B53D2C9DA73DC204E5B8380AABBC7E9D493C62407C3D8AF3C43D79F52C3CE894FA3D0BE794BCC93AF2BCA999CABBB9AD493CA734663CA8C639BCFEF9D8BD550BE33C0653FEBC99B8C0BC4D7C533C3906923CE1CC183CFB3FC8BD257C733CF1D24ABD769D10BC410AF63C2CB7843D739038BB69DA8C3D53BB7CBDBF3C033D3930D63D64641F3B2672ABBDC74CFABAE51A6C3C039465BCB68E653E96836ABDF06A973C28676EBD8C58B4BD4E2E57BD355CFE3D3E0246BD335C60BC911752BC4CEB6ABC12576C3D7872ED3DA2E88C3E6A3C523D17AA463D5D0A0B3D2536F23C6DEC1CBDAB504BBD170C4DBB26510D3D02FCD4BCF2A09B3C3970F4BBA858D33CE2B27BBD22B7673D29C77FBCF424F23C01F954BD8916733C35ACC63C8F61DE3BFD6650BD52FE53BD593DA7BCF26A83BCB7AFE8BCB7A39A3D77683C3D45BF85BD103F8A3BF52D2F3B84BA973C1974B33DC14716BCF938533DAD0086BD5EAD92
3C9754733D33E2EEBBD71145BC90F820BC0558903C26D72B3CBE23B8BD16553EBC964E8B3C891069BC9932FBBC3B50253C62C34B3BD701F23B2F9CDABD0CA29CBAF764DF3D0522ACBC59F7F5BD6F8619BD6CF4123C79C6ACBC2AE45ABC163A9B3C73300CBBF5E4AF3BEC3354BBB6A5A33C9E35023A7C2B24BC4120BE3B10F31C3C802C82BBB6F1023DDF45703DBD13F9BBC569BCBE053607BD1959743CD5A3483C75BB29BCD2AE6EBB2EF8D2BC080A0E3D651E803D1A11EBBB4AF216BC54CE15BD0556053C84AC733C6DB81BBC4067383CEC50EFBD54592E3963672E3CF15D413CE1465EBC3A0092B91F1ADC3D15D7C5BB4AC5D4BCB26CA8BC0B21C53C9449DFBC42459E3ABAFDA7BD8AC06B3A1E16C9BCBD53513CF6556DBCDCE3F53A5F828ABD2FDD2E3D0C647ABCEB81443D15DFC43D71C53C3A1AAD7A3C4F3FF03C6C684D3C64BD7DBC4A5230BC85BA9E3C47743DBCB0FF113C27DBA73B4C4635BD0B0FE43D4782023B581A163CC14ACA3BEAB9F13D1481633D36EAAA3D22FC94BBE70D96
BC70C92BBAD6853ABD01E7B93CFF156BBBD6558B3CA6DF7DBC919CDBBC935B553AEDB134BC58D87F3BDA08EE3CCBA99E3DD4C9F33C9D41BEBD33F571BD35EA9E3C45A8EBBCDAC9BFBD287AD2BD420AE2BD0D5421BCF7A4CFBD3879E5BD371C54BCECE62D3CB3243D3D018CA038D5E2E6BD2D0EA6BCBB6569BA54BF2ABCA7559C3D8146BF3CB4F3F23C10E601BCD229AC3D2BE98BBC301C2DBCDA5F4B3DCA0F6F3D7376473CB8384CBD32496D3DBACF5E3C1772343D130E61BD07C49DBDD78E4CBC3F2882BC8FE8B9BB16BB283B78141D3BFE85D4BB99A76B3D3FB7F33B8A6E833B85E46D3BAA3DFCBD353AAB3CE36FCB3DF52F853B895CA23D662F67BD0F8686BB0A90D13DCF6A5D3D576B103CE4DD67392BC1B23D2848973B1A0C113D24A4E73CB87280BD05500EBC8C87753DFE0E7A36EA84B43D2DFA5EBBCBE808BBE67065BBB3FAA23D7849CD3B4172643CE44D9C3BF2A2ABBD7FBE52BCCA160BBCFC37633D0CCC2EBD1EBF8D3C87F852BC741ED03C991A1CBD3EE15E3D238522BD241E1C
BC0362553D3A2A1CBCB6B1BDBD2655CBBE3655ECBBC7A57E3D2D012DBD8C84B53C0D7DEDBD3DBAFABCF81804BE008D9DBC37839EBC9035923D32E4873B96F91EBDA634C4BD5041823C99B52E3B929C423B36D0D13D9060C63DB6F363BBCA2376BE9BF3E3BD75C13E3DD2CF5ABC1464C33D3E64343D30ECC8BCB33FD53C07B2D43BA93806BD94B80DBD542861BCFC7BD7BD03CD57BCE39E103C9E81B53C9F07BC3CCDE290BC67ECF0BD5BEA74BC33F5FDBBEA60A13B1248953D3117E63DE490453DB6F7E6BD01E413BCDD64C4BD705C583CA427FEBD9EA86B3BB670463D0F6E35BC2839D4BAC9D7DA3D69DAA83AEB3E2BBE07DFFCBC6F30933C6A59FDBCF906063C12C378BDC488CFBCFCF7C7BD01B2403BF94F553B4F8738BD1D46E4BD539815BD29AA503CA961F3BCB63533BC9DDA6C3CA4F0673BC0DB35BD6429223C9CFA1E3A45776BBDA576D93D6ACC20BD2D461C3D5D9F573D84BDD1BBFEF189BB8C9925BD2F4E113C82F429BCDA558ABC8EF954BDB1684CBD076DCBBD0308C9BDC7E8A0
BD4F439DBDAEB1843AEE4E853D3E35303DBE6BADBD3374FBBD39A11A3DCBD941BB1E868E3B7AD930BD681D67BB6B21033C2E27763DAF992EBC9D95DFBBBF951CBBED32EE3D9BC17A39709F30BBCC8E23BCFFBFC3BCB2623DBAB4BCC0BCF716E93D9502FD3C29D8C63C1813BF3C044D673D212873BCC863AD3D26ECC7BCB275E1BD8C8AEDBD1094353DEAF0A3BC4F14043BF8E8E1BC9DBC673CBB7E543D4FC5E73BB42E7B3D5F78DE3D427430BD883F873D557921BDD08499BD924B9ABD1B4F95BC8E9B5DBCA396E2BCED05763C109F6EBD08003ABBA96F88BD310E633D20C8FE3B430656BBDDBD75BDCA4A6DBDBF4C9D3E3B4CD1BC77E49CBD081024BC52A4863B006AE93C93978BBAA260E53CEDC2553CAAC6933D638BE5BD370C933DA94C6D3DBB2936BADB90283D01C67E3D814F273C39BE54BD13C681BC0262323DC940C3BCE73983BC5ED2AB3C1ECA8A3C2F656ABA9003CDBD89F02C3D30EBF63D25AF55BCD27FA03D1529C03C717E113D4B515C3E586E87BA14CA24BA785764BBCFB29B
BDA93F793D8A7AE03CE89C243CDEF9FA3CBE76313BE79611BD32CB5ABCC49A09BAF47675BDAD53F4BCEECD1D3C691EC6BD84EC3ABBF30ECABC109965BBF2AE01BC1B4C84BDAB83C13BB3A314BD663AE33C859E003BDE8E0ABC2ED845BCFBF8C1BD1B7677BDC2777F3C29A492BD259F8DBCF5951ABD63C283BD2CA7EB3CD4B10EBC812112BCEF37C23CB0C6F4BD25EAE33D053032BD3FDF85BB022678BDF42F4EBDDC3423BB1D64DDBCDAB151BDCA2B1FBC378ACFBCC0923DBDD30A313DAA66353D09CBA3BD1F62BEBCD115FD3C0B6154BD383CD13DC03DC0BCCB08FEBDB841333B8215D0BD0703A13B22B6903A8A5EA53DB9793BBD010C113D15AE18BB8AC48A3D949F453CE3D0EABC8F56AABE0A79E83B7543703C9B2E783CF0C6A5BD17BB4DBD6859FABD92269E3D18FA64BC82D9993CFFFC38BD892223BCBDF9E83D4C2B6A3CA99F4D3C0AF9EFBCF02C8D3DAAB40A3D12D967BE246FD63CC9FD56BC61DA54BCBE9F48BD23CA3DBCA6B27D3C4AAFC33CDD096ABDB236E53D546290BC84DF0E
BD4978D1BC72132ABD0EF2BB3D3A1B29BE1CA98BBC1091053D636F34BDC50CE9BCB20B15BB4B92743DAB90B93C35BB5EBCBD208E3C9FD46E3D147D0D3DE2AF1A3C0F9DE7BC844611BC93C9663B81AF3B3C1E5D23BC0288463D7C2F753C55A84ABD8DA981BD8719CABD5AA4323C8E62763D4330D43C5FD83ABD09CB2BBA8071C33CD9D807BC5D8733BD9338433C5AA639BCE64BDBBC656559BC36A442B93537D93CA414213D041A1DBD3686563E3B2AD63BFCC00D3C79C0153DA1328FBDD1D389BB52A4843D93A2DB3C88FCAD3C9183163D68F01A3CA56C5A3D00AD2C3C733A74BCBCFB683CF89E9ABAEF1DEE3C01D31D3D9D76253CD161DCBCED5BC83D103B9A3CDBC275BD0D75663D1E4309BD8545373CB56CCABCD398E2BC4ABF4A3D20EDC7BC85CBD53BF2F172BD8844DABDEDA23E3D0AAD8A3CCA84AB3D0A95FA3D4942953D69AA953DFFA3F03C404EF6BD4C8702BB37D7C33D33037FBD21916BBC2733F53C938C183B33F77A3A4BEC7ABD0D2BC7BDAD41523D674D70BCD3850A3C722BF6
3D84FAC63CA112823C720989BD7C2B2ABDEE1F9EBCC2AD43BC2625CB3B22CDBD3CA80B12BD06CF83BB796AEEBD04DB9FBE20F1C9BCB634543CEC2A50BC038EF03D51E9993D18C414BD2E5B00BCF48C01BC8CCB523DA59BD9BD9FAEE9BC2198A4BD9233E33D673012BC694A373C8C1488BE110E48BBAC646FBBE1CB4EBD251DE2BD2DACBA3C392A21BD87EAA3BBE7A1313CA384033A33E4F4BD93AE24BC647DAA3D220AA0BCF7B3CE3CF07CB6BD4F0B6FBC4497E0BC955FAA3D99F195BE1341BFBAD3ACC83CC6FA793CEFEA21BD8BE12BBC90FA23BD173E5D3D608DCE3C49710DBCB3EFC23BC71A143D0EE03BBCBAF719BC2762F0BD1E7ABB3C23F19DBD804E53BCE5413A3BF2A603BBB7501CB7E17813BD32BEDFBB8B99263ABAECE93BD0A072BBC48C85BB8EDF133BB87E723CF27F1F3C8D54003CCAC387BCF40D7E3B885799BD7ED427BD7E37823CDCA5163D5A89D33C9CBB96BE14D381BCDF28423C9F2E933D6B2DAA3CB6AB95BC8EE7043D736FEDBCA452AFBD234FD23CD85F80BD136693
BCA59F54BB9C6B923B0886913C9457EA3C79C1143C8FD1D3BC5E9F7D3D8A48BA3B3676D8BBC865BF392212D3BBD26CF33C9C07EE3C8497D1BDC133C8BB67EEBDBB6F806F3CB1292BBC8188403CA8D3F1BD2E063A3C27B9E53B844D0DBCAA1DCE3CCD29983BC4AEE03BF37DA93B8DA2B2BC89E4CC3CD8D88FBB2B72A73CCA1E24BD36E7CCBCCD8C393D3081803D3B34233AF785BABE1BEB423E07B043BC880D3CBC4B0E95BC1734B1BC3DE51C3C144B153D94D1113DAA34923D9B1AC9BD1DCBF23CC01D94BCE21F433DB020E4BA04BE563C209DFCB9E9ED65BD51D2C0BC4ABAFABC00EFA43D1F5EAB3D0F4A6D3D1034B4BDAD973FBD64E297BD4EA0CC3C5336B339B50BFD3CBE7295BDD712D33D0B17343E259DA43CC55C733C71782EBAC886663BB38A643A4CBC11BC65330A3C95F06B3E140B3B3C5B555E3B78843DBDA0AAE73BB442C83C419721BB49C4F5BBFD5D873B499A70BCF06580BC353ADDBD26961EBC94700D3D60A2E03BAD93FA3D162456BD0A632B3D19BF24BE0BEC153C5DF17B
3CFD0E6FBDC3B738BCC0E9BDBC10C0043D10729DBD181EEDBC510C233E04941B3C7714F23D0DEE76B95041B03D4106123D0355363D273CDB3CC89C75BD9385013DA325BC3D6B33203D0D5DE03D90281A3D08C82BBCEE2D69BD25568E3C3C02413DB008263D9AE011BDDBC8B2BCBDB8F1BCB48F9A3D165D793CCB14A83C622D04BD9AD3A63D217B483DBA80E43CC93E6CBC8DC3743D3A89DA3C90A05DBD7229E3BDC45E833CAED4293D0C38FF3E2D43E23CE3A802BD5A8D7EBD87E031BB8AB4813D1E05043D70B9E13CFFB47C3D89461CBC152E353D91E2323B71BAD3BD388C39BC3A979ABC1FEA3EBD8DA26D3B71FE6A3DB973C6BC02D224BD502D103D14E6CCBCDCC469BD03D2B43D5AD555BD62148CBCC07DC5BCDF736C3D0659663D9BA4AE3DE464A13CD7E8A7BBD2AEB33D95ED903CC658AF3CA50A32BC8F9B163D1FC321BDB884853D8778AA3D85B14DBAB459A8BC5AE9DD3B0E814CBD040FAE3D29AB5B3C70FD403D864C51BC2F5E183D6E430E3DA9146F3D38D36CBC0FEDB23DB63832
BC5A7E983CAEE755BD8BEA703BF8678B3CA2E9233CA85CE9BCA6870D3B61EA2C3C7B372C3D04F6F7BBE9C5193CC9A592BE4D93DA3CCC11AA3B76CD11BD4752F83BFC4B843D838C3ABAEA1B323BBACFE33D571F0D3D05B799BD322110BDB0EC9F3CD211B2BBB2DBBE3BF7BD773C88463CBD7B04243B84BAB83CB5F2443CB7B00CBD121856BD5F14833DB195363D1B07FD3C8293DD3C4CDEFD3C7BE10F3E1E46273D46C875B9F85CF1BD424F4ABE9BFB293BAD749FBCBD2363BB97CA59BDAB7E893C82D1FBBCD3A5FF3D2D7FD2BCFA515F3CAF61213D1E55DE3D0A93BEBC1C1A683D40B36ABCC81ECE3D1D2C49BD7B9E6B3E4C13FC3D28C7EB3C04F593BCB40366BC3D0DC43CC232BFBD720861BB69EBBABD4DB8C9BD9D8D073CB6CA683C83FB833CDC51AD3D0AED71BD0AEB9C3D31BBE13B976D20BD6816BFBCD7290D3CF2DC49BD59BA143D16A5FCBD71DD5F3D017DB43BA23E63BE8659D33D10D33FBC4A5960BD71D39E3CED02C03D1B6CD93D0904C8BCD4F3B5BA87CE4D3C7DBC603C00C831
3CFB0EE2BADDFAD03D26F6C6BD1312D33D8FE0E1BC6A15FD3C81830F3D0951C23CE664C83BBA04523C8F34803C3D0C34BD7007D63C8BC2103C0E1B1D3E0055C2BC9777B93D56DE30BB0257623C27A3603DBD40543C05B35A3CE8FD673C4A4E79BDAA36C53AD33A9D39AB8BF5BC6ADBCE3CE30D58BCF4A956BD892186BBC6BDC3BCAC1362BADF73B6BC978E0BBD4B35AA3C59720C3D0878C2BC451FB73CE198413CF403B43C84791E3B13D0E03E151E5BBC2DBC813BC785B6BB944A7FBD8C32CDBCD33DD83D31D15D3D22727D3B0D236F3D12EEED3CEF0A993C4DC1223C64BBF1BD688FE93CC90A2C3CCB4BA6BC3A8E413D121968BC32F5953D068A973BF7E8B53C22C1843D9E707CBA8A74B5BADABCDBBD66EE863CA8782CBB7352623D59B14CBA0F5B783CB26898BBCC1AACBC88557C3B8024483D2ABE8CBC19A2143B97904FBDB7EBF73B2F6D7EBD72DAB4BCBBE3BA3C1026813CF817F9BCF64898BD27B5F33C151F3ABB9EA76EBCA33828BDC53124BB19CCB13C10FBB2BB37A570BD1C36FA
3CF49B0CBCAE0202BD4681A3BD226710BD6F1497BE0168183DC74C16BB7653EFBC9F04DABBA5DB2DBD1789893CD388E83D464D983D854F763D325527BD10F52D3C4AE2E23C3833543B41BE513D213F9CBD6244E13D407303BCD5EAB2BBBF25513C6483243D33CA74BCB0C10FBCA11EAC3D7FF9893CACFA523C9B537C3D779155BBA00D893D40F0D3BDC4DA7C3D14B82CBCA11D38BD6DE1DDBD51AFB6BDD5B77BBC49CE8A3C8EEC3A3D818B363DB6D5D33CBDC29A3CEE7CA53E4F294DBD803FF43CE4BAFBBC9917A63D60E6E23BAEAB0E3CCD0EEEBCC8999C3DADD3BEBC812B323D3A89583D2DC1B2BBE714EEBD7051C63E0628FA3D22465BB992519E3D03C34A3BC421723BE140B4BD9B6EA13D5A02B4BD832AC4BD7533533C55C00B3B84B7E13D12652D3C18146BBCF099A43AC3B4FB3C9A7043BD40F5C63C1D6E50BCDD67F23E12AC5ABD18EB8BBD2AE3B1BBA06AF83C827B003DFB65853D59A214BB954CD73D9F86F2BB591DBBBD36D31E3CD3BF6CBDC9B9353C729239BDA62638BB512065
BD862D50BDB6B0013BAAECF13D6F15703DD82C1C3D61DF943D1BF163BDC44708BC19FF403D5761B8BC5D55C6BBEDDD35BDBBDF7ABCF2E0F4BBF8FC2BBC60291A3B6FE6103BDFE69ABC47A3343D1582C73C9F5D5EBD2DE1903CB4607FBCCB3705BD1D993D3B8482E5BD029AB5BC7BFA843E164FF0BCD099E53B4B7BBB3CB7C2B33D5CD212BD2E2FEE3D46D3713D0CF5DFBC9ABF73BD14880C3D1D0D1EBCB7EFF1BB1F288BBD110228BD84D16F3D3FF7713CCCAE173D4C837FBD2E56C6BCC47549BDE8EE6EBCD3B631BD47E56E3D4D4FFCBA0A1D873CF3D555BCB314DF3B5B70463C1A22CCBD06CC9F3CC948CDBAC4DC7DBD52B13E3D284663BD91783CBCE10EC23BA146303D87212BBCD6045B3CA74FAFBDB976EDBD05A8A13B7315883D3AA6DE3DA3C259BD40E563BA2F5073BD82ACFBBB724B113DB9C6ED3B7DD0A63D9403B43D9B49853CDBD9A83D97DD01BD0E4870BD82DCE9BDB94B92BD9DBAD4BDAC83E9BDC3C495BCE442583D6FC8BEBD0A6494BD0BEFB8B886FBB2BD536FD33D0D59AC
3D56E0EC3D9EBD27BB9A3390BD3D3833BD9F6EF53DB38EB73DB169DEBD76BC503B444F613CC09C503CCE44D6B9C47F30BB808168BDA7F32C3CEF8B993C1179693BCBDAFDBD91F52FBC3323F83A6478813C047753BB34D59F39FB9D04BC9C728EBE430FCDBC78D2EBBB131971BCD0D084BB2DFD5A3D1B7EA33CE26F7B3C9100EB3D34B55F3D981E16BD8FDDCD3CCA633EBC17F2D93B1AA5D0BD4C8170BCAFEE5139E85DDA3C163646BD48A839BC16CBD1BCD4AA8D3D9CD2E23DA3E3633DB4570EBB91A3B93CA248A938F55B74BCFC44FD3C4CE754BC38C9623DB50F87BD3D47CCBC2A000CBC9BE6AABD1D48193D333855BE4E18C63CF6FE673D29F60EBC14B9DE3C95C1BC3D9FBDB5BC537EE1BCDE649DBD7A0734BD6EBF943D5D6AD5BCADB8B0BD999328B93239A9BCA2D2B6BD5D19403B13ABBB3CF91ECD3C136D91BD2B60633C80C8613D0FFED83C3E5D733B21AC1FBCAE09F8BBB21C28BCEE60BABD5FF4663CD10D44BCA10F35BC963AA2BCBFFC9FBDD56C733BB2A5EDBC4AEBE1BCC873CF
BCEA3D7F3CE73E6CBCEB985ABCDA7EBEBB5520CA3CBAB3D23CF76A6DBD46E5273C1A7E51BCA8A042BC66EE9EBDF429E13C12B0F3BCD3ED233C850DAF3D186489BC663725BDE0CA07BDE920693B9FEF0B3BCCD180BDA49C4E3CAB1DE7BDCBD6073E8611E1BC9A04AD3CC221C1BDBBCB213C800859BC54431EBDC1939FBD1986233C474DAFBD4C876ABDE503FD3C8B548CBDA6948E3C0B5DF93CC9EC503DF5BCB9BC3B96CDBCF2FC3FBC8495B5BD2C903FBD45183BBCC497A33B4AD6873CCD05FF3D28DC40BDDC8483BB1900DDBE2CE9B4BD1B47393C8F4DF8BD8E3820BC8B1E9E3C850738BDFA9E4F3CE7D558BC7BCFB1BD8C35F6BC7922F7BDCB1A333BFE50BA3C3D0B443CA3BF88BD2434F3BCB93DE73D9FB18D3AAB32AABC3285C8BDCDD6A9BC52ED333A3039FEBCBEB49BBCFD7957BD9B5A2F3D16679B3C8F13C23D104E69BC7A9D8D3D2B1CCF3D2AD403BC13D1D5BD709758BCA19689BD5D8236BB9193EC3CC841583BA9418ABBFDA468BDF5E580BD9945223C2362F33BB99C17BD16A106
BCDD3DC03D25324FBB29D85F3D3BF82ABBCF6D023DABDDEA3D8D95B5BD8B58F53D487788BD3F3D97BBF7D1B5BC500B493D1D0128BCF4D6833D4CB0C23D5A00A6BCA067ADBA35AE523D51F1083BA305563D5ADE9C3CC3F9D4BD0F85293C2036853E99803C3BC2080A3D8DC13A3C74FD1A3DB351F1BCCD7D383D1587AC3D29B0AA3D8771D03B21ED30BDA1D3823D8327D23BC1671C3BA59165BC1525A23D1B6A72BC6C98D4BD283E4E3C83940FBDBE73E1BC5B5D9F3E0D978F3E192F5CBD80968FBE192BD83C61882E3A847ABC3B2DEB563C457BC53D087DE13D078D70BCB145C5B8E3E644BC16D0A2BBE03EB2BD32B44ABE368F8BBC3B33093BC7E43CBC2FF114BBC982D33D8E318DBD0CEA423CB300573D2B2AAEBC36483B3CD255CEBCA4A491BD567EAF3C65B3E83BEACF04BD9A2DB23B8576E5BB0FD8F8BD6333F23C6488673D682566BB9C0C50BC6B906F3D0F99CB3D728605BE15DB703B81399BBD8F4A113B088C01BCA6C4C5BD2E58A5BB2685FFBDA2A479BD494A4F3BE367133CBFF893
3CF9A8883C8F26B9BDA9D152BCBFC59EBD2C5DCB3C29454B3C9E056A3DAE4F053C21BF5BBC3E3146BD4A7ECCBC5DEEC2BC512852BBDE2143BC9A3835BDF52D8ABC97B6DBBD6C1293BBEB9F713CAF709F3DC7C89DBC65A771BD7AC2263CD5C050BCE62B383D88C8E9BBAE403A3D6EAAEA3CE8BD1CBD9270263C77D72DBD1C4FA7BD546C483D02E5793CD96A533CF671973C6855C63CB1DB5EBD48A9443CE763A5BA8E79633D3FA52E3C6D8DE5BC02CBF13A48DE8ABD2B9EEC3C1D5463BD816B70BBF123B43C47B23F3CCFC897BC0899D93CCA8B84BCB46EA93D91AB2B3CF488E93D8B19AFBD0C3737BC2DA6CD3D5CF1F3BCDDE710BCC7445BBCBD65DBBD0750173D0845E63BE6D0A63C697B04BD659FCF3C4660483C281F64BCED95843D74A5953CA1BA82BC306DA3BCAAEDA7BC68E1EABC14D22B3CAED7E33AB0F3413CFEC146BBC5B1CB3DE8DA073DA43CCE3C8F6977BC539A823D10B3CBBCFA001CBD94B9A23D30B8DA3D0D2DE03C87EB7DBCE99F3EBC751744BC86426D3D7508D73CDA0BA0
BD22405CBC194EB3BC081B693D0358E3B9C57F6DBE1C479CBDAE57D0BA46ADD53D277177BA88E6D9BDB7AE943CAEB95A3E8F7AA3BD5ACCE8BDC65F6B3D8640AFBCC486103D791D48BD0AA5643935C13B3CCC64D2BD87CED93A14DEB53C290C02BC41E90A3C53DBF5BDA7F5E4BB26A951BDE3099DBC4D4BEC3C9608C43BBE76E63D9BF7D53D10B19EBD7C9B84BE2E07D7BA3C4ADA3D54845EBD8E00C4BC5F31FA3B8DABA23C77EBFEBDD8999F3E9B04F03D438033BC7E32C4BD61E7DDBCD57FD23DE5288C3CD2BACBBE004ED0BC3F787C3CACB4643D9E1F60BC1B110DBD886AD0BD695756BB94A01A3D94E176BDE8EAB6BE2624D2BE440B863C742A94BDC873DEBCD359E73D2EB5553D72779CBD53951ABB5980283CE37A3F3C808259BD111BBFBCD13B44BD0C951C3ADE0C213AA353FBBC403186BC87872FBDF0B553BDBB9F253B9075B2BD6A687CBC2DCA3ABBB209683C6459493E9E5138BC5929B4BC496066BDE5D33EBDF7B4E53D8717F13C3B226B3D056208BD9965A13BA0CAAC3C2F44E8
BCBBDB7FBBEBF19DBCB74819BCCFB9513A464CF03C472148BAABB7CEBD9BCCEA3CC3986CBC816C773D05A9943CD11EAFBA05AF3BBBD67BFE3D4D8B84BD23C6F9BD97E8CFBD8D23EA3D30A5D73C6ABEA6BB83920EBDE13060BCB0B36EBD75319CBE40D0D43CFE30AFBD844C733DB7B8193D4E01C5BD875D5A3CFDAF19BD2898C63D28970BBD4CDBE73D7514B93B272FBDBDF749C6BD002B05BD1184DFBCB4A36CBD8D30BEBD8F19243C09549C3D1E7F0F3D73E2063C3F7F88BCA8FFDC3D6D9544BCE24985BCBA260FBB16F01C3D54195F3CA45F763DA056213C273ACC3C5235F03C93D5BCBBC4A37FBDB296FB3C295E1FBCFE62D7BD0B935ABD873E57BCC319653C9C89ACBC969B58BD5A48BABD8305373D9E017B3D265D543CA490C1BD593750BD82646EBB46A0B8BC91C803BD4EC1263CB5FCD2BC424EF2BD7D491F3D94A66C3D32956A3C5C65043DB5F4C9BBEABD63BD0F30C5BB6D41D2BD91F4923D42CC113C9211433C2A61773BBC57C8BDA35610BD6302BF3D14F8B13C98639B3E33B4EF
3D2703EC3DD9D791BCD73536BD1000C1BD4AD3E0BD0E15CDBCE8E7263DCCBC5BBAAB61FABD7424C53B147EB73B9069913DF9781F3D2D4131BAD4F6ED3CD96759BC8E7145BD9F32883CCCA14EBD3C8BD1BD7B55E63C4ED1C5B8D41B9E3B638E75BD3A2C46BCCA5D1C3D23C6D2BBD1077BBD9C543F3C3B0894BAF69752BB5B0FBABCD3DBB03C8FE1A7BD56D4A8BD1447293D0484313CD4DE84BCE51EDEBC186E36BC3C48EE3D4100E63D82EAAD3D636679BBCA05FEBD5EAE8A3C52B4683D38ADC13DC492723CAE60933D311674BD1B4431BC07D7603D7C2FAA3D6CA2A1BCB8EE29BC1A90163CF699F0BC55DAB2BC2DF64B3CFA1DD2BCC6F8A63D94305FBC9314223C942970BCE37A6ABBA62670BD0F5E613DE15EFA3C02F21F3B1FCCC1BD87598DBDC001A73C8BC9B13C9F96FC3D2A95053CBD8361BDF108F6BB4EACECBD81D931BD99D3EFBBB7FBE4BD6B35AF3CEC17153D69989F3E447C143DD751DC3DA4EB7F3DBD76973D2A56E6BD5377FC3D8E0CD33D34C7E23CCD37393D229BE6BC402AC1
3C8E8EE33D832AB7BD23C8B13A5C6D0EBE04F17EBB3B6B9D3BB0B2333B86AB9D3C2F89AA3D5FBBE73D1D5F15BB5E87C7BE19BAF83D849D03BC86F49A3C9DB714BCBA5B96BC13BAD1BCE641593BD435D9BD3BE76EBBECB4A33DE595D7BCE6A78CBD3EF3A3BD0CD016BB077E72BBC29F673D47D7CE3CA13578BD1D5CB7BA3265A13C69328E3D760745BD8B8697BCBDEB86BC83696B3D1778223C98A7493D05755A3D26E99F3C9FB4A8BAFF0EEFBDB50D68BC1FE448BC0A3AEDBDA48117BCC20941BD4F1B26BD427AB93D307EDC3BBD84603BDE5C853C8ECB95BD56617D3D831EBCBC729D7CBCECC97C3C98ABB8BBB814553DDB664F3DA383FB3D22E5003D5DF6673A708246BD6EBA1F3D945D273BE192B93D62D8413D8650AABD6888A7BC64F3C5BD4B79293C485659BCEE234BBCE49DA3BC47DAE63D3BD8613C78CE713D3BA2E63CF44EFABD2C1FBABD31195EBDF2996FBD57B30939DD81BFBD77E3F7BB2329FDBCF4BD04BC912922BCB2B8C938ADBB0FBCBB714C3D321E313C320183BCD2C121
386840E43C12039D3C81D75C3C0F37973D3C062B39E4DE0F3D2A6FEC3D74708DBC235DD43CB7EE303CE84FBBBCADD7D2BD2F37793D64F722BC81A6E4BC41A0343BCE49B7BCD3C0BDBCE53C0ABCA0A354BE040CD6BB9ED4083C283BFC3C878CAF3CB765423C81C7E13AA240113BA7A7D23D6CF45B3B37E5F8BAE58542BB9AD428BD6666F5BC0B15173D09EEC5BBF906433CAE603BBDC01E463CAB5771BD9DF37F3C7D1FF63DAF3939BC7D2A63BB5D92A33C36808ABD7FD11E3CF22408BDD2524BBD2274023A7D8C0C3CB48B803C8868D93D28083CBD07C631BCAC0F9B3C2F4E513AE2AC6B3B98E809BD05E8313CD42C183CF4D99D3D41E3943D2ACC45BCA524E03C65A2FFBC24FF7CBE052AACBCB952A63D8527E0BC26FDD8BC4389B33B3D0528BC9B5ABABC4F094CBD0E9A01BD7F4AC73D32D159BD89C5DABBA8A76CBC8107B93D745FFCBD2E5328BC24E441BCD1FC8BBC8174763D85C5223D72E88EBD957A003C80A2203C80BE263BC4D75DBCD3C7453C46EA43BB35BF923B3490693C3984C1
3D162CCA3D4AAC17BD112188BD4C6BFDBC09C6223DC18BF03D13C5AFBDAA1A013C02F7A63D160AA33BDC31AC3C9C1B3D3CDC9FC3BD1E36B13C3CDFCA3D2E2AA5BCC12F25B8355BB1BA8818EB3C964647BBAB2B01BCCEE6103CD0B04A3C44FDA03E6441DA3CE99123BC1BF4D63C7C376CBD22D0EF3CA4455F3C172697BCE8EF9A3DD41DB4BBC0ECD43CF9AC01BB814099BCA3D4E4BB3330EDBD430A583D19A9883C624F9CBD1E5B01BD50E80D3D8C27F13B0385E13DD8D346BD81739F3DD591AF3C1C5CE63BC5632B3B8063D73BF107C83C30D918BABA3046BD02C3BEBC91AE00BD986FD1BCBE247B3D73824B3DBCFAB4BD742A85BC42A9693D43B4FC3B9C0568BC8B2575BB5066BD3D9DFD3BBB86A66C3DFC211D3C4F149F3C0320D5BCAF2CC4BD260B303C8E9E92BCA5049D3D21CBA73B4C90993D18C1523D9927C23D0DF5333C0AD5803C00C6E6BD500DE6BD3827BFBD9646223E737278BD880666BC38AF62BDE01E75BD81BD253CDCB997BCBB89E5BD61ACEF3D01EF343B4336C0BC9B7A5E
3C840D0A3D0DCADB3A38DB7FBC86AD99BC08A5BE3D39FB283D56B4BD3DD1D389BBFD1FA2BC1BB394BCA372903B231322BD75829C3C429A63BBC62A4FBD5388793C4049E03CADD768BCA952A43CA1A629BD054F79B9D82F083CB867B0BB5938AA3BF5F26CBC532B9ABC47D1F83CCBF4EF3E119E3B3CAB8FAC3C682E83BC99C51BBD7FD3803DE972C8BD580825BD4D2A753C5E408FBD2CFF8A3C12028DBD29E20CBBC4C18A3E9A2C1ABCDB060CBC040E3CBCDB56373CD089563E2FA3C1BD5BCC8FBD29CA103D171E803CE590383B20EF1D3C968EEDBBD08B8C3DB0EF9F3C6D06163D440AE6BC669F15BCEF85DBBD16C0CB3BE1A8F33D9C53383D31BC083CE9DA66BCC57908BCA6164CBDA5F20BBC87A5D3BD05AF9E3C48E0DBBC49F92F3DBA27EABD0C8AD8BD21150FBCBA5FC53DF8BF443D21634BBD3BF61C3C48F61C3D749182BD2AC447BA187B56BD2C5E69BCA7BA5E3C3F7B65BDF3C13C3D0047143D14E499BD30854D3CCD43BDBAB0FF09BD7EB3483CAB177BBC4A1F5B3D46A1B13B220BFB
3BE20D5A3B87FF01BDDB623ABB18040BBD1226953C274930BCD08CA3BC3B42303C35B9343BD4E623BCDAA5283ACDDC10BD8A5168BB278F34BBC288FDBD77E759BC9159AFBA262199BCB5C2C8BA42F75ABDB9A681BC0460463BBC1578BD1D534FBDD07A17BB1C06E13C9A62D93D0218753A8F28863AD49CE6BC7E8A88BB383F803AD7A7433C363AB4BC7C5EFDBC0033313CB9095EBBB1DE92BCC4F017BD3070F13BA3409DBCC111BFBB061E28BDF0D7543BE66664BD83F73DBD105A2B3DE162BDBD649930BA847DE1BC94A4CBBCB1425E3AF393BEBBF05897BD0DFF2BBBCACE1BBCEA03C6BCDE28FBBD08F64CBD2EF0F93CC1D324BC036865BCB1F1AABC90A583BC1C24963C52860ABB4B4EB03CC68610BD7E24913981B8623C55793B3A48D60D3C1BA05EBC98E66E3BE3C4913D008979BA97A5743BD37FC93C9E4FF1BCF5FCEABDD539AC3D43E19A3C074B85BC0649AABC8A770C3B9C4F5CBC0579443D8471A1BBE9ACCDBAF5ECF13C9688293B16D7F43CAFAD013C0C24C33CA432CABC891F77
BD5FD3B0BD1ADCE7BBFE42EA3D3C0FC83C290C74BB9E275D3DC787C9BE0B95D3BC20F660BCCA058CBDBA3222BB07BE5DBCD416343BA6DF6FBC03EBFC3CC1D1383D20B6903C3DB3343CCB564FBD8855713D205B733C424022BC599850BC2564C8BDD83FA9BB80B391BD60A4783C4E1BFE3E00B11D3C31DE70BD6B69843BC450623DFFDDDF3CFC5E203D867CD6BC07CDA33CBD80D9BC86D7FE3D0F667CBD02B4153D1E9957BCC0E15FBC9462693D9B7258BCCA55363DB467773DCF5F0C3B876B64BCDC3FE7BD5472ABBB6F5DDDBC90C66ABD46FFF23BC0D7FFBD1EA7433CD33FE7BD088708BC8A075F3CE66C0BBD911506BE87A7C63D3541C43C05C5FFBC64FE133C920736BB50975C3D5B8ECA3D872B99BBCFCECA3C830A4ABD37A707BCD298773D1DBA4C3D1131F23CDAAD7ABB1701BC3D78A7B2BC4E5665BCE930453E2051A13D4CE548BACD54F2BA1647EF3D2673D33CE697C73D93C9FD3C0F0553BD94AE4FBD9EDD37BD6C81CABC9F526EBC0A69BCBC87185ABDD0DC8ABA900D17BBBF841F
BE1CBBAD3D07EE33BD8FA3BE3E1783EA3DC0A919BDB68C45BD043A873D1361F0BD8C76BABD18B576BC15BE4B3BEA15D9BE5FF063BDD7B0B73B9A1985BD81ED2DBCF28A55BB1DDC2C3B04AE53BCCBEE243D64BDA03C6396A93D807C0EBD112739BD36F867BADDD946BC96DD35BC483E42BA9C5156BCAC102EBB4B27153BBFE767BDAB7C163E2C372DBCDBD9D73CC8ABC03C3A074EBC5F8B113D83DF193D94648B3CA39087BD4E88503C9F5551BDE873F23C2472E23D004EF4BDBC66E13D9F2D2FBBEB6244BC0DBEBFBC1162C2BC42427F3B6AF48EBE539B0F3B91FF223C0A8A7ABCE972C7BCD481673D29CA9EBD239D4EBD15695FBD75D95CBD6556D2BE31BA6EBCE8A6A0BB5C10023D4080513D05BD353C7AD396BD34D6A739092B67BBBF315DBCAAE30C3C8989063CE8D9043C45A6EDBB245AC4BD8E2965BD90E0E1BCE4C333BD09F22F3E077C263D10DEA2BDE1F9813DA6E56ABDF239893D9741E7BAF8066CBC983D82BD6625E6BD68EC20BD39D31EBD5353B53C964D36BC259E1B3DC5AA5B
3C83E62BBD0A9BD7BCC3F7B13D0941C9BC996C283912A3823B66E0BB3C3D5EC53B96D02FBD197A8C3C7D5D9B3A774A35BE0A04B73CCCD90C3C79C756BC0D73A63CC6AB5EBCDCD4F63D9527F3BD0B6014BC3F7889BBB42F7CBCD1587EBCA8C005BDA5A1513D09B044BD1D6FB43C099C5E3D750DC9BB5610DA3CD43173BC5ECE83BCEEBF99BD0AAD28BC8280123BEE9B5D3C943B4D3D4C47003D0EC1763CFF2A1CBC228DCBBCDA45E0BC7C37473CE93111BBB810FFBD012FE8BC4ECB95BDBA5FCB3B0427E33C2EF60E3C1398253B738304BCB5E5F13CF595C0BCA722B9BDE1C8B6BC4AEF763D587E5E3D7C16973CC4448E3D3E4717BDB94D48BD3238DE3CD1D4733C837817BB8AAA72BDB4072E3D905D1D3D254CAABC0251563E068950BDDE85B93D5FBF453D595C923A77E9363B20517C3B5A9F9EBA61F699BCFD2A1ABD7CC138BCB64D833D224E5E3CBB6CD23C8119C2BC4FB1163DAC988DBB2F2D23BCD5E39A3D8CB787BCADAE4CBC662CE13D457834BC43B488BCD6681F3D53594F3D37CF3B
