3CC08A2D3B09EE2F3D9D6E7A3B533BBD3CF4D43E3D07D732BC60B9563CA38B22BCEB86BDBA4474843CD607DDBD58B378BD086E25BD58A4BDBD4ED9AFBD1CE467BCA91A593D5FB8FCBD02312ABC4F35CD3C41F66D3CD264A63CC238423A88E2153B7C19823CF95D473C4D1B3D3D52F908BC916B553CFE65213D3D0726BB9D9E5B
3D28F6CDBC74C7973C8F0FC33BBF0DC83CE2D42A3D277FDD3D74E3C73D025F72BD7AC2E2BCD6495FBD7FB8BD3C61D522BD85E43CBCE8B76A3D2E701E3D8605D0BD10A72C3D81E8503C95B0E4BD69A729BD89D3713CDE30CBBD3CCC98BC83FB43BD6B0D7C3C0378DC3CAA0C973D2D38003C13E7763D50BF043EA2D315BCDA99F8
3D04A1313AFA8B1E3D5BA368BBD4A081BCD13EEBBD5F79FA3D8F2462BC8931AA3CE3484F3C5E281FBD79CBEA3D3377E03B607717BB2B50513B9E25373C2E4EBA3D342FF8BDD3E0863DC88862BD1E4B98BC4B1AEBBC550759BCD977F33A79A8BDBD4D6BDDBC7D4C7ABE0AA6E2BC05BA2D3C8717573CBDD70F3E32EB21BC5F7805
3DB61A773A4CBA103B2CEF5ABD02717DBDFFD384BBE2DA083B90DE32BB37811E3BCA88753D921FA8BB31C415BBAEF868BA883CC3BB308409BC3E11133BBD6104BCAF000EBD16A0D9BDAA3725BD01DAABBBBA5A6D3B2A03C63C26829ABC883D773D010BAFBBBDDE01BC32C906BD84E1DBBBAB993A3B9243983B7DAEE0BE2D4EDB
3BA75023BB9E02EEBD5C674ABCAB9FFF3D8A8340BD33439C3C902D21BC6AFBFF3CBD5CC13C389F50BCA778FFBCB305B93A747083BC5B751ABCA129B8B945A1C03C2ED3663DD89D373E32CD67BC83AF603BC20CAE3CD9CC2A3C5608243C54AA06BB8CC5F63B2115E2BE79B7CABC8294233C22B2FDBC062642BE3E692F3D612858
3D9472EF3D102F3DBD7818A4BDA7F2753E23284DBCE21BB0BD36F151BD1056A03C7F9C4CBCA9BC7F3CD6DB1CBC986420BD37056C3D10475FBD13C6C7BB8C9016BDB97100BD1AB45CBE0740F9BD488A5C3CAD4761BC01E44B3D10FC563D5502CC3C5131FC3C2B56DC3E1F12A0BD6F5DB93D0D6959BD2C177BBDF312273D7F8891
3C88D739BBF84DB93CA9C7E03D05A90A3D0BF1BD3C84289FBCBC2161BCB3B6083CBB6AD9BD995BDC3D4B456D3C4DEF2BBC542FBCBC3354EA3CC53C553C08EEE1BD91D78EBD137E6DBE35DFC83D7D5557BCD79E6B3CD60F293CB54BD9BC7411803D09DB36BCB68FB93DFC225D3CA9A4F83C922C75BD3CC79BBE8875B7BD119387
3D912A9FBB9A14B53D264A1ABDA65C5B3D502B10BC9ADFD43B8EFFE0BC8368F33BFE02943D64C3A4BBD756873CBC8B2CBD0B5E6FBB149821BBCBC9BA3BC608073BB699FDBD82AB13BD815BE1BD86F395BC2B4EFF3C30A8C73CD7CB5E3D12A2E93C2419743C8F061B3D94B1753CE0C22EBC474058BBA3DCE6BDCBBD283CAFED76
3D9C78D4BC0BBD9EBC13B1B5BC37080DBD540087BCDA567B3C3E804F3B97132C3CA897B23D147796BC18CC76BC58EEB2BC336B1ABB6AFC863C7EFF7E3BCD8EEABD2C56D3BD198F723D4462D5BBAF24DFBC0890273BB281CA38964147BCE17CC33D0EAD583A087D433D9BE464BCE57DFF3BEC9BDC3B0ADF17BDA19BE3BE1723EA
BB84A1FBBD263015BD6EBEE3BC62933EBD1FF6C9BAA6796BBC07C4643CBCFE45BC8ECBECBD848EB53C157EB9BD3C86CB3CAF038DBC971BA83BD7ACFABCDA9ADD3CE26FA8BCA017A33D1976B83C6AD4293D0F36523CA23B04BCC71287BC0FC5413D039EDD3CDFBFE23E79F7153D124D07BC1AEE363C5A16403CE025BABD340E42
3CA2DA64BC7F1550BBBE5899BDED8B9CBD7C997EBDF771E23D060C483D00CABB3DD81481BB909AC4BCA232F6BC8921FABD527425BD2F9B2A3D84DCEF3B0AC3B43D65B597BC9E16BA3E0D8F71BD01D381BBBD04B33D428036BD0BDDEFBDA4B6DBBC876414BCBDFEA4BADA127DBDB7359FBC7216DC3CC253F0BD8C3D21BD97B968
3D55CB753D0B3AD2BD83D7B7BD21DBDBBCA87E773CD230C6BC4459EFBCAE2276BCA014C13D7A73843C37F2DDBDBF6D933B31845C3CAF0D64BCC1A2283C33BB953D0F90C13D871EABBD6F5521BCA97F47BBC9B62FBC847F79BC2C15FBBAC7C2783D3B9E3EBC7733023EA4A48EBCB469A9BC6146373B12B9BE3CB1C654BC63ABA6
3D04F7A3BD63BF69BC2D25A43AFE119D3B90B351BDFF13F6BC94D2303BF19B183E0BD358BD4C547D3D18826BBD0A04743D2CBE20BC92DE9D3C937C08BCBB74613D0F6A13BDD34F6FBC439CB73D6D94B43D28E8EFBCEB4F21BC8AC0B7BB303C54BC380B45BD12B922BE66B6BB3D0CD6383C959CB43D45A354BE371568BD906536
BD055414BCBBF75B3D2AEACF3E5C51E13C82EAAABDC7E55F3CF972CB3CACEB973D3951123CD66181BC067E96BD4182EC3D6B3B00BB5C431FBD749410BB485B7D3C960C023E95EFAABE0EF62B3D1A63D2BC4738DBBB6C02123D939E27BD582C633D1814BF3DBA9044BE86251C3D88939BBC50DC1D3C664B48BDF1BFD73E0B46AC
3D24E1A93B9A72AFBDF84A8E3C9ED08DBD0EC0D53CFFC4F3BD6FB22ABCBE9016BD0C50953C5A4CD73D24D7173D8363FB3CD093B6BD8B88703D7D728DBD2760C23B3902923C51301FBD18BFD5BB8EAC233D5CC9653D5D8E5CBD7C78353D2A08F9BBB78565BBFDCB833D2264F6BC369432BC25DD3B3D5F939BBE84722F3C7F169F
BCBD39A5BA1FAF14BD14FFD13C9CDDB2BCA9564CBDCB45EBBD7999B23BE4FD3C3D418D7C3D054DDA3D0DF3B33C7474DC3CCF4FFCBC0358503C145FFD3CACE6C23BAC3B8A3DA8DD22BDCFBD8DBD8662FABBD8364CBD127B6CBCEA14A8BB9F944E3B3EA5BBBBB4853A3DC09778BD566A2EBC0E28D83DB90575BEB5D9CB3D41099B
3D5FBA94BCEE9F59BD99417ABDBF1DA53D556084BB928EE6BC9D4CB8BBBA8C3CBCA29741BBA091223C6DF549BC65D3DEBCCCEA9FBC7D7491BCE5C4A5BDA5AA98BCB12DBB3D2DED5D3E7EF2C8BD38A6913D6298173C70D1FCBD2AC68F3CF13031BDAFCE8C3D1A0821BE34D1B8BD32A6533B4D82FABC4C8F73BE5610453DF8F330
3D45AE5E3CADA848BC7BE175BBADCB74BD00B24C3C187465BC6983933C00444EBC9EEB3EBDA48F123B26792BBD69E5BA3BECB5CDBC4D9CB8BD4CDE7CBCCCEB9CBD8AAE7CBCBF5ABD3DDAAE0DBC0E2BC33CC61FBC3D1936B2BC880B073AB1EFBFBB856F923895BF283AC6C4C4BD00E53ABBBE370CBC996206BCA6A7FF3C0B7135
3B3B481C3D17AD06BCBF65C6BBEB3C79BC87EB9DBD29C280BD73AE63BCD2E6053D838C503D0A85E93D28A146BBBFFF313D2015AA3D1D4846BD8E7004BD5EB0213D8AE947BD94695E3BE1320FBCB2E36E3D778F75BD0A0D683D057F353C46E16A3DC15783BC84E51E3D8A0235BD69E812BC6AB6EBBD23D196BE844AAEBC83318C
3C4811CB3AEB46D7BD1E4967BDE14D2DBC6EA4B23D6A76133D4AC372BC7EA446BD382AFD3D22E31DBD4E2ED3BCE28236BD64E08A3C8F8E04BB0E4731BCEE23CDBD28603FBDA66C243DF90782BCA54E873D081587BBD908D1BD82C21CBB1B2B30BD2AC43A3C810A6DBD4ECC3ABD4D205B3BCEFFB8BCAF70433EF39E7EBCDA3CAA
3D2435A63BA19535BD564772BC6DFD49BD01A3F63BED1EEABCBB853A3D695B513D25CD25BC7A47363CAEE7933D69FEF1BC0F1F3BBD8C8EDB3C4AEBCBBB1D3BFC3D22179ABA48A6773CCAEB9DBC726F623BE27F773DA3D8EF3DF10641BD0FC7C4BD6A388ABCC23D963E1F323F3CB5C94BBCA48EEA3D028DF9BE1EAE6BBD206779
3D0818FB3BBF7066BCC3702F3D5A1D923D042E803D569662BD677CF4BD0E934DBD2E1618BCA38F7F3D37E91CBD37342EBBC9FC383C2019EFBC1436A13A6FB97DBDBC9651BC940FE7BDDAF96A3CB5213A3C205C093CE27A513D7D5EA83D14B8933DB10B6F3D0405813DA4848B3BD8FAABBA6EAA08BD8B116BBDF9DC813CB5C9FD
3D869DE73D08ADAABD00A634BC139129393CDE0EBCB29CCD3BC7FB2E3D78DD673CAC89FFBD86CFF9BC1C56EBBBD55E65BD0E7075BC8D2A8CBCA8C99FBCA80ECEBD68BF823C93C9AF3D20EBEEBCDF47143BBD882F3BD86B3A3CF9EACF3BF54D36BC94C782BC5A28E63DE6AE8CBC0D173D3D8414C43C832CE1BE7E8111BC7BDCF5
3BD6624E3C63475CBE2700993D9B0A873C762161BA4C827A3C071BA23AD5D708BBE281F4BDF15D03BCF3E12F3C77614ABA9B087DBB86C7973D17D10B3CC7B899BD257F223D2E134C3B937B0B3D2A29CEBCD55167BC7005B1BC88D508BD399633BBED882F3B08C4853D1519653BB45EE4BD0A82AF3D1985A63C5A1B003D03C47F
3BAA36D5BD4EF337BD5FC410BC5B4DE2BD2BCCB0BD804FE7BB6D71B8BCC2DD2F3D978EDABD1121E53CA83FCDBC535B513CD9B6653C3995683C90E2113D4C8BF0BDA38B0D3DA7DFFABD069B3C3D0382C6BCF72DE3BD3CA531BCE0528FBC81E58F3D37208FBCD7557B3DFDBFBFBD7851483BF212263D1F5E78BDFE73BC3C7C6D56
3B0380CFBCCBA950BCF31D293D1505F53D50A9693CC1FF893CAE8763BDD0F907BD262E273CA7F7E5BD0DFFDA3C97F20B3C61809E3CA29F0DBDA735BA3CFDD311BBA0F8D9BD93F47A3CAEC8503D13B633BCC6F6EF3CD2D8753D4FBA5DBCF64D7F3C7985463C1E87073CA540C53D1B67313CCB61ACBD6A92213F24BDC63CB997C2
3CDCBB5A3CB3037B3D08DB97BE09A0303B05DEC03D10E056BC947933BCCA08F4BD05E7C3BC8B4E4E3C16229FBBF388093B4E4ACC3C50A60DBCED26A4BBB37959BD74712E3CDD0CC73CA2B80CBCC32F663B4FA476BB1719F73D165AE53CB50F25BC9174BD3B72F27E3CA11827BB9819C63A8E10F4BC1E03A63DFE44A43C465F66
3C035F0B3CC783E9BC8F182D3D2E53E0BD32BF193DC795BB3D5479853CF111ECBDB4D272BC6AEF29BCFE334CBC6245EEBD006543BBAB0D2FBC574A9E3BAF9927BD70C9A93D2E09783DA45C53BDAAAE10BCA0F6563C3064B93D0232383D8D43DC3CFEF5533C40E6DC3DA462083D2EC5473C87C96DBA757EB7BC55DFB53CD77E21
BDA565DC3CBA9165BD9284063DFB84C33D5165EB3D0144BC3BA15F0FBCA4DD21BCF19772BDB83437BB9A3FC9BCF967233D768FE73C569516BD28C6683BAA0510BB2101923D93FD1CBCF9C9E13DCC6E7D38017CD2B9B362FC3C42C0133D547FF93BDC5466BC3B5323BE399D0D3DB3FED03CAF6667BC8A68C43E2DA6F43DEA9FEA
BCDB96C4BC3258CBBBBC112E3C5DD1763D06611FBD35274E3C23AE42BD0263C73CCAFF0B3D40FE7B3B5A25ADBBB77C1E3D3B09723D8D3DA4BD8083E73D2A94AA3CF09D39BCBA20DBBD038A8E3CA896C4BD3F3847BD377BDE3CB39C583B352064BC8A415E3AA3F9CBBE35C1F4BD9942A03D8F1475BD93C9EA3DA4497E3CF808D6
3C988CB5BC6E08FFBC77711B3C9F4085BD4C18163D519EBDBD7859E1BB66603BBD4B3903BDAAB2AD3D1A2F9DBD809CF6BCA65B783BF8037EBCC993F2BCD13B30BD5180EEBBDFD667BE64CE7E3CA938633D1F2CEB3BAE3C1C3D1FB249BBBA6C2F3D1F84D53C233E4C3CD73C103B95425DB8AE77F4BB9E67EFBEC91180BD8EEEA7
BCC8D94EBB3B976D3E731AFC3D4DEE2F3D4004953D73D65D3C45371ABD13322E3BC5BA5ABD4DF1F63ABD932C3E4CFCC2BCB6E403BC7927F63CF62E653C79CFDF3CC296F5BD37709D3D1C22C33DE9B6A2BC91B577BC09DE6FBD87BBD8BCD2C22BBDF78DC3BD6E5D2F3B12A317BC16E7733D3F86993CDF46F6BDAEC18C3DA0B9E7
BC8E45273C527DF23E026F8CBAA5CF203D255C91BC3785E7BD60BEE9BD4BD973BA674A973DB24BA83D2EF88BBCE2D43FBD8DF40EBCF5DCEEBCA06C15BBE90642BD6A1E77BCF7E96A3D4EE471BBA4FBFE3D125D523D5631573AC9FCBC3D5F6528BDCC64A6BBBD0B0EBDF230913DAD44A8BD29FB96BC51A48E3E17D87ABCF616F1
BC9E0CA3BB10A5FA3DD5E681BE01C2FCBC96E0A4BD97C6713D9F4B4F3D4D34283DB6D62E3C4C028DBD4186A53DD2E277BD55C735BD89C1CF3C88B06F3DABAE7FBD5BF6CE3D44D04E3DBE6FACBCF4D6B7BDB459303CC730A7BD5EF2DE3C1F0BE5BD20147E3C9B69BFBC63CB923E011F19BBFB63A23D534E1EBE9AACD2BC5C6049
3CA043E8BBB9BAC13E4AAE913E334C79BCB53345BCCC278A3D7A2155BD2A97153CDB5DC73B74A4D0BD54FB493C2FDCA43CDFAEFCBC869325BD0AE5E63D8241C93D0AD6A23DC2B25EBE933C063D35043DBD8704DABC9306E0BD308F6A3D3F0F15BD0A04D2BCB4A0F53DC95149BCB302913C379FFFBACE9690BE9C60FDBD217BD7
3DA6CBA43B41CDBEBD56F4D3BD980AF8BC8D9421B98CEADABB86A53B3C9F0D4E388897E63DCCC4AA3AC85C3C3CE8247DBD21C3313C0D5CDF3C5702C23B7802DB3D3C5019BCB25C70BBF78235BD62EB4ABAEE3CF5BBBC2D1BBB0552C1BC2672D83D934AB03A87EF5D3D4A9FB3BDDFF11FBBBB7600BB564472BD42FCFBBDA56FEC
BC94913E3C86453C3D7B014C3D432FE43D2FDFC8BDAB7C0F3C03E3F33C38F6AD3D9F995C3C44D7DCBB3C45B3BB18A0E63BBB9AF4BCB8A048BCCBC4483CA170B73C5D7E973D16AD313C21155EBC56DABEBCC41E4CBAE1FA6BBD64293F3D9374FFBDABD2C1BC1650483DC95FB9BC461FF53D261EDF3CE7E1703E9D752B3D0D5CB2
3D981C2BBCCB173ABD17C6DBBDEF7DF73E39A0EBBD559BB83DA6A5E63BC6FB7D3D5743363D4E0E01BD8330F73DA9FEA5BDA515ECBC9AC7F43D1E252F3CC97172BD8E28A5BE2ACB5E3CCB3FF5BD88DAE6BD2FAC443D4ED8BF3D8E07CE3DE35EB43DBB1BD33D0CB9D03B0F0B7FBB9864323C97CC18B9822E173E9BE3DE3C6F0C39
BCE7E21ABBFED9DC3DEDDEE33C5BDD2BBC57BC8A3B4D728D3D1EDA1CBDA15B9ABCE7F85EBD492F6DBD2F81803B3DA5A8BD50C83E3CB517123DC6BE893D2A11B7BD6097F7BD83C14D3DE53F7E3D1E9255BC9D0D35BD3C47D13D779BDA3C4170B53BC234E7BC54C7C8BD573D073D22B2423D0FAA963C0547803F3BE9F83D16722A
3D3463013CA53F253C878D843D88B0F13DA924B6BD4B50883CF75798BBD7E0CF3D0CD8A23E238E39BCBCF3203C132651BCD8DC1CBB91D2693B9827643CB59A543D1DBCCBBDF7BAC23D706E21BCCD8B1BBCDBF3323C9A3BD4BB46EDA63D2DD62F3CB6E74F3C2DD5ED3DAE560A3CDB5A803CA3E7D6BCB9CC193DEEA7BF3DC35644
3DA811AE3AC95E0D3DD8AF8CBD9DE6843D23E3C0BC3414B63C64E0AC3C2681603BD6F0C13D5EB7DABC9762943CCA1AECBDC1F7D1BBE688C4BBCF828A3C697C6E3CD297CD3D122E633E20E234BD4D8529BC7D43D73C3BBDF63CD9727A3B8D39BE3D2258903CAE0801BB8549D1B9FABC8DBBE4B9D5BB1A9DBCBD7B5054BDCE1C24
3C6B65A8BD734CCE3D68B1B0BD8765003C84ADCCBD1484ED3D53B9C53D125EC53D76AF63BC8FEAB5BC8D9810BCBAA642BD437079BD33605C3D104B753C313B68BD2011A9BD8E3BF33E1AB575BCA289B5BC33934FBC84946A3D3A61903CBBF7763D5922973C318EF7BDAC36683D822F3CBCE007133DA426BABDBB0D84BD7418C3
BB8DF5DABC4117C036D8312B3B849A673C07A90CBACB98983DB7AB56BD0F2CA2BC3D6AD6BD2F34C7BD960148BDACD146BD34B190BB1538DF3D0913103DB714F83D4EFBBFBDD9BC3EBDF892DD3CFF0FC0BD8D51FBBD1B5F37BC42972CBD8FDE6A3D8732683C5B7D333D28E3FDBD816418BC76B8D43D8133843E648425BD648D14
3D1F25C4BC182CA7BE067407BDA291E3BD15042F3CE4CAD73D4431AD3C1A6A0DBCFA8E493D1C0500BD349BF2BD7B2D38BCAA24793C1ED7553D060E6D3CBA01003CAA8A95BD3B8C9CBCF743B2BD32D11CBC91A44CBBF5528C3CAA00773C5584E73DA5F0A93C8C64B8BDC96198BC6783303B91FBC3BA7DDE60BCACE5A53B871437
3C971859BCF28866BD4447B6B9BC090CBD18F1573CF76D1EBCC2F46DBD92A0AD3CEC8F2D3CBAA2F33C2C07693C1ECB083BD221EEBC2FD69A3CE51A283CF0A12F3DC8459FBE3F8479BDDB430BBB36D040BC8437D03A7DC5E8BC4BC105BDB0F1BDBD2AE741BCCD3CEE3D39476EBE2308EFBD923DF93D5E59433E42E071BDFBF7F7
BDB5EEAEBCD7123ABBBDB2AD3E2B17D6BD50DDB43CDB4C103C97537C3C0F6CD0BCEF45003DB64AF3BD3D3CEEBDB4460FBC0607DA3D3F8E2FBDD57B763C581C873BBA63713E6AF6EBBECE90C2BC89722C3D1E5E18BD3335653DAFC9FF3D963C213D25100C3C86AB6A3DF2CBCDBD4373E5BC5D9A4F3CD2109C3D4F4AFE3D1BEB62
3C458E43BBC48EEABD234AA9BC8CF782BD56F2923B10379DBD0562A2BDB3540ABC7B86F13D40D9A63D1BD54A3DAB9024BC9CB742BBEFB176BCAB58D33C9F65443CFADAA3BD8009FB3CCE32BCBD29BEA9BCC3495C3D0EEA8F3C1B5F923D9A74F43D4EFB5ABBBE3D59BDB0656F3DC02E0FBCE521DFBBCF54783E9BE68D3CE19AFB
BCD882E1BD175CF5BB9F7399BD5FF46FBCFE6542BD4B161FBB905772BC8CDE863D736D703D5B48FE3B11EA123D75B8A8BC98C5FB3C3A4E383C9153923D2157C53B1EFCEDBCE90F6D3D5048C3BC3ACB03BCB6C659BC24B5D13CCA40EABCFCACC73D287E8A3CA038A2BE08F3323D71B8A4BC94E6C83C6CF6873E5BA36F3C9A6347
3E05A20E3C8193313DA5005C3D488D303CFBA577BCADE5A63C1B5D7BBCBEBF0D3C5BAE5BBD8C99B2BBA29BEA3E3F04C2BC8BA42D3D07DDADBD7F771F3B0FC416BDB767EEBD5E0195BC1AAD96BD8C2F21BC8234923D20E48D3DECF2EA3E13D9283D3C3C41BD0AAACD3DF41172BCFB1B8CBDCFEB72BD94907C3E4F6DFD3C47629E
3CA3CF3A3D03C3723DAB4A56BBA2258CBC077D28BC87DCE4BCA658E9BC6FF8FCBB95C129BD79AE8C3CD66283BD088B833AE0A78F3D0448FBBA2192913BF247C6BCC7966ABB6B2FB43CF62D68BBECAA83BC13F5A9BCA4CF22BD71AC3ABA6C15933D54F298B95B2E8FBD1C6B4E3BB8B2FABC5A43ECBD0BCB66BCBF0274BD8BD51D
BBA0C6A23C07B582BDF726F53D925A1AB99C94343DBD6AA8BD339344BD1615C3BDE25B2A3CE00F463CBA91E1BD5B51E33D031E3D3D81E80BBD4A2325BD9A5E283D4188303CB4743CBDDB547E3C8A66EB3DBD157CBC9C0B4C3DD2C98ABC4B52163D3B84943C7D90C33E20FFB3BE019DA1BB984BE0BD4EB1463EBE7125BCA64A27
BCE088193C35811DBD4E1B95BCA6B7433CE1A03C3CC082DABCDF3ECE3DAD71C2BCECA0C5BBDC16503CFA2D37BD83FD4FBA94EB2DBA5A0B7EBD58E2E0BD174A2EBD0E23233C8EB0F0BDB8D11DBC23E1FC3C4B28A13BB4D260BD0D74313D3BB3D53C88C0FC3CE114C33E32BD2EBE0DA364BD1BFCE23B72CBCABF23B1953C516ABE
3D1818933CB82B9E3D0E288C3C1F92A0BD235C05BBA31ABCBCE2AEFFBDA1F05E3D418FBCBC57D8643C8C0F183D60D87CBD4AAF5F3C826B2E3CF4C0B63D28F3273CA59EAEBC4255083DADC2BDBCCDD63ABD05A54FBCA7CBC53CEA03D63D95FC72BCD3A6DC3C64722BBCB7E4183DB498DFBD06ACBC3B3D1E673E7630A63D75FB65
BB92BAA63853F763BCE9BE8FBD130C393BE21D903C97E8E0BDB1F16D3C22BB48BC400EDF3C2B89F03DA859193C7423053D2CBCC93D86FB723CD3D21CBD80924FBDC2C37F3C715A743D94A9D3BDB647C53D4BBD60BC158AA93D40F3563CE62D0D3B4CBDAA39B2AC43BCF51AEEBB658A483D09CD1DBDB1C4253D0D9941BCC3394A
3D0CA3CE3D18122F3D4C2F463D1886D03D12D9563CC01198BB4E28203CA45D91BC8E152BBD02E8D63ACD20853CB0DE00BD53E63F3C2C359DBAD5FB68BBFB3B87BC1414313D89C656BDCA4ACDBBE9E5183A6AD27AB9A0B2D93D6878913B872F183B61CECCBA31FB3FBD686AE43C955303BC6C181D3CA014203EA8B2E83D72E721
3C959B3ABC0D4A89BE64079A3DBE59DD3BA1B3D8BD075EA2BCDDDB8F3BA77F073C6B9B103D0F7FDA3CC649AEBD0E31DBBBEDECD0BC1FF6F93C23BBDBBADA3D92BD071434BDC246DC3BDFEC26BD5BC0843BE102593AC884F2BD776D0ABD33AC22BC09B2EA3CEC5234BBFD6246BCB4676A3C0511FBBB65DAAEBD9BA8923D29CC01
3B416DE4BDA2D77DBDB3B3C93CB6D057BD4ADD673CCE91643D815EE53AEBCB24BC9693B8BD8594C6BCC5F176BD50133F3A6DEE8B3C3F96B43D9DCDB03C81A8E2BE2CAC19BBF89758BD6183113D6301BBBD08FD1E3C25424C3D5C552B3D47CF393DCB28D73D1F2945BB45F3333D88FAC6BD1AF8E1BB5EE8823F2A0D44BB8B26CB
3B0F05B73BE2A7F43E5F18153DAEF0DF3B2AAEA5BD5AA3173C63A7663C07C1CE3D3183793D97FA20BC97B8AD3D8D0ACB3D0D8A31BB62039EBCC42C653CD6F6C83CF5CB61BE4DC498BD23EA58BCD828A4BCAD23AEBCBA0D6DBC89F42B3D3A0F73BD6B0F213D04E4EC39FFAF653D6C3E71BB8919793CD58A94BF3615563CA3C8D8
3C764851BC8452163DADB80EBAB101483DA11A87BD01DC8E3BE69D5DBC56D7683C70A6273DBC7F7FBB2F66D03CB0A61B3A8DCBAFBCA2E008BD4B240ABC588BBDBBCF2DFCBCD328A43CEA6E34BCC4A85C3C6102C73CBAAEADBD1E686D3D6F0DA33C10F3F3BB26CABF3D608EE2BC1479DD3D3A3972BC4270BF3ADB7902BD5EF627
BB2A74E63CA28409BCEFE2E1BDF5F13C3BA0C8A0BD00EABDBC9380BE3D9F8202BBAD10953DBF26373C5BCDCB3D3991C6BC7CD7F13C81F7EABD71E3EEBD058591BD44D2DC3BE556403DAC2717BD717E033BD6B17E3D4156B0BD3041393D060F533CCB5E41BCA3F9323C35B5E93D9BC00B3D5D7D0ABDAE6863BE9C60AD3C12E1E3
BD2EF3EE3CD2EFF03D95AA663D27F7EB3D8B7A963D0CC227BD3F260BBCADA844BD10D9BC3CDFC2FC3D0352093D67D39A3C84F949BC26F074BD99FC8DBD32C3B1BC232578BD82F0DD3D3C8187BCB53D8E3D3CF0363C3A64DDBDA67C923C8323AE3C307DB3BC950D1CBBE365C0BD38945A3CD042F4BBE9C907BCF2CC053DAD28A0
BC12DBBABCFB502CBDED8A0A3DC84ACD3D08FED9BB8C4E363D4BBB833D855C3D39EEF7A8BC901D6ABD40AA533CA3F7733DB442B1BB1F2243BD055D90BC44C8FA3BB1E24ABCF563C0BE18CBAFBCDD5235BCA74652BB9009A63C928DB8BD77B9513D6899DD3B1052423C2ED40EBE25E4C13D86CB0CBB6A9102BEB4912C3CB00694
3D3109C2BD5881B9BD0EEF693D51FC413D3011D1BC5721B23B9FE6FC3D14A84C3D08874B3DAA5D673B3354733CDDE1BBBD273887BC4E865FBC20418DBBFF873ABDB9FAAFBE3A8EF53E14E5F8BD7DB595BBB16B8B3BBBB9133C5B5086BCBB72E63D4E18CF3B116439BDD83D543DD89CE33CCC5306BCA20B7C3EC00EC4BC07091E
3D0FD650BD09806D3E035C0D3CC56B3D3DE901713D70CFEEBCF32043BD81BE46BC1EAF3D3DD2FE7E3D41B7B93E9D4808BD0BECC83D051D163C7BEAE83C04AD753D8758703D6328E6BD71C14CBD77A1D5BCA89E2DBD96EBA8BD821EA63BFD350EBDE0B1C4BD5D03C53C7141553CFD1D203D32255C3D80B057BD1111213DAFF2AC
3D55FB563C90B3A53D22E454BD0532FBBCD7B0923D20F170BC3C8311BD1DA680BCC097FBBCDEC0C7BBB39D27BC48FA1CBD830EEFBCE50FD0BD0DE893BD5042A3BD56FDDBBB77DA08BD06E663BD7089B73CB5C38F3D510348BD22028F3D42318F3D70AC9ABCBCD60FBC2C99903D805583BC9377943C28BB0F3DEFFA853C32A3DB
3C8552A4BD1AA9C9BD7D0368BCAE7723BC2604B13C8BC2413DD27178BC95971FBCC5886F3D3C07B1BDBA01E93D2E6EC8BC5E4815BD679CCD3C2BFE3C3D98DB523C25E2923D4246003C9873093C82C044BD8190AE3D6E51F5BC8D8DE0BD6D719D3CC593E1BA9D0E74BD8A01093CEB5B343D2533C13D2357893EBC2AF93D48D4DA
3CBC7B6ABCF26A2F3DEACA843E1EFC39386E8379BD196EBF3DD34FA6BD1998CC3CF84C133DBA4611BDC2A9F2BDAB11EABCD577AABD33CAFABBF313473C1362DFBA882A3E3CE5911BBDCD8C463C40505A3CD4F6CF3DA644EE3BF6ADE43D1990073D978D9CBCCE1093BDDC7B9BBD1ED8413D1CB685BC44FB973EC50A913AED57B4
3D271A3CBB009A43BD114243BCF25D27BE6B1763BCA88522BB1FF75D3BDB09953C8FCCFF3D7EA8F03BD4288ABCA858FCBD2AF644BB6261603BE08496BB9F5E06BC6F9D3FBC95A287BC21D422BDA1717C3BE1E24F3BB47414BA7D106B3CD5397F3D5D5DB13B2C227E3D868526BCF50E29BB0DF662BB1EEDE53D1A56EBBE4BC45D
BB9FD1433CCB55BBBD8D05733D00CF46BD1EC5333C89BE0A3BC877D9BD193459BBD1D326BBEFB267BBFDBA793C190CA73C2080683A25EF1DBD20DDFDBCAB2734BC7C64B53DCB94EEBDC59B4E3CC67ED83CAC3BC83C8D25723C29DCFABC57F5113D8997AEBCB6506F3DB880D8BCEE7937BC84F039BCD19587BF23E376B9B4A8DC
3CB14C413B941352BE1ECAD9BD8F80F73DCBDA22BB7C695F3C731A25BCA3F26D3AE965BDBB6D2ADBBC7FB66A3E16A74EBBB8F6A53A38AD54BB89EB4D3A843360BD114E1EBDB30C9ABDB4FB61BDF99ED1BC107D3ABB15D09F3B51C3483DF1F9133C1FDF6D3C0E440B3D2F982ABCE474A33C79E9223A4C973DBE91EA2C3C16D534
3A009A67BCCFE74ABC9CEB9CBB75D16EBCBE3271BD573F35BC3786E23CEE83643CD0ED70BCD2981DBC4E73D1BC9B5EEFBC8D8102BCC92D863C91B18E3B882F39BD60C2113BA78545BC7F8CAC3D3756493B90B0313CE22F9FBBF6555CBCF0AE80BC851F163C932AAABD8357B4BB17EB003CEE3E963D22258A3DA5DB933D62C33D
3C62DD6A3C6734103D122504BDAD5785BD490BC0BC7D4DC73C1BDCAD3C1868463BACD7303DEECF46BC3B6D62BBA81CF4BD03D929BBA42A53BCB258A73B2828F73D570E153AFCC538BD91EFA8BDB74E3FBB6E90F33C2905F0BBD0CAE03D330DBA3D1AB5283BC29302BD52512DBC88D9F13C66DBBABBDF27B6BE132C96BDB1898F
3D1F65DD3C610FA73DA9A513BCCFEBCB3CD23D55BA80FD67BB166DF7BC928D383AD366123D979C433B4899F7BC09AECEBD1EB4693C4D81623C9F28CCBB9E542ABC8AD0E7BD47DA72BB4B5154BDBB5ECF3B612D313A91AA4BBC0E50473D0561CA3D42964C3AD765593E0D2100BD13EFBFBBA62825BC5CDCD2BD55BDE6BE06966A
3D64994FBA4A7683BCD72816BD73A9663C214AE6BD80A1B23D362637BC8B12663B9C1FF83D005F65BD2F665C3C4890F9BD102421BD47818EBCCF07EA3BA86B3D3D6FA411BE032B743D367F2EBB00E5403BE0FD4A3CC3657B3D80E7043C1765893D46B76E3C96B3A7BD3FF3773D429BEA3D0D8B1F3D4FFE943CD3F167BD994C74
3C721133BCDA60F53DC42E453D1CA0EF3CB06BC3BD0A9C003D246E28BBB0FA0E3D3ABEE2BD100297BD3DDFFFBD2F1155BD62890FBD372F8A3D36127CBCF2D5C13CF7CF9EBDA8B3D0BE29654D3C517C873C0D80DA3CBA6680BD8DE8B5BCB45E59BC29352FBCF168573D809E3CBDC2BA6EBC9200BC3D1D80543E89E4733CAB99F0
3CC513FA3C10D167BDDC1217BC17C664BCCCB9D8BCA11B40BA8DF8953C211F403C40BA5D3D39CEC83BA56E18BD51D7A4BC8AE448BC8E19A2BCA031743BCA7F9C3BD382413A5D93D63B5382BF3C0E6E19BBB5C6B7BBD5149ABCF92BFFBCB5E8673D176F7EBB3A2437BDA4474A3A79560FBB509B353D1C5A833E818DCDBC554E03
BC397BE73B42F9EABC4FE2E93D45193EBC305163BCB3EC353B80D7C1BCA2A4573D08C78FBD5227763C461204BD04E2A83CBDEFE93C993411BC131762BB469303BBA6EC6EBE46D41FBE6CF8E9BCE0308A3C8F69C3BB97DAA2BC06BEB33D45C73FBCEBDBCDBCB178ED3D9B16993B8B3F02BACF182FBC83BF0B3DDDCBB8BDDE0085
BD5CE819BCB3CA73BBBE7BA53CE3D723BCC91ED83C849FAD3D845B553C90D22EBC4FB42C3D5CA9C6BD36B570BD979DC13CC99471BA8A5A3EBD1D61113C96AC993DAA170F3E9A3C58BECCE8FC3D2098813B1AB9DABC449DA83D28D19E3CBD09693D4E4DE53C8991463E00F218B9CE9CF7BBCB42EB3D33D892BE209EF23C9AAE30
BD01646D3B81FEAABCD5A6D1BDAD9784BCB628E53C527856BBB802603CF1F5F13BDE34D83CAB3ACF3C2295463CCA93923B264D94BD92FCADBD027920BD7B588A3BB60054BCF409DEBD1A46E93B59404E3D73E08B3DB51A41BD3E86133D53EA0BBD29BB5EBB3E4FC83DAF1F803BFEAB0C3C93369D3D648CFB3DBD7D8FBD3622FE
BCF4A8913B7F1B92BC6A1C61BDA70B79BDB3352DBD3A6B963D17FAFD3CCA36E53D34EE493C088980BCE7CBA5BD3D46E13BD7C97EBD78187C3CAE6C133D0FB8BF3C59D9473D87563C3D961C7DBD3A8638BD1CCBB33CE167C7BCFC46413C775CF23D08E11BBC960BC73DA247563CA9F8BA3CB349683D0CF35D3DB9C3A73D837247
3CDEECE5BCC727A03D83144FBC8E7FDD3DAF6DE5BD00537EBC15C7263D29CDA63CA0A8E4BB136F2A3A862F013D687130BCF2AD9EBC833495BD975850BDCF70BEBB3A9E0BBCB73F223C0ED343BD5BAF933D80C9AEBAF715773C83964B3D556A103B691C323CD32C76BDC315E23D7906D5BA8536A039B2EE083F144AAF3CD87CDB
3BD00F063D2516603E14B04CBC4E037EBD95A126BD379684BD6FB56BBC0253B63C12F6013D0E95813D425432BD9D21573D1795E63C7677BCBB1A99BABD29A0C23D0FE894BDAE2FCD3D7D57B8BD15F9C03D10FAFC3B536FA7BD1E66253D4ECF843D1A06E0BB4AE19EBCDE46AFBB7FD5073C0ABB6CBC6E9E0CBE0CD9F5BE06DF06
3CC878CE3C24EEA63E0972A33D8B430C3D0D5A91BCC024B8BE0447683C86D8323D069A39BD8698CA3DD83DB93C9EDB503BE53F8C3D87F59DBD6A5653BDA1C86B3AEFE9743D0D0A673D305F6CBCA4EEEB3D95E0C5BD8C87F23CBC920F3D05CA95BD1CFA183CB8EEC9BD13245DBC2C6F18BD4745D0BD454034BE186D5D3CA7281E
3CC1560C3D05FA3D3DA369993D2642B23C4477E63CFE314DBCB6ABD1BD161A35BCFCD11539DC4F283CC9DAC6BC5E78413B72C5563D3B717BBC858D23BD406B373C047150BD927FA3BE1E0DC1BCA2A1493D26D79EBBB951013D1DC198BC0C315F3BF4BB1BBB75D3253C03EBFFBD300194BCBA6321BD74ECA6BE7CA93B3D5B7E20
3BC01EF33CA6F452BBA7CD35BC14AA643D74A5D83CDFE2CC3BD7FABC3C911756BB77BE633C5D13693C52FA213D147C35BD09578FBD1CD7503CE3F364BD239188BC5E4B87BB8CAA0B3C907152BC189B6F3D045C143CA1C6583C016B823D8510953CFFD7C83B9567BBBD718E96BD4851E5BC3A1036BC8A472E3E180E583D89CA44
3C60A3893D5C8FC7BD70D782BDF9A3193CFB338C3D60F548BDB3F1FB3C7BC2C8BD6803F9BC3482373DAB64F03A3B78A23D1F21B43D11B89A3C6A8829BBD46D05B8A819DC3D3AD0583E0B225FBD4F772DBBEABA1DBD5CB8F33DAAEA1D391889E5BC022F343D1EAB7F3D5084483D0F5588BA740D76BC9B4603BF1829E0BD4EC325
3D757960BB273B35BD1F179DBD304FB83D91004FBCC5532A3C982C2B3C66B5793C81C271BDAC08ABBC9FB3FE3DCA7C25BD5C10EFBCAA684DBCD420293B362A11BD54862FBC6EBCB13C57E5F13D402BA3BA0333183CD82E663CFD7AB8BBED8597BD30FA6CBC406F6FBC73616ABC92D9013B1D70A43C7C2F2D3DD2F3DD3D83259D
BC71E62EBD70FE81BE59821EBD011C1C3CF64CE03B217F173C98C433BCB298803CA428FFBCD38AFD3B981ADABD36A965BCFA016DBC63DC043C53EFE03CFA167B3D2B76023D7EA4EB3C9A928B3CDB36D2BD0C8D873D0C694CBD0BA5D9BC1D9386BCA498A8BCF5A94F3DA291303C1B1C723D01A329BD1C9241BA5ACFFB3C4306F3
BD34D246BDCF04D2BE18738BBDD34AB33C8565D43D33025BBCDCA471BD051CFBBC6346323D10E9653D36EB31BDEDBA03BD35E1793C94047D3D9300E8BCA6F004BDD7C77FBD0263343D69B9B8BC3723303BE4BCD43B6484653C62D237BD8FADBA3B3B8EF53D372451BD159EC63CFCB322BD4104EDBCAC604C3D1639FEBB930831
3D6B1D8CBD1DA0E7BC894CA93D0C9E843C42BD833B4783E13CFC2498BD65F26EBAAFFFC7BD1D53BFBCD886D7BCF27D0FBCF9D3ACBCA3E15CBD3820A13BF34C533DD1F2EABE3A970EBDB909D03D95F6BDBCB2D8593CE69FBE3D2A71043C078CC43DA89D10B994B00BBD266BFE3C3A0E443B7490F5BB93B3E33E2C2F43BD547C9B
3CC1DF923D1775A3BCE531563CDBBA153AF90C7A3C41FE7D3CBEC97ABADBDC1DBC742D283D806E44BCA0BB6DBD36E248BCB13175BB73CFF0BD45F3DC3B4BC1773B0328043C8988F33D211070BD4CD142BC410D18BC76F304BAB3784F3AF4B98F3CC041243C771E68BDAF68EE3CB211273C7BD0A53C85C356BCA9AFF4BD9021A0
3C9E67EBBB7F72FABE4C983EBE056519BCD2DD1F3D6EE36BBCCF662A3D146850BD65CB32BC7B77AD3C56BC4CBBFCAD5CBCDC52BDBC213C173BEE349BBBFE9B53BC53BDA2BBE65D313D61DD4CBD265B443B929FE03C6E9F0F3CDF3F6F3D00C3693CD7DFB2BC9E14E23D1BC24F3BCA835A3BB73B3DBC8CABBDBE7838E3BB91A96A
3C6FB9903C584A31BCFDBE673CE4690B3D7DBB0A3D70093DBC7455F6BD5169F4BD2AD1F33CE048593C98E2E9BD49EF233D43DBD13CDA0DC4BDB4011ABCCCFEE03CC36F48BB94EA9EBE0F8DF83C81BDAB3BFB1E4ABD0F5F283BD09BA7BD0396163D078497BCC260D23DDCE6B6BD76450FBB806B2ABBE80C6D3DA9E10C3CC89C5A
BCA713DDBCE4C73ABD4610233D1AF1F2BAA2A638BCAD766F3B966FF63BD1E6623C0C8952BC8BE34EBBE3CF113C2F0DF03D9C23763D8EDAA43CA385613D3DE98D3D0014B8BC87A7A73C20A2E3BD19D6C3BD4B5235BDCF9C813C0713E1BD2FE93CBC853DCC3CD9DC673DDD05D83D8371C03CC12D37BCAD3532BE586C243D23B2F1
3CAE1A02BB878314BD3DCB62BE10FD9ABD2C7F90BCAB3287BD1168443CDE523C3C10D0683D1EA1FF3D2B8147BD2630BF3BAB0A853CAA66723C9A3CBF3C20EB33BD648E92BDA0C4833D0677743C9884D2BC6D8C09BCCDDFB3BD1CA1193CB22A7EBB33395D3D15F3A73DB3C97EBC3B24FFBD089DF73CC0FA74BE9CF8A5BD14E3B2
3BB7186EBC1F42A43E3EB76FBD9D2D9D3DA145B03D918EB2BC75184CBD3E0EC6BC86459B3D12C9D1B9ABA0F23E819D39BD01C0FD3A56C4433AEB98263C93D7A13E2BDC4E3DBBAA7FBE5EAF98BB33CFDC3C6D9446BD2FABB4BD1C2C84BC224D7ABE1619C2BD324DE13DD72F5ABC90E1AE3C8EDE553D6D33BC3D855E7E3E3843AD
BCCB6B993D0D0F683B32E5D93D1D54CA3D1EB7CFBBB799EEBD2E35C2BD295461BC527765BD8DD7113C75B8EF3D13D04BBD3E12E03D5E72FBBD62058CBC78A191BD3CBB16BD3A8B6C3CA1C5AF3C34286C3A3773ABBD0A04603D04313C3B14DBDB3C344165BD159E243D1A5E63BCBD18A7BCC3199EBDC150883EB2B66EBBD4A073
BB0F3193BC9C8FC1BD814F6BBC67B2CFBD0E6AF4BE6D2E503D7765223C71717B3E650041BAB7A8EFBD3828FB3CF09769BD0514B6BCF494CE3C34AE163DB7373D3D2774783D555F9BBDCDF43CBD87BEDFBDC79B4B3D0FBB793BACD0073D84C8623D9C922FBD4074F33E525482BAC75E36BC97BDCD3C8FDC443D4792DE3D4727E0
3D8B7F1D3D4A07F03CBE72C8B9EEDDC93BD1088DBD6223F73C9E652FBD77B4933D6775F9BD0A89E7BCC3B18ABD15684CBC6BC93D3BCA765DBCFE0B343D68FB883D3A107C3D478DC9BBC7A907BD033E55BD5855723B6EB1413E16E4A5BD4756833C691A95BD950D25BDC7035B3D32167CBC32796BBCC109773D824D9F3D97C5FB
3E11D6243AE0BCCF3CB155E6BD931C563C278424BC0211A5BB94AA17BB1749783BF102753DEA9F4C3B2AE8A1BC0A546BBD0C22B4B9CDE974BB3E971E3C17E315BC848542BC5F3F9CBCA34BEFBDB73AC8BC240FE33B4401163D516C3A3B043BBD3D7C68E9B9D75F513DDD3851BD8BD636BBD78F62BBD4CD55BD53BD44BE16E2BE
3C12E6603AD848BF3C84DB9CBCC407DF3D9E591CBD89456F3C8C8E333D02D8393D4846643DBC9C42BC9426553CA18A453C06208E3B63ECD73D201A0A3BEBB6173C3D255E3E215C063D653263BBAF7196BC6FAA2CBCD4E34C3CD37203BCF0F147BD842DB63BB1F93E3D887D28BAE4FD59BCB7E6C13D14A54DBEB38DB93D2B6174
3DD8E602BCAA3106BD63550CBD6B0BDD3E0BE20FBD2845A73D4D0809BD69EEA83D3D2CAF3DB3BA95BD0E86D13D5832F43A04EC02BC8063333C0CA43F3C76B090BE23BCC2BDA59BF43D7C9E80BD7AE1ACBCF42FA83D04D893BD09BD723D61F3633D9C8BADBB19E8883E10D6D3BD32F5E23D5BEF473CEDFFD7BD36A32439E545AE
BD273115BC97C29ABBCB3D87BD8A0030BD025A7E3D428FE53D4D22583CC4ED1BBCF507E7BD02F8B0BCC7D8F13D1A56EF3C9BA17C3BCE5C973D85B17FBC0D1B86BDD133ABBCFF53963CC300673BD696BABC2A9AF83D124809BDBD35463A8E45C4BCCBAF363B2CE3D03D9E04F33CAD97843CCFCF21BCBA8B963E63B6AABC867CC9
3DAB4FB6BC9F86FD3BE402013CC89ECE3DBE2DC0BCFCD37CBB1714BABC7D32F53CA878273DA6C1D3BB17E4693CC3F17ABC42A7E4BCB258713C7ED257BC121F10BCAEF308BD25F1803DED2B75BD4DDA4C3C22D0493CD0117B3D4317DE3D0FF9193D01D45F3B81C8713D12007F3CCEA083BC74D9033C8EDBDCBCA50A7B3DAA5D07
3D2C01ED3B31396E3A36C72B3C85D6CE3D13BF3D3C0AC1DE3B161E1BBC9FAF7FBC12B4503DD3BD68BBC98EDB3D202D8DBC81F0533B748C9FBCA17A723C0C98913D1961F9BCC43B4ABE0070613B112078BBDD2EA3BB75D79A3D03D547B8D6DF283D70C9F0BA907AE7BBFCD4CBBD0B8F423C06BA09BB94FEFD3D439A41BD911944
3D2E3EB3BCC94032BD62522F3D8881383C0EC287BD77297E3A634352BCAD7A6E3D738BE8BD19A1C43C1BC8143DBA3A83BCE40C3C3D4F5757BCEE6CBC3CB93C7FBD2C5130BDA3DAF8BD043E2E3C3BCE81BCBD7E52BD903D903D59556D3D6DA57D3CED37CF398326243E11A8C93CAABDCABD905CB1BCBC783A3C828D723D8AD68D
3D051C11BC9C2635BC9EB5B03CC609203D6472173B616A6A3CB8A4FCBD2854D03C017BBA3D8FE4C1BC66F205BCD1863ABCA4D6473CBE69B63D1925EE3D3E88A5BD57A04EBE06237B3DABC856BD296D83BD015B6EBCDACBA43D704096BE20A246BB9D4E84BCD40153BD1DE9B23CC87D13BD03EBA23D0AB6C23EAC53AABC8A00AE
BCE61A06BA6711F13C16CB44BCB22AB03D2CDEABBBC7F5DABA80718ABB30C0333C59D3813DD091713BC7D1BCBCC010973C1DD059BD087193BC532BD83B5B20713D940AB6BD79D796BD481A66BD1FAF3CBB81E6F6BC22C196BC8453863DB14B3B3D9229823B6B26553D3D3FE4BCB47D613C10495D3D68D8593CCE84413C89CDFE
3D395A45BC4D3E64BBC936A53D01F2D43CF5CFAD3D26142A3D083CE23C4E82C7BD31D674BD3E814CBD20CBEEBD1039FB3D18A3133D11E6F53BAD3F333CEC01DBBCB866A9BE48A65B3DCAEA293CDA8BB7BD1A932C3C89399D3CE8AA32BE449FB9BCDC31503D39B36CBDDD96CA3D4C91EBBCA419B7BD8147293DDA99EABB8D9B54
BE02A19D3AC147FD3D4975223E5C0CD9BC96DA093B3CA280B9FDF424BCD5A1CA3D09E4153C8700133CA91134BD851EABBAE9315B3CCA9336BD990CE1BD23532C3D0340993E74D0563E9BA392BA6D5B043D88EF81BC9EE7C53CD90C85BDD7A71D3D48DF1B3C9E14CEBE841FA4BC725CF3BD00001DBC126E993E1564343C8031DD
BBB74B903CCB690CBDDA3762BB96654B3CA27ADC3D763CA0BD84B4D1BD8EB7F0BCFE795F3D968CA63D43352CBCFB664B3CBEDB0A3C6789B63C40A8803A13F6AC3CB7165C3D861F22BDBF68DFBD176EC5BC12EB79BCB8CBC9BD8F53863CA8D5843D8B1EA23A3701CE3DE692CEBC1BC9F8BCE205193CE7BADF3D9E40A4BD18F39F
BD1E6D233D19BF50BDA0B6863D8804833D135618BD414372BC115334BCDE9820BC066BEA3D4A3D49BC11C4D53CE95BB63ABC3428BB168CADBBC829D43CD72603BD20C07F3D46B801BC4C5106BDAFE692BC428526BC79A785BDEABF2ABA9C7846BC8894B9BBE5FFAD3E1F47BBBD105F593C23E5793CF639843E51C9D2BD28939A
3DAA7E293D91B96A3C956DA0BDDD74943DD86146BD0995E93C9C2AE53D16776EBB743AAE3D3C054ABCBDAD643D98695D3C3E631E3CF2FF4FBC6CA1243CA8A8BDBD2A61D9BD183A023DF155B5BDC2B524BCDA66BCBC62221E3E496B9EBCD350FDBC6B81B1BD0CB1F8BD40CE533D42E0A2BD88A85EBD0E80F93F096FD03DAF4630
3C669B663CF4E1DD3D8E660F3CBFE16CBB370143BCE6DE82BCE5F841BCEB8C29BC0F71A2BCAA40613CF9F37CBD5671213AFFDDE83D1DDBB03B911B8F3C636877BD4682F33D95837B3D0AAF6DBCF8C21ABC9C3C5CBD34070BBD07D68BBCCAD5B1BC24294ABB3B1E1C3D6726BE3D8446B53BA830BEBCAABC51BDFC0548BCF9D7AD
3CDDDC513CCD5D423D1D141C3DA5D85C3C035C173E3BF482BD17A6BC3AE2C4BEBE421F1F3D5740883CAA629E3D3A186B3D1811FB3CB6C0D6BD64EFE8BD98EB01BBB3C2503D02E2AFBCE2E7AABC074B1F3DBBF286BCE731D83DA8B8D4BDFADF83BD1727AD3DBB3AFABE27D5BE3DC3B1143C1D1A15BC056E32BE2586B9BD81D6E9
3CC7F5543C085A0FBE00FB6A3D8357723BD97CD5BAF21C56BD10E9E0BC1653C13CEBE4A43CD87A6F3D2F8BB03C8AB287BD51D04A3A8DC3FFBBEA1DF6BCA9EC153C94746A3C81243D3DB8574E3D3F3A383C909C6CBD3A87C83E9B2A0CBB16E9AA3B7C78B23C23DA4DBDC61C5C3D105E17BC6F34CE3CA68C25BEBFA4B83CB2730C
BCFCC2D13CD5C14EBD1CC263BD895EC4BCFE8071BCB27CADBD46E6A8BAF83E613C0D084C3D33C1A63D720159BD07C2793B25AFA6BD189EB03D758AB63D1FD578BD6AFD64BDDD9B483D4EBF953B92700F3C8337D53C58C07F3D114EDF3D0F14F3BCDAF6EDBB634C413CC8B6ADBD687B1CBCDE25203DB3F4B93F3960BD3D34ADBE
BCFE3942BD08ACEC3D6E5464BC98C6D33D1918DF3C904394BBAAD06E3D2ED01BBCE4FA6A3D3B1CEB3BCFE4873C27702D3CBB921BBCC5BC0F3D10817EBD5462D4BDEB917ABCA009E33CF9205DBC62BA953D6367083D2C867FBDEA58503E0E5CF03D084BC53D123E233DA26707BC77E5673CD6C1ECBC88AFAABE13A017BD64E0E7
BC1A3FCD3C2DEE15BD4DB079BDACFEFD3D24B225BD3BA0053C70B1963D8117B33D17E2713CFF8B41BC2DA0EB3D7EC0A9BD9B12AABD1C52D03C66216A3B9CD739BDB43329BDDC798DBCAC059EBCD6FF0B3A80806C3D9777D63D3106853D97527D3CCDA3A83CC8A07DBCA3F01F3CA55B0B3A59A77EBBD4647F3D93C614BCD51D7E
BBCF646DBCF3E575BE5970FF3CEB6FB43CBE75AABCB73847BD1CA3E23CA41C6C3CCE4AE23C8DFE453D490911BDAA10833A1ADF50BC1C0AFA3CD2DE22BC9ABB13BD3889503D4905A5BDF1795EBA2325CF3C81276E3BBD031CBE16D70C3CB7BFAC3D1087453B099502BD959746BCAC3D4E39C856D43CB433253D0138AABD09AE08
3D072A65BD906D4F3CE81A45BD0A7030BC59A8163D215FB73BCDE2713C861622BC059CDABD132AE7BC1FA60BBDC89280BC8EA075BC0FEFF03D8F28573C37C216BE0D54E2BD175239BCDE8FC3BD66B532BB83734DBBF970D5BDBC27263CDF849B3DDAF922BC0E99E03AD4D94F3D38CE39BC7F93693D4C4B2F3C869D55BC910D33
3D2778CA3CD03C393C6DF8463DA460013D10540BBC3D4B6CBB15AFBDBD9D6724BC2E67A33D8759AF3A8973863D3364A0BC623C26BBF6F548BD425657BC55FA933D83B40ABDB0355BBC5EC94FBD8C2E693B1630743C7F95593D029EC43D6BE0FE3CC5B1413B9E7CF4BD18FB193D1CCF21BC36C4C4BBF228EDBE3428C0BD99B4BB
3CC2276F397570C43D1D60AABD93786D3DA116593D3B8D40BC6DF4D43B6CD7DFBD248DB23D0521F13BBB50743D199F113B0A5D0C3C0AF802BCBA0386BC6E59BDBCA6D8F8BC8968123C9CD074BD2434143C50CADB3B8ADF0B3D45BFD6BD3C21FEBC7F1484BC7D6924BCB39CD63C9CBBC63C791091BC52C70ABE75BF79BCD2B071
BD9E6EA8BC1F55DEBBA72B6F3D8AE853BD24EA01BC9970E2BC93CB4E3B2278E83D5BB1543D5727F33CEDB6073B3F6370BC1EB625BD5E5409BC8EF368BD7B11673CCED074BD3D2EEE3C9CB15EBD85D54B3D58EAAB3C86C152BCA41C063D8D5BEB3D64DE23BD92D0D73D36C92FBDDD01E4BD12DD813D87C443BE17D2D7BBEF44C7
BCFC909A3D166A873D588DAD3DC692DE3D39C166BB3527FEBC4436523CA349F03C25A716BC07D1833BD230093D325D843D6398213C383F64BD83849DBBD2AD843D1125F2BE02EF413D8917DC3B6B1C293C8AF69DBC138AC13CB727E23D5E07E9BD18D9F7BBDA4336BDBA25C0BD76D3863CA69573BD09DB3E3D9822983BBD77BA
BC065FC2BD1A8DDFBC3CA8AFBCC2FFC93D50F372BC07CEA03DA0C9903CBD4BF3BB259FFA3C7B1FC8BD468B48BD46DF823D01DDBABDEEBD41BCF9453D3C6AC8143CF7FA8EBDD3EE3DBCFEE678BD4D5C28BC824F613DEB71C73D5B85D1BC124C27BB96D5823D300833BE4FB0CF3D136BF93E27612B3DC80D95BE9DAE52BC80C58A
3CA3E81FBD2156DC3DB31C10BD2A4935BC2CF31FBD004AAB3C6050E43D926BF13CAE72AC3D9ACC89BCC4A55ABC1F8B853C877757BC6AB1B5BB2107E23C10ECDABDA64EBB3D21858BBD214707BC18F43DBC9B83DF3D2F4DBDBE167896BA22B781BC50FA933C0C4E213E0EC5273BB4C5133C6DEB6EBD1ACBE5BE30D0D5BC516379
BCFE89C4BD47FE3C3E2A3BA63C8442FA3DFFE6843D167405BCE48534BCFE69BE3B26696E3E00C8D63CB326473E4F672BBA863AE83C985B6D3C3ED5A33C6744CF3CC034203D828448BD89DEFCBD58ECF1BBCD366BBD6E715EBDACE0943C13DF1ABDFF7F84BD861519BDFA44613D3FD8D83D0D6EE13CF2F6FD3C7940483DC1CB3E
3D5EBB133D1A4C893E098F56BBC8C82A3D43643EBE2FE26B3DE696503D1BE14B3D6C134FBC1906DABE0890C3BD1FC80CBE100D023EFB0803BD524F6CBCE2F8CABD3D3FFEBD83AFE63B0B81DFBDAA9C97BD8D02CEBEC9446F3D9739BDBC836FBD3E01E77DBD8F75DBBE45D980BCF055C9BE77AFE6BEE44BEFBEED4D473D28F09A
3DB3DFE33C9433EF3DE7DD3DBB827A33BBF53E06BF002D8C3C59CA81BDB3B9AF3F2664003D820728BCCA8B9C3D4AF8823A9B76813E8E50D4BC9AAF9BBDB20ACF3CCBB0093D0A169ABC859061BD90DD383D73A817BE92BA0A3CACD9D53D90CFBF3E0BCCE8BE29EB28BDB74754BE0117B2BE088C35BE531AE1BF23BC5A3C2B9FD7
BCA033CF3D8920523E4E5A0BBD85A38F3CCEE84E3C906663BE38B80CBC73DB96BC82D34B3C08E5563E1F5C9C3D02D3A13BEBB6CA3AE1C11CBD52C2F83EEF06D03D8526333D14550BBC0D2F70BBD3D116BED2D35FBCEAE4F33B97A5D7BC311A543E13AB133DD1E23B3E0D27663D3CD951BD063DF23C964752BF03C33CBCF4BEF3
3E4DCD623AE980B5BC3574853D0F82203D8B016EBCB7AA653C05B4133D30E2463B6E47743E1B2CABBC53A1B9BDC9DBCABCE1693FBC13A5953BDE0733BC2084C0BC2BBB30BCE1E5443CEDDD7FBE23B0313BEE08C33C4E074EBB3A26F8BCA441193E297E583C991BC0BB14055ABF6294EA3B25CBE6BBD2F351BCD18678BD0B34F2
BBCF7D99BCEEABB83CFDE1083D7D51C43D6DE3433D5D60483C2FF491BCDC74CFBC0F1CD23D4CE524BBD52ADA3DF9F3EABCF360CB3CE9FC663D6CEF6D3D689A33BE0551693E69A7D0BDE7F645BD32A963BD4F09E93C23363B3E0D98B03CD435D43DD33FE43D2A3CD2BCD5F34B3C80528ABC252835BD3BE4F93F822AF9BBF0872B
3C596EBBBD572244BDE14B13BD89B3FE3E144DDFBCA294073DE7EA08BCB270FA3D5585FB3D8C3355BDFFE8853DD9AFECBD6E5C84B9A6FCC33D8467293C9B4BDEBE42A7DFBE8C23AC3E1B9239BE091D1BBD7303C03CA171273CDCE03A3E3211433D0584BDBC3BF3AFBD36E44DBC0C23483D091EB9BC38A7AC3F3DC5933DB37D67
3DDF51DCBE0ED39ABCF845A83C8F754EBC83473B3DA2EC253ED69A4C3D9DC877BC386F1C3DF3918DBEFB139D3E07E3EBBDAD847A3DD3255B3E149B69BDD92874BE1070DBBD7526A93E1CA7C0BDB65FAE3E0118D3BDEC393DBD4766ABBD0F3511BD806BF8BBC0BFD53D032998BDBE0C8BBE181A46BE337A5DBEF064ED3CB7C52C
3DD39B3ABD01AAAD3D93B364BDC0B3783DB45E523C16D78D3D571B0ABB8798C83B57A6833DF06A89BD591B523C42CCE2BC92DBF5BC1DFF7DBC32177D3CDD328B3DC9467F3C8FE08A3D8C13CDBBC0AA19BCF62AC3BC5889F6BBEE2F6E3D9F697B3D4499853D3C538DBD6A17C4BD84403DBB4E7F043D00AC053E6CDADA3DA738F4
3E075494BD3130DF3DCC03B7BDC6A5AE3D421A99BC875174BCD5F2733D8EDA9E3BFD074D3D55234F3CE838EABCA22159BB1B42BEBC61EE6A3B87B1F8BCE7308EBCDFE340BD09587EBDA05815BDE1714E3CA771363CAC4AE03D36F2D6BC7B23713DE44F053BAAB39A3E21C5F43D84EE17BC608F223B1B96C33C4F1DA53DF75E2D
BCDA663E3BB39EBD3DCB49DF3D7A83843D540FD6BE1843A83D8257C33D1B79BD3DDE93EA3D6EE3E3BD9F74B33B78C43BBD366B493E67218CBD5569AB3D9185C9BD8B83AD3C771BA83C46BCEBBD571B0FBD391071BE68D000BD2B90C6BBCDC5B43DC378603D2E5F8D3E1CE7FEBD75635FBE3BF56FBE7D46A3BF3B7659BC54D345
BDD485973C33D0D43E0D1FBEBDC669BF3D529C683E8C96D1BD4DBEC43D443BD8BE3041A93C868E6C3DC3253CBD630DFCBD368D5EBD3DA0D53D2F17163EF1F61CBCCDC80DBC435DCE3C6E3FA73BEEAC64BE81482B3C272193BCDE4DEDBE1C245B3E047ACB3E64BA123D76E6E33DED87483D057FC73D07AFD8BF434AACBD010688
3C8C1487BBF42E2ABD4E1B7EBDD9F4E6BB8B288C3C9A960BBD09E8E33CA00C773B00026E3E2093273C885446BD10F8EC3D5159CBBCEFB518BD32483DBDAA220C3D0F7BE33D10D53A3E69F566BD3D869D3DB668E03BB2F17EBD4ED71D3DC293C93CCF7C98BD807195BDABED8A3C1C86DA3D0B1E253D4C60E7BE1F736E3D98580C
BDE8315C3CFB75FDBD405900BD06CF673C2A75783E5D3557BDD300CD3D2B6933BEA8867FBCB5E0213D8BAF6F3D06B9C4BCAE82BEBCCF58BABC56C0D23E1D25933CF1FBC9BE8BCD3D3C9A8314BCD9C815BEA7B5FE3CAE6E763C63CDE6BE2BEAEB3DC0573C3E35F23B3D8D8BF93DEF7CF33AF7F7683C1A8D8D3E128C7ABD879A5A
BE7157463BCE14523D438BA7BBC60861BC60AD39BD633727BC06156DBDC8A692BD363A703D1F72F3BC78B70EBDBF17C7BD18A632BCDE2CC4BCE4F1AF3C48AA4A3BCEB2D63DEA005E3CD11E54BD67C3D43CF412FE3D67A5A23DCCDF07BCB9C25B3D3A436E3C8250FD3E1214A2BD6E4B0FBC7ECB0BBCAA378DBD5CBA4FBC131CD4
3DD41678BCF2195D3D5FA4FEBD856A013D8E4B3BBD0503083E61B96F3DB6DC483C8EB75B3E03D273BE2B2FF33D7AF6A7BD842C4F3EDA0FBBBD11C449BCB662603C0DDF15BDA5EBB03D1FAB47BDB484253D114AA1BE812DECBCC1A97E3CF49FDC3D995B81BC12C5D5BDA1AAF9BDB0F1D7BE1D276DBE8C93C13B424BF93C074DE8
3DAC28E1BDDF498F3AE447D2BDA1853DBCD734C43D8543403F28FCB63B5CE1D5BD143DC8BD8F685CBED2B9193D09D1DEBC8A2BAA3DB5C3E83DC073DBBDD03794BD42BE823D39ABA5BBE1FA33BBE6C1433DEC2C24BE0C4B51BD984519BCADC8B9BD0FC71DBD3321C9BE1D4918BD9E75F1BDB09F51BDA608773E6433243DA1E4AE
BBB9640B3DAB3C413EC99223BC4ACA333D00DACF3D497A2B3CECF99D3C875348BC84FA0ABC9C91A83C7CA40A3E49B3FA3B00574F3DB62D2EBBCEC6723E9C22503C3211A6BC9299F9BC1F15753CB01405BE28D3D4BD9CC8883D2DD7073E4086963E7E31DC3DF171AE3E4541DF3B02FEBDBE3D5AD5BE01BED5BF381861BBF3A9D1
BC104448BCA745403DCEBFB43C9EB0943DE48D733D837A933D7C41B6BD550CF0BD038AAF3D5097D6BD0AB0D6BD0370AF3CAD17C4BC8A8EC33DA880C9BA3FE2F6BD3C0E3ABD3013583D8F3C0C3CB2C3F2B8FFF6DA3A1B06EFBDD4A0AC3D63ED823E15CEB13C82EFCD3D1754E4BD87AD753CA6EF753C4595963DFA0B1A3D200A62
BD2315093BBF8024BE250E1ABDA0EC0C3C6A53D43F0ABB563B6FE9D83E00DFD5BF0C969DBD423EDD3CF0DFD83CB6B1CEBD3640FCBEBAB56EBC9A02223CD7A207BCC57296BCE55CC2BD3022923D3A5E66BD99CBF43EB9405ABCED74763C0FBB2DBDE252143E6625723D271A5C3D9B1ED33E1212133E5FAF5A3F0FEB9FBCA6C9EF
BE03CF8D3E0D5FEFBAAFF5833D01E356BD0BC1A33CBF1434BF1FD964BDC3BAB6BD3E92983C80D8C33F3F761CBDCDA65A3DBB9800BE333F4DBD7C4E213E1302CB3C084C0C3D0080F6BDC903073D077ED1BE5C93813E481F723E1322C83CBC0DA43DFDD7233CABD25C3C3A82963E7691293E2A72C03E39B1343E99BE2EBD514FC2
3D48E97CBC52189C3E39D29B3D2DB5453CB3FCA4BCB6B03E3E17CD693D8D75693D9820B53C3CDE96BE0CFB123DDB71C9BD38EC283EA6224C3CE9A0923D68BB753CA15C33BD4BC0513DA6B8CBBD0BA087BD24E1DFBE65E8EF3D7616373D3ED8F73E3FB3203C794ABCBD9B84EDBD9BA3D6BE6FF8F6BEB37B90BEFBBFB9BC86D8C5
3DB37976BE15E162BE43E55C3CCEA203BC148305BD9770E53E47DEDCBDCC1DB73D5198EB3D89B7F2BE5260E33C6169413D02035F3D0E8E8BBBEC5C5EBF11C09ABD8527233D2E4B8E3C7A60B1BDE692B53F11569FBBD516F4BBE7FF6E3E28A84CBE16DC27BE34D18FBDC0BCC0BDEF4A73BD2B42A7BD1A3EB13F481DE33D72B69C
3D2AEDB4BD455689BD3F1F57BE0316573CD839A0BD4E43A03D98FA4A3D8E958DBB4547553CDAACB6BCFDBEDA3DB25F6BBDA930F03D1F2B08BC8F5C263D085FDEBD92D12ABE0797A33D847A80BE1F3DB9BD0D423FBD7372CA3D4B1C663D75E3313D8F83E03CDE14233CE6E55FBD5D619D3ADD085EBD663A06BB970A313D2175B7
3C11FD3CBC6624B3BE857E1D3C4EBDE8BCE7DEEA3D907E77BC616B97BC1C1B1DBD32AE643E7923F73D377FC0BCC29DD7BCA3FE4ABBFE8E963D2947D6BDE311513CC3D9833D0C66AC3CFA68EBBDFF8D503DD05C36BCDCB75CBD48FDA93D1544D4BB4F1717BD2B46F0BE1AF2AABC863C9C3DD7E45B3C5AE8E93C40A71F3D948D68
BD078F84BE5655C63CEC56E63D23F2293CE64C793D385EF53E122F86BC95F53BBD61B0F53DBBB80BBE031E80BD360606BD24B977BDE23BC33DDF177EBCE9C292BE812336BD82749C3D3BDF0CBB3FD3A13D2F97023D6A0390BE1856803E08C610BD0C2B303D8A6EE33E271864BD8628BE3C2F2D353E0A867D3EC09272BD5A249D
3D09017DBCD85F243E4E08A63DAA76273DA72769BE4A9E84BD89D4E7BDF9371C3D8DDD3C3BC02FD83D86D0023DF881F23D1C384DBC5EFBD0BD274A7EBD8C0609BD112C4FBE2C2D20BD60B92CBD8B5FFF3D950C153B3E43763CCDAE2C3E172B943E0D867ABE325C6CBDCC105F3D02CEC8BD3A9FFCBC2985823E95BBF0BD649A2D
BC820AB33CE4DF5C3D563373BD04C9CE3C0F5072BD6AC72FBC4780DC3C90A4663D500A4C3E0F891A3C756480BC8EB8D7BA97ED143B5137173BF365533BCD0ED0BD05F12DBC50A4473DA6DBA9BD27420EBB92AB1B3B5FA9B8BD1A8BEB3D897787BB144B7B3CACB6FA3DABDC93BCC5F10A3D0F7709BD32C08ABD280812BCB1A208
3D6773973C01AB66BD5AA198BCAE7897BD09D3C2BE487F973C2EED1CBD95F7B33E812B203CA9FA52BB3F911D3B7AA6473D9A9D373D823C08BDCF3FF3BEC5AECA3D09D5B6BE060DCB3D2383C9BDB2CC3A3F13740CBD2453873DAC57C73E039A21BDE0EA7CBE279A1ABC8377FFBE0F6BD7BD42BA4BBD8B38CE3E76E17D3D04BC84
BDA084613DB3D7B33BEE66F2BB9562DB3D388DDC3BE89222BDE120653C92D9D93ADC1BF73D33E64F3DAE04C33C51E25C3D38A42E3D192A37BD93D75F3B8D03C43DD1D5A5BCC157EC3DB8C215BD0C919D3C7621EABCDBF8B43D99FB863C1306483CB10D24BD30173ABE22326E3C3A6A51BC88F4BDBD44E73ABE06DA8C3C4ED86D
BDAD8BB73CBE9681BE6151AD3DBF3E8F3D5CEE3A3E5908D1BE4E43DFBE048698BE045805BD75C4963E28A1B13C6D4FEC3E2A1933BF170305BCC722793CB8601D3D389A27BD5361E8BD58E97ABA8831DC3D5189403F030BB1BD3A096C3DC9AF10BE725EDA3C8964733E53DBDC3D77D77C3EE5FA343F0316EE3F927DAEBD96F2FC
3DE56237BE60FD61BE28C104BDB3F2673CF437113D6E78E73E352751BD0C8DF7BC86386C3E243553BE9628DC3DCE0A73BD52501C3D3337523D33BA94BE6A6C29BDCBAFC1BD84A4443DEC992BBD8497763E68DCD73D25E201BD5450EC3CADF26DBDFED0E73B974662BE11BCEBBDEFA96DBCA0EA84BDB83C4A3EFE8544BD5FC834
3C7E2CDEBCE5FC8C3D5E22513DDF69383D889451BAE53E1E3C7349AC3BC407593CB7B5AF3E7BAA3D3C8017913E83248EBD88300FBD1D3C71BC5E06803DB30C543DE7BCE83DCDC2713D7E4868BE080DBB3C9E46D5BC3714CCBD477F6DBB29999FBE0EFCEDBD9283CFBC7395913CD40FE13D67FF183D32A6083D88E3C53DAEB493
BD82A8C5BCFC265BBCA175E4BD3D6114BBBA835F3D89744137B5075E3DA3454DBD62E3223C9A9A013C73D89ABC1F26A8BD4C6BA23DA865ECBD686B413D669B493D1EB55EBC06A982BD30A292BD45654FBD358362BDE62B2DBC9F53E83D0D4990BE03AD593BCC47593D96565DBD705EB7BB9729B2BD5B18F2BE006C17BCFF0018
BD7F967ABC83B2673E2215EBBDBA619EBC82EE42BBD7373E3D68902ABD0643B33BA1705BBB8E379BBD64043B3C98AEDF394AFDE1BD0BF154BC6651593D8EAAF03C4918C3BDE0462D3DCA84BE3C5A92E7BD426F963D3AB81FBD9380CE3B23E17BBDFA638CBCEA6921BD23B7483D4F221F3BA441F33D078FC6BE2647ABBC6F2C49
3B5E8D2C3C5840083D47B1A83D2C3882BD18563ABD32BE593C27C326BC9B4D9A3C2D58813CB7AB1ABB26F505BD10C00CBCE60AE13CBF8CC1BCE71AE23CA2F1303D859FBB3B30B3BABDC5F0513CE35CCFBD018ED13CB645D5BD266CCA3D7CBCDBBD9C6765BD1D517ABD4AC121BB8060A1BC28D744BD235D38BDFCE022BCFFAC30
3DE19EF03CC99464BC839E883DA9CA78BD41A0CBBC9A29713CCB61033CDFAF283C169E3A3D37E43FBCB145B33B0443DCBD4D0C72BC8DDE153C5B11DFBC0B579BBCE6784BBCD46B0B3C92024FBC6AF1CD3B1299EB3CBD1021BBBE0F583CE1A9FB3DF6F5493C8DB74ABC335263BBE7A371BBFB3FF03B26DBEF3DA6531BBDEDE24C
3B2143AC3CE36B173D8E0FCE3D8663333D15454CBDF2C02D3C917CA53CAEC5913D8FF3593D85C2E4BC8288B43DCD12F43CC3D198BD0525A63B5AF9B5BB25A689BDB700F23E11857C3DFFBE28BD158A8D39BE1B083CB4F31ABDE69B11BC8FA86FBD7863993BFA05F13D01E58D3C0D26783D01DB503B686FF9BE096E3A3D694540
3D3E524ABCD3DBA03C71987CBE43BB953E0F9A8CBCF505E43D130C3BBD92ECB83CD080BBBCB048CBBD0E10F43E8381783B66556EBB8CC67A3AD8AE17BC0139A1BE67379ABE4CE39B3D8C0C17BDDC0181BC92E57FBC3CDBD23D34BF933DF984063AF208D3BBBB3EAC3D858126BDA27C6F3C459FAB3D0693563E007A4E3C4A0395
3C8F0104BD2C84E63D84CEC4BE321E723C693A58BDC439673D62594FBD8178C53D789586BCE83CD2BCB5FEB3BC3CA09BBCE215D63C6CEA513DC654673D1F5F4ABD7899FE3D8307713DF717F43C4889EEBD3F675C3BEB9A6B3CEC9BB7BABF19463D77EB263C87DDD2BDEBA71F3CCDA3BCBB9942FF3BB9CAEEBE369ED83D106775
3DD2B73C3C3EE7093D5CFE82BC29E806BD24E5CEBC4447C73C50DF0DBCDF9C3B3C1775993DA9E367BC7444C63C09ADD9BC8D3D7EBBF473D13C3EA61A3C3F33693D3C3477BBDA6E00BBE0FDD0BE36487CBC1018BB3CDB715BBCAACC333D53E2C33D5A3B9CBCC960C93D84B6833D805C7CBC1BAA56BB4C7E573DE2CC81BCA9D9A4
3D80C0F3BAD53371BD59A91F3C8590593C47731EBC7AC5133CE4143D3C5B80F13C1BF1813D5CADBDBCD7CC61BC70676ABC99D76CBCB927F73C9C56E4BC61156B3C011ED2BCEDC1043DAF6C60BD1D09763C26E69F3C9CE48FBAB7718A3CDF819E3DDDFEDD3CB969D43B99416D3D13B8CDBCAD85B23C8D83483A271920BD8FEFBB
3CFFA252BC9A5D97BD224712BCE8F5E0BC32AA8A3CFBFD853D64E4B33A6F9101BCCA520EBBDC6EACBD8421F53DA082D0BC92EA99BCE04CE7BBB046B0BBC3843FBD03FBDC3D33E0CE3D8248803CCAFCACBC7B6D093CAA542E3D63FAE03BA573E33DA0E4BE3D40231EBD36672E3D40FC9ABC9F3D7639D51BF83E4F1FEA3CEE738A
BAA3D839BD94988FBDC5C0293D9363D33C62E7F9BD289F813C2EEAE4BC14105B3D27A4EE3D4876D3BCC7F6E9BE0023FCBCA259303C59CAB93D83DDDC3DD8AA41BCFE475FBCB0AA21BE68599EBD50F7D0BD6F68BDBD2BB81ABC787A01BDB42282BCAE0F563CF643A3BAA0DF023C979EC0BCD297A93C86F3F5BE976DFFBD79C91C
3B8547BDBD02D94EBE3A0A0CBDF9D5743D44E29A3D8DC4C8BD1A19CFBCA8F263BD7A439B3D4BE4873CE79BBEBDD177C03C8350113D38C85E3AB16B373BD28D1ABB9812A43D07AA963DBAD58ABC5E53B93BB1ACA6BD3F23D8BC3199F63D666B403D3E5D5A3CBA002EBD0D9A283D6B96C8BD0244253C78CABF3E03DFF43CCFA537
3C9287CFBC8B24673C734BB33D4E1FCCBCA66BFCB98FA4203D3862C03CC289C43BA88C29BC882E81BD028B70BD3131093C0E186B3D300A2B3A49053A3D353C113DBC0F63BDCE0940BDDB0651BCB6EA8DBD9D3240BCC5B36DBACC02E13BF643B33C90929D3D9BE3C03DE37C60BC11730D3C15DAB9BAE755423DE2DEAFBDE24DFE
BDC88FE6BC2466FCB9BA9F40BE4E2349BB19F623BD0C13633BAE97C5BDB589463B81865F3D7330DBBCC260FCBDE99C743AB49EEBBB013C80BD1D3AD0BCF10AE13DBC34DC3E9C338CBE601ED03D258D473D81A9343D3B41EC3D38FEAC3DAF619EBC0E00593A9BC88D3DBF3EB43D161BD0BCE64CC7BABD6E73BC1535C53D890460
BD15989E3D491298BD9B2E273B38D8263C73FDFDBCB3DA01BDEE4560BD8A4BF43BB5B661BC16ACEC3DB4ACE23D74672F3C91F56D3DADE6C93D0319C4BB1666473D03FC9EBDC47A823CCF5E04BC7B15233B2329FEBD37DE52BD17E4E63D892D473D0CB9443C6BFC3ABCF3D2C53AAF29E73C880621BD71488BBDD950243DB9CCCF
BC5AADFEBCEC8142BC942B6DBC1F6704BD02ED613D31F4763D1785213D119EF3BD15752CBD55BE63BD5D7FB33B6157DE3C04202CBB9EA0E53D09D3D83D36E6CB3CFF6C903CA4E010BC59A8143D370F06BD1DF7F2BC8885C73C993E73BD3E041D3C01FD19BD47FB1A3D5B5351BD195EE13BA9B3FD3D47D7A0BD9C91793D8BD2C4
3D929E59BD0EC4393DE408263D33F8853D948EB53D998A543D6D3FCF3B0D5A7CBCA1A361BC1E52DABC9A379D3E1AD7B2BCBE05593B9D0852BCF3CC843C0FF7A53C4FCC05BD88781EBDE4BF82BDC8F4A2BD1B086DBC35FFA13DA2AE893D8468DCBDD3220ABCAFAE0ABDBE2DA7BCEDF19BBDBB2FEDBC72E294BE971CF93D57DC8E
3DB91049BC8CC2F63C9356F9BD1A41A5BC1BA3483C514D153C826644BC989E75BCAF3DC23D7C599D3C9917F23D5576C73D115C65BC3438AF3DD2F0843BF20575BBF1A6E73862D8D23CF0317ABCA14B483B8124403B8C545A3CB83CA73D9EDB5B3D8741C7BD86EAE6BDB05FA1BD3E1FACBCD1238C3A9AE4D4BD61F79DBC8993DA
3D4F519B3CC40270BD34566B3DA830F83C87ABC73C468F803C21A1163D3F9EDA3ACCE4D93D387344BC0E75EFBD7E798ABCE800533CD191143C2E0B9ABC9EE0DEBD8CECC73D9F52273C50DB113D33D1DD3BC53388BD6153833D4CB01B3B5A97A23E1EDD793BF39F77BD8AB097BC82A690BC4116CBBA19CA5E3D38AF333B79E307
BBD8FAE73D52FC42BD7019C7BD902267BD0511D63C56F600BDBB50353C8108C9BBE6200EBC8056BD3D8F2C9E3D1C6EC83D9120EFBC33A6C5BD9B696CBD578ECDBC4510743C0FD295BD3A7BD43C9111253D5CF3803CB75987BD6BFAF83CBAAA9EBDDDFCD43D1D05B43D9D8A00BCCA02C0BC668BDABD1FD3B93E1ED368BB98E9AC
BC31B81C3B6F12553DB9C1243CE622A8BC153B073C1ADFF13BF4A6753D58ED263CC871933CCFD5F03C10853FBD077A15BD65C0013C79307A3A51623E3CEC9360BAB43A213D4441BF3D765E66BC071936BCE52EB9BCA7A1743D66ECB53C8BD642BD4747EEBCB3F1653D783BA33D08628EBDB5D3A7BCF9C1CABDE18A373BC92012
3D36C9EC3C8077653D1AD62ABD9703843D7188CC3D870414BD018678BD1D2F43BCECE982BD848B243D1DEC4B3D527DD93D443543BCE7B0193C555AB8BDF15AD1BD4A64B5BD4918E43E0F21E2BD5DAFA13DBBE7843CD55CFF3DA1D83B3D29B2263E163B20B8EBF58C3D0A8EBEBCC341173C0CF2CB3CD94E9C3F115569BD3EA3FE
B9F62EA1BD0F25A0BC3B5653BDE2C7C03D151E1D3CECC7033CAAD22A3CF944E23C9D39BFBD29B5C4BBD521DF3D9B19E2BDD1B6013D08C57EBC01D61A3D8EC743BCF7D1C7BD5BD9113D6C9D71BCCD70CBBD9D85AA3AF646663D25E3153D275FE5BB977B3339A53CB3BD8185653CAB8058BD37D985BDC9666FBE23FEECBC525C98
3C141101BCFF20A7BE615FC2BDAA61EB3D65C5783D2E1A92BD02F25F3D42DFA9BCC149613D8331203CFEDF7D3B3AA766BCB759FB3C7E05AF3D348ABDBB71ACB53D2AEFFDBD9CE6713C9D52CFBD9AA7F63CCC84C6BCCE2CD6BD67E3ECBD0BA1F83C274679BC81680B3D7B9D583CC1A8FB3DAF49BE3C931A38BD22CC973BB804CD
3D83DE86BE927437BE6AA0CDBD77AD49BBAE2C763D6CBA99BB45651CBCF5F884BB9CAE7A3DCCF134BDA8EC1CBD2B3F4DBCD6BBAB3C0D69AC3D89C84BBC475183BE14916FBC8F3BA83DC0A060BD7FF40BBCD62D623C220CC4BC193F37BD88AC823E26F4223D559F03BD5A2023BC209D60BC05C0843D0699A4BE8C6BEEBDC4948A
3CDB3698B9A4947C3E1F693A3D79A1F5BC590BC63D4DB7B83C49DFD4BC376CDEBD16FA913DAA10D8BC7D67B9BDB92701BC3FFAC4BC105A04BD53CAAEBC4539F7BA7016F43CAEFBE43DDDFBEA3CEB1A343CA734F83D8B3E633B8E823B3D49A8CEBCDB4078BCD5191ABD9F2FA43D53A40ABBA17749BD8090A53E8C02203CD42412
3C4896CEBC9184F1BD8093F73D77A1923CC120023BA1665BBD400E0CBD20D5C8BCDD134B3DE86E023D0BD8AABD82F9B0BC9065DF3CFCF3AEBCDDAFD6BD10AE41BDB132D73D0EA82BBE065E24BDAD03C03D034BEF3C117D223D04BE423C4E950D3CA2270CBC9914813C4FF3FBBD79EF2B3D1A16EFBD80F407BCE6E85EBD534A96
BC8929853C84C7CD3D23CA85BD9FA0D03896F701BD189405BD6268CEBC9169B03C2DDEE9BCEC56F33D20F3E23D9178203C988B7CBC830513BD4E5027BD04C543BD12F7C73D6863773D18F867BDAF5B733CFC7C773CFCA9273C7A8E09BD598B54BD511985BD65A23C3DA0EA583BF072AFBC8F17CDBD13E6773D3149AA3D03F575
BD03D56E3DAD384D3D576989BC85ADD63D7FD3193C0CCE4EBD95A7753C3C34CDBD0A51D53C196BB13DA0E559BD30BC7F3D793F6D3C9E5672BDD02AC9BDA295B63D3B9CCBBD20A0CFBE1B462FBD712B613D86D6CFBCFD0F39BC3E1DA23D07512CBD4B66D3BCAD89213E17CF1D3CA47EF93CDC16BC3BB41EE53CBCE6D5BB086856
3D32A5173D1325CFBD025FF3BCE3687B3D3DE26CBDCF0D663D5704C1BD7E00973DB5A8E43D1ABA20BD309C3F3DD69C143BE7B733BDDECFE03C5A1793BC6A629F3CEAC0D7BDCC9031BDC030C9BD4431673C1DBD0D3DD8EF523C3660E0BC9100943D99F8C9BCDC0582BD1D200F3CA1CB613C94A4BC3DE94E283DD841833D3BBFA6
BCEA67E4BD10DFB5BD55ACE9BD11399B3D7112CA3CC981A2BAC79A55BD26DD083C8E1F4D3D37EA433B9A16B63DC03CF2BC5FAC0EBC771E2DBA68A9783D240F29BDAF6B32BD9599723E13447BBDC4209DBCD979C5BCC66D343B26A962BB8A9F193DA75111BCEFBD29BD2970D73D5B159B3C764A893CB2FCE23C4E4569BDAB843A
BD2E1A39BD9154D53E1D86623D8169893D7383CE3DA0E71BBCA5A1A1BBF89DDC3B006A203E359B113BF202323EAA8280BD6E29BE3CFEB15A3D3060023D473DD83E55518DBD078DDF3C13FB0ABDC2AC4FBBB586A73CB2C254BD6EA663BD50FE3BBE55DE2CBD80C8E2BBED1E043D664AFB3DED9B82BC81D688BD9F5DFE3E0D5FAF
3D38B56EBD027D2D3DCC3BFABD2C22843D4F9F8A3DF1A57CBC1D322C3D2091EEBD3F0058BDBB510A3D27015EBC9B537BBCFD776CBD3F8454BD07AD20BD20C4BEBD3E48363D8EB4933E315CA33D3089953CF9C32C3BD17480BC861922BC2A4393BB813E373D1591F93E2E2053BC853CF3BC58B0ED3C94E932BE57AD0ABAB3C490
3CF360FEBC0868283D577A37BCF86B07BD354068BD1B1A6E3DD7D9F1B9986A263CD5CA753CF3FA26BDC18D02BC6E87183C648A3FBDAEC7653D677F943D758E0439BC69293D22C7BE3DA628F5BD38DF2ABD5350AA3D7C072BBD1B9929BD2180C4BB8BA1C0BC8EADE03DFC5D65BCF76B8B3C8EF8A43DD65D98BEDF6795BCE18199
3D1B2FCEBC024BAEBCE4F43EBC97F14B3D907BD7BC296C1A3DA286FBBD8CA1CE3C1E7E933CA24C32BD8F980BBD867747BCB54394BD9CDDAABD1107C6BD101DA63AFA2B8D3C521A4CBB9A175F3C55A3B63D1074B73D435BE1BC889C2F3C84C23D3C7B28A7BD23EB72BE2FA7E63C1F4FA83B7E938A3D9097D2BEAB3DFB3B1F6500
3DFBEE25BBCC25B3BC218F62BDFA1F02BAF6BEB8BC32B035BCC37FDF3D0B82963BD6FBFA3DBDB8313CB09844BBCBBEBEBD1E226A3B7815533CCD0802BC22AE8B3C5EB53DBC3BA25DBD2AAD9DBDB2880A3C082488BBEDE1B43CD4D9B63CA46A003D5C378EBA98CFEF3DFE9C53BE0AD22438A0236BB9847313BD335A8ABE31CCC4
3CD16D433C5C1784BD448FFDBDEC84C13D31D81BBD080EF4BD205900BDABF6F73D26A7133B200A9B3D22C1C63D9C79733C5758273BBA1E58BD101B1CBD3C3EC2BC4082943E26D4F1BD194D3CBDAF45993D18CC6F3B8BF2C4BCC6D18EBD908C843D675DEFBD29234ABDA3F3773D4C1A9B3D1EDC11BCF3BA033EB9DB493CD972B2
3D71A6A63CAC7977BD25A495BDD2930E3DE977D2BB020276BC08B684BE19C28D3C0D1C5EBD2B45B8BBEE98B23D4F6225BBEDD6A33BBD09B73CF6356C3BE34D47BDE68FDCBE19D8BABBE14916BE4E7F56BADBC54B3D122DFA3C25DC0D3CFFCC0FBCBD5F483CD186B03DF013A1BD75BC0B3B83790FBD1791DBBF0D4E29BC24DB6E
BCA0B18CB98AEF2EBC9FD0E93BF1A2F3BC037DA93C8C5A853C29B422BC2F2DABBC501785BCD1586EBC1E71003CCD8B023C63B04FBC8A63223CCE22BE3D3C9895BDD2799BBD69A4C73CBA11523B18E217BD23B3743D46FFF5BC0FA3623CACC853BBFC04803CBAA4EE3E06E5B9BCA0D07BBD2D0A123CA5D4D23E343A25BCA130AA
3CC1B38EBAA1DD773BD7DE4CBD7F1E953D0780DFBC672534BB34BA65BB25999B3C0AAD503DAD3857BB13BF373CAA203BBCEBD42ABB5F25C93C3F96153BEBF8D83C741FE9BE0384BFBDA6BD6CBD82BB05BBE54C4C3C0B08BD3B5167B9BCA48D0E3C01E0CA3BEB7AAF3D5CECA0BDC8F4C7BA6D8B41BAA538B9BDC7D6B8BD0C10CF
3DDF7987BCAEA43FBBE1D10CBD398FBEBDDB4F353CB92F2BBCD5676A3BA0F485BCA9EA203D9888ED3CCB352FBD2AB33EBC8EEE323C889F5C3C559574BCFFB174BCFEFC213CCA04E83CC0E9ACBDF8B01C3CD05D44BC3D59013CBDE93D3D623EEC3D72FD993AD930C63D0CA25EBDB537EB3BDA1C64BC9266F8BD34B56CBE4BD5AC
BBF63C05BC92EB4BBC3CB5CF3CB93D763CB3903BBCF03CC4BB7A4CDCBD5630A1BC11FA71B89C4385BA99237D3DECA8053C53B81CBD32602D3A897731BD4A33C1BC8D10A0BDE1E1FCBD2632BD3CD932C83D4352623D26AD273D356D25BC97E55FBD8A0BE13D1D2BD63E61F2373C2E7CEA3C593F453CB9A5163F04EA363B178C37
3D109A7DBD70FEFA3D55C642BB537606BCA8C809BD80658DB74E21193C81F47E3D8CB67FBCEB609A3B30B34EBD522B823C9C5B50BD31EF883D6DEF07BC285C3FBD0A4C7A3D18D1BB3CBB7623BCE66C6D3B9880263D40CEDDBC3ADF5DBD805E2EBCC5A905BC94E588BDD04731BD8812B83C1322083CAA03C73E3DC5F8BD213E6D
BCBC7CDFBC77757DBDDBEFE7BA65B756BD15AB2A3C6AD7AD3C98F1B43CFABE21BCC4F09A3D08F206BCCCA3CABDBD393D3ADA06353B5BE26A3B31CDD53BEB19C5BB4188EC3C49695ABCA6B8E83BEC4FC3BA72C01BBC5F4A233D1050EEBCD35B7D39428E833D35E7753E0A829EBD7EFCC2BC720F673CB93961BE8FB9EB3C1C02E1
3CE8BD7C3B8318143DBFBF3C3BD10AE3BBE330743D3595CCBD2033ACBC969E13BCB3B90B3D05F8863D2D314A3D16CFDD3C81DF163D1D4B36BBCCB206BD99E0CF3C17CDCEBDE251653D2A144DB9DC0A283D7722C5BD4A4D19BB6F7F81BDAB6D48BCE6065D3BC230A9BE36B58338429123BC872DFDBD2EB6103E4AA048BD3A25A4
BDF95B633DD283B53DC9A5083E1533B93C4573F7BD9658363C96979ABDE8DF9B3D5CC5783CDB4AB4BCD4F541BD6594A1BC5CD658BB2F974BBC39231FBD2BB1ADBB31DDBA3EDDC0823E9CF72D3D2262E03C76A3293D8E8C33BCEEE90ABDC7682C3CE36AB53D937C29BEAA0C5FBBB4D91BBCFA86D6BD45BAD1BC107C953D9BD087
3BF20A54BC539750BD639984BDB38AE7BBAC7AAB3D066D6FBC89ADE3BCA5EB6ABD15D1933D56B1C43BF96868BC92620D3D4B7DE3BD88BEC43CCA9E77BD83CE353C304925BD0D1563BB0850DDBD4DA1073D5DF8A73D7F6B14BBADFF8E3C1251AFBD087FDF3BFD4D5E3C69B8383D55732A3B3009423D7575E7BE5555703C736056
BD2298F13C13E3A53C7C89F3BD5FA445BD5F3AFBBC9FC58BBCB6841BBCA0FE403CD77CD5BD22E5ED3C95F51ABD3934F73C179FC6BD343377BD0F8FB63C17DE31BD7759E73D11C7E03DA50BA6BB85A82CBCB251FE3C19F7F6BD3442443C1547D8BD601C84BCE229443DF06D023C8807FE3C6319923C0C5564BD16AEB03D1645C0
3D7C8480BCD2B3E5BCCE3FCFBD6742FE3D4151C53CF043D9BD1F7D403D0A4A0FBD4BEF6BBBB9D4883CBF601C3D652A6FBC94D54BBCF5DA53BB8AC83ABDBF19E03D0BDCA0BCCB21683B651517BE0BD2383DAE0B713CD97CF33DA0A53C3ABA35E5BD3CC3593CC2DC233DA3F329BC0E2338BC8ADA0D3CE5329CBEFA6C293C9B71B3
3CBAC7F6BD027E2EBCBDDF6F3DD3A5F8BD140E73BB06FEA4BCCE5A9BBC905AB9BC2B1225BD93BED33CCAF2EFBCF0A809BC03BA783BC97E2C3BAC128BBB6FEA203C14DAD33C47A165BDD2C6643D2E0F8B3C3FDA58BC09D6753CF9F94FBD3FF60EBC222FEABC8E1FC7BBC5A54C3C6EAF4A3C14EB8EBC3FFC063B66526A3D6B351E
BBEE8FDD3CE3395CBD48DEFFBD9B83573CC501023C24FCC6BDAD9BFBBC5B0A44BBF6A72ABC2B9FB23D9F024EBCE6EE31BBD73D9A3D9F981EBD973116BD390D8C3C031B363DBE4E21BE1E2FF9BC9962623D390BDABD78CB8F3C33DAD93CBB153F3C92671B3CC5F175BBF4546EBCB28B00BCAC6587BDAC09D93EA7B0E8BCFEC38C
3D5F3045BC89D0CEBDB8B7D73CBBB6573A0BE455BD83E26ABC3AA5993C1733A33D4D320A3D5DCCC33C9D23CDBD7845BEBC406DF43C91C1643D0D5023BD12FDEEBC90B8173DD94EE43C32199F3C6A57BF3D447BD8BC8402F2BC9B2731BC95A03B3CF32343BBC8F157BE2DBC70BDB341DF3B73974FBBC5C76CBD4559A9BAC945E4
BB75B5573C7AF9B03D65DD9EBA29143CBC5410193D94BC66BD36E6B43C5D4BB1BDC1D15BBCB2BD343D2F63D73D8DC1EDBB87D7E8BCB25F9739B09131BCC11A3A3C6F3B83BDBC5E343D1657CFBBDE46AE3D0625DC3D650833BC2C07513CB95F72BCB47771BC01609BBCFA01333C718310BD47FFDEBCC196293E50B031BC644288
3C93EA0A3D1C7BC63CE75CB53B3E22263D143BE23CD9646BBD6F7E85BCBA6B4CBD8ADC02BD53160D3D564E003D2864A6BBCF9B373DA51C5EBC189B623CC42606BCA381233CA03F343CC0DA81BD264B60BCB4748FBD3658AC3C1FEBDFBA3E8C2F3D6782403D3B6F133DC6FA083C57291DBB5E1E5FBD94F64B3BC72536BC9CABB4
3C9348ED3D13D66ABDC75DBD3C47FF69BC96E625BD9BEE7EBCF7F7333CBFE9CA3D2D7780BCA152A73CC49DE2BC848D8CBBF8B5D0BD115F07BCA1FBDFBD651B75BDA37854BDD57B5CBDF4A59DBD4FF5673CCFAA473C877F823D12CD5C3D4D8D433D0F4B613C8F45113E1D13F1BDDF75B03D4872C63D061FC3BE6B8B093D0BD8BD
3BFD7D733D1EE36FBDC834C43BFE2FB2BCFB7D76BCE4B21C3CA5CBB73C9870103C8B2DC13CA6A579BC8444C3BDB6F02A3CCF39593BA298043BFD49C03D115FCD3B56B5ACBCF8FE153D221C6E3D21C229BD2DD25ABD0C903DBD693B86BD19AC75BBAF1DA1BBD93992BC9E45323C4C18C23C4A8E073BC8549F3DE92C803BC8C7CE
BC20CA7EBD7B22C1BC8838103DBC95E3BCA3F57CBC8B2E23BC30E646BCF6FE453D4D8B31BD9A2D453D4C94C13C94A0D9BCE14036BC0DC68E3D79AB3D3C044D03BE28035F3C9B7BF6BD71CA933DB3817C3BFB3168BD12F0103CC64147BD46E5503CB023F3BCD24099BDA862F03CBFE3D93C88FC233D87259DBC2A5D9C3D4B3ACC
BAFD26E03C91F54D3B9AE0E03D6A678BBC436BD0BB475D053D2BFF89BD8BB4953BB1474EBC466E34BCAADCF1BD530EA03BBA44DFBCBC4461BC99CB723B7D5F01BBEF30ADBDE680C33DDC88D83CE9FEE0BC458F04BC295793BD09023A3D6021A63D29B7B73C974FB03E027F59BBD791B03C22D5A23C2BC8FBBF0B2D04BC45132A
3C0BDDA2BC5A9F723D500F463A8F9B6F3D9B243B3CBA7F75BB0792403A25D33ABC2B39D7BDEB41C23B5960CE3C52B8BDBC0464D8BC2330BBBC65E0FDBC027874BD0E5F943D99D007BC3DA8B73D61D3B03BBD6FA83C0C28473D3AEDD7BD7E1CDEBCF70F1BBBAB096D3DA7C0AC3C38CFB03B852C2B3C3EBCFF3E03D7023D7D981B
3CF2AA9C3C98C0A0BDF5C40AB9780002BB52C2C0BCCF4D63BD615E1A3B81833F3D058B663D0302E33CE8F9BEBB632BC6BD35C4313B6FFD30BC4E9C563CA9FE2CBCC5AD7DBE4E27903C011AF8BDDCD97EBC2943353C96C74C3D9C4CE43CF3A2393D6A44EDBD06054C3CB9CBB33CC1BAA83BFE903B3C1E13D33BF8E7943D6ECB14
BC3A156C3D750131BD4CB056BD8EC8903D8B91B5B91D56EF3D1C413FBCE874BABC857C61BC23F7E1BD5E243EBD3F782B3D265CFCBBDBD835BD3EB6783CD0DC9D3D287604BE0FD3A03E161C3D3D1338CBBB89339A3BF539FABC8318923C9E908DBBCD68C1BB89B9DFBDDAFC9C3C25440F3BC36344BC504248BE212E3B3C47DDDB
3C75EAB93BEAD3523C2CAEE33D231852BD2EB9B5BDE6689F3D45A710BCC15B483DAEBD0CBD0655B1BD8946D83D8F1988BC6D55FD3CBD5C1C3CCDC34F3D181928BB8328F1BD8AC0243D1DE175BD29DC94BD0D130FBC1A39CA3D9982BF3D59873E3D3AE969BD31A84EBDAB4BB8BA9471843CCA133ABCB0BA1BBEE80ADF3D8266BD
BC7A7AC6BCCFFC8D3DBC4DD23C0D88B23D515F3B3D79F821BCA97139BB37A845BC524CB3BD34A1DC3C8550E83B18079EBCA6EFC23CD798F7BD3853D63CC1DF60BDA1A7CBBDDACFC43D8B70B5BC579501BCC5DCFCBC25BBB0BD71DE523CDF461A3D253851BC173D753DFBA47D3CF24C533CE322C8BD05D24E3C0787B83D157BD8
BD1942D43C65F52D3E7FDDA53C186D923D74D9393D8FD7B93C84C084BD7BF330BCB060FFBD351046BCAFC1BA3E7B42ADBD1979A3BC8F8955BC2ACD0A3ADBB4033D0A6AC53D8142143E1906D33D4762593C4A9F95BD52280ABD826045BCADBACBBDF4E5D0BD1820FBBCD3B1B13D451B1B3D7EE7F83D944EC0BCED78E73E273705
BD5490483CEE5A5B3D74BE70BD26E4763CE4C04D3D0429623C1FD1133E494A69BD5C836DBD9AD960BD4ECB22BDBADB73BCB6AE7D3E0BBCC2BD57220C3D454DBF3ABB0617BD646891BC1CCBD33CD20D3ABD90A0CEBDE8F2433D19976DBD01CFE9BD42EF323D33B6CABDC1BA02BD722049BD33B11DBDF518CBBE0426D4BCA1E258
BCA75A003B92BD48BDD45443BD1AB28EBD133801BE16A5A4BCC4CEA0B98538563E24C48A3D7404493D5653363D5B5556BAEC3328BD84DBA83D0413873D10CDA3BCACAF593D476AB7BDD4F0DBBCFCD7B33AC48C563D3CF78ABCA93AEEBCC4C59BBD093087BD00738CBDD9F56FBDCA09663B8CEB2C3D695AE03F5535D0BD2890C2
3CDE1DB7BB1DB3FB3DA615B5BCEFEDE6BB39FB1CBDA61D35BBD3435CBD21C1623DB0A5143C6DFF9E3CA5C0A43CC2105FBBCF912E3B56E514BCC75ED73D9BCE833C80B2D5BE07D8113DA5C1D3BD65E636BD930CC8BD055BD13CCC4B4A3D239C62BD3EDA5DBCB713A23E46D2D23D2023363C295543BC900BF63E0BCB6C3B65A01C
3E0E31C5BB93B4DC3D57EF47BDE9B1593D0552CBBB0DAC47BBFBBA103C4398193A1594E73E0140303BCA969EBCA094FE3AE66C073B1B349F3BE65194BCA72FC5BC4D37B9BD16A6653C23EFE0BD93AF463C95BA9EBC1E7249BBC9D17A3D113AFD3DE305C43B5EE8053DF4DFDFBD7EE12A3B81E01FBB947153BDB7DCCEBDED2AEF
3D8240FCBB8B0E773D89DCFD3AE1EC4DBB8B49CB3E4B2EB33E64F210BD7E0207BDD4B6883DB07891BE710B283DD90A80BD1125F83BF23B803C96ACC23E0796AFBDB89F543E1885C0BC9676F7BC77E29BBE1FC8D83CEC3428BD7035E03DCA4154BCCCAF7C3E220A87BC0B1004BD8748AEBD21B4C8BD218424BEC99F6ABAE7C8B0
BCDD6305BD303D52BCBCD00ABD85970B3E0B94CFBCED85A03CF2F275BD9CFFFE3D46487CBBB5E0E1BD1604773DFABA18BD2C9598BC9A88643CE6E18BBC0E35A3BE4E0E78BE5ECC6CBD3933BEBE30F00EBC2FB5C63D049CA13D0958F93DBF88F2BD35D789BC0F7B3B3DA47BC53BF9D0ED3D2030E7BC617B183E7D69043D9C0BDF
3C2254FA3C26865C3CA33E1F3BB7BE4FBC5F8FC63D3C6AC53DABE3833CA55A92BBDE76653C177F53BD813C2E3DC5087B3CC9887ABD556E893D5BDE8DBBE11E25BDBBA882BD2345A7BD2729DABD34D20D3CCAF9A73D235C87BD72D9A9BA481BC43D0E88C43C31FD2FBE64D2A83C3891D43B17153E3CC819A0BD13D0FBBCABE817
3D642818BC57CF7E3D29265FBD5510ED3D1BDFB3BC99303CBBDEB1C23C13FE7D3CA0C7AD3DA899243C2044FB3BF2D5183CC9BFF6BC6A3BA9BB0200E9BCF683B93DEAF35C3B62EE54BE398A4CBD85C24C3CCEDA3D3CBF56743D3447133C659A893D738E07BC0A84813CC8FA1C3D41C12D3BC891263BCE1C07BDCAAD3DBC1BD060
3DBF2DC6BC0DCE4B3D147CC5BE065A1BBDAC597BBCAA1C4A3BD80CDB3C3B05B23CB3DD093D81E4ABBB099D59BC80CC1BBC0032BE3B13D591BB9EE9933C8A7E703B96DAA4BDCB309DBDA08349BDBA3D0CBC9EA2053A968172BC3C11893D1D4AFD3D5453153BAACF2F3DEE2142BCF7F404BBB4E122BBF790853D922922BE19B1D1
BCB0A106BB8D2BADBDF3B8D23DCEDBA33D183114BE03920CBDAC068D3D36FF983DFEE690BD0B9C0B3DC899AE3D3BFA9CBD0A2D143DE1F9A3BD788E963D55B7A5BC4C412ABDA2E1343AD025C2BD95EECFBCEFE381BD06F9C03D04B3C9BB6F5421BD3548653C98E8A3BDCBE6863D1653AEBD7269C1BDB40D213E5EDD9C3D10782B
3CB419A23C03AB3F3E0CB034BDF9C578BC231EF0BD992B88BCB58A553C09338B3D97E5313DA1B2763C3457CBBD639CACBBF8F6CC3D4D82693D3BE65C3DB09B39BCE3DA3D3D15E44E3E0F98C0BC1CE9ABBD52B271BD417EB6BDA0923BBD3555FABCE88A533AB61EC83E42B7343D66EE5F3C8487CEBC252685BE775AFABDD34B0D
3CFB2B583C91F69ABE275E593CD8CAD4BD306124BD4F151ABDB24E3EBD85A38D3D82CD493D6F23013DDB75173D2012693BDD48DB3CB512F4BCD63395BD949A353D823B783D925B5CBD9DAD9FBCDE49673D341D95BD3AD9DD3B1C75A9BD1273DDBD345AA1BDA8A8A4BD25A148BDA0D4CA3CFE0DA6BC30CCD73E84A17D3AA35B61
3D226805BD1E05E3BBA67BCCB984FBF63B3573F73DE039953DA787D6BC42328CBDB12B0B3CE05807BDB20755BDA07919BD0EF4553CCAE3B03D1CB92B3D8B3E3ABC597E7EBDA6F6663E49FD6DBDC52497BD951DCCBD139FE0BDD21000BD54A4A13B9746DB3DC7AAD13E213AF23D94EC6DBB6AD9AF3CD392B6BED517CFBDC6C0F7
BE28FB9A3D063AC83A16C094BD0558A8BC851142BD7D799BBB472D05BDB34828BCDCA57A3D866F7BBCF35F4D3CE161CEBBD64868BD877AC5BD779409BBD53E15BC8ED4E03EAC86533E81E2CD3C799BF03D4239323D8C1B52BD54AF9EBD964397B9C62BA63D49F5183E6F16093D0899E0BD965E6D3BAEB15D3CF63357BCC1B1E6
BD6110903CD18878BDAE3CD93DAE39F0BD13F638BCE815B5BDC775803E3A13513CD00933BCF32E523DB80DA4BC099D423C3E8FB23DAAA6153C8E93823BFB5AF83D098962BDA72E09BDAEE0A63D28F4DBBC18B7B9BDBAC019BB8F3F2D3D1E9FEE3CEDD870BB0891D3BDE6718ABD3364D53CE030C6BB8208A0BD8623083CFC5E02
BDC766ADBBB1569A3DBE5613BBE3BD153B8F33E53AD454F63D3309203DBB4AD3BCAEB146BD90B244BD94B23B3C24E412399E82C53CFB70C7BC303A493D6D14263D0AE2423DF210023D1D78503D903AE9BD8DA8F6BB7112EBBCD05BCDBC5EA4E7BD4CD937BCBFE560BE07E47CBD73BA553C15DDF5BBCEFCCBBE8BEF203CFDFD56
BC49CF3F3CFD33BBBE149515BD39FA683DD87012BD624D39BD82B4913DB31C243C79926D3B5D90963DC9EA553E376EC7BC4CF9673D858DB3BBC543B7BD897BAEBC4A4147BE70E40ABD9A947FBD653CAE3D919E96BBF41B0C3DDC48903DC87537BDC8A220BCE6C3F53E05DC793D32ED27BC733395BD8F16E43F1C07993CAEE368
3D4D5B45BD53D9F03B44C5183D73DAB93C14D257BB14A9CABBD8B237BD1850C1BA4B62853D645BCF3C9CC1C83D9B09D03C08524C391863D5BB00D6D0BC925C8D3DB9352DBDFBED61BDA77A61BD9B4BE33C9EC4CA3C592E64BD2412303D0130E83D74E214BD215348BDAC9B903CFAFB4A3CCC1BD3BCC1D3173D8B57F8BCDEEEEF
3D471BD33B9E60A23DEEBEFCBDBDB5253CC121033DB949ED3D0EE10E3DD66B45BDF90B21BD37E252BD447D40BBCDC8813C5BF7243D1AF63CBD8EBBD9BD109AE4BDA11DA1BB0293953D55A98ABC24F4D33B0BF03BBCC57625BB0256933CE7FA4D3D6FF1203CE4006F3E65A2E33D865F5FBBD8EEDBBD4D1DABBF308142BD7E4F3B
3D1E45333BA73AEFBD00A9CD3C032B803CA3F3A1BD0E39FABDE1E94DBD3425C73D61DAA8BC7362D03DD39162BD63F005BC811DC63D403879BC1652FDBCA77243BC73FAF73D862FD63C769952BCC3B3F23C85995ABD1DB89E3D5645E7BD86BDC2BC473A14BCCFCB5E3E492B363D78DC99BC4FE306BD005C8B3E93FA653D75E339
BD169AF0BC90E87DBD4AC1B9BDAC6E823D0BC1503CA336893D0A832B3E13FC64BD0302093D70B68CBC9D2CD73E2FDBF8BCEC37DA3D5C63123D38ED90B673AFB03B08428DBBC450C03DD5FFE1BD0F8409BCD7DBC4BC850F553CF6D9A5BCBA3D2ABC711243BBD6F1ABBE1E2C1BBD0670303C291EB8BD93B805BE470F62BD178C4D
BB72DCD5BD0B1A79BD8691F53D9C0CCDBD09521C3DBB8CA43D6BB48DBC38E6EBBDB77A5CBBADEA89BD4F6611BCB4D5EFBB9DAA72BCFFA7363D5FD062BDA8B18ABDBFEBC6BD905D91BE2111CF3C8E43ED3D6A1B5B3D75377A3CFADD823D86E3F73DDE4A053CC1F966BE440776BBFE7038BD0EBCC23CABC9753CF97FA83D69D145
3CEEEA0B3993111BBD4FE25FBDC635E13BEC1D86BC460647BD122A2F3CB94CD03CAE40C03D52ACA6BBE800333DD8F68BBDA7FA5C3CFCA6ACBBCB9286BBCA4669BCC20892BDC03B54BD9E3FF4BE03738D3CB7CC463D3AF6F83D8F958FBCBDFDF73DA559AF3CF11E1BBDCFEFDEBDA02FA8BDC65DB8BDECB726BD5CED30BD3924F8
BB01F76C3BF988FDBE431134BD4AA2483D7484223D1FCAAEBC629A213CBF564CBCD19DB23E0D0E78BB68E4E3BD388D2FBCBE06B03A357E933D1A4173BB5626213D216A303DD1C049BD00D7A4BE11B5713B8AFE63BC2D053BBCAFDC7FBD62F25F3CEAF55F3C4D8B36BE23BA83BD3711C03D351740BC9C625DBE7562B9BB23D50B
BD395F21BDA2B3B63D82169B3CE70BF2BD232A58BD89A399BC782390BD382E823D4E1952BCB9E7013D766A213C8CDF423CEA4C47BD24A3C53CC687C1BC5480BABD87BC66BD69D12DBD564A613D0B9A6D3C2A7E273B98F7DDBB96792E3DCE3E793C5572F83A70A9043D97099F3D2636803C8DD57A3D7297DCBBF3C0FCBD5EB700
3C1640513A430673BB9EB9803D6932DB3D51BDD43CE95A933BC13334BD61ECF6BD8D88F63DE115DABCCC77113D8ACE31BD1BAC493B9D0AF2BD09F491BCE6B3FCBC1C495BBE29653ABD082F93BCD829443CE7CABF3CD9CC273D279C26BC4204683D8A03963C481984BD16107FBC89C897BC523B0CBCBDF1863F07DDE7BDC2BCC5
BB7E8B10BD0FDA4F3CCC7A873DB7DDDF3D2E31623D346B7EBBE885553D075A64BD556D013CC37AE33BF172C03C2C351BBC8F7F1C3D15B1B7BD17143C3AC7F2D13CD74DF9BDB9BC18BD1810283C0F30E63AB9D328BCD22A023C008E073CFB8E71BD0A9F0E3C61CD17BCBC00343C908BBC3CC4D067BC9EEFB03DF47C513D135BC9
BCE6B2FA3C4DC5F83CBEB93A3CA467FF3D244CD7BDC6CE67BD51BF4EBD08B4DF3D96CA41BD3B6E183D0F6BAABD06D2303BC51BCC3C46F1E0BC95FFC5BD38A3013D03BBE73C8D19ECBDA9E99CBCD40C213D1DE793BCF9C1B43DAE282DBC4127C83CA8FA24BD3A0B51BE08E189BD0592C23C8DD124BD0143B13E73105B3D777B11
3AA134B33DEE44263CFE5F093DA144503BF36B713CABFA183B4A4F1BBC81A681BD8D77423C31635ABCBE98AC3D089FFB3C803D023D01C842BDAE824A3C7E35BB3D15FAC23CA79A89BB884B453D253BA9BD024CDCBD0F57DD3DA2F744BD99F314BCCB05893C452A3FBD7DDACD3E059E7C3997E31C3C105E0E3CB84867BCA1BC16
3D8F9F74BD0B1A2CBD9539F8BDF9159C3D7EE9DCBB47FDBF3D5CD5C9BE5F39BA3C4895883C139D1FBCFB7CB33D3DB0303C15845EBE6E1FC63C591486BC8EA001BDA224D3BE1284EE3DAAC2263CED409E3D54E01E3E56775F3BF042183D3AA65EBDA87854BD3DB0063E2F745F3DDB2A6A3D0BC8623E194C4B3E47AABCBCC7E878
BC80CBD3BCA444383D51652BBCD95A0D3CD3BBB63AFE94503DA1EF7B3D36C91A3BD07DE13D2CCC54BD8F092D3DB114F13C9CF997BCE77BD33CA0F68C3C948F43BCCFF317BC5158F8BDD4455EBD8AD0C5BC3F7A283D12A84A3CBD197EBC66A3503DB3DC3BBB5C02C3BDB65807BCBE2B7DBB3E6C43BD059BDEBE1F04A23CBAEDF3
BD4F4179BC6D36DE3E89F963BCA70DDB3DE91BD23D9BA8FF3CF96D21BCE166723C8C010E3E08A869BA113C563E6B50F4BD1453843C4AA537BC80E0873D3445A83BC92DE13C78DA723DEB839CBE0321E7BD03B088BDA87A09BDEAAB4BBC9E8B84BE40807CBC4B9D83BBAF70853D37C7393C68E3CD3D6B7A383CD4F6323E06E976
BD483DFABC1B88B53D0494C83D86834EBB6495A83DAA79E2BD8F84643C4B2696BDAB5F6A3CA5A4403DA2082BBDB9FAF0BC4B9079BB864873BD972288BD130AB8BCA3660E3DB8301BBE0DEF29BD519AE83CDD8C9FBC0F45CE3C32E4873CCCA93BBDA368D23C113142BD6C4A3C3C14565FBB9DFD4DBCA7CBB4BD91370BBC89A729
3D10B96CBD20BF78BCEA32A23D56D9D63D834F18BCF9B5923D8E6A283C4729933CC6D40CBD32122DBD2FAAF13AFEA31ABC23E51BBDDADDA03D08F36C3CCD51303CC688E9BD63A583BE067202BC08822FBCB995ED3DA80D1EBD92AE35BCE3D07F3DDF7932BA3B36EE3C25D056BCE32918BBC421063DCD3E8CBD8391EA3D2A5872
BC5307B6BA0AA94DBB877147BE1B93243B8E4C8E3B0CC4C23CD9F00DBD8417503C834D743D80A541BBB2895DBDB453883AA8BEE6BD5784DBBDBCF44DBD8FE46FBA94B65F3DBD27753E3DC366BC0A928B3D96F1FE3CB28B03BD235F063D298EB53D8A0AB9BDB5A93439BAAE63BBFBE2A53D69A1E93D4D28613EEE6261BCF56109
3DD3B7B83CA06CBFBB61A5DF3E0E34573A9EDDF73AA63B293BC513013BD64E293B862E5B3CCCC2C7BB48BD4CBC6B2E933C631396BC4A6DBE3D00CF48BCB251F6BD0207D2BD09C16B3B3F8794BCEBFC713C9307863C4C942BBA6FA8133A837A753DB4E627BC4B6419BB9DBEEEBD852561BC3F6C5C3B373A63BC1ED79FBE0B73CB
3BE9F1B6BCA5931CBE0CB9BB3DFD2CEEBC97F7A2BD57E6F7BB4CC1A7BDBA33F13D187B7D3CF5A84DBAC780AB3DE55A19BBA50132BC3444F6BD09B23F3CABAAAE3CF7510D3D71CD0DBD17CAC4BDCD3C7BBC1428083C1988C13D684D173C7C28913D61BE7DBC195E22BCACC3F1BD0831333CAD2E4D3BE3213A3C7895EB3D19910A
BC764E0C3D9A6DE4BD9EC451BDB6D26D3DC5747B3B127E3B3D920D9BBDB3CAFE3B378758BD50347DBDCCA5063DAEAFB5BD30DBAFBC441E60BCB5A5503D334B18BE2A4DBABE0EFB42BCA90951BE0BBB97BD283CA23CFDA5D73D0996283D905674BD15638F3B74E810BE13AE97BC6A28FABD5C634D3C099B4FBF1C99C5BA08BF96
3BF211FB3C2E89DA3CCCF5F33D38AB933D8185F33C63431F3D4B2E64BCD0E78D3B0D553ABC25D14FBD160FA1BCDBD487BCA01AB1BD7EAB9A3C741AC03D2911E5BCF7CB6DBD5C7194BE33CB173C781C1ABC52922F3D84A6D43BB8D3F23A28B1E9BDF062DDBC34DC153E1704593D57B8903D0AB6603CCBCC083D0EB79B3B84568B
3D00CFADBC852AF6BB94257BBDCE9F7ABE16D2F9BD2C0DE03D344DDEBD482E553CB45B223D970C61BD2AC5BBBCD735323CF3FDC3BC9C115BBA89E67A3D22666B3C928A12BD9C0F893D9405BABE208A6ABD11ADB53C87BBE6BD0C4CB13D1403733D337B103B3C06E63D2B1A41BD8CD7C93C0789EF3C27330FBE033897BE9C8669
3DAE4E2F3C2855033C371A9C3DCAC21FBCB1D2673ADFB7313AB5D5BF3C9FE1E9BA34BC7C3D83F98EBB01D6E0BC81EEEEBCC277D0BB8954703D1B3B7FBC809FBBBB95CAD3BD392C3ABC9B8C2ABD628C3E3C5DA2243B9D21ECBC1E8A30BACBAB113D668DEBBC106B903B316D343D0652D0BB094FB9BB04AA5C3DA2AE8ABE29F900
3C5CBEB4BD324A8EBC819A58BB83E6B63CD4B9293D6DD3E7BB3382533D871A49BC4DBA183C8756833BB94DCC3DEC66493B76D6DABC9C99C0BC5E04FFBD0CB018BD120263BD7D01C5BD8B9E13BDC00C433CAEE6EA3BDFA6733D45EFD73C649C74BD86FF03BB5A5EFA3D6EFDC13D444A943C736C013C851FDC3CFB308CBD74A28E
BD7C7D8ABA4663F13B0382B5BE8EE3CEBD0B9382BAA839AB3CFCD7653C86AE083C1F41223C992943BD060A21BCCD38BA3BC9319FBBE7B0CB3D74FB0ABC71697F3BDBEE583C9CE2A63E4FA4613CECCA2E3C2875A33B2E18B9BCCAEE52BCDE2E5FBD8F9B383C0A657E3D80417CBD99749B3BE8FE1CBD2BCE633E7B2A5F3BA3510C
BD3D3EF53C3865DBBD1DD8E63D1FC630BC24A3643A38FC89BB4BE1F5BBDD2E6FBC31035E3ABA604A3BAB8E18BC8002603D7E642D3C9071BBBC31575C3C77F2683BE8DB8E3DDD6B20BD836CB1BA0F15F9BBC9F2FDBD4DAA93BD9548A7BB86D1C6BCBF70FC3CF5BF1BBDC4FF943BD9FF853D12E07B39ED41E5BE8C7A033D2E72B3
BC8810AF3CFFC49C3C08A50EBE6CE44E3CB47B03BB7715CB3D661A8BBC769E5FBCFBAD8E3C2B2AA7BD35225CBC2273EABD7594623CB55AD63D48B24EBB27814F3B468786BE1452F53D8AF3F9BD0636C7BAA35933BBC912883CADD2933B6239D7BD79AD0D3D860E00BCF872F23D4D4C10BCB9108E3CF793DABDB8F4BCBC69137F
BDCDF79F3D122F403DBC605CBEC4ED343BB23FD5BD95C2843BDB5DA7BDB3FE3A3D43979F3C303D9BBCAEC659BCAF5DB43C23D46B3CD71E3FBCCFD1A83D058C3BBB66193D3EC28FD33E926D453C9A7BBA3BDB926B3AA013C8BCA9E80ABC246D6FBC9622FA3D4DE88B3DB493DEBC91D0C8BCE64D173B13F2993DDAD7643DF63A34
3BFAC243BB8D20F8BDC5B9393E0805573D0E93893D9C9A34BD1E49FBBC8B8E9ABDBAB2A03D4D5B2B3CACBB77BBB335CF3C727F7BBD811853BD232411BCE97D90BB8ED0C13BD94344BDCE62253D0377333D4528F63BFF3CE0BCF487E43D457988BDD59B023CD318A93D35414A3CC741C03CCC57953D90AD5A3D2720093D4CC562
BD6FA1793D386AB43D5B8B653DBC8147BCEA3EF9BCEF1DC4BD0EF629BCCC78073CD7F2F5BD1617733C76E3BE3BB7B7773C44664EBC2C5C89BD32B0E03CF9DF14BD395B643CD1CB36BDBF44763CC06435BD209DD1BD11495EBBFE580C3CF9132ABD9F5F7ABD045D81BD7ECF413CB054D0B909D8773D80E2FFBE6EFEC93D8D181B
3AA21C2F3CD3C415BD4B5648BC0F8F1D3D4886D13D04A5F1BC072D9D3CDF7420BD13EA24BB4BA60ABC78867B3DFA1CE8BB6063A13B3C67D2BD8862C7BCB0416ABD870210BDCD14E5BDA58A78BDB0E4273CF3CEF13B968DF53C85A2123D8BF09ABD1FB90CBC8C3720BE37C404BCD3F026BD1BE8563C4997C9BE732334BCDBD008
3D6A4402BB99C7E63CD13E9E3DDBD839BC79FCEBBD1A486CBC432425BCC8CEFC3CCB9636BC0BE7B33C9FCB33BD8A4CC8BB9523D5BB255F09BD000E343CC32E423D979A57BD2D9DE7BCAEE500BD57CB63BC40A34C3B06517CBCF252EE3C3588C73D387664BD583EF5BBE13EA63B4320E6BC8B6502BB74F9463D8F9CC7BDB9FBC5
BD0CCEC43CC2DC05BC8BF300BE5D9921BD52FC8C3C526345BD48842FBC70D46BBBBD3D643C23E0F93C81AFFFBDB54A923AAA02B63DBD0D6ABD4203613C3C9FDBBCC57F70BBC78F733E47B648BD1A4F01BC1B6847BD7FC6083D7C76B83D0B8CD3BE00E976BCA97063BD3B969CBC233650BCD827DCBDB0917FBDDC52113C9BDB04
BCC86A39BD56B86FBD359898BE8F07DEBBD20ED13CBAACF2BCC5DC683CD89452BCDAFA50BD4DEF783CB45E16BD4EEDF03BD2A01F3D951F223BE417DDBD77E957B9BC78FABD908E5C3E372880BD0C45FA3D463836BDA81A9FBD030E66BCA60F313DFE90653D6D1B76BCDD8C46BDACA02CBCE06EA5BD150C203DAC28BC3D4B78D1
3C8D662D3D9032413C56C30C3D3FEFD33B90B6D13D8BCEB63C5E53383D06ABEABD8E4208BD5D476FBD19F71E3DDBD9853BA2F80ABC852C493CCC0980BC8C3B8E3D35504E3C4FDD9E3D7F6A0D3CE261C23C3C67953D9EC25B3D54C0F0BAE7F76B3D35A1FE3BEA60CBBD19C4A4BCA4C7E7BBE7910E3C5918423EB9D1D8BCD28144
3CEA78BEBC4674AF3D0132F83DEDB2573C14A6DB3CF70EF73C09D120BCF13035BCF6B0953C900F42BBCC6147BCF86B67BC626C453C933045BCB78C023D8464D6BBD4E8E33D231B9ABDFFF027BD924F86BD71376F3CB9A1463D8255E83D2C708F3DA52B9F3D75FBFABAE9FDC03D45B176BD39B3EABCF9CA4CBF03BF2F3C5F4780
BC877C36BCB6632ABD9716EBBD28985F3C209D8CBD36C8C2BC38F6CCB98D25003C4BB726BC38E60B3B4DCFD93DAD952FBD8B60943CA4ACCFBD030C69BC2ED109BD90C8CB3D8CF087BE2A69FDBDC1E3DEBC7B8F183CDEB3663C9CB7E1BC251C6DBD7058B73CF31A13BD797D12BD55FB9EBC8E271ABD64E239BE8E6C993DAE38D5
3BEC263ABCAE17F5BDF9B0D9BD3BD3093D57F22BBD721F873BF4D081BCDA18A83D2BA3453C19A1683CBD7DD83CD0E3BABCDE616DBCB6753ABC473C0B3C927A5C3D13C2503DA209193D6C8666BD99D503BCFBBB52BD035F50BD8176BDBC8A41DABB6CD80B3C7D68453E38C23E3DF729A63D493ED43D26A8E83E4FBF913E007EF6
BB081CD0BDBD2DB4BCC2CA0C3CA8CE403CD37F523D3925B63B82A6A7BC8623013BB3D12FBCB958C53D11AF6DBD4245443C243ADFBA59FA3A3D7DEB8D3C883ABBBDEA1D833D22E0F3BD202B94BC87B21EBC9E1A73BC1351843CD803D1B8DDD0F7BD2366D53C05F4D6BDD59BA4BD88D2E83C10D26A3C77E4C6BF13FD0A3D3AEE2D
3D7C47483C945A87BC14F28C3B9C82F0BD3C44DBBD03EE06BD0DEE3BBE01FF433CF1B6343C93B1823CE4FFBBBE00F45A3CE5DB3CBC25327BBD60ADD0BCD9B9D73CBD3229BDC3CB473CDE58F1BBB20B523CA75C58BC3F19BABD0DBABB3D42937D3C9ACDD83A1861833C3F779F3CE06BCA3D2BB5D3BC2BB290BEFA6BDBBDE6F856
3C722B34BC893832BD11AC063D5D56C93DBB07473DAB8B2BBC8159B7BC9E471BBD3517973D0254833C9741DEBCDD7490BC51CB223C4B8E5ABCE53A2DBCA2ECA83D031C763C807ECEBDC6B3A5BD4EDE6E3CA88362BD12E89A3CCBB997BCB5D05CBD24C7A4BB9166A3BD78D8D9BD234F493CF0DDB73C50A4E6BD15C99A3C22EABD
3C0D7F4DBC6B0A44BD8AAB393DDD5F003B9FC1D1BCCD9A93BD8F515F3D4405253C90D51BBD9BA3FF3D29A003BD826A31BCFBE0643C8495D8BD7018813B84AF073BCB6CACBD9D25D9BDD53FBBBBE8759ABAE4B243BD372F423CD6FDAA3CD841793CFF297CBCE8B6B13CB440AFBBC051993D23CC7A3B9CFBC23D9CEEFD3BC86CB9
BB68091B3D4AD9A4BDC300A4BD5283D7BCF4C1173C4BCDE8BC4D2F46BCC16990BD7F2B933CDBBE5BBC3EFDBA3B2BB1623C8319073CACCB50BD99F40EBCF6DF223D5007D2BDA3D85EBDB04CD7BD3822CC3C879352BBFA0DCB3998AFEEBD22B503BD0AE3883D4E17433DE9F1BD3CE5E0F83CD8C152BD20D23DBDD9F1CB3A69BA7A
3CE2958EBC39C88E3D9C371BBE6D8669BBDD3E81BE15B4523DCE6AF23C8EAD5B3E11B5F9BCA144ABBD9AD27C3D98D8E63D2C415CBCB7B2693CF56A193D0758313C7925513CA172513E3610E5BC9E0804BCE8E3F43CBF577DBB372E58BD463F283DF901C8BC8B253BBC930C08BCC03B69BAC36E76B8E23B14BE67BF96BBB3CF44
3CB2A8E03879CFAFBD27AEF23E021ABB3C94D971BC9BF680BC16E0C8BCC27BC33C4F29A1BC439C7A39F7584E3CD33088BC8FE9E13CB16269BC5294C23D6001CDBD3A078FBD3DBEE7BE08E12FBC70F46FBD61A9333D6525A93B875368BCA70B08BD5B24EF3B4D4B88BD2E36843B525C19BC95000EBD19862D3C222D93BC5D90A1
BCF0B3ADBD359F0B3EA2AA9E3D2128973E22B1583DA788C63AF9F4F9BC937F723C46BF773E1BEBDD3C37B94C3E984D66BD17FD2C3C72FCCC3CF054163D90D3C63D7AF35F3E2053C53D2B5421BDB558D8BCF4CB5BBD674CBBBD3214D93D053340BE4F8E48BD65603E3E09178D3D39BAF93D8770A53CF3748A3CA480563E3D8B33

