3D8AEA5CBD632DBABC60080EBD5FCCF9BC6F95F1BC1CAA363DEEB1873D4037583CC90441BC98B701BD775160BBD8D1D03DEDF1F53D2220A2BD2B51D33CCE3C7D
3D89F464BDE1A7B53C876A023C2772E5BC8CFB233CE41124BCCE2B363CEE6B2EBDA784FCBD306052BC9E54B23DA1E5B8BDAB89FDBD3F3AC13D5129CE3D1F0088
BD1EC3CBBDA38DADBDA5A4033DF2CB23BD5C39A93D9F76CABC50B873BBE6428DBC7D68ED3D57BE723C4A411EBCCFC5C03CF0C6633CAD89CCBD9B8E35BC44F6F0
BD2C95023DA946963C38F3803DD90F8A3C14104C3D1EE9F8BD743F4DBC2FED78BD671F8E3B685C113C403DA03D28A2B1BC9AF3B9BD6CFE2F3B3BCFC1BC03AA3B
3D530DF33D2E8513BCFCC1B3BDBF80353D23A31BBC6608C63B3D89CFBCB1B6D43A2F1C2F3C0F93F0BD0AB2243CD442263D4DF0FFBD0290F33D54A3E03C5C3B90
3CA313A1BCE2CEEB3C553E9DBCCA2FDC3C7F9D76BC882F373DFC64DBBC9DA797BD0CD226BD01DD113CD3826F3BB1998C3CF3FDF3BD7CBC833BD3EB15B95D2EE9
3DA9B4C7BD3705403BAF985DBCB157F4BD84E3393C9B49E83D706BE83CDD41533BF1962DBCA9CA66BCDF129D3C88C8193C9A19B33DE6F7AB3D061B763CD6224B
BD07E757BE9166093D25063CBDA0092E3B23AC983C85FCF4BB39AD0E3D454A8CBD6D77D2BCFC3E7DBD2FB37E3C5DFF67BE84C507BD79CD7DBD0BD4B63D07A26F
3B7C37E23EA4A8563D936EDFBDDC645E3C232665BCCC0D5E3DA3BE30BD0DAAF0BCC5476BBD4ED7FF3D3F42A8BCD153883D8FE43BBE5E0AD33D3234923D0C9C83
BD8FD4CA3D1F9A53BD0D5E11BE03058EBC8327EABD475E7B3CF8056DBD380C563E2795993D9F4E153D4587F5BDC51BBD3DEBB6773D9B346C3D759EC5BD18EADF
3CC725FDBB9F4D2F3B952D7BBC1AFA1EBC8CD4893C5E5C953AB855E83CA4D169B98904EBBC197017BD072EB1BC36C3BBBCEC6885BD8446CE3D65E523BCB32D41
BD48F103BD4A12033D1373623D0ED0C1BC99781D3CF9518F3D0527FCBD044D4FBBBA3124BD6266FF3D8F9EF4BD532C833C847B01BD42D5C1BC818B593D9DC1A7
3A878AA93D9C73473D92AA29BDCA03023E0D7F36BE0415B2BDBC92ABBDFA40A43E515B4CBCD118123E159CB53CBB9A803D8DA3C5BD62E233BCFCA9F9BD987593
BC75DE743D4143093C6D6C3C3D2818D33C7418E4BA3E2C4C3CAB37F53CE550203CA95CDD3D1AD22FBD10D1D9396413FC3CC70435BC4E9A263D913AFC3BD50799
BD06F3013B2D2B2DBD19E2FE3D1881F9BCBCDA573C290E90BDC059A13C2B24D33B871A513CDE8BB8BCB102773C4BD5533CA2E5F03DE42C68BCDAD3303C2CEC06
BAACC78EBD2265E53A9F7A49BD15BBFA3DAACE42BD9480303C4152FA3CB332FEBC8E69803CE633B7BCB130CABBFEE0C63B86EE083D0197F63D1C119EBC22D420
3CB9C9C8BE1A9A18BDC79CA3BD64E5303CE04374BD292EDE3E9689E4BBAFD5043B63ED0D3D761A373B21C18E3CC190683DBA4AA3BCDD7231BC477F633D90A93A
BD2BE0A03C8D68953DA896AFBDE854E23E0B5FBBBDFE16E73E05D736BDC2B6E93D921F823E3363653DCAEE113CD4E1B13BB247EA3CAFD1C8BBF4AC45BC763A55
BD2FC733BD934CE0BD4FFA9B3DB87128BD253FE43CA84B303D7A7CBC3C8BAF5CBDB2C4403CFFFD74BD67E613BC3628E6BD2BE04CBD1370963D66DCF13E189E7F
3D8DE66CBD43C0E8BCBC9A693DE447CCBDB5CE573D9DDB073E16BB443C95AC27BC53E19FBDA92FB6BD06D31BBC8E059D3D505BB8BD809A123E02939A3DA3C7EB
BCE4D8543D52EAA4BDFE87BE3C6153A9BD0EF5353DBADDA43CA299643C6139FD3BB46579BE48C58DBC3C93133CD92ED93E7388C13CEA9FE43D03C1C0BD4F5C49
BD3B7C34BD7DCD623C8A0C5EBCDF6505BB01BE043B91B8373DDE8D28BBFF1A333D8605823CDBADDD3C38F5F4BC86B4A0BCD2F807BC8CCB563D4A8C5D3D631DA9
BD329B343C49ECA03D3C0C043D8322EB3D9291D0BD02EBB0BD6AFEACBC13F9BFBC7B52B53D80A3D13CB4A9853C65387E3D1621A7BC806357BC9734433D0855F7
BDB98E1DBC5C02743E741B71BD42AB053D0CE069BD45E53BBD97074FBE01A3A63D6916A13E198AD53DDE37843D97619DBDE3C9A93D6CE34DBD9547123D77B822
BE1EFD8B3E74E4A1BE02915FBE55FD32BE9ADAE23E4A650A3EEB031FBE227B25BD48AAF9BEBBC81C3E252432BD1E6095BC317E41BEE4A3723D4FEE7C3D588591
3C8F6DF73ACFB0FCBD0B00783B92CD32BDC0967D3DBA24E4BDAA84E33DB5E2C8BD748A85BE160003BD962592BC16A843BB814FF43C28048DBCF86364BDD1351B
3CE0A1343A5BAAC13DC4D418BD4C05213CE79DC33BE4F205BD39D825BD33626F3C1A780FBDB9DCF83D3B5E833D635DB53C991308BD343EFA3CF1C37BBD838BAB
3D2E43253A66DBD7BD2BA133BD3FDFBCBDAE86263D6764443D3DCC593DC85ABDBD5F42543E1C381ABDBD97DF3D5B845EBD56B999BDFD65EEBCBCFC673D588EB8
BCC0DD04BDC98E3ABAF34A81BDD4915ABE0646233E16330DBE04BE983DC17F5CBDA1E101BD8D3FCDBD8A64CDBD3CC9D4BDC4B0E63DF5B56F3D83EE10BD964F7E
BD341CD23D0747BCBDC77B7F3BA117093BC25734BC81F9473C47CF9BBC4453D6BBD87E1B3CFF90D33C93D7473C22BF0F3BD7DB173C9ED24C3DDDD42DBD121AD0
BCA141EC3CCFDB90BC52FDA4BD694952BCA33FF63CE227C6BCDB068CBC86C1BABC5E7E603C7B9DD23CF71365BD124AFD3D35FA27BDAFA84EBD23CEB5BC8C1E88
BD8B2EA9BD9D05FC3D02D1EC3DB84F14BCFB7F743CFE86493D523444BE3768DE3D56D7CFBDBB37C03E430D873D00CCE53DB914C43DAF4B9B3C8EB31A3D946073
BD3A51643B1656D63D47B79FBD395F9A3D3BD990BC6348603DE0BDDE3A40FD7F3D398AFABCE25046B99DEFFDBD5AC15C3CD9F0FB3D9A173B3C0E4474BDFE40C0
3B93E089BA9D541BBD2D8A1E3C7535533D2C3DE2BD1041F43DD69143BDB2300BBD1B2703BC00FB0E3DB49D2DBC9D67913D5E1A11BCEABC1C3D3F93833BB6D935
BD76426CBCA7B4903C580E753C56BB053D4E77E7BD7D146A3DAB9AD3BB1BBF813D60FC7A3D85E9C8BC437593BCE6C7F6BC9881D83CCEBAEDBD97533C3D35BF12
3DC94E77BCC83EAF3CBA3FEA3C9034C73D27D0D8BBE57CAFBDFAA556BA64A8A53AAAE96ABC71C3F5BC90BC02BD511FE9BD159FFD3C6D9EAB3D3EAB313C7A6373
3D97D3FEBD0B9A17BE4CFC943AACAC77BD01A3C73C619F143D02F5F1BCF054E9BCCB758C3C7DD6AC3C5E67533CDB93E4BC34AB8DBD1D56F6BCCA73C1BCA4A927
BC32FFB7BD171FB73D3A3F5B3BC3AC09BD0636DD3C963551BD8C9108BCC3EF4BBCDD388EBD4CB3223C97CF0A3BD9DF10BC14976C3D079D303D1A91FC3CB9BD98
3D1CE7023CF327B5BDB909FFBD8B8792BD3161F63CE3B46BBCA5CD47BBAAF256BC67211D3D786BEF3C34C9153C2534633CAB284B3D2C3BC43DA48F7BBCA8F995
BE211D3CBBEF43543C15C8E33C982D7039FB0DDEB9DF19643E07890D3CAFE5F6BD02218ABC294881BC8850473B2779143D2A71F7BBDF65A2BD25FF4EBD6CBD18
BD6B8C06BCB716EA3B0020AC3C4B87A3BD6410263DC077C63E7F0BCF3D3BCAC43D1388F1BE654FFBBD0D1BE53DBE54DEBCE1D107BE8AED633C2ED6363D506790
BD1651613B57E8393D33D245BCE064F6BD18130A3BD7773D3D9B1DDC3DABA5963D29A707BC134D0CBD9C50CA3D05C022BCA171F6BC8A07103D320219BC75F271
BD0E65653B0B93B8BCB8DF75BD0BE8943B0F59CEBC1DBAFA3DAE1578BC8167B0BBBD9BCC3CB593E13C32C1E83B3C0387BD0862D3BDB4D5213B99E5CEBB591482
3E1F2847BCFE1DF03CAC33B6BDC4B4493D8189B4BDB821A3BE8D3D43BBCC5AA9BB6A8A5A3D6666083D011DDF3D334AA63BCBFEF83E4196FC3D363BA43DAA80D6
3CCC8E103D349E5F3BE756D53A1E8C743E0381BBBDF32BDDBCBA82B8BC2DC48CBCA10B153C291DAF3AE06A743C819B48BD2C6B423C7EFB0EBA98A0ED3D06FED8
3D65C77E3D2F6494BD34F24FBB8EFEFA3D9F0753BD3EF9863DB835BD3C8D96A73C20AED53C7C12BBBCCCF9E5BCE8DB0A3D38CDB83CBEE1233DBF59E1BC243BB7
BCB55BDC3AC497EA3C56830A3CDFC7BD371E88133B94E9BFBC215AE83CDEA42EBC59B75ABDD531E7BCF4F06F3CD50E11BC3BD4EDBB69CC48BD849D8ABB1A6108
BE19A1513D549763BD1D168E3D9EE575BE95DEE43E9FBB783E404B4F3D2C756ABDB3BCC73D99209CBD44349B3D80EEE03D1881F9BD8421BB3C64C3DDBD84880C
3BE6B901BDDDA6E23DA51D16BE0F908ABA67F6CE3CB37CB73DEBAB54BD591D59BD7675ACBCB672CB3DD1D38F3D512C633E09EA7DBDA6A91D3D1B0362BD54AF5C
3DCA33013E3AA473BD96FF1D3CFCF7D53DDB3361BDC15A743DA3D439BE731F4E3DA0E8533DF8DC3E3E46A060BD2F8CE23E017878BDBDB3F53C8A785DBD01436C
BD3506813D12832B3C7FBEE6BD95C7183C7FAFB4BD75D1203D3094E6BD9110D2BD83ACAC3CB4B7BA3D9238493AE7BF993C8DB2DFBD82D5E6BBA19B683BF92D0D
BCA891A0BDC578953D91EA74BB8A768C3C692BF53C57F805BD4AFFD13E02D481BE479F1CBDBA2242BDEF65A7BB6400C4BDB13E1B3DA25D903D6AE29ABD04ED7D
BC8CFACCBD3D0ADB3CA4BFBBBDACE57C3D0FDF8FBDA45A6D3D6032A33E3EFCD03DACBE703D49EA1BBE1DDDB1BD639A403E2A5307BC7FA20E3D649587BBB95C3A
BD50639BBD28A117BC3C86983C4D8FD13D0EC834BD3BC0AD3E0A1A1E3C899C873D8FD17F3C3EB9A5BA8EEA173D189AD33DEDEFFABC205D663CA9DC383BD50095
BD61C274BE5405A7BD46A6DE3D4A83403CCC59B13C48E27EBDA04E7E3DAC5E74BC7BE68E3D5DAB76BDBAB4863D8279F8BE4AAE1A3E0F438F3DC1FD91BCFFD6C4
BD735F74BE4E508E3D267FE33D3C9317BCA65B0A3CD5989ABD06563EBE987C11BDAD10E9BE151A243E9602D83DB09627BE737B65BD08DD7C3CC0692BBD306C66
3C84C62A3BA13DBF3D7BD43BBEA987A73C9F75A73CBC48A43DA11E973DF053C4BCD38AE6BD2EABC4BE04D4EE3DC787EB3C19E6A2BD8CF7C8BCF7FD16BCBE0B7B
3CA08052BE7D6C053D4DEFF43C2C4D64BE0FB8543E0C6BABBCC4DF5B3E83E641BDC6165BBDA7EBACBE3CE0A23D9A5D93BDC884913CA697533D368657BD21725B
BCFF578A3CF5F4C33CF07ADDBCA12B3BBD8503F93D41677ABD0AE86C3CA6E3263AF05637BD593B45BD3D103D3D9B3C4DBB8BA68FBC0C59693D43A545BD707AD2
3D8C1E34BD2BA791BCCD286B3BA5ABEEBCE09D58BCA686DF3D21DBB8BD00A1B7BBCD144E3C962A253D533E4D3C4B29A03D935C5B3D263CEBBC4830FC3D2D4A7F
3BA5CB03BD9D2EF3BCFA1D3C3D863A823CCB49D6BC862420BD96CDBC3E95604D3EA25329BB18D61ABE68FCD3BD1A94C13D432A84BD1771773CA8F69039C19A40
3D8FE1ABBD9E52BFBD47EEBB3BD5E95BBC8B0A363C8B1B6FBD100F90BCEC6726BC38F8873DC74FE53C3FBB8ABD12560EBE06D941BD917C883DC5BDF5BC75253E
BC5CADCB3C3445C83CD8F25CBDAB42D7BC1D539F3C6F1D0EBD2074483C1B4044BCF127DE3B061E1F3B29A4D93C1438F33D0F1D21BC87FBA4BC975FB2BA2DA928
BDB4D96DBD60979ABCB954843CB1D43F3C0BE693BCE444AC3D62EBF53CEF5696BD1B90ECBD0387C2BCA803A33C4065CB3D5622A43D86636BBC4627213BBDFBD8
3C95903CBD91FA4E3CB6A0083D7935E93E57C3023CA7F6B73E9A264FBD7762083DD92BBEBB49FF3A3E6722983D47AE683DF012FABE9601CF3CF99FC4BCA7F353
BD604A8EBE65ED5CBE4E5B223D68DB8DBE411A3A3DDBAB2B3E5061DE3C9D34493E5FDDCFBE814BF3BD625DAEBD21853C3AB12BD8BE205599BCFCB41ABE35AE08
BD34C6703D4508FA3B9003F7BE0C7B743CB66F3A3C4C2AC13E40D043BE064A39BEA6A8C9BE0159583DE7E05C3DDE78AF3ADD8CC13B932E423E0E8F7B3D8ECEA9
3CE76A5F3DE2934C3D6041B3BDED5BE63E3CABB3BE27E914BC81EE31BC458F0BBDE0361A3DCA6ADEBCE07D333E68991F3DDF84703D5B281E3D0C1A193DF25D73
3D3C2FC43E42B0423CE5C5633D7ABABC3E029D94BDF8AD703D936ED33EAA22F8BDD8E374BE0EA0AFBE96E3313CDE3D513DF451BD3DDD790C3ABD8463BD383D31
BD8155D63ED1910ABDE3681A3D78C4793D6C4CA1BD7514A83E1F41BCBC564A9D3D983A133DD7443E3CD9BC0FBDCDF42C3EB5434BBBD85F1C3CCA8BBCBD2CF7B9
3C992F16BE0FF52A3DF6366B3E8FA2823E8532A0BE2D6FD3BE3E49E83E1965483D5AF5573E95D6A1BE312B553C660B40BDFD1B273EA6DC35BC8A4311BD13A253
BDE94D323D31F90D3EDCDF5EBC0F76813D4BB479BC24E11BBE14F06DBE241B2D3DF909C73E96F1893E496883BD464C23BA8FF2A93E1E16EABD4E7D4E3C8A988C
3B331CD8BC639F4CBB409CDEBEA9EC07BD6E854C3D2F9A2B3E9705303D33B534BCBC6944BC91CD35BDEE7BB33C5FA823BCCD228FBE3249633D3606FA3BAEE663
3E241D373E0EFA4C3E632F123D05A7273E13E789BDC48112BD0BFEBFBD621AFCBDFFC9DA3E8212D93DA623C6BD495306BC3B641E3D7C7548BCEAF8FC3E0245F0
3E04E6C83D826B14BD6DD1133D9F0D8C3DF16D75BDA6E4F23D2F20EB3E29FFDA3D0890F23DB8451DBE28FABCBD9EA58CBC871FA4BD2FB61E3D4C8EF2BD2303C2
BB78B5583DE7AB38BC951C543E8BADBA3D81846FBD8EA581BD24206EBC925902BD2240EF3D992CAB3CC2AFA4BC8A76563CABC9F03D3126FD3D5A6971BD9E04CB
BCE8287ABCE3FB2A3E1F26643E54EACFBDB3E43D3D74E104BD6FE7573E39B57A3E85EDBFBD22310CBE1DBA62BE3B09B63E0046EA3DA3CD563B8344D1BE1A20AD
3CD9209FBE99809C3E5AB71C3D755CE3BDA58ECA3D043B89BC43CCF7BD62F461BCDB4FEBBDA8B80D3DE81BB43CA82387BE8D43D9BD2460313D92CB903CD3266D
3C9E0E17BD28B52CBD043CAB3E0C1A163D03AFA2BD3E18E03DAF8804BD76523F3CF146E3BD9CB8BA3D8455873D1BB3C03CFCED963E09BA2C3C6BB9CBBCCEE005
BD8DFA59BE667845BA6CC95DBDE531A4BDB751CB3DDE55E63DCCE2F3BC1682FE3D9F52F23E02DD453B8EB4AA3C299D41BE37970BBDA15C8D3D20A933BC57AFA4
BD963274BDA49AD73CC3FF25BD77443BBDB9A2683B99B3173EAFA8C9BBE27A11BD10605EBE8903B8BDA51B9A3E268AB83D44B138BE2C6C2E3D2F25CBBD6DEA54
3C54B3FCBDA7BD583D1FCC69BCA95715BD8902F43D05DC1C3E0BFA4EBD90765DBB460E4C3DE87DB33D81AB47BE10E4C33DC97B3E3DBE0BB13D2E0B03BD2F4661
BC16E9423D1C78643B0423E0BD37FB9A3E32EB72BE1D5D32BD9697583D0E3AC4BD02B59BBD005CD0BCAB92803E805543BD67A3CFBDA43760BBDF0CAD3E124C3A
3D70CEA1BCC2C7E33C3EB2EA3C2FE920BBD36CFD3C97E2763CC63CCD3D815F6D3DAB7E3DBE3D6F42BCB8A9EF3E2728F0BD5059F1BCF051303D926612BBC4804C
BCC3BEF63DC6F3D5BE3A0105BD16D3EA3DA725D8BD41B5F9BD6DB4BABC61D33EBD1EAEF8BBE580AA3D56B3583E0CF1083ABE9A913DDFDD7FBCA31A673D71E2BD
BC1053823D3DD9D5BEAA56073DB631193D4933CC3C80EEEB3E094B1D3E3714E7BD8757BFBE5F8595BE0A0031BD909EFF3E073D0CBDA720D83BFC37B4BD979D9B
3D46CA4FBBADC2CE3E01975EBCB689EE3D860C38BDF0AFD4BE3E2BACBD87249ABC5C49063DFEA3FD3D46B3A9BDA875073D0828BF3ECA2C3A3CCB7659BC8239BC
BD83A6B9BCE4921B3D37817CBCA9ABA5BD1973DD3D2E0B893D1A2AE73C87A01A3D411436BCA63BECBC9FFA07BDDE78363D31C4FBBD698F94BD2CBE74BCEA2BB9
3C99B00FBDB7BA173E0BCEF83CFF8DBEBD923D1E3D0326283E08E12C3BC8206DBD3E3BBFBCCF28B9BC2A414D3DC405EEBD0FDAAFBCB0340A3C7AB250BB8A95C9
3DDDD78D3DB27C5EBD9ACE163CABBB253D1D7559BC828CCBBDA8BB5B3D19843ABD244FED3CFF5653BD6687C63BD1DDB3BBCA6A42BD1C19DF3D9BDF423D176EE0
3E0199CFBDBEC21CBC89733A3C4DDB453EB21EDABEB906FEBD66767F3BA5F97C3D9222C3BD93934EBABA0C2FBDDED09E3D981EF8BC6E658B3C710C7CBDCE1F6B
BD6C4426BC4D1BBCBDD2943A3C76544A3DF99A94BE15D6B7BCE65D603D35E677BC210FF5BE428A10BD5D98703DAADBB93DBEDEF53EA3A467BC943F67BCCE994D
BD63FDBE3D264047BD93BB17BDF845403BF0F98F3B577B213DAE5801BDEF2745BBA86ECD3CC661CC3DDA42BEBD3C2DE73B4E98C6BD789EF83D9433B1BDF0DD95
3D8FCCBDBDF205B33E950F9ABDEBDCEEBDAF93033CD45B37BE0C0074BD8808313D0007433E674FBD3D1EB13CBD711C1EBD85709FBCCD9F6F3DF91A7C3D263589
BCA82CA23CE8685D3C0CA779BAE6BCE43CC27C4EBC3211F7BD806C1B3C2EEFD53D157B423D438EC4BCCB646ABC627B51BCD423AD3D135A233B118F68BD805448
BDB611463D10F3243DE7FED7BDC9134FBEB0BE183EC52567BC7D47D43C42D77B3D2302203E8263B63CDF5160BE47C5B2BD980B34BE200B713D50C303BDBBF010
BDD4640CBE0835D6BD00922ABE613B8C3D030212BD044E2B3E2CE4A3BCE316C03D695F673C993C793CBBAAF8BDD521FE3DB775CCBCAC4E223C8DAB5F3D6295B4
BCEE1E4C3DE035223CFA54A9BE2F9E923D492939BD742A7D3D71E0D33E93C35ABC42EFB9BDC471B3BE8857913DEE4370BBD023133DAADB1CBD3FF624BC2DC850
BD6AF1593D006B39BD3566A03E1E1856BD3C74F33D55FCA3BDADA52F3DE1EC3D3D03C0B13D5F749BBDD0B2F43A0E38983B59606C3CC1C32A3D766D84BCBC1FA3
3D059197387653F03C974D113DC60247BE082D003DBAAB383DF683C5BE32D4D0BD200E943D9CB2593DF2E29CBD478055BD9DEF64BD49B0363DE1C2723D0A4B65
BD1C0FA2BD35FA6A3B17850FBCFF065B3CA41A66BC1E9BD23D8C3A3B3D0B86DDBBD90ECF3C91C6CDBD150C3A3C418D63BC04D8CBBCBFE8713D6C9E0B3BF50171
BC87E480BD720F463B88CE2C3CEA92833B3DEEBE3CB3503CBE022257BD11EA5C3B88A53ABD0190313D04BB9ABC617478BDEEB182BC1C128C3CAA2EE93B39D1E8
BD2860F0BCCE906DB9E37DD43E384E74BD065EFB3C30F8CA3CF55C7EBE1347C33C96CAE93C4934B93E20D785BDEF7A65BC01062A3C0FC50E3C2623973D335546
BC5BAFD9BCEBDDE63D6246773D752121BC1065B53B60BF7A3D9670113D0907F03C367D76BCB30D1ABD2668133D375714BD11F011BD96D49C3D0EF73C3B637993
3C25A5D9BCA672C9BCAB9A7CBD70BEE53CD33AB6BCD0FEABBD73A1D6BD3AF93E3B39F5D8BD1E9C263D2E9767BD32D24A3D431AE03CFD4C7F3B941FA03BD7EA35
BD50C5B1BD656FA53C1FB8633D5F0EB73D1399C83C76E3973C89310DBE5EB762BDACB2FC3C1907843E4C1693BCA71E9C3CCC1FF7BDC5B8C13D60199DBD08406E
3CD3A3BA3D52F7B33D338168BD5F2BF13D3615F43CB302423D75FB61BC808F4E3DBF9654BC2ADB4D3BEED362BCB766F4BB28C305BE0201F43D2C1CCDBCEFE096
BD008093BCA06A85BC364FD1BB0BB1FBBD41C9AB3D0D0963BC8094AF3D16E42EBCB80774BC86A66CBD25DF0D3D01EA893BC944C33CA548A83D9EE77CBB948A26
BCB07DCA3DE33B253D3AB4D7BDA9F5FABB61960A3C1952433CBA771EBCF6FF24BCCA12B1BC59AA473C59528B3CD7D73BBD8FE465BD86BD963D2CADB63B79943E
BD59DF373DD4E04DBC40F4AE3D12E7B73BA1CA39BB7B350E3DA7A4E73D1C4E28BD367006BB6B9AD7BD00B9B93D6756B3BA24604D3C6EE4F03DD87847BC911574
3D94676E3D59E9673BD6516ABCDD6944BC61AC123D0092E7BE49F89B3A158EC6BCDBE1E5BB64943C3C8900A23C6FC9A4BDB21E04BC0D52DEBD377731BCD29F39
3CA2AB483BEBE9663C0FB620BC5D6A613CDCB847BC8940D6BCC1A7C9BD8E1E3A3BE5E1503D157F623D850D81BD0B94A1BC9CF1D0BCE90BF93D2BD2F83C21B216
BD94CCD8BDEE65C6BD6088A9BEBA6CE6BD4FDEB63A4990213EDB7185BAD820D8BBC0BFD03E26503FBE0A88003BA5B5CC3E0F8A05BD378328BD03ED783CD01FA7
BDB4574DBD909CC7BCA86B6E3D88D0E3BDFB29DA3E2EB97E3DB96FDF3E0235653E1F623A3CFE4379BE2E9983BE677059BD9983D03BB79E2B3D6B644EBE4DE568
BD2C0459BD2C769ABD1BE165BB605A4BBD7217343D3CBD82BDC38496BE2D6738BE11B9BCBD0C4EF33E3A4A6A3D1419B23DC5824F3CC45DB23DB7238B3ADCEDD7
3D6396233CF4996EBD8DA004BC89CF20BCBCB9583CD2B1D4BE1D5F81BD152663BDDCC46E3DD47B1A3D90AC75BD89C90D3D24E590BDC2614A3D5D92723DDE2AC8
BD3B36D9BD3ED6D4BBF69F1BBDB251163CF3470CBC273DF0BDC9DD8D3CBCAC463CE89EF03D31249EBD47EF7EBD27F8D93D0D68B2BC598FE8BC168E50B99A2055
BDA8BCA73E2EDBD43D301606BD99B8173CB7DE24BC420DCA3C0AC79B3E23FFA13D70DD6C3E2E6E0DBE681A19BD6B55483E7A12513C063989BCBA1018BCECC4BE
3C0BFD11BD49F766BD4BB0063EB2D5973CA6F8E4BD33EA3FBC7CBF9ABCFD9801BC760EF53DDD97E53DDC924B3DC3810E3D65242A3C51AEF83DD50BFE3C96C9E4
BD8985D13D8992733C0DCCA33D260206BD7E40693D2CEFEF3BFC56D0BD0C3402BCE8295BBC1B94733D46B4493C677C0FBB0335A83D03604E3BE01A7EBD7EE02C
BC599B483BEEC7763CD2043DBB2FD8163CFF8624BCB0C7473DA156EB3BB541C33D50D4EDBCD00E8BBC84E36FBD0DEAE7BDC961F23D2231A93C8EC921BD325322
3DA1A8B33D619F103C13AB4EBE1AA3913DEBC701BE2750763D9241D2BE2C3F9FBD8F1E2FBDAE927C3E2AB0423E4AB0BC3D3AF7343D403DA33D8DA0DA3D801A0A
3D7F73113E096B9CBD815D9B3CD9DF063D375E23BD98ABDD3D981C53BDC58E1CBD574BFABDA2BD743D95E99DBDE1A83E3DF2F3F6BCAD2FD73DAFCA6ABB2695F5
3B77EF483AAEE71D3D2890D73E1D5A5ABD38CEFB3D839E913D97ADD13D7A39303CC3A1413BDF4475BD789F06BD45A6FFBB1260F3BD3D3A553E011EAD3CC519D2
3D1091403D759A07BD021CB7BD9C17323DF84AFDBDD790873C8474CE3D876F27BD768815BDBEB8E8BDAB7FD7BD45A431BD2690E4BDB00422BC3C9D91BCC9B501
BD1CDAD6BD891F85BE0E7A24BC2F7B68BD6DC9F13D3566D13D310EB9BE77A7413D07BD413C3403093E561FAABB4169B7BDEDECC0BC283FE53DF22E8C3D76219D
BCF105F83CDA08EB3D7B596A3DAAE5F9BC63260E3C2ACF4EBD879A4D3CF6B0613D1AE6DDBC80C0F4BD8CE6E93D80CACABCA47ECBBD69CC3CBB127804BC894F83
BD450B1ABC83D65DBCA40FB7BC84E5873C46C0F1BD184D49BE06F05CBB5CA5DC3C94F79FBCAAA8383C3F59293D805ECD3DB96EBD3DC7F1403D3040DCBC0A174A
BE41D0C4BD19FCFABC954175BD39D1083D38FE9EBD15FEAF3E7F3B9CBC3D8DEE3CC2D585BD74C1F83C9BE059BE762A243D4A2554BD5783273DA6A3C3BE2102D2
BD6CC612BD5DD4163D831BCE3D8A33473BD7E364B9E2468CBD3C5B38BDA56B1E3C6D5FF73C9826D63D8AC33EBE4715F23DCA5D863D05903C3D7DC342BDDED50F
BD86B7683C5425E7BD342EC5BE044508BD706ED93D705A373DA305B53B6C81753C7436A23D8AF513BC1F3ECC3EAFC235BCE304B4BB0755FB3B9519C93D8CA824
3D7BBE1ABCF0F227BD21DD6D3CC80A543B885A0BBBB589B7BC65A9C63D11C6AF3DA184CD3C6D51CCBCE35684BE36BAFF3D8B3F253E2B59BB3D5CDC29BBE6F24E
BD9B04C7BD9679483CF251E5BCAEAFCCBD272D083D19A5A9BDB16220BD8AB21B3D836A793DDB98AD3D8F21F2BD9656993C1C6B5F3D83D75B3C49A066BC6BB4FB
BCA5DBF5BDE58E1BBEC2A55B3C5409F2BC8FF787BD11D4933D6F65813B9AA0BCBD608CD4BE667736BCA6E3EF3D2192583D2B5719BDA2B69F3CF13B61BD18981A
3CC4C0533DC154EEBDE6102CBD14BF223D3EA6D9BA6DB426BE29EA033C2DF1F43B893F3E3D298B4EBB6343D5BDC512443CF19D743CFA97CA3D3A60963D847E81
3A577E58BBAFBEC43C31B1EBBCA1FF053D8ADD2CBD95345A3DCD44BBBA87E4EDBD173EAFBDD170BDBBD27E4B3D31503DBC9B23AFBD875BA5BD8CA725BC5A3148
BD1476573B6D420B3B8C251D3C785A0D3C40A98ABC5EFAEF3C10360D3D2ED8DA3C0D73223CC146B2BD1473A5BD1CCF253D58CCBBBC9AF88C3D2AA206BC86ABC5
3CCC98A03D287025BC87E332BD9ECC4D3C60D416BD0DBA843CCBFA473D7DEF9DBD836918BD51F6EFBD7391573E9172BCBDD1A140BD8882CE3A7267603D497150
3D36E897BD2E00753CF9F93D3D22DC9C3EB85201BEA2F737BCD95B20BD32FA6BBCF9ED2FBE5BCD7F3B7C42C13E58EACEBBEDE897BDF61AFC3D07510C3D32FA2A
3CB8EB183C74188B3C561C0BBD6092AE3B46A641BB10AFCBBD12BBDFBD463C203C1E2D86BD190F903D22662EBD825968BB8F86EBBDA1962BBC552EAFBBB78DDB
BD1DF5B5BD19E2DE3C69C20CBC9124723C70D837BC7AA62C3E172889BDC29442BD0F7B9DBD7FDADC3DA02C8F3D00060DBC32B19BBDA08CE93CF7EE963CE49D9A
3DD088D5BDD123683D9C608E3C1837B4B91BD7113D17C9913E0D3F69BE0981033C283CB43E1413C43D865A17BDFD7D72BD084542BE18FAF23DF1301F3D07F5E2
BDBE5E3B3DAC0CECBCB76AF5BDFC869DBCA1DB1F3CA88EE7BE83B762BCCB6C87BD520BBEBCF6E6C83D424B7C3B39AF75BDBBE2743D535D44BD508386BBF19725
BDC9273ABD377CF6BD7435333CD190933B17A7ECBCB1E34B3CF2EDA93D25DA9EBCB6B2FD3D40F948BCDE4FEB3CE3B8973D11181C3D916FA53D677EF23CCD73B8

