3D036976BD08348D3C91A3D9BCABA3A5BB60B431BC1E45503C9E1A21BD16F26ABC5AFDECBCA590283BD6815E3BBE31A8BC83918EBD02953EBC764530BC956C04BC522DA9BD1940D33C59F19CBC8FCF313CDB7B52BD0C1F433B26297C3C83CC423D2BD3913B72323A3CB5C1D3BCAF062A3C9DE3D33B1C2C41BC4C77E63C5795C2BCC49074BBE1585E3D0358E13D476F5ABDADE5E13CFD9889BCF1C5393CBD15DEBCB37C53BD4E9BDA3D8419F2BCA86D6EBD559DAD3CAC636CBCC7EE05BC1D5C68BC0078F43D63AEB0BBC73FBCBCA31996BC1699623B470DD83C538CBBBD0F9E633C53C1813D71999ABC72B3A43C90ABB8BD870069BA7A6406BB1B3A7CBB6C69293A3C59C23C979840BCA270673E5072A13C770A813C9B91D3BD165F8B3D2EA86DBC55FB473C4FFC653AD69376BD545F40BC932FE13DA5A99B3DDF9CD33C666660BAB1B2393CB213ABBCD62E13BD0B85063D3E4C5F3C43A27D3CF154F4BC54CD033C88C3D93AD8A62B3A2756793C8B9951BC3C06BA3DA3EB2E3D8C927CBC925C8DBD926A59BD825D713CEAC55F3B9836653C92399D3D61A5663A9B90BABC839CA63D5D982BBBB7B94C3CE798A93CC153ECBCB924B23C863C203CFE916A3CE64F793CF7E8F3BD1648803C866CDC3CDF0B6CBCC4071CBB263517BCC04A5DBC76F4ECBB4A434BBCCB8EC1BC03063CB6C88350BCC5B6B73AAC772ABBF37A293DB183463C4051343999C0E1BC9F4D163DAC85C23C0A2D2F3CFD50A7BB8AB4F93C28210FBCA9C2A83B8BFBBC3C59ABD8B90E81EC3D197450BBDA08FDBBDA6BE73A673267BBAD5D2FBCD007C6BDC3DD02BB6235E13A4D99213CC156833B566AC63A7FAA163C3D996E3C0D461BBC584319BC94FFB53D05DCD33D14877E3D256330BD1D2A6BBD03827BBD051828BD3DFF613D06D6163D864558BC2D8D34BCBECCC43B3D0F8FBB4953BF3D9C88E43CB38C053DA6AA313CBEC7F43C523316BC8C86FB3D5ACEEE3C5747193CC0556ABBE9C67FBC472BC7BC5DB17CBCF5BF51BCA415373C09C8B2BD0C88813AFC416E3B739133BD059E6CBD419DC23CD59F58BC596E623C6D36D7
3C37F3F9BC436DB03C0FE6E3BCB5C6A4BBE1BF5B38D262BB3CA22079BCFE2660BC23015BBCCD8BA33CB9F9DDBC2740DA3C6ACE06BC3D23393D1CA545BC4596D63CCE0C79BC8DCD3ABCA4E2A43BE362AC3B848751BD4F1E1FBCC5E01A3CFE72C8BD4FA1DEBCB19F63BD106BCB3B768F8CBC12AF033D034E9A3C05AD153BE2D362BCCBB73A3CF6739D3B8959B63D08864FBC830AECBC165B483C36B00B3C262495BCBD3F3CBD1916A0BCBC59383B8527153A0CF59D3C70EA68BC7CF46C3CFB06693D17C148BC34AE36BC740E03BD0A8E1ABC011C2DBAB5FEE6BC1ED53E3B40DB973C0856D9BA76D3923D156FF73D424644BC2661033C295003BC4E9BB0BC2406233BD26281BBCFFC0A3B8A88533D3698D4BBE048DFBCD81C91BC4A4698BCE579763CC23FC7BC4D875BBCBF36ADBB7BBDC93D0C24E7BCA852243D1143E73C54B5513C040638BC8BB9E4BC9B9644BB6BCC01BBD7CDFE3C73D2A73CD8CBC03C8DB734BCB129883C6851E53D2BBE683C8EA53BBC516DC93B39D01A3DB8817B3D1473A13D4178D9BCE754DB3CD86B9A3B142A1B3BA930813C80A7E53B2F2F7F3C4E2BC73DA3ABEEBC4AAAF0BC65DE9A3C7995AEBCD7A876BD2567C53D24621FBCC4EBD0BCD752BBBC97DD57BCEB1BBEBCDEEE19BC9F9041BB65A1BBBCC9AF6D3C1198903D1386AD3B2FD9CDBC9AD5CFBCB6C7BEBC3B6E293CA981313B0C50573D57FFE63C6020F43D46D4343BC5FA663DC0C6CE3BD08DCC3B8630CBBD055881BCB4D5E9BC4DA6653BE9FBB1BC277518BD2A21E83CE7C6B93C860355BBDD51AA3C8AC1943CC814553BCEB804BCD2718E3B1F38D5BC3AF49A3C27F4073C2E48253C16022D3C2F0AB03C8DE773BD2EDC263D0DB4763CA2C2D33C666AD43CCA4FD83CAE2C31BC1F4A033CEAE1163CCD3973BD56DB7EBD188F8EBD27C207BCB86B79BCA8140FBB40E8BC3C07D4CC3D0F7D44BBAEAD553CD11C70BB5499A83CDA0B8F3CB719CDBCACD1CC3B4B239F3C7E7D7A3B2E7A533C111626BCFA8F093CACA68BBC26E7693C95C9F6BCB4AC6D3C0C807C3C4759F33D5BE78BBC232C193D0141163C953C6E
BB6583323B0FD0BBBB1E72F53CE5D8BF3CFAFAF83CC99D2C3D0DAB98BD0B15B23B96A29F3C22330D3D11D58D3D690024BBC41F97BC9E806F3D1D50133B0A1B42BC881FAB3C5F4C0F3C8DF80ABC1C2D3EBB2509583D740DD23C1E1CB13D2A87A6BC2B6AF83D57C13E3B9F4115BD30537A3D156051BE194F293D2C0E263D7D54A9BCAC8792BCE055013CABE9C4BD16AC04BD8D8AB33D8D92A83D01935F3E148E1E3D2054503CD164A03E0501A8BD67A77F3DEBD57CBD0975ECBBCB34313D9870B23CAD7C653BFFA95ABC77364DBD71AA53BA18D5CB3B88CBF03CF034F2BAB6FBB03C7FDAE3BBD860243DFCCAD33CC4F3B93CFCE5403C86B8E43CFACA603BCAEF05BD225D493C7B2509BB3E55DF3D36BBC93D476F913CA2A97EBD0FE646BD9B65D2BD904127BC8909D1BE0048E9BD73738D3B8654BABDD171E73D7312133B82E614BB70FD863DB8848F3D3408D33B01195EBC3A35843BBFC9D53D685C66BCAE5E4EBD64DC9FBD2127583C31D8EABD7544333D166FB13E43CE6BBDF12B493C2917E63D4BD9FF3D5BFAB4BD115C4ABDBC885DBD232CDDBB83BF2D3C2FB90DBCE44D713DB956103CC175693B9E667DBBB6D763BCD600463D3BDEE8BD81A36A3AB7F32EBB946B52BCEFC467BB4C53643D2BC2C2BCF4CD23BD14FBE73C55B2903C4AAD4F3DB09D83BC2BB6CABDE50B2F3BBFC7013D726F2A3D8133BEBE409CCCBCDFCA27BBBD337CBC16606FBE03A8903DEE24C1BDAD24A83DA4D38BBD828D583DA3FC18BD26AB623A97BF8F3CFDFAF7BC55C4F63A9A52F43CA0325C3D37D4F8BBC7DEAABD1ED5A6BC40B59ABD8798A23C8B8A82BD186FB1BC3970FCBBDE9AB53C9110C6BD806805BD1B2024BA9F663DBA97115DBBB475AEBC5642C7BABF0D1E3D3CF84BBD11625EBDDFA6843D278BBF3D61E29C3D4AD0233D72CB903C1BBF103D03CBFABCF482253E1D2FD63C959186BC2E4A1DBCC826A23B4D4ED73E0D5A5ABD6DA8C4BD21BC1BBD5910B6BAB5EDBB3D097A8E3C37951FBCE1DA76BADBD577BD2EEA45BD14AE79BCF9C08A3B24B40F3CA99F6CBA14B31B3CFB4F0E3D46FC20BB67E2FB
BCC2B92EBD07FAAEBC9AF9D83B0841A33CBEBFFBBD021684BDB09EC53C9288F3BC49F7C93D871F7CBC926D82BC88EA0D3A0FC29E3D7057533C976AE6BA43A511BB355D623C93620B3D50EE863CE8B6C43C96A0823C89C1CABD0FC30BBD19E1483D5892BE3D7CDB08BC3EC06E3C3A0088BC27D0323D94F91ABD292E5DBD0278C9BC6717AA3CCEFE0FBC663DF33C0694DC3DB601B9BD0EF51F3CBA2C5DBDA54FC1BD3913DDBCAFEE7A3C804ED5BCB83918BB26FD01BB1256003D2514613C1F89E7BC6BDFFABCCE79CD3C8A57E5BCD37200BB25AB7EBC9BB5DEBC513779BC2F5D8ABCCC58BABC9B2BB0BC88C53EBD24BDFE3D4AA78C3A983147BD4C784ABD67A76CBC9928663CB2109E3C2AF13ABC82E5203BE671D93C35E1B9BBABC8FABBA6A7113D276A103DD22911BC17D4353D01C32FBB9678F9BC0846CFBD5BE6E2BCBBF953BCD990FEBCE5B88C3D198F4F3CEF285C3C85D4D13CDCDB03BD029DBBBC899EB5BD6E26173D15A845BCA174833E1147E9BD424820BD65FB13BD84FA55BBAE790E3D5B8B58BE204239B92E20D03C90BE39BCD4E6BFBE093ADDBBFB751D3B93A0443C93C081BD398DFBBC19C194BC7583143CE50A8B39F0BA72BE0B9AD3BCA609ABBD2FF494BCD3C2803CB6DD43B9E3E9D0BD25343EBC1C6B743C4A1D3D3B87B7A6BB87C3EA3C2C741FBD4B62E9BCCEFFFDBD5398C7BC610E0C3DD24CE5BDAAAB38BC951BE9BCB4E743BB97F00A3D0F85FA3D5316C0BC84C5993D24C260BA0EF36D3C77A71C3C1C991DBD44B5CA3CA230E6BD104CD7BC9A8ECF3CE757FD3CAAED06BCB892173CDBBBFABE2D72393CB5FADEBBF3933ABC8E890FBBA5C673BD5A2F55B9345ED2BBB492AFBBBDEC3C3B8E2DF1BD00643DBD608168BBDC9BA1BD987148BC472D36BC98A723BCAA4295BB40BCDDBCA08C48BE693B213CB4BB8C3B90E081BBD1BC5ABDB8F739BCD760F3BC359E0E3D05CDDA3BE91FD33BB332553C172900BD089E54BD17B25BBD41A50FBAF0A5B1BD036DDDBD94126C3C8D594CBD4ACFAF3DB6C581BD2EF7D23CD9784DBB982F66BD64DB81BDE6CFCE3BB8C74F3A35EB9B
3BC0E8233D051F683C132EAABBE9E5A73CB4C9813C98BC07BCAE5ACF3BF9B6673B92666C3D033A81BCCBEC263AFCE0E7BBD9B9E53B537E5E3D7F12CF3B9BE2FBBC3357273D53CE28BBE9CDEEBCAD39023C4B6572BC032804BC5633023C0D82B13CF8F63EBCE08FF73B8EE029BB6D8A0DBC2E7941BA9CE0433B367FD83D80602ABB7B4E863C23F80A3BA8E0ABBCEF58B0BC93FE15BD0C532DBC15B2F23D0665B73C749F123D9ED1B9BD794C9D3B2C5F82BB8A7ECBBC40044BBD0386603D1586743C80E5F03D2A91733D7AAD293C99C3FD3CE103A8BCDE5DD1BC371F2D3C264BD83BFA767F3BB4454C3D3888193D5B594EBCADF94EBC6565513D07B2FE3D105D7D3C0878E6BC3D30A83D347D41BD20BA453CCD33C23CA48347BAE659D23D6ACF753DEB8E13BCC5DA29BC97D1393D22D6C43CC70763BD86EF35BBB15C573C5DD4103BCF52F63C3ED9E0BBEA113CBC9B3C533C7A76F6BC94F046BBD231A8BCB6C5273CAB68543C9497163CF77FC6BC300F5B3C241E27BC043DA6BC8833E03D515704BD1FEA083D946A19BC5228CB3C5F06C53CEC3AE83D2429663C23B279BD478E5D3CD90A873CB6D0933CB98631BC8985ACBD4074783C8102EB3D3CAD163C7130C23C9644573D2514183A1BEF103C20A1533CE7BB5E3AC643603D12D1BA3CB4DE7CBD879779BCA521753DAA886CBC16607CBBDD567ABC84CEBEBD82AB683CC433BD3CA782CABC1A5724BB869B62BB928F06BCB3C7C43C89EB91BD0C63593CF7B60ABCDCAFB83C52E2153CCE4D6C3CD4A6C03C8B80E23B2B12F53C8C4CFB3C15F9E6BB2B04643C157D1E3DA841A2BCADB23A3D0041C83CE6F5853BD9D9C43B7C84BCBB6AF4F43C6F38773D2A1021BC26AB363C2B030B3C55DE71BC97E0B83C8E41C33D31C1883C4876923B55AD5EBC487A7BBCF017E93D2DFF1CBC29ABEB3BE422763B9EF0E93CF68CE7BBB0D1D0BBAF3B383C8359E7BC7EB3B7BD7612463C0D682FBB4C664F3D8383EEBC7AD8C5BB8CAF0CBC8C63B63CEACE62BC778356BBF2E4D33D0603D33BA98B9E3CDB9BB33CA7C4C8BA972329BB995DC33C806E1E3CE71F7B
BBABAC113D7E261EBC831F44BCFB49B9BCAC0C78BC1D5348BB880E5EBC498939BB70FF95BD365D333BE908AABD617FDEBC074649BD11558ABBD3AC733C8E2D6DBB9B7982BC8BA061BDB97C6B3D55CD22BBF5DEFFBD6FBC623D10A7273D267BBB3CE3C4F03D72FC283DB01F1FBCA620C9BBDC38A6BC8D85A4BCD979503C6437F63D08A6B03BA92A513CBF63CDBC429066BDC4DADFBD5F028BBD25630CBCC10C643CF4DA3F3E045C63BDA9A061BB050BFE3C112D233C7ED43DBCE339093C9EF51A3C61A590BB03147B3BBB953FBD96764BBBEB1FC33C9ABD053CD8904A3B86622D3C872FB43CE6BBED3CEAA398BDB543C2BD15ED143C36A2593DC22B203C5D80853C85EAE0BA18CC283B6B982B3CB317033C956031BC4C6500BCDC68CD3D8649BE3E0AC64EBCECCB1EBD76B0663C2056AFBC309DB1BB28AE893DC848F43D05F6D039FFDDB5BC297953BD281ABB3C93EEE1BD299FDF3D84B15CBCCE69003CE405B5BCA35DB83C89D0893CE77EF9BBF6DCCD3CA794D83D51572F3BFB5CD6BDC808F33D327643BCC1772B3C85BA87BD0FEF323CE438033D42B6603BEC90E0BBCF963F3C9676CA3C6B2EF73D1E2F053D209C503CD5286B3D4C80B5BCD8302DBB7FBCF3BBFFDE013D36722EBC8EF3633C35AD27BC8AF1CB3B9B59D6BD082DE4B947FA09BC1563B5B848FA1F3DA6FA7DBD133364BE39882A3AF70499BD1EE6E8BD63F0E53D659BD43C5165163C6175803CD47259BD6473153CA4AEEA3BC916D93BA5B4B03C6C650ABA6B83903BB73CD23D255DE8BBF22F323C0247333B5DBCBE3BBC67BB3C89B4D4BCE97090BCB9A36A3CA855773DDD4FB8BC4ADE7D3CB2A4313C60A46C3C7D0ACF3CD4EE20BA43BA4A3D0B01DD3CCAF98C3CA9D386BB1534EFBC726D873C7299EEBD7C3CEEBD160F263D41F0173C938A63BBC91044BD180412BC9ADBE0BD0F375FBD609A903C6766AEBCD5F50D3D30BCD3BC94C736BCD3C3E7BCF78794BD7CF065BCA3D6133D1C619DBA5ABB2F3CBEC156BB5699EE3D0A79D7BCBBB0DEBD262B033CC9A9663CD462DD3C40441B3AD66274BDA58062BCD84FD9B9DC0E6E
3C0157613D42E5683D657BEE3BCB291F3C55C70C3C8ABFC13D4671C73B7859EF3CCCAEEABC54C3963CB0ED9F3C853838BC598D4FBB29C2D93C0596393C2DFC6B3CE34EC23CFA50F6BADD572CBC78DC393CD17544BC660BC03C3855333D2787C13B9F07613D7C31DA3C942B5BBC80F3F83C2BAA90BBB8371E3BB0AF6CBD2B365BBCEE147EBCB3D94F3D733AACBA1145473C4C63BABB78D1853C6FF336BCBB39413D43B4BEBB0D6C95BDA5F9873BE451CE3D8585E33C80450CBAB20ED6BC8846A73CD6F3763CC091F93C93DC8DBDAF63EFBCC0F4C73C54CED1BCA276463A73A8363C127543BBD9287D3D518AF6BC30EDE0BAB86F953C3C8DD83C3DEE183D25AAD03C72AB95399AA7B9BA9289A6BB703D6A3C67E65EBBC1C49ABAF93490BD5D2F993D64B4CF3D118CCB3D883AA7BC2DA49DBD401FF83D3983353D128EE43CF4E367BBEF761FBA0F00FEBD6597EB3D4135B73CC11A203D8FF4B9BBCFD4F73CBB7FFA3D2C3937BA1EC33B3C7CE5A5BD39B1F23CFE7D0E3D2ACC47BB9340B2BC8F96A53C9774A73CDDF8E23C695EF53DCD927ABA48B16D3D6057443C8DD8453C3CA88F3CCC055A3B802B9D3CF586A23D143BB6BB6D0682BCA48CF4BD14D6C4BBD86DF53C0165A03CFAA598BC18D8F8BB9D024FBBF6F6E03C71A35CBC2B8678BC8C5F7C3CA3C30F3CB70B443DD58BF73D24D93F3C1342763CE0F1CC3C2CE0083CC8BAB9BBE70FEB3C69154D3D325CF3BA10A5D8BB140DE73C7CDB5DBC6F01DE3B4460823C2532833D45E6DE3D19A0D13A8FCA943C775CE8BBBD59593BC78D9D3C4656AE3C18566BBCD7B7093D92FB233BC1C7773CF4E6563D0179C93C946B653CEE38C93D2012673CC55E3A3D1093D23C92C09E3D8CB906BC71E3443C55CD4E3BCCB117BBA2E2563A2A24293B11F85A3CD95757BC55B9653CF4D458BB705ED5BA18518D3B61EEF73D519BA83CA34BF73C2075B13A65D361B9ACB57D3C9EC6423D2BA53F3CB1BE6F3D1307B8BB3489EEBB57F8653CE30DA83D4B1BBE3B93AB50BB91C30A3D20B0913CC82DB9BC084AD3BB4609EABC5EB83EBC10CE1EBCC994F93C77803C
BCC2513C3C809FDE3C60262A3B8104C73C4B96D53C462C93BC183B6DBCDAE32B3B3492793BAFA323BD073A1F3D235CBC3A6E5DA5BC98FD80BCED1E99BC2F3AE2BC959B48BC34B13DBCEF85A43BD9F5FB3C960F263A40CE923CF361023CD0990F3D17EA2C3C04B238BD9E6C6C3BB5661A3C42F3C13C2D0EB439E7414FBD99AE843D412B86BAE09DB73C51AC803C2BFD013D81EE953C8EC4543D1B45953BD4AB35BC633E6F3D47594EBD44AA6CBBB0C63FBDE87A1F3B90D980BD16F02CBBDF3E4E3C0094BC3BB98E6DBD163BB6BD5A5A9A3C427C51BBEE7D78BD04477B3D202D273C5588233D3B41863D986CFFBD6858D03C5E8B9FBA5A5893BD89AD563B5F6FA93C007C6EBC83B4FA3D5640B8BAB2E5D03C6D8EC7BC2475A63CAD20043C964E69BC451A643BE224E13DAC0E6C3CF1F38C3C8EA85EBD524845BD1DC4A03C78C214BB8058223C90130FBD32360E3CE3B136BD3015B33CDA222BBD38A38DBC80CD253D89B99EBC26C23DBD0E8202BBBA3A663CC290963D95489D3C1527F33C9924DBBB3C61123D64EB7E3BD1A92EBC1DB5DA3C9B02FDBCF389693C5F93AC3C98D4ECBCB98299BC0381513C0B5D333C8C65CB3BCFC87BBD8D2D613C9C5719BD263B3CBC78D73BBBA4ACCF3C842641B91D4AB73C4D3D5A3C486D023C389378BCB55B17BC8382653C08E5AF3D3D8860BC8DDB43BD03CE313C94A99BBBAF79A0BDB5E27C3CCF5ECC3B5C24FDBCE85AB53D703377BD9B05C73B2230ED3D65D29FBC706BEABAB167C83CB2FCA03D0C75DEBCDA34913CC208E33B9FC1793C54DAFFBBE6E8423CB539F03CBE7F22BC287E87BC0545EE3D7846C83D1D1A14BB47D8E13CBA46723CC02D6A3C5D1DFB3CD9C1B8BDB539F23B1CBD113DAEA44EBC2454763C6F56043D0AF622BD80CBA13BF40489BD01A2DA3C989973BCEB2F41BC7C104BBCAE7CD93C544F5B3E1E41043BF8DEE9BD01931A3CF8D883BC5C81BABD5CEDA6BBC5A998BC10E85ABD4AFF6ABD313E8ABC8FAECC3CD7E032BD6953773CD5AD4EBBCD91683D98768C3C549DC73B13EB843C66C58D3D8140D1BD370C163C21A703BC053F14
3BA62D96BCACAE8ABCC3EDDCBBD6AD503C602A11BAD40451BBD13B013CE31059BB567CF83B5407CF3C41B68D3C21F471BA280A93BC09C9983C19D2D9BA6CF70E3C7DAE873C4B565C3BFD74C9BB9EAC05BC3A8B203C9DD14F3C649AF43C8485B5BC1E85A03BD2DD54BB127FE73C54DF6CBC5375E33CE69174BC4CA5E73C9B83CCBA939AC83CC2B381B851AFAFBBD4459BBB69B465BBE53EF5B9FBC8B23CAA96CE3B5C34B1BB092C713CF70190BC07E80FBCBC61843C0386CC3C8A7638BB9525A13C9D04EEBC11A29D3BF7488A3C11EE903B5CD4A13BBB20823C3B058CBC553F7BBB625387BC2C15A4BCF386A13B2F7780BBA232A13C0278BCBB9EB518BCA59BCF3CAA7E133CB649C8BCC687753B77A95A3B41A612BC07C7253ABB33393BE23F43BC46698ABCA54E5ABC2514573C91F2583B49DE56BC5D4C273BB279513C852C943C18F1883B332DAFBC293F82BB0572F9BC8959833C3258AB3C627EA83AAAD05FBBEFE8963B8431B63C8758163B8DB1CF3BE58F51BD2D76D03CBDBCD03C915CF53B06BC40B859501C3C9B20F83BD3962C3C137EE5BCA981C9BC2BEA533A4B052EB8775A78BC3315AE3B05F988BBFAE65D3AE0CB7B3BDF9F81BCB3B94B3D3A1C063BE53622BBC7729F3CCF4DA2BB9282303B618636BB9BE2D43C0D48A8BCB669D23BFE5824BC5732EE3B4C8EFEBC16F974BC06B6B83C22D7F73C8091AE3CA0BA083C9DB823BB567AF3BD0CB77BBBF75634BBE6B1473C246D1ABCC815A7BBB88950BBA5202E394898473C0E41193C2C91B63C95E7563C064389BC82AB263A68FFCBBC2998163C4D3FE8BC9C9C9DBB79CE08BAE800D9BCBEB9123C387FF5BB44DD48BB9D38F33C8CFC62B7169D94BC7D5889BBAADC3A3D040B653C57181DBD1E5B91BBF604753CD2103EBC273233B99FA92DBCAE2E29BC47F5A73C63D3F23C92EEA43C2F71AE3C9195123BB01DA13C548956BB1287A03C551164BCC64E80BC55F8453C5C8F7D3CF742843C2A6CBBBBC868ECBB6D062F3B850476BB197D19BC8562613B205BA6BB4DD793BC20626CBC157AEB3B3FC601BC933FA0BCB5AF013B25C131
3CC22A3FBCAA6CE83AF09035BC0D09473D03B2203C7C50AC3CED59823BABF3D33CF2D6413B9A55F93CF0D038BBEE6FB63CD5C784BC8965EABC800DC83CE4E4813CC12BD03C2963AFBD0DDAE43C4A5CB6BC2A9387BD578E26BCA3DC6A3D76C781BCFD4602BC173EBABC9771BE3D0318883A4F54CE3D8A6AD7BC332890BB9FF6903C9880EEBC9C60DD3C28361A3CCCD2FABA9664C7BBA699CBBAD90716BC005EEB3D28ECAD3D043A99BD0DA6D83D1567E03C7D0D623D39240CBC055538BAEF38973D413049BCE7F06EBB644886BD6BB01E3BF612303D465337BB8B5F1ABBBE3A0A3D273DC73D1D8636BC1F9AF5BD8C8BA53AE811EE3C864A543D0097743D00C071BC6E16BDBBAA7A973C5781CC3CA979B33D03F7A13C595F363A55D4D03D59E5603D5659CDBD892FD4BD39A73E3AB6BAFCBC9960B0BC76EF513C2657083D67A8BB3D0F129E3C5EE2953D6312A9BCEE4F8BBB2753C4BA7F76703CEF58913D0F3BAE3D3A9C87BB507ACA3CA04865BCCF18863CBB27E6BCDDBB103D1EC4AFBC87CC7FBC13088CBD2F20453CAD7A863B8636563D32F5C13C09F12D3D1EBEB53CFEF7B3BC88B40EBC20F47C3D0DEF613CDB02CB3C3E5260BC5FE36EBCD731133D5DF0233D57ECF13D5193043CC16CC23D0327D5BB7EA4973CF93681BB1EBECB3B698F843C13D8CC3CAD06A4BD46C955BD2AE4AABD7F3FF83D1C5B993D36EB90BD277F2DBC1C77A93C7CA8063D9D9AC0BB0155ABBD9FAB6D3BB4E3EC3DA354B5BCE9CCAC3CE0EC763C9FBDF53CBE8ACDBD0A10FE3C13FCD93CC314A7BD1CDD3FBD51149D3D2B0AB93CCA7229BDF4B51F3C7ADE1D3C17E8CE3D2680593C8E42A73D07F9823C4CDE283D357E3D3BA36990BD44E6513D41ADF33B9307C33D378DC8BD37DC8BBC488B7BBB5638223BAE4218BCBBE9CC3B3B874BBD633F1D3C89E8D13CA995503D00F7EC3DAFD4C03D01DFFABE17CE99BB4354353CA8AFE43D008F603CD9BB16BAAB8CB2BCDE4AB73D2DF5B3BC8AF0533D0276A73C8BB7BF3C689B553B84C0673CA4B76F3CD254223B9D39913C4909523C174ABBBCB604ED3C1200993D2987BD
BC4C6EFB3C12809CBADA29F8BAA9EB58BAB6CEACBC34D75B3B5CAB113B03C5BDBA69A443BCAD9C0ABCE364293C2C27A7BC11D7853B862C9F3C058EB2BCB2B0103C9E90973C927439BC8BB2913B660B993C1EB5863A5D4B883C8FC844BBAA0CCFBC1700D9B9B0D94DBC4FF83ABC362F0FBBAAA33FBC0F91E7BBB5F25ABB62BD793AA530393BE907C7BD0C42323C8E4ED8BC28A3CE3B70D6D9BC19D3ECBC534D96BC1906ADBC618EE1BB70F4E7BBA0E4083CA92A823BDC88C4BC737A503C9B56F5BD0CD622BBA467E7BC41884F3C948E95BB948951B9BF77FE3C08CACFBBE79433BCB4C8EBBC607DE0BCB16BF8BCB1E0B53C691776BC7228F7BC0AC436BC745EC83C5422693BF333283CA5B2B43C3FD6C6BC56A482BCB842313BEF6D163B8DEF5ABD608D7BBBDCD3BF3B81CEAA3BBEC3463BD474C73C1338163C9304BBBC6D8097BC989BE73C2649E43D04E679BB4CB8EABC29C54EBC864F403CE92713BBE6B334BCD855193BDFF25EBC4037633BD5ED0ABCF7E33C3C5173633B36F363BB8B3053BCA249C5BCDBF980BBB16E9F3BB4BC88BC09B37FBC9B2D85BC5783B2BC8F13C43D20A512BC6882C7BC1527BABC4B6B15BC61E3BB3C8A6B5C3CB6C4273D2D4173BC9EC13B3C70B77D3BFAF173BC19152B3C78B962BC76F97EBC41A557BBD162A2BC25212ABC2ADF613C28069ABBD1320DBC987BB2BBF43106BC9A6CD9BC050CF73C163CD3BBABAB453CA0025E3C23D2EABCB7A2A7BCBBB385BCD50EDEBBCB1E0CBC6AD98EBC34CA23BC9D9A773B82EBC93C38DB52BB93138CBCB520AB3B53B41D3A3839CFBCBCBC72BCCCB1BABA10ECD7BC189C7CBC6FA56CBC2FF181BBC37D2DBC87CD83BC4B4980BC4B0ACEBBF26BB7BC83F3FCBABEFA6BBB83858CBC1CCFC2BA269FE43C392564BD0306F53C8E80CABBC1DC92BCA7B49FB98985BC3B3BA3333C80CE8D3D1C888ABC9A02B53A1AA648BB8DE238BBCF1ECC3C815FECBC820311BCA3EF28BC1B684DBA0EBABC3C1824E7BC8673923A126ABF3B9FEF54BA8EDAF83BD136CBBB9DCE393ACF646239C5A2BEBCD8763CBB949401BCAC1B9FBC229764
3BDCEE973C408AFF3C108F0D3BAD25F03C7A45673C1C4BA13BBFD88DBC601ACB3C0A1C0CBD392C3D3BC6392ABC0D05DC3C85EDFA3CAFFD8BBCAA5B9E3C1986963AF25B95BB1E99343CCD24313C429B3ABBB011EFBA4A65DDBCA45EFB3C2095793B256E1EB87D50B23CD8BB99BC64560E3BFF53353B0A69FCBBE3BF483CC1CF82395065AF3C14B0E6BC507A4DBC8A45283AE90F843CBC51003CC36A14BB33D842B85618E2BBB4806BBD6EC59C3CE4CE22BDACDFFEBC5E4DAD3BB1DB693C940553BBB6682EBC42863DBCC5CBD93C9F49E03BAF35D73B097A67BCF780C9BC659FC33CDE26DCBC9C4D0BBD002B933C0593383BA9AC64BC558AFDBD148E0CBBE75560BCE4954ABC388D953CA3D9FA3CB0F15D3C55C61BBBBFB12CBD1B81E8BD128FC0BD9F05463BB947D8BBBC88D3BBDE2EA63C4C619E3D470F733D54B8053C2FF32BBA4F07D73C1E8BDBBC8C8996BB9610B73C9D0385BCB408BBBC25DA3D3C89E45F3C214996BAFB43C33C15A6CDBCC4739ABB4E9A453CDAFCD1BCFA7DE1BBC661FF3B00CD4E3D1C02C0BB9F1797BC69A5183C21AFE8BCC3453E3B076DB73BC118C8BBFB1DEB3CC8B6163C2040D23B2135FF3C031934BB1A17903B1457D1BD0A03073CCC7A96BD93B1413CB7316D3C563066BC0D09993C03DF9D3C442D113C4517093CB09C3D3C347D963D353A3ABC3639153C53FCA53C4C0AE4BC40208A3D12D935BC6DD8E9BB3C21093D0465393A5BEB373CCEF7DE3AD5F7CA3BF747503C148A38BB94878D3B87FE493C85FFA83BA3481FBCD745283C00FD0EBBF775903B8939863C3A0BF1BBCBBD62BC9B9F3B3C42FB9FBA9E8E163C27F6143BE16E9539A41C5FBC1DA6EB3CA7A04FBB6A0D04BC704FF73C7CCF17BA0D717D3BC87976BC8C3028BAC44175BC565BCEBC4ED82F3D02F3A3BBED5E1EBAF1E4FB3D3DDE8F3C8E2A8A3B778FCE39C66ED53C82E0EB3A2D05063D2D0CEC3BE59336BC4124F23C95B300BBED55013C8A586C3C5AF3CE3BAAB1A93C6B39FE3C5769AA3C9E9CF2B9B28E06BC80ED713B6E9516BB95C117BAF0208FB9AA3835B9F52710BBEB95953C6FA4C5
3C7101153D2410943B4E516D3B580DC7BCB417953C0B8D003CD64D5FBB4879743C7DB55C3A9705C13C098BC3BC59A88F3BFAAD7F3C1D07F13C2CA7DD3C4BFF423A03A2E63B8213E6BB8A53C6BC95DB0ABC1F3ED4BCE24F91BBF44EA0BB8273873BB862F93B4D8C7EB957102FBC11F371B97CFE703BC30C0E3BB3B60A3D1F9F763C6BE6263CAD1F79BA479940BBB92737BC4BD183BD078EC7BC8649873CCD24C93C7D278CBC7125E83CB425423C378DFFBB8A7F1F3C93998F3C3E3CD43C46D6DD3B6A641F3C1D7E01BC05EE243C84D3C23C31CA213C34F0F3BC2CCCA1BC061F253CC917903CBEDF283BA17B89BAA9A47A3D115D62BB2CE903BB1F7E283BCE2002BAFB524F3AD037D6BC5874043C77FD11BC8331C33C9AF54E3C558E21BC5BD17ABD3B3931BC5DA60FBB4AC040BCC7BAB9BC12BF87BC88079B3CD655CABC1644A9BBA18BCE3AAED5563C5393FB3BC1CB2B3C410E40BC293F9CBABCE98A3CCAD7CEBD18A5E43C2972073B01FA18B9EA3DF1399C31EABCD5804DBDB3FEEFBC9FB4D9BC32AB5FBDAD803D3B5505F8BC2A9998BA2F0A46BC2D2B753C2312A13C6EA33B3BF7164EBB75F2083B4C17D93BB7F18DBBCEF7CE3CD53F6E3C45E079BC1410683CB6E26A3C0FBEC1BC3250F13C47823C3BB92442BC193E903BA6E230BC32C1DDBCCA1D6DBBA69AEABCAE2877BD95A0BCBA9E3AA83C5980883D00CE403D3687BEBD12A6CC3C32365EBC6D3245BC20DD093BC9E4ED3BCD9CBC3CD2126E3D08D28BBBA3D29ABC0877373BA2CB013CADC5223C1255223C7962DFBB10D50FBC5B87643C4F8513BC47A4D93D0F3C933C13D64EBC96ACE53BA9F2F73C8683573C84FCC23B1DCC3A3C3D43E33CDC1CD83C71D69A3CE7C5F63D2A5F623CAC980E39D115633B4502EC3AFDF4CABD02356B3ABAB3E5BCACAA42BC399776BC48124D3ADA849F3BDFD9593CDBADA93C2BBD603B97DF13BD3822903C834BD5BBE138973C9FDC8739E9F6693CDCFA513AEE04D5BBFC66B53C5D3273BD123997BBD5EC9FBC0C07923C4E21103BC29C9F3BC46C753C1D03693CD1E60D3C9E68A8BB3E60E53CAAA339
3CBCD83F389B18A53C1FC9053C8A8C91BCD6C021BCACB26DBCB6DF5D3C6DA5933B772FD33DF9BCD83C4B2F58BD47D43ABC9726713D71D8723D8C5B023D2753533B3DD2653CC8637ABD0EB601BCEEFAC13D1FF4173D6FF5A9BD4BB28BBAE99B843B0B2F68BCD674D03BAEF1EEBCA5213DBCCCD070BD42830B3D1C8C70BD55A365BD4BE9DBBB0A77C63C5725EEBD9BC7443D187E2CBD6087CA3D9E7354BC5A45383C984535BD1C2D083E0715D9BCA3817FBDF701D53CC57ABA3D21F0BEBBCDBF683CA7AC58BCC393743CA4BBB1BBA5D3E5BC088BE03C47DB31BC95907BBCA25C0A3BB26AC1BD0587DA3D7B94583D85C7B8BC615C493CB0A5023D37A7883C9D6139BC827CC8BC07DBFA3CDBC3D33CE7F3FA3B90C95D3D39D432BD1C7777BCB668013E394792BC5140813DC2FF79BB9D3E9EBCC216EF3D1650BCBCFE992F3C3DC633BC403549BADDDB533E0BF49FBC849F85BC95FD913D139B953CBF425EBB4C03173DDBBBB53C89A2DCBC8A86253DC92B593BA53383BDF469DEBC9B8A27BC162CAA3BBA0A023E0C4AC4BC5C3D4A3CE89E12BC19C8D93E4748023C8B14E7BD08CD9E3CCB8F59BC7B719D3C2E41E4BBAC47D03B36569D3D98D2DA3D5175B739B471493C3BBB993CE58EF4BB9A9FC43D525D63BC1B628C3B496648BC62276EBCD3FF603AD6EF843C19B5803D1C6BD6BCDAB13CBC4E32E8BC9198CCBD7760CBBD35611ABC9B5AF03D045742BD4302D6BCA323983DB372353C21AAB23D80822D3AD4F0113A1FE2713D3F5E943C0A7A18BCA0A6743E0023C13C6B5ED9BCA53A183B899B4C3C6F6E6EBD6701143E189B7D3C10CDA7BCEB6F203D8D6A79BB9E10093CA126D23C66E5103CEE5315BD1523CD3C3B6F3A3C337683BCA2C1063A3BBB2CBC4371383C7468DDBCB54C0A3C001006BABE92D33B0CFE9E3E27143FBD237E3EBC73A89DB9BB7D91BE073E483C4524E73D505931BCD2792BBBC8B2BEBD1F33813C24F5EE3D3DE2EABD1E6624BB50B1CABCB355DA3C1F86F63E02BE97BC217B1E3CA45CFA3D2AE93D3C44DEB73CF8B9343C6EABB3BC822BA2BBD5BB29BC4EB225BC1BEBD5
3BED35F6BCB17B90BC4FDE11BA993C9FBCB038AE3C770363BC370A8F3B2005A73AC83711BC7353E43C197736BC0088213C0941F63C4DD38BBAF653CCBBF270793BCAF5893C30C8703B48FD48BC0A086F3C7F0700BC6BF30DBCF4ED583B8F8805BD8013F8BC80782B3C8D54963BC57F7DBB8069DFBBCCD10E3BE8A27BBC66856D3A0331DBBCB14280B9F6598FBC4BD2C93BB8A3243B9400D1BC1E6464BC3345543B593324BC904CB33C112B8ABC36C432BB42C80DBBAA5FACBB42B0AABABCC9053C34F1113C4A5645BCB7D87FBC321986BB9618F9BB6157063AE7D3853CCDDEA7BB8D2B9A3C524177BB2E4E2EBCB837AEBA5A2667B9222A8B3BB467A53C2FA6063CFBFC56BB4B723EBB9AD6343CD109BC3C09230839D30420BC038401BCBBFD57BADBE050BCD5B3F6BD0D26B9BC9BA0E93BA1A14E3C7BBBFA3C7C09573C0D57333BF2D55CBD02415FBC8CC327BB30189EBC00DD563BEB7FD2BB81B78D3BCC72893C65206EBC23A49FB9D2F45FBCA7E0223B2B41013C2E85573B9129DEBD724509BCBCACFEBC8456CCBBBF9AE43C49FAE0BB713C88BCDB854DBC12A877BC6E671CBCD72553B9ECF9323C65999DB77B929CBC1F13D1BCD38F70BC3D27AB3CC4B7673C57BC1ABD10F85B3BB5B7823B92350E3C3402EB3C7839B3BB9F86B9BCFC9608B96A17D3BC7127C53CACC182BBAD5629BC54276F3CA9E1C1BCBF49AD3CC8F79FBC6DA6B13CAC2430BA854C873C81B1CCBCE78B4D3C8D108DBC28D4F73CD4255CBC01557DBC145FA93C926985BCC6F2023C0CD9A4BC081EE1BCEBB49EBCFD44EABAA259BA3C1E89E03C4DCD06BBF6A7CD3CC0170C3BDD933FBBD567D93CC4552E3BCEA6403C044CBE3BB282E2BB9ADF2B3C1230D7BC3F44373A369EA5BB938E46BC44237BBB0DA8653D023A75BA24BD533C1B510E3BA4A64E3A92D1793A3A3AF03C71D1ADBD479A363C888CC4BD210F853D0628E23D1CEDB93CBFF8493C072BC9BAC5F258BC9C96933C2374A83C91A0CFBB7F32733D06A5F83C0C3CFF3BAF877BBBDB0A0E3C9484EEBA86D557BC0E890ABD2E464ABC6B11B8BD008EDEBB738316
BB3069393CC72C4F3BD84CD03B9150DEBCCF800B3A406E1CBD18388E3CCD2DFD3C187EFCBD6D6A04BC25B23CBC074E653ADEE3A03D10B9713C656210BCAF567DBC9DA526BC2A2152BCB4EE14BD5D48C2BAB4BAC93C8A084CBC81ED363C0BAA9F3D50B7B83D0E6BD53CF7393E3C21A476BCB3DE4A3C16A013BC8ADC27BC34154CBC8986983CA793803C4E80E03D68E1F03D19D7653C081D573D467B743B13A61CBC14A4D13CA473213D2B2ACF3C3E91083D4BE501BC8D49273D130217BD075A053D1326003C2E8D473C90CA503D257E753CBF92C43C027C63BCC32FB0BC6821553C579DBFBD2FD27B3D21FF3C3D8785F93C62244E3B8629AF3D106D56BC7235F43BC43A9CBCACE8463D000D83BBA4ADE43CD5CADE3B936E343D2651C43D0C626F3D9CFA793D67B60C3D3F4B253C5DB1333C3B3696BD182F5EBB8E4F9DBC1A9C7B3C716E413CC52D433D07ED553D0CC31B3CF5D3E2BD46C81FBD4C1B69BC499ABA3D2989323BA90A393A993DDB3CE00A883C0A14A7BE00B9DCBCDDC5733DFE035A3C8275633D175A5DBBFC24483C8AE520BC83E0313D2247843C6553F33D1281803CADB7783CABC6163C2ADA7C39A1F8283C4EE655BCA70A2C3DAFC4843C4315AD3D02038EBA056BE2BBA8F8753A725B213C8B16E63B0C2B66398E73893D0B5B42BC9418A1BC27450F3D4293473D0B76C33D49DA32BBF27E423CCAF7BCBD0C4ADDBC768BC5BB93C168BD0C20803C9DBC243D4AB70EBBC6C90C3C8FC001BCB3CEF23C27068A3BD39C59BCE1D64D3D444613BB1B323A3C6A069CBC98BD36BBA51EDCBC1A0526BC0A1453BC4C73B5BB96728BBBF888043C8FF7043C8BE62ABC33D1D8BC2EBD45BAA806C6BCCA32C4BC9B63A33AE8B77B3BE008FF3A820A373D42B1B23C6612943C22E9403CD5DFC03C3249C3BB8C56663D3660EE3D3632CDBC3E94043C035A773A8E6A433BDAD8603BE1BB013CDF06B33BEAB069BCA487463BC7FE003C7FC0123D6329933B267E6BBBBCD31FBB1FEF9EB8D9C80CBCC26FF33C0153993B1C2C083BFEB9C93C58FB5D39B045F93D627A6F3CA5F8DE3D4FAD823D23BC70
3C51B7B1BBDB436ABB0443933BFB9FE6BCBB73E23C1FAB3DBC33797CBB95E935BB1EB7B73C70A2F63C81EB743BB823283CB28D463C1588ACBAB73FD93C0C5E373C5672E23C1F13BE3B7D5392BC62D94E39B01B653AF389213B3E49753C82AD903C9C35F5BC6DFA463BC2836A3C7EDD203A5B2FDC3C3C91F1BB60F7953D596C2DBBDE46223AC15C963C28183DBCE3C944BADBDE903B3A668C3CCA17A43AD4850A3B937FD4BC2BC2B53CE8102A3C4595A7BCA601B43C84D817BC86EB83BB51C3A43CF089513C50C035BD1C71923D2B738FBC16C9373CE6ED843BFAA22FBC0C46AF3CE92A7DBC2CC2CDBD4F06023C90CB2EBB22D2573C3B6EF4BB0064CD3C824E4A3ABFFE9CBB0B95793AE5F124BBAC2D503C0CB67A3C3AA55BBBB554E93BA87E76BD1584BCBC3636BD3CF978173BD33D043BA2CDADBB684084BBD0976B3CBEE71C3C6BFEC6BBC53B13BD0D50E6BBD961BA3B6000443B035BEC3B2B03983CAFA24DBCC931AB3A5B97243C1BB053BCA4766E3C321C07BD1AA3373CDB24033BA98192BC2972E93BCCBF0C3C911C01BCC989F53D05C2AEBCBA675F3C267774BA60224ABD0074853BADE9883CD0FFED3C80CB8BBBE4C1D03BB3B8E7BCAFB5853D20E4913D0746EDBBB1370C3CCF66763C5D6B833C2B93733CC1FFCD3C3679153C24776BBB83DF873C9744F9BBFEFF93BCC69C63BCF7FDDE3C1473703BDCD92CBD21F6493C0A93DC39758ACFBD41064ABC8AB4A73BEFE9D0BA1DEDF73A98D5D4BCC792A53C4FAD203AE5DFE03C115D9C3C864A883C78953A3CA1EA0FBC5044F13BA778343CF8205E3BE8EE4C3CC98B82BC2655103B487FE23C9E91C23C62BA873C17E3393A13BAAA3D23E4F4BB46627D3AA138DC3B75F09B3CAE37E73BF69E0DBC5FF6273CAD7DB63CC12616BCCB6CEDBB932878BBF95832BD10F9433BF28CCC3AB00A163C30AC793CD559893B359729BBBC47B3BCB22450BB7A597ABBA99DB9BC819065BC248F5E3AA756F23CE5D0713CCD93303C88AEB63B32CFE5BB290B92BB752EB0BBA0E2BF3C4E8C6B3BC9061EBBE35523BBC44F76BBB939D13BA397773C83F972
39BDF7BABBCD5376BC711286BC1B87E83C1CDC2A3C81D6153C948342BC7CDC52BA003440BD09700EBC8904DD3C84A4223C052814BC8F4F50BD162AEABC584E78B98B6CD83BFD9A4ABC03DF043C3EA6493BA53AB73D23FFC4B9051F3A3B7D31C7BBE127CE3B0DAA4C3B61CF54BC7E11233C6C2F973C869E4D3BDFACB23D5141F03CA102B7BCF01D40BC88B2ACBB666106BCF93EE83B6067D5BBB5B4353CB198BDBCA409373ACD89AABBF995313C1B6E8BBD0B3A24BC468117BCF25636BB334512BC3093EBBC8BD0F4BC9969B6BD43C0F63AB77B3CBC97F05F39671AD13B62547DBA3BBB333CE17630BD022F87BD6EA24BBD0376B73B13F4F0BBFE97873B4C683C3C8DEA2EBC132B93BB1C3C233C9FD118BA8A22E0BCDC6BEABC814E993D9DE02B3C914038BC39D665BC80FE97BC0A271F3BB1B07A3BCE0C213CA6065C3BDEE7CEBC316C5F3CC8B673BD0DE893BD0A0676BC710432BC9278D1BC91A2E83C2351873C8475B5BA886FF0BC75DA6BBD0BF3A4BBAE00CB3D2DDF683D24B525BC09F966BC592E5EBCDF3E853C284CF3BCC3D07F3C5C69663C8748DBBC02EA96BC09B9FCBC01B3B2BBEBECC6BB778D183ABF1FAD3BDB35A3BD320C99BCF3F973BC0B25A6BC52A93339216A3F3B98DAD3BC7D9B9C3C8F44453BE5B7F6B9C819C23BDBF76D3C49218E3A4E51DFBA3B19FDBD63741EBD410D933C90C253BD5C44C5BD8E64EFBC8B3C75BCB29646BCA985BABC65D50FBD2695EEBC8031DD3D0E8D16BB598D133A237600BBB539D63CB6E9AF3B15674E3C582C2ABCD50374BC2124CABD0B5E29BB75EE403B441F27BD209DECBB24F9423BEAE24E3A89DE3FBC2B46033B16397DBBA6AA303BE2671ABCAF8AA5BC822023BC4D6C6E3ADC3A88BC23E582BD5391E83C1F9BAEBC2BDEA8BC5A3D153D7207AC3AF2ECEBBD00F7D73C4C0E883BAAA9A0BCB69BD33D4496A1BC960129BD05AFD539163A713A8DD75A3B78B082BB54654BBC10F88A3BFACC5A3C001B253C547EDEBA31E6993BBDADBC3CAD3AE83C6519FC3B90437E3AAF42CFBB6BB3743BEC75C0BD7FA3303BEB5D1CBB907279BBB86BFF
BBC23AD03B5F36423C3282913B8AB5603B5FFE00BCAC9EC8BC9E09133AE1667DBC2931793B2A1C0EBCA9274F3BDC6FF5BCB3D289BC9016F63B97B31FBC327EDCBBFFE277BCCB5F443AC57D2E3C00CFEC3B6FE6353D292596BBE7BD86BB7BAAC0BCD0253D3C43D8B23C45FC773A885776BA01A7F33C77D27DBC2AD5F6BBCC1D2ABC8A737DBB979D60BBECC3AC3BA197B2BD04C0283CA3804EBC098389BC8789DDBCF4D9F83D096D0F3C59C3A1BCDC79AABD2C858CBC458780BB2CECBD3C980792BBF7DD2ABC91110ABC1C944F3C912A37BC9E11FF3B528DC3BC6BB245BB1A375ABBC1F94D3C85A585BCF439E93C3C664EBBDAA2153C7BDE013CCD0BC5BCA4F7A23B32557FBA39B79C3C5CA1053C8FD0EDBC7A5950BC6E3AD1BC0921B53D00F765BD8BF124BCDF60A03D19A32C3D3E499E3CB0AA783CC054223CCE541EBBA776A3BC283C3A3CC1B27CBCABA1AEBBDF2941BC4F27473C95A2403D10AC96BB7F6BD2BD025ABCBBB2EB18BC7F8B243C5967B0BD14845E3D295639BCF4AA77BD7C65C7BCC699B73CB96826BB9E4D26BC9F8E1FBCDE84773D19732BBCFDB5933C7D2E96BB182EFD3BDE6EF63C873696BB337EF8BC9D748D3CAB2A1ABD8A4EDCBCA69D3DBC8A55FA3D097FDF3C7638EBBC71D408BC30F161BC62E4243C05CD0FBB158063BC60EF0F3B0D62823B956F903D1BE9C03C13C546BCB934AE3C01DCE73D054964BC0B6ED4BBF24A96BA25C097BBA79221BC30FABC3ADA9737BC820F643BAD6EBC3C9E177EBC6E4881BCB7A7E0BBF4D68A3C3A36E4BCAB80CEBC76785F3C85D8693B0D92B8BC74E714BA835DAEBB324A38BC4729D5BC3BEAE73AFE4A5CBC1D85A2BC6F64E4BCA1E1A03B266BA23CCE10953BE24FA8BA94D0863C3FF3B23C2D18B4BC0B927ABC1230D3BD8EC2363CC87D5F3CF323C43BA5D664BC55C0683B330B0A3C3B80273D8F49B3BC0B14F53C6F8368BC81E60EBB901D71BD26CB79BBCC03913CD8AE303CFCF9CABBB3CB063C63EB51BAA1679CBCFF2248BC7F1D053C0469B4BB24DDDABCCB3D65BBE4A263BB4D48E2BCAB1A4FBAF1A8C7BC4ED84CBBA616B2
3D03DE53BC9E9F5C3B095424BBF30B1DBD1975033CC727FA3C9CEBCEBC4253F73BDFB19EBD583F903B6C1D3E3CB226353B73E03B3A59A46DBA089A9DBCA4A56EBC7C5C4A3D2A12B1BC895743BC8B02833CEFCBF9BCF62E9D3CA62EDDBCC39AECBD482C30BC0D03A7BC3B6C633BD6DCC93C4E833CBC88226A3C7B41433CD236A3BCFDE67BBD7769FD3CB6E568BD71507D3CD118A73C5633D8BB56154ABBA8F00A3C8E623DBCCA7CA83C1585E4BC26487C3D5B068ABCCC218EBCE136A0BC50D5DFBA9183F2BCCED5E1BC9B3F6FBC7215F73C13FDE4BB2CF5583BC592863B99CCE6BCAB06093C88AD593B9FC5EDBCE0432A3CB1B2D6BBBB1A193A94C0043C8BE676BD4CB5B33C3D86613BC0B148BD5D879F3D0147EE3D4150BCBC0A32D9BD97F9CC3B735456BD1BBED6BCCBC072BCEB6C9CBCF3FAC63CE7D9ED3C77314FBC3693FD3CD1281F3B4C732DBDA80E123CAB812E3CA92239BD0D2410BCF4B44EBC3A43763C419FF1BD048919BC99346ABC93E87E3CBAC5743B0312223BEF5208BCD825EFBCD3A330BD160F6ABBBCCC723AF4B358BCA2E7473B6746EF3C25B9AABC29C4A03D1191C63C8E6BD7BC31BC7C3B32EC5E3BF55A213C2BECDC3C4EF082BC3665BC3D3F65833B203723BCB929F13CE90D383B1540FEBC74B7BFBCF9EB52BBE30686BD84565CBCB28B2CBC5199AEBD0531B33CFEDB663B035F16BC14977E3C0D338ABCB3CC053C1228BB3D85AF70BD2EAD85BC49155C3C4AC17B3A092C5E3D8AE6A8B9B9BB22BB72C3743D35CB483D4A3FCA3B9BC05C3C1495AB3BB6B4A0BD5AFCBABC3C03BD3BF9525B38463185BB67F6DEBCBCEE4D3C26D34CBD0636293B861E003CA963523BA955233D16C2B23CDA71943D127B98BC7753E7BCD7CD533BF294C4BB7E3BB8BC824CF63D6CA8FE3C2580213CF4FF54BC7E48F1BC8D97863C564C073D4055ED3B4940813B112EA33D0C7DD0BCAE57943CC2280F3CE23971BBCCA76ABC2AD0F7BCC3EE49BBF04E15BD151CECBC5D809D3D0A8D58BCAFDF963C9FC74DBB22B1E23D1AC5A3BA5DE70ABCB59B773B0789EDBC329AFF3C07560F3C8FE90E
BBBC40363AA7C5E9BB308825BCB067DE3D037E24BC2D7CAB3B2D1CB13CA99A53BC3509C2BD80A420BC15C62B3C57EEDF3C20783F3C94B0653C91E6EC3D031D6A3CE7C3F5BCD0365E3B7BD4D3BA6566BFBCD27D45BCE4F6C1BBBF95EABBF9E62DBCA51283BB6110D0BBA822B23C13036C3C4886D83C1FD826BD2A342F3C61BBD3BBA9B4D43D330E343CC4DE6A3C900BE1BC9258683C1FBD083CBC95DFBBD37C9D3D5C16E8BDACCA03BCAC7F943C88D0E6BCE8607BBC150A5ABC668AD6BD1E55D73B6AE1C23CFDEAE339D4408F3CE601C9BC8AB5A8BC2819AB3C630AC6BCF6448DBC10D04A3C1EDB1FBCE5A3EB3C023EC83C8B34A6BC41BC7FBC6028663C0B5CC1BB664F66BD065D9237C24E46BDA35FDBBBDF3DFDBBF532B6BB612C1E3B9FF0D2BE19A04EBD1190AD3CC0A8C4BC67BE0D3C8288273DC3590CBD5167863C1CF8B8BC03DD933CF9AD8E3C7D15BB3C7C0A9BBCFF6B083D2428413CF7DA213B955409BA1F899B3C8BD2B33C567BC3BD0C94C9BB825DE63D6DF49FBDAE66EFBDC25BDABD4CB2FCBD3ED010BBC2CA0B3CCC78293B4263FABB9DDE473BA5D8BEBD25F929BD487033BCAFB31E3C8B76DC3B94B8C13C8B9A4D3CEE3314BCBAAE1A3D00230CBCA7F1573C04CA14BCE3A5713BCCB8C8BCD3AC5EBACF16053B4778353C33C583BBAAED4A3BD51FBC3C03AEB53C447CA73BD78A3B3C383DF5BCA22D3FBD6CF97ABCCAE56EBB7FCF09BD344970BDD5C2C93D299C73BB2241463CB224323C8D14073D0B2172BD2D5222BD456EFCBD09A6EA3CF9302C3CAB5E79BD2CB32F3BD7523FBB7BA9AC3C181537BD7FD1CE3C916A32BDB8A84EBC5470D0BC55E7C0BCB7D9613CD2C62A3CD3DA77BA56B2FABBCE01723C07536ABC8234EEBC1ACC903A809AEDBB85A3ABBB136B15BD840F7D3D11C89CBB82E0E5BD0754813C8C8F943A5DAAE03C8B7111BCA7406ABC16BC8D3C7F5D8CBD8942A73D16DB463DB08E07BB60D3FD3C84FF7CBC7E053B3CDE472BBCC2E220BC107A36BBB179AF3AE0B327BCB2450F3C9117C13BA642DF3D3964F8BCE74736BCFF7FAF3BBAEF603C6E898D3C9BBBEF
BB529D8BBC26ED2B3BDC74E3BC09041A3C8A77703981D9073C5881A1BC58569FBC0F9B42BBAB8208BBBD65D93C293772BC8539B63BAC28C1BBB0C77CBC70FE7BBC4580F4BC5B3178BB70E8BA3C9065B7BC1F54B73AF606EDBAD73FF6BCAB5A8ABC105EA83B329C9FBC4339823B2218DBBB9F8E6CBBEE4D6ABC88C82B3CB5595D3A0D52C03BD7337FBBC637E0BC74BD76BC927E89BAA256A2BC7AE81E3BFFE3FEBC66FE42BD1B27C1B919D128BB993948BCBAACA63AED1394BABE7D3CBCAC4959BC55288B3BB3D7CABC054B1ABC86C59ABA616B19BBF90CBB3B280FDA3B120AECBC45231E3C2F7D2B3B79B10CBC01A9D5BCB713313A2908973B727225BC1E67A6BA10A32CBB820199BC8358C53BF05D40BC4DFC29BC026A3A3AFC2C993C05059ABC96814C3C3D4887BB4288CBBC7135B5B98967F03C53CB77BB8BF727BC770025BC65885EBB878606BCCC91F0BB569739BC90EE91BB7632FDBC2DE9E9BB2005C5BB11E131BC687864BC6D5BFE3BFC3216BC6C736E3D1599B33C805CB43C894FCF3B0C17C93B634F9A3A34F5D03C2B8A0ABBFBF50C3B230D8ABB88DFA0BBD88CB7BCC268343CA30E1ABC5BB8F6BC3CAB9FBBBB790DBC8A8E99BC972D3EBBCA8BD3BBD67F6CBC471B31BCAE8FAABC26C006BB856FB4BC217573BC8301BB3C115B0BBC30F290BBAA85F1395F36BBBB705670BBDD17A2BB9C34DDBAD8330D3CA58C60BC63B80CBC1AB950BC0697E93CBB3E04BB6F9525BC3264243BCFC3D63B4542D13B4A2E59BB562472BAB278D8BC2EB17FBBC1B087BC969C9BBACAE6763BBE190F3A9117A83C98542FBBA11F2DBC5977633BA76FDABC797598BB6B11ADBBDA33FDBBD0C307BC1D835B3B399BA4BCAF83EABB4E6124BC8C4EA8BC343B07BBA6C5003BB976083BEC1060BC8B997ABB5746943BCB1E95BCB83F34BC2D7A97BC10208ABBC004023BAE62CD3A321C7D3BA7C304397E964F3B77FDA7BCC11B70BB066E1939B0726EBC5FF347BC6D2509BB3CBCE0BABCE2753BD76E083A9773DA3C07D51BBABE0EDFBC867336BB061105BBA68B66BBB587B0BB7DE7C5B8DDA875BC3859DD
BC5EEFAEBCD383BF3C96DC633CA8903E3CE5DC273BAB2BE33CF21E49BCF5DF7AB9CAB1D93D6A48F7BC7EAB203D097F743C229B0CBCB7969EBCB4CA943B1B3B49BB4C9AB33B7CD1F0BCA72B1E3B74EC7E3CB3B37A3BE8601FBBCB6B143C813F5C3D1059DA3C9882E3BDA59BDABBACB0253C2667E7BB69A2153AB95141BDAA17623D7F998E3C94063B3C11449C3C5F30BC3D21FD4D3C34E5753B1DA836BC308BFDBA4D49463D27A73D3B5D64FD3B77E5D3BD89A2AE3C56A01FBCD96FDF3C6E723B3C11004FBC7FACCDBCABB8E0BC7B9E413B4B9E433BFDFB7DBCAD57C23CB9495A3C5828D73CD928F43D859F67BD011783BC38FA38BCB07BEABD626820BABCB7AF3BA5877DBC19C5093CE6B9E23CFFBBC33BD257E1BC2A9295BC8C921D3D349321BD5DED6A3CEBB9EB3DC025263CBA55AA3CF7599FBB93908EBA9663703CE5620EBBEBF38DB9FD5AA0BCC01319BB2994FFBC5FF1F03C8F6697BBD86B0E3BBDC0CF3D835DCD3CA2CB36BCA12ECA3CE186623BF407493D94B3E53D1768B43D017697B915FE533D54295A3B2AC8CE3C43EA6D3CA38EEFBD2859C53C1B619F3C1F56EF3BD9A418BC881D963BF709053C9F2F6EBC387880BD83A50B3BC48E76BC83DB733A11F1AFBC73C8903CE1336D3AC3B3F93816D28D3C90DB693CD4F354BC882A01BA3600763CA3F1313D298D93BD24022ABCCF21343C7F20EFBCD24315BD30674A3D407CE23B150E093C5C81233D16A96DBD95F13DBB9FE2CF3D11E8F1BC7144E23C24F68B3C6901BB3C282CD4BD853F353CC67B6D3BA07CA23C2486163C0353C23BBE35F93C168BCABDB3DD17BC048C943D5563FC3C89F3E3BC1C50103C96CDF43B8DDC4A3CCD17E33CDE9174BD9D56B4BBF68F933D822B493B5BD28BBC6DA86B3C8FF3A6BD93D07D3B7EE854BCEDE1F5BBE509BABA88673DBC9A8C7EBC292C3DBB2511C93E48D5BF3B9788DABCA058BC3CF3EF2BBB9BD6B4BCB9B3CF3BD10D8BBAFDB94CBCD166BFBC8DFE54BC8041683C957C39BD75B8783C505DDEBBFE92453C0A76233C73D689BA3D4C273B8AF0B43D074560BCA4C03CBBD80A30BCC7AFCA
3BA96AAFBB4FF331BA04576AB9F9BA923B5473CFBB2D8414BC261975BC427166B9129543BB52DB203B6929053CC7F676BBE246D0BA8AAC28BCB252943BB6D0083C2775F5BC082C3F3C078D643C88ACB23BB8A07E3CA18C2FBC882E9E3B5C7509BD69DF413B952EABBC978EAEBC4986B5BA6982DC3BF14CBA3B93E9313CE2DB953B590164BC2B3EDC3C86769E3C4ADDDDBCCE4FDFBB93FF68BAA96E0EBC662086BC0C187ABD48CE4FBCCDD3863B2FDE05BBDD62763B73B1DFBC59A6CEBC46D684BB00E43ABC36A3DDBC231E45BC5E60B5BCB2C58C3A8FC5A4BC3FEE17BBAC80CEBBA130853C28C358BCBB4A67BCD7BAE8BBEE66253B86EE0ABBD0FDC33C36C335BB2CB39C3C7F957B3B6AD21F3A3E334CBC372F5039A07116BC443CD33BC60692BD25300CBCC5269DBCC70D32BC626A3FBBB770F73C2C936B3BC16F67BBBB4D18BC1ED3FC3BE7AE09BD271A9FBCBC59F7BA770F363BB67557BB1E4EEF3BCBAEAABC85EA86BA1AE74D3B9E34F4BCCE46CDBBB7A8933D74E91EBC5B05CEBB9AAFCBBCB6582ABDA66452BB3584243C3503F13BA2217DBCEA6332BB43FEECBBD9C7A0BC7CE347BB988A823BD220B2BA3618C4BB7912DEBC8DD6063A932265BC4A37CB3C07566EBCE109583C26ABDABBD33ED93B4861533BDF617CBC54EF20BBEC598CBAB029BDBBD5C884BCC7529BBC7F4DA2BB58E121BAC14D2FBCB6C6B5BD0270DCBBC0920E3C1BA549BC7944A83D1B54D8BCE4720F3C370E6BBC25A166BC06CA5F3B59DB9EBB5D235EBA72F88CBC88901ABCB8FD65BC0279893B7736DD3AE1D11BBBCE663ABC268E23BCEAF7F2BC24A5A9BBE4C32ABA4B8AAE3BDBD95F3C94C4543BFF8625BBA40649BBD5E6DEBB952D7A3B0A57ADB945E4183BB7ED87BD427D933B2B94FCBC2E6E94BC6E87BC3CE4CAC7BB7B0C7ABB93F23FBBA41FD23AD04EAEBA97201A3D2B410BBB49C73ABB798191BC00CE403B2721703CBD4D62BBF5A4A0BCB626A2BCF6FE67BB5C6BFC3C0F7D043A9DDB6DBC867461BAF5675B3B1C43733BDE6B3039450BB7BBAB6D9DBB29EE79BCFAE25ABC072438BB417F5BBC3B3D1C
3D35E008BC1BF3083C00314C3C01A519BBA2C3853D8C5649BC95EC56BC07E40D3CDEC8243D23F35C3DAA73C0BC93635A3D470310BCB7C9DABC5D10DC3CB736AE3CAF2D253D16AD93BBE2D9A63C06FF01BC820F17BC613B65BC8FC5A13D740A6B3B95768ABBA080D73AEEB7713CF1CC1E3CD8AB403CBDC9CC3CAEE6C93CEDBD59BCDE0474BCD7386B3D2DAFECBC6363A53C0491DCBCB3942CBC809900BC5873793BBDFB003B67245CBA3F3EE03D4160C3BCE497893D09FADE3A417C91BB80441D3D9D26FA3AE8B6A7BCA6DA453C1D397E3C6A252B3D38DF0E3C4A1854BCAD6D813DC21270BCD7177339E3392DBB92D1DCBB8C63F13C4CA73EBBDB27C43D53F38BBCAD1007BC7CCA95BBDD381F3D0F16CD3D3BB7B53D4DFFA8BD28EFDC3C8365553D1E1C863C3685EE3CDD6502BD5C55C63C851EB93D0A700A3C2098323DD3B1723D810ED6BD1340003CE3C766BCE0955F3D161364BD2415773992C18D3D47D95C3CA3D1283C703C363D41731D3C8DAC153C842836BBC7F3F93A3B5ECB3C3D2EC43CEF0D053D92F5DE3C9F0913BBB7CBD63D8A7E0C3C87510E3D2805A83D3ABE5EBCA49BC33C71F2C73CFD43403D0A88D4BD002BBABD0FEDC6BDBBD7E1BD0ADE033D5CAA6A3CACB5393CFC64D93D2628FF3C3CBAE03CA8ECB03D13178C3D318B2B3B77D61F3D613D67BAD4A1F5BBBD89E13AE25E583D654AF7BC592CE83DA4D71ABAE0BE303D2F45343CEB9379BB0E4A01BB9682B53CB98CBE3B86218DBC98FF5E3D4306C73CBDCD253D39B4C9BB344F00BCA8E4D83D3915F43C465AA4BC9916333D91EA663C6339363D1A18A4BB045B383AF2868C3D8BC9693CDE6ED43D1CFFA73C4D80393DB61C8B3D4DFF52BB3A01483D01362B3CD73FFE3D1AEFFB3AC04A29BBABC9273D0950BD3D2951B9BB0770F83BD160DFBC37D657BB47B6F7BBC3B2353BF1BFAFBB0292273D02971EBCF0AF0FBB6CCECCBCBB96923CAE49243D0AAA6E3BFD2548BB9AEFC53D818209BB051BBA3C3574D73CD99B80B9A1FCCE39B3637C3B004C2E3D4DC9C4BCC543103BD2CC5EBA090BE83C25360A3D44BB653CA37A8D
3CB45959BCC916BC3CBCAEDFBC9AF5ECBC9F24A03C00EB33BB899FE5BB781B1CBC2C873F3C803CE53C9584E43D0137623C65C59CBB0380FFBC9C1A6C3C46A57839F2B7A5BC8AC4CE3CBBDF8D3CF064593C92AFBEBCD367EEBD61E779BB2CDAD4BDE266383C186C8EBDDC4828BBE30BEA3CB45A3FBD9C326C3D1A26B03D3DFCA03AEE6E2FBBF24F4EBC33F72D3CECB990BCEDDF58BD6EC12FBD50FC4C3D47E547BBA90DF73C831F8ABD5F71ABBB5BE0CFBD6A7A5ABCABA95E3A99F07ABCE084483C2C6F8CBC62DE6D3D1898D03D4148D6BC479F3F3CCA79E6BCA2EB033B873D543CE0E242BB89308EBC58C684BCB08343BCF6FB1D3C039B1ABC628BFC3CA08095B9A2E8BB3C21451CBCCEFC7C3C8B9B79BB98E6E9BB36FEAD3C58AA4A3D3223B6BDBDCCE7BD32C4C6BD2BEF49BD3AFDE53C5C3993BCF1F4BA3CE9A5573BC7B7723A73BAB5BD0651773D13F1F9BD2D141E3CC44D3CBCB12523BD37C3DFBBB22D65BD5BB2CFBCE6EA7F3AAB11F8BD02F6293B6C1D3C3E11D213BD995A0D3CA51808BD5B41203D8D58B33B9F67F6BDA966953BF7D7923C68C4C13C7C53B23C2733D8BC7ED6953CC44F8D3CB37658BC140705BC0E7F65BD4966C53E0196423D27BB643C819A413C3741D83AB823223C756072BB90EBBF3D06184E3C337F0D3C8D0F523CFBE93B3B869CB9BDE03A403CEFBD723DA976783CF1AF2BBDA410ECBD1225E0BC3761A93C3667CCBD82CCE23C8308E43C31E17A3D5419033C5F55253D23F4C83C13F82EBC560C7F3CE3B833BC33BB4E3D603AC53D0CD359BC84D84ABD0AFFC8BC64960C3D17AFFC3CDD44023BCBC3F0BA1366A13CBC1E413C7419F53C8AAB2DBC909DCF3C7D1456BC47BAC6BCD923BA3C2D3F30BD28D5E43CF17A3A3CB626EC3CD18F76BDBE74863C2EB7703D604B073AB9D7593DCD61E53CD44651BC2F0348BCEC7E363CF1B3473C7E43C73C974CC1BD50C904BB70509C3D034B0EBD3F8944BBD30FFCBC2302593C84B70EBCB515233D3AA596BDE2340BBC1B9E26BC2FE6E0BD60587A3CA4562C3C9095D8BC902C793D152D39BD0680EDBABA378CBC98BE5E
3B4C32B6BE032B5E3CDB8BCE3D541620BCD30A21BB8FB7983B780F1D3D30D0F93D49A2673E58A2053CF1142FBD32172E3C2BAB963E06C7A43B808294BC4CDC133C3039BB3D393CAF3B8723D1BCBCA51E3C9C83E23CD47C533D14B6043BB558623C9CDEC8BBBD62193D90DBE33D67C0A13D08531B3DB12822BBE4B861BE03271D3DA5844D3C5B6B7EBBF3D0ADBD7582A83E114C11BC873BBB3D28864C3D69729C3DAB5B2ABD909713BC6BEF7D3CFAA9FD3DC40FE23C97AAC03DA7A3623D6391C13D8892303DD69C723C722A8EBC1633DC3D13A5323D036B3CBAAAF5D6BC49A84D3CE49D71BD40F21E3BC6002B3D01135E3D4DD66EBC13F6AF3DBEE4C4BC2FC517BC58C8CD3AFFDD62BD1CDDB63CD4C1C03D3E401E3D809BEC3C05B1B43C907D31BDAC59D9BDCD36443DB4124B3CCD37C5BC2198193D400FE6BC94C94BBC3E2F433C72F5EFBABBF9333DAC923B3DCF4CA73D9FFB59BD494F5F3E3F42583C542EF5BCB65C573D3E7DD93D6BA38B3D849D75BC111E92BE20D4B93D94F33FBE5B8BD53D9E62B9BDB33A173BE59B583DC3FF9B3C99294CBD5173113D241202BC402CF63B9213613D2E6E26BB8D6D123CDC5A4ABC59779C3E04970CBDBC1BD0BBAB95023D853CDA3B40582FBCA09C9A3D1FBDF3BC9BB1043D1924943C9817243D0BE6AABC49EB3E3CB618AC3CCA04443DEEB24A3D9885A1BC1F30313DC089953D7A38E6BD560BE13D38F78F3E008DB23D81E7843DA9FB88BCE2898ABD861B40BCA7DCBABC5ABE88BB47B716BD1B12ABBD4203C0BDF7E0FDBD0548C8BCC568C63C9DEBF03A677789BCE9928EBE10D2463BA6B1DDBD827F203CC983C8BC714939BBEA1383BCFBE864BC5F14263CF731323A7B717F3CFC2A4F3DBB15C63D2B63F93DCB993FBC8AC04E3CDED0AFBD159487BE4E0586BBEFBC0C3D8B89F63D9652F33BD2C6EE3D86A1F7BD964FBA3D0F17933C87C40C3D90C58D3C3A7DB23CBA1CA63CBEED5F3D867CB5BE1E7D8C3C739709BD189C30BC638B71BDDB30633CBBC4FC3D90EA4EBC237EDA3BB990C9BC07D4013CF0C0883D95EE913D0FA2F23BC02AEC3C961882
3C666071BD5BF82B3D145E6ABCC324993CDE0BC43C78ED57BD056CB3BB2FCC243C173EDABDC7A96F3C92B1CFBE2641FC3C688C88BD81B8F93D06D7C13D006219BCC1B8CB3D769B96BB88C6503DEE9DA0BCE0AE1E3D181B65BD28B612BBB98061BDA93B8ABDDBCE2BBD72AE87BCE8701F3D45F177BD1E6CCCBD08DF453D2C2A3CBCCD176A3C8D66B5BB895DA03DBC31EABD1BB38ABD5CA6413D824C34BDA1C5B13D2D9EC9BD850FD63C609AD03CE8D9A2BD256905BC58A063BD3818C8BD2978083C9E3832BC11494FBCC73971BCE49324BCE39AFC3CB31565BCD11B443D91E3963C9220733D0CFF62BC852753BDAA229BBD461D83BAC3077D3D2390D63BA153DB3CB22A51BC999F56BCF99B493CD622C43C3D73353B95707C3CB7750D3D42EB0DBE46ECE7BDBF50CBBCCB45603CC9BC0CBA2BFA5DBD9CCD8D3D6905C6BC24692F3B20E902BD991E0FBD27C3E43D02BA7D3D4699FDBCE6F1FFBD071072BC247931BE2E14A63D0D56A03D4852ECBDF60FE83C89B449BCBE311F3C61C077BEB955893CF2DB963CC533BFBC940988BD267A81BD3B09BC3DB355CD3CAEFFE8BCF030C3BCC26C1B3D41F717BC2436C6BC90AC563CC831CC3DC398093CAD6FAD3BBB28C33D18E7E13D8847C73C29419E3C927F5D3CBC4B013CA571433D25C3873CD980F33AF42F713CC7EDAC38AED603BCE9405ABE67993ABC6E3101BD868BE1BDCA264EBC9825EC3BACA5C33D8692D23C2B437ABDAE23C13B8894933E548B633C18CC63BCFBBEC13C0E94D53D29D90BBD50701ABDD27831BC0CE2C4BD09C614BCC1024F3C83FD33BD38F0AE3EC002623CC7A3D53E1624D23C912E91BBA2B37C3C3D3BA8BC08EC5F3C90ECB5BD6E37AB3DA17DFE3B5DA7363D973FA93CDACD36BC7E78783CA8F7A2BD3709D2BD9CD0DD3D5197BFBC0594DE3E2E603FBE365E5BBA325F0EBD2F0574BE00CC193C11FB04BCD5AF04BD88A66CBAB5DD8F3CF945CF3DA9F8593D926B66BD8657BD3C859E053CADD2C43C5880693EBC96C3BCF466513D57869E3D67F8E0BB31D3DA3D0DCFED3CA33CA23C5A163A3D2C5CA6BC22FA503C572571
BBEF1C8D3C4442DCBD699F0FBBA8F85A3D01AAECBC7361DBBD7DC540BC7DDA6DBC09B14BBBE5E40739BA35113C21D7E4BB80AB49BCF47536BCCB0BE9BC75C7173BD470FCBC9B9AACBA27AD103C8E59E1BBCA1B293AA823853BCB029F3CE15433BC5D32FDBD0A0A6ABBA245AB3CC9E3E93CF53D77BACF2CDA3B5DEA113BEE08A93CB274713B368B4FBBB652F4BBD4E7E23D074337BC2620C3BC0F0FA53CDEAE44BC137C743B755E39BCB472603C23ABE6BD6C9F04BC67A241BC8418C0BDA3A62BBBD282BABCD194563C871FEABD8F4D1C3C7A443ABC67E8F4BBAAC8A43CA08F3FBD03874D3CAE3BF93D93FFBCBB833CD6BCDDF15D3C4849523B469708BBE170FCBC1C9DE7BC66CC8CBBD3C0BEBE27A786BB61A2623C90CFB73C2F18A23C3E53B0BCB1862CBBE82D77BBCB94ED3C673CB5BCC76F8E3D186941BCE19ABF3C6288423BCB9B22BC6D1B48BD10F2213B25BBB63B96D2983C30A9C5BC387090BC5CF34BBCC277E53B127833BB00B2F5BCF05DF8BBD89FABBB87AAC63C88D2173B6925D9BCDED91D3CC488FDBA7567D3BC88577B3C94EAAA3D22691ABCDEF3D0BC3F6D49BE125825BADD8963BC29D27EBCA863A43C4D6D993C1672CCBC9111983BD024FC3CB113263B8DACAFBB0A2D38BC2B1DFCB9B56A683CAF189EBCA44A2DBC009703BCF834D7BBFC66EF3D48FE8F3C24206FBCBB56BD3B851416BC17141A3E7553CB3CCBF5F9BCEDA57F3BA8CDE3BE655315BD5CD9FBBA3DDBC7BCCB48E6BC0727CD3C53EA67BC397719BBC0F44ABBB220533C484D90BCCD27D4BC7CF94B3AC3A6F0BC98D4B93D04C9CE3CDCC5E33BFD9F093D03191E3B14686C3CE92503BD0958883CF846703AD8FB8BBD6229493C1F5A96BBF5227FBC883F653CC06E29BCB06A32BC80C406BC67F2703CA01A8D3AFF98B4BBB2DEBB3B756F2DBCE727023C113C33BC4FEE3FBC818A31BC0E4D2FBC7A6368BCC0B7A13AAC1C5DBDBA9071BCC74C78BB824041BD288951BCF0738E3C374957BD2F9DC73C8C241739F3CB033A08CD903BF994413C4507B93CB1C0FCBCFDA07FBD43D8DB3BD912F6BC01176CBCE139BF
3C7455CC3DF9CBED3D9535273D6211513C797213BDC9DE27BD752103BD966640BAE87F3F3E0BFF053D1C8B023D68D95EBD56586FBCE9D76BBD10B844BCD0597A3A5059B23DED3454BD7F28AE3D97B2C63D5A73593D588897BE1E27E23CCB98A33BA538F2BD9228E8BDBBDD163BD21AC2BCBD7177BD81115EBDC2D810BDED6FF33DFD507FBD9D39C03D1EBA8A3C435DAD3D88A2213D081D1B3E75307BBDFDD8993D2E2FB2BC30E4D93C549A2A3D616094BC530667BD0005D8BC52C93F3D4AA58ABCB74EE2BD605806BC310A443D866087BD5492553BCBBE213D810BFEBDA777503CE4911CBD1DE093BADD6884BD0799203D8E1B59BDA887C4BE45F240BCC62F283C113BD23CB0ECB03D30CE003DA1258BBD82FE98BC84C8BEBD4C73623BE06E2FBD3AC4CCBDAE3C553DC8185EBAF706333D3852CB3E399EE43C2F37F0BD5354EA3D4350C23E0FA797BCE64D683D7B71E63D58CB44BD31AB093D1B368FBBE4D8363B16D97BBD7D4416BD5D44473ED862AE3D03D4EFBDCC6C8C3D583A57BE26F9153E437C66BDE06B10BD82E8843C9F6535BDBB4B923EAB04B93D10A35FBC59424B3B6EEF793D038CFABD85A2FA3D2D4F87BCFB06B5BD9C6BF03CDECDC63BCEA6CDBCDF709C3CAFF0173D94D4453D01620D3CB9A48F3CC38E8CBC0C27613D384D9FBD29BA693C71F492BCEA8719BC2F245EBC1DB809BD47D894BD8DE5813E288283BD64C5673CD8CEC43E214E0B3E1FE743BC4A0631BBB2EF823E217FA3BD258146BC3C105DBCA42076BD939BF6BD0624EB3E657E7C3987BEDDBD2F664E3D4C3B843B9B60B03D24340DBE7287B5B9C873E4BC80F2673CB5255D3C0207D9BD5E7B28BCBC5CD4BCF659193C6ADD633DF00DA8BD8723953E2B9F2ABD0D8A30BD14102FBD65843EBEA8A59EBDC25A88BE99D4253D50DE81BBBC958FBDA61D7DBDFA2633BD946D2E3DEACF023BDA12F93C99244E3CA4EA27BD5DB70CBDD986143D62F4893DB850903D7F509EBD602836BD833FF4BCC5F6DBBE1B180B3D9B9C7F3DE247C9BDA296583D529915BADFCBECBCF9F4CBBE088F7BBCDAE72D3CE11D1FBD3FA269
BCB6ADA7BB8586D5BBE6EDBD3ABEF14E3C97D23FBC43034DBD0E834ABCEF95643C1861DD3CFEE081BB8C0FD33CD768F0BB21A002BC394ED8BCB6B3F0BC7CBEF439F2388FBD3705E73BB6863B3CCC00BD3C28B6CC3B5D42B43BCC38D33C2B80F03CAFCA503BF37AFE3BA1FD62BC6FD333BB540FD83B9EDFF0BC840D973B783937BBB5D62D3D1D2FD4BC0AD8683BD8D75A3CBD7BD23CC6501BBC124456BBF3DF9EBCB02B97BA27EEE6BCC50141BC342F873C13F78ABC9292203CD63FB73BE4A0A13B1419E03C79B90EBB94B7CF3B0C9043BBF373BABBF55732BC995F593C3F34BD3B8A990A3D0793163C5F5692BD2BDEA43C001A4D3C28B8ADBC1E190BBCF2EEF63C6D5C443C0A09193C48D4813D05B17BBCFC9DE3BD18A44DBC91003FBCE6F2E23D99E5063BCAC21F3C364A903C3051F83C0A3C693CB784D13B9152973C9369853B751AA03A61534E3D1177913C85C5A43BB90DAABBCD674EBB917F15BC1B0D903B460ACABAA8B365BC9CB6D83CAE82C0BCF272903C6E3FB73C888717BCA0DC173CD9C86B3C3666183C07F6A23AA007DEBB8062F4BCA74953BC7771863CD92B9ABCAEA360BD211FB7BA2BABC1BC239686BB2A7038BC785BC73C46B8BABC7B1DD5BC5C2266BCCFA5173CE7113DBC42E46C3C79E414BBDA7F2DBB3F007FBCA5FB7D3CA6DB08BC5A8D353CA47116BC94821DBBBDCD363C915A90BC0586D0BD3D52743912EF733B8576D93C04708E3AC81045BC754AC33B881A273CDFAF18BD03A3253B724DCFBC3893D1BC2E112E3C814817BC7D0302BC61D4AA3BB4CDCB3C7B47EE3B863D6EBC81DD5F3C68577BBC1E7DB13C2F520E3B68D8A63B65D0FAB9438ACCBC259ADCBCB7DD723C3A00E9BCD530D4BC15BA58BC9D4FDF3CA2659EBD136552BCEF2767BB5BD0883CA0E222BC3CF0903D7A0541BD16A63DBC5D8B29BD12825FBB393FFA3C97EC643BDA784D3D03EAA73A86790EBBF5BDF5BCA5017BBB1CA0CEBC950F26BCB0F6E2BC3566FF3C6F7C69BB0B95C8BBA545543D1666F5BBC571CC3BCED2EBBC79002EBC3DBBA23B11C38FBB861EBDBC4F9E24BAA6FAE3BC6B6673
BB22BAC2BD34615DBAAD644ABC8BA319BBEF633D3BD48679BCC124AB3CCE5B6B3CC49EA53D71F7CA3B99903B3D97DCB9BC48C6C3BCBFB6AE3D415EC33CB6DDF0BCA321883C81E8F1BD1376A2BC32CE96BC40D6093A038D81BE74F156BC8DB15BBD20BF56BDC635CD3DD1CF1B3C3034DA3CA3227EBD858A68BBF2321DBD96E43B3D34FDA9BC4EDE2EBC358764BC630CFBBCD8C20DBE4FE8243BF784A63D0C5B2FBC3499FFBD2B86033D9FEAE63D0831CBBC7C119E3C03CA6EBC3225BDBCAB7CA0BBA14F82BC95B5333D1C42ACBDDE9856BC46CEA33CFBEEE9BC32522EBCA09197BCFBB42DBDBD345CBDFE1E98BDB0FED9BD6CCB50BCC65A243CBD467ABBE9E09F3CC3BDC6BA95C24BBCC7949FBD03362ABC191B63BBE143EFBC0D689ABB4FB1EB3C208710BCB89306BD9FCFD2BC816367BBE7F7E0BC2672D6BDB52922BB7DDCC4BC410F79BD102C68BC82F5CE3C8046CCBB2A0B4ABCF0F70ABE2F056B39E8BAAB3CF44DF7BCCFEA283A0DA224BE0571D63B963A1CBD3D99E63DCBD751BD43A8293C1B6773BDDD00ADBC725B123B9C8370BC1321233D9360773BA15063BBAF2B72BCD749D9BB5A8D773CAAFD693C5CA68D3D45030BBE301BE03D5EEB13BC8F9DC13D8122763C8806A3BBB047A03BF90B6D3CD334693C6F50A2BBC162793B29F1933C1F64C3BBC6BB9ABD14EE3A3D30C452BD6BE6ACBCADA993BDAAE6B2BE3452C0BD4B52E4BC827B44BD9E188D3BC128DCBDCDB28F39DE615A3AA07FB3BC35A29B39B3D61C3CC38A133C242065BCC2F4933C71919D3C3D1929BCEB046DB8F0756C3CE1D222BDBF1DF53E30A871BC540FD03DF2F52DBB87813F3BAFF7F73D011588BD0E7BDC3C84B43BBD2FD127BD0D91C4BC177B453CDF3030BA81357D3D28C3103D4C27F6BCEF1D873C356EB1BDFF89B2BDBC46F0BE071A60BBA9F9B0BCB978CBBCF0EAD0BEF33BC2BAADB7BFBBCCC82BBD3BA6E9BB179C5FBE226FB7BD4F75313BEA39BCBDE021033C3F1613BCA76E3FBC138C243DCE68A7BD2DD54F3BCB54AB3E56E9613C8EE07F3B87E996BD1EB2D03D718DCFBD47C5763C2A9AA33BB5DF65
BCA7B773BCBD332A3C8CF6AABBB3F8843C8A70493C8654CABC7C7B313D75D9A6BB525EB43CA2AC623C2EFFDB3CADD2CE3CB7DD34BCB70A85BB8651E73C46C9BC3C5AE779BB7C8DA3BCA0C512BB9A5E2CBCDAEB4EBB27AD773A2DC0E23BA24D663CF89C9ABB8248E2BD21616EB949A675BC6C19893CA92FDD3CE707BA3C73A40B3A9C50C23D52D7263B8160C53BB814D13BF92A1ABA945C32BB491F0EBD2EFC0E3C930176BD1FF7B23D59910A3CBD7B033D0F2941BCE214733B2894FEBDC0DB613D4123F2BC891638BCAB6BAF3D8630FE3BC57171BC6CE2A93B958E043C1ED9CE3C482383BC47FCDFBC65028A3CF36EC43B0E11E3BC682935BD05851EBC227DCC3B3F4116BCAECEA8BCFA89F9BE450F19BC2B6C0EBC88CA3CBCBAF4FB3D87A1EA3D915E573C85F06B3C9676613CB1E3A53CB6CD90BD166B963C9941463C142C5B3D009FBCBC276AB23D8AB46ABCD55FFFBC7269ACBBAEC0DC3AC927C03D22B3AE3B057C273CA0F89ABC2314E7BD2558E13C74BB6DBCD527D0BCBFC4E93D4CD71C3D0DDF4C3D8157D6BCAF98543D46C4C63D05248BBD0C8168BC13B4E73C189AACBDCA8FE03C735C883B8AA5923BD6B9BA3C0F7176BD31A35BBBE39CFFBD0061DDBCEFEBA1BD3315183D1C0D62BC0DAB0B3C439D813C54B3C63D3104FA3CC368FBBD3624CC3D3211163D543F483C8E1FA0BAC9C0D73CDAE01D3C136D89BDC713103A3865D53C24E40A3CC80630BE26F4233BC127BBBCD989813CDF50B73C4BE4C13D3F886CBC877D88BD13E705BC61CF5EBD1DAE623C5E640E3BFE54BC3CEFC9763C1CEE843D03FC55BC88C5E8BB493714BC262DD53C6C94ABBCAEB9AE3C29633ABC1C5EC7BBE6970B3D01D699BA824293BCA485BB3CD0E441BB959CC9BCD595523C2F8B213C38456DBBB4CDADBC1F75343A84A5B9BC624F92BBA4C3C7BC858C863BD65F7E3CDCA679BD195617BD98819D3D6AC379BAEA4F233DC34675BD1A36D13BC3C2BB3C609DA33AB29C91BC41B2933CAA9519BC8785B73C8AA3D2BC7435E03CD6CC54BBFFE5A43B95681B3D08B2D83CB69D9C3B0FB7B43D15FF5BBC5FD8DD
3CEF79D1BDC1A0ABBC8D5DA0BBA4D4A9BCCA9B3DBD1F80A33BFA2CC9BBB76D69BB9139E93E0B5A9D3C040AABBE4960E2BC3CD344BDF208FFBD60DEAD3C595A033C5B059DBBA3ED643D257E2FBC54B60BBC9323D6BC2E0AE83DBF2D5ABCD82352BDD703CCBD730BC1BC5AFDA13BB6ACEDBD37DD87BD8D5C67BD094B88BE31BEB2BD62D9BE3CA89A8ABA7D727A3CDF3F2C3B08ED52BD7F41673C136EFDBCFB16AC3D2AB5883D9F3D973DEB19E1BCD68BB8BD785885BC3E39AABD1A69AEBBE08DE6BCB07D2FBD7583753CA75652BD8A07F63C0D81433B4CA4143BFF89F2BCB124543B024464BDD4884CBD3816A3BCE688703C9277A2BCDE6DA53D5DD6BBBCA3371E3C77032EBC930C4C3DB525E2BCCE1D3BBC42200CBC087B003DC1FD953D3C49CEBE3BDBA43D085F5E3CE478C43D22DFC3BCB5D3C4BD35D90ABDCE34753BDA01993C9B32CE3DDC1A8D3CF0376A3D471D40BD86F1D7BC1D51D2BCED148BBC8B684B3D796AF1BCCCEA073C01F1783E1B52A83C9CABB3BE4963B43D07D9A2BD88D40EBBED95913D044C8DBD0C60C7BD09F4D0BCB5FDE33BE084E93B26D1A5BC8BD2143C15ECC9BCC6B6713CC303E83AAF00623C1DBD193D4FAFBBBB93CB4A3BA1AB7F3CF1AADB3D22181CBB6A9B9EBBD0E2353BF01881BC077490BCE64A58BC0066A7BCF4D872BC9A90C93D28F2F23DCDB6AF3E02BF65BC1BF6A4BD6D92C23DD86075BDDEE1D23AFC6B763D54642ABD2DB2BB3DA20BAC3ABCEFF43D508ADCBC7AB918BC5A355FBD0BC4CC3C17764FBD9073873D5572843D17EF93BC7A48FB3C334B38BC8432673C8E8FA7BDFDF89BBC28FE8CBE163795BD9E1EAD3C90DAB0BD086FC5BCF76E573A8FF72FBD1CC518BC0280ED3C08A52EBD3F767EBC1F2802BCBBB9603CB7185D3D31D9803D238FF0BDB71ECABBDB1D923D22AF66BD6AE54FBC4F22B03CF4E63DBE2C79C0B88B5E89BD1815E9BD0D65993C2CA429BD27EC0ABD72BED0BA349926BCC15CAD3D1DB049BCB0F309BB7C9345BE2BB2C93C91B6A33C6C536BBD6C2DD13D1B717FBC4220D53C1A8A1CBC56C7403C9532B9BC93308EBCD04B89
BA6D8154BD5CD25B3D18E377BC11E5F9BDC5943DBC9598413C1A4C303CF178543D2ECA2F3C3AE8763C14871E3C52305ABD2224CABC42DB823B8F7EFC3CA1217FBC641FC73C20A61B3D3A91243D10C72B3BDA37D93C0EF791BD0CB1A5BC6B25C63D37C0C53BC4422C3D0953473C2E15443D2F4AB1BCEDEE013D0AECD7BDAA3F10BC4D62713C67CA873C3B18F93AC8777B3D9319533B52987E3C21AE7F3D07C2B63D35F6023AA8829CBC15452BBC82A0E23CD83E7B3B92DBACBAF0931F3C653715BB7B5A2BBBA2F96A3AEC4592BC1EFBB33CB3926ABC3396EEBCCB5239BD2DA5C0BBB0C460BD2A71DD3CD2CF0E3D0C2428BCC305B43C97C426BC7B75DEBC709BEA3BB02AEC3C4ACB293C5FD0CABD9050D5BD4D8755BC1C32EC3CB35242BCCD53463D6E57743C7EB166BD22BBDA3C67B6E73BA3B2A83CB1C806BC83E6023C8C70833B628F033CCDD4DA3D6510DDBD0660A93C7334F9BC44540C3BC394A7BC26BE463D307E2DBC5443DD3C3B5634BD0A1B10BC65C70CBDA136C53C7D44B03DB159A63CF3C14D3D05D700BCC32827BD53F45E3CCE6BB23D70E647BD9677423CF763DDBD59EEC73C809D60BD1CDF76BC99578DBD333CE23D4810D6BD256396BB074F41BC8FC05339725F4C3D10439E3D46F8C83BAECB75BB341D113DE4462C3C1B25C6BCAE9989BB8F1AADBC114C7DBCBEBE7F3CD93CB6BC433D7DBCA5CE7CBCAEAA303C9FD631BB4E688A3D9A8B73BDB2D0FEBD21CE7DBD034DC23C38CD01BC84B9AEBD126240BC907A533C07929EBD2E652FBBD462D43C46A4CF3A90DFC93D31268D3CB7D8ACBD046155BBBF5B2ABCA1CE8DBB8F40213CDBDCE5BBFB63683CAE08613C897C9DBCF700CFBCBA46183D8BA3713CAE8A2CBD54AE40BD041D4ABCF12A7FBC00F10FBC9550C63D4ACAD3BD47FEB73C092D723C316DF43CC35B05BA9EAA263C0C7F00BE240D833D8045F2BA44697C3BB120753CB17BA6BACD22793C8556F43C803142BCF59A763C5EA98BBD0BDBA3BC21BEB33D0B5AE3BCE1ECFD3B98C9293D222F79BCCA6C8F3C148945BC215813BD055F5F3D6558263D4A6DDDBCD51A5E
3CDDFF18BC8F4831BAFD408DBC71A65B3C6343093C4039923C2F2498BB9692F0399907E7BD1A7E0E3D2B7224BC8322163D408835BD7D01483A7AA3023D647142BBCD30963BF69DD23D64CFABBD37B7ACBD04D0F53D96EC463DB906FEBC95C4A03C8F7C8BBC962DAEBDDA22793BECDA6F3D866B42BDDD32B83C169ED03CF003F33D4646493D3D1FB03C7C70BFBDB62A3ABDD4D795BD29C24B3D79E635BC05133B3BE752E13D98E47E3DD6B6D7B9C9B586BD1FBBD83C75815FBCA03B70BA6503FB3D521FFDBB1031B83D28D329BDA000D93CB9CD753CD6C44CBD3E2D563C9A3DAD3CF9D2AABD3FC4283CD9B4F53DB6B3843C6E00A9BC7C9157BD295CBD3D787B253C542BC4BC9923FEBD77FFC4BD902CD93D4525053D0EBBEB3C3801DF3D53C0BA3C97EA02BD189AAABD4F7D6D3BB831C03C8FA5CDBDB35180BDA343813D511FD03C90CC0F3C91852BBDAF6E3EBB6B23AC3D13B4623D92A462BE7D3A583C957E043C23AF633D35C0E13D53237ABB191E2B3D8094363E08D92E3D77F2B8BC86DC8F3C4373D8BB4A549A3C14CFCD3D838A263CFE42D0BD61870B3CB527EFBA9DCF1F3B85890E3936CA0A3D3DCA083C5EFE153B87A77EBCBB907DBC91F53D3D042F31BB8EB2AEBC9EA4C0BC3B4ADABBFB4639BC7322A73D44D86A3A09655EBB7002AEBD702543BC128F1C3D791A6ABD39C2C8BBB9BBED3C0B5982BE1339F3BB0523493BF9322C3CC797C93C94D760BD2C6477BCAEF83E3D3E9244BD2CFBF3BC14F0CF3C687DBD3D15A8793C66D61E3C072C7F3D4199673D03B8CDBCE67ECCBBF4BE663C139BC13DAC76A63D93C20E3AAF31D5BD7C8E8D3CBAFF343D0B49653AF5F9723D3FBA933D84D07FBDA11EE03D1DF5F53CECCCF93CCA3DA03973B44F3D79FA123D168E1DBE0298AE3D11BAFCBDE6ABCDBD1B69C7BDA46B64BCC1C0CD3CA6D62ABD6830DABE4741123CC77B21BB5E4FCEBCA5FB72BD232BD6BDD3DCDB3D8B75F13B8444AE3D58EB5F3CA8078B3C3F46DB3BEB30EEBDA70DABBC915BA63C5BBB693C0FB39FBAC9B8043D34C5F7BD09201F3D513941BD93879F3C98EABE3D317307
3C8980D7BBB1DF9D3C27C8893CA6805A39352C2B3A66F65F3CA34B043B593795BC38CEC23D2A030D3C1CEB4EBC48B5643BC094AD3CC4AD483BB5033B3B6D87993BE737BD3BDEBC2B3C84D98FBC6D1AD13B86C768BC9ADF473C09A5193C1FFA503D415222BBE2FC373C0F0BAE3C37F77B3C4B7AB43A2FA2CA3CCFDF5C3CFB3DB9BA38F151BB67CFA5BC2094D63D1E4B68BC6006AFBB050434BD1B7C013CB7D1053C1A6F75BD1422213B2C4D93BC01187A3B94966A38BDD5A9BBDFBCB9BAFAA4BA3BE066423C7035A63BEDC8B2BC81F8513C4BAAB73CC436FCBC7420823B96F4783BE368793CDE7D6B3CBED0073C6C274DBC15DAB3BBC9FF4D3D115B2D3921FD1BBC55C3C4BBA0B1123CB73180BB5E79C8B9C9C2DC3C754C5D3CA75D733D01410BBD6AC8DA3C105979BC2169B7BC051940BB7A9BBC3C8E7CA73C9E2E45BAD7F9DD3BD0CFF73B758A713CB6178A3CAA91333C93B14BBB86C3303B21701E3B1EB7073BF8F1023C031A6F3C950346BD069413BC0678A53D15E1D93DCD3834BC1F1F823C7BAA8BBD0028F1BB713F663C7513793C10A587BCD7FCD43B1BF1B7BC111C683BC474A33D32068E3B7416DE39A9D6B73AA8F5153D115203BCF5F62ABC97C5B03C3925163BA83DE73BC492543B2BE95B3C179B5D3AD3810E3C4428F13C046DE63ADADFD3BBB11CDF3CDD284C3D39BCB0BBE4F55A3ABA4AB9BBCB4A3C3C583266BC08F8473C321E403A250D123BAA3602BCC3FB173B890E2E3CD3FD8FBC121D673B5212DE3A6D9AAEB9B57B033C7B4ACFBC68AE0ABBBACFA7BABD1B4C3BD02AF83BA2C64C3CBB479BBD3668243CBBCB443D18315A3AD6BE45BB704EB0B88456EA39B62F113C657E283C31AC5C3BE50CE73B3D331A3D190902BC46EB0D39EE76AC3C3B9B5FBD230D4A3C2D350BBD559B1ABB8DD5213B77B723BBA1284DBCB0A800BC459EA73D839076BB14A234BC82D1C1BB680061BAF2AF6E3BEFE01F3BD561F23C17E0AB3D7AE6CE3C5E6AC3BC9D1634BA2CAEE3BD4AAD633B601FFAB9B70CF2BC28F0E3BC4080503C5740AA3BC960443B78BFE7BDBD24BDBC22F3F73C11C8FC
3BF64735BC2A17483CBB64423CCCC2DC3B7FF732BBC2AB68BB9628553CF828ACBC0B48543D543B6CBBE838993D0864E5BC56A743BC0430B23CBC71EA3C31C7323B7ECC0E3C0FCC3B3C52B03BBB576F1DBB1BE20C3C848E1CBCC70EE7BC3C4C313B189BC1BD0D4B433C73A146BB93AD52BC5AA48EBBF7441EB91736503CAB26643BC238963CA88BD63AEF097ABCED004CBCB180C1BC84B4B03A18E6983A5CC3063BCFE139BBC4D51A3C82E589BC8E003BBD584A1E3CC0F9E53C4A4A47BCA81D98BC4480C33AE59EB03BF01D383D0020763B9ABF0A3C4C44B3BCD249643B6FF965BC6DB3E33A158E4B3CC09EDC3C98CE59BBE67902BC448BAE3C81FCB6BC645FBEBCED69CABAA12151BD41B2EABCC796C3BC4603CABB92AF0D3BB6D8513D325CC1BD96B125BCB0E5873D00D93EBC65F6AF3BF930AE3C20C5F2BB149D12BC3F5F7FBC880F54BC4206F73CEA90083B1EA9413C107087B9F5B352BB16CC6CBC376A6ABC87AD6F3BE3237F3C0EE258BC6E8B90BC1648D53CA5967D3C6021E23D47B22FBD458FFABD9F996CBADCDBC93C92BB9EBC079574BD1F74D3BC14FD68BBCD5FD6BBE1A25BBC4BF41FBB4C7F323A99857EBC325C9B3CCBAC1D3C9F17683CA112B73D3199A0BD5AA9CFBBAC9AB03CCAF775BC2109E1BB2CC1823A86713FBCAC91D33BC9EB073BC57C37BAEBBB39BB9800523C27C7DFBC32066FBCC1D1513D27EE213AC519E6BB82F0233C4DEE92BC75D2C63CABA440B79777143B16BABC3BAFAA4C3BED7D7D386F9197BCECB9F8BCBB26103C1025E43C6F01ECBC0F44C83B1D7AD0BCD7B8053D9C1200BBB259F3BB8450B83C7D056EBC8A2C0A3BC7AFEE3C269573397DF96E3B04F032BCADA9A6BBC23D613C60AE5B3CEBFE1E3CBA91F5BC2AA9603B5C9AE03C68FCF8BD2D74A4BD60CF71BAFD8A06BBFCE8E83C28C0E83C896A0FBC8DEE913D824FB93A1D54B53DBD560CBC859E4A3CB6320A3D101A533C00B57BBAD2C258BB041B733C8B36A5BB7C592CBC1FCE4CBD89A989BCBE08E33BA4AE473C59B4D9BC0B4E93BBFADB9BBBB7AD79BB96D2C43CB59D05BB81D0A4BB84C543
BA90ED6DBC4FB0643C6551F9B99D083C3B7DAC45BC3699C7BC38AF593C71BA463C6902523D309824BC14D41EBCC71F173B3D2A043C97BB0ABBAAA03A3A5E4892BB1F31C0BB777CDA3C7A903BBBD0DA0FBD0CEBB7BBD1596F3D4F6E7C3B577CA63D348C3CBCACF7A23AE50B12B993181139CD15283C263944BC494960BC56F6323B07A9983ABB9FB23B82C6C73C82BB223A8AC3523C757BCB3D2580DF3C2AC6DFBCADD2A6BCD31A683CDD54AB3BD6B9D23C992B683B95F0EB3B26058EBBE3DB573C2761823C8C5EFF3A446B5A3BCB1C183B2501A13B9586C4BC93AB5CBCAD99B4BA354F41B94793A7BCD6E0023D433A573C35B50B3C34C74C3AA3DF7EBC0063B8BC119D74BC9E63773C29349E3B8D3FD93970A8943BD0FB9E3BD4D9013C9A22463BD503F4BC72DD9C3CB801353BF825063B840CB7BC9882FCBC367962BC3B30133BDFE74F3CE0D965BC6DC43F3A3B4EB23D02A903BB224C6CBB2CF24C3BF80C6EBC7D7C583C530B69BC2C08FD3D2985AABC48BF5CBD5537E43A4917D63C730F6A3BD3535CBC03F5F9BB2565DE3C726C853C5640583CE6B1F83B0D1F20BAE244833B935F333BC523E2BC3EEE3E3A322840BC069DBCBC292DC8BD3CDD613C2A26023C6F0AB43C896EA4BC62EAF03AF9D4F3BC0C4D9A3C0D13FF3C566C793C37D8DB3B9860E8BAA33C1ABC2DA8623CCDD56CBB66C019BC8FE2903BD0ECDD3BCAF7693BA5A1FCBBAEA0FEBB5BBE8CBC9E3E313C3B9A2DBB93A0D83CE7D53DBB33E1873BE141D13B716064BD2076BABC2C8D2A3C95F561BA8D879EBC3395FD3CB858E43B06ACABBCAB14B8BD3103CCBA8D661BBBC5F14E3B6C4B1D3BAAB69537A36041BC2B7ADEBB23F7E2BCD21ED73D2B2A3D3C587C36BCBACB3B3ADFE9293C403BE83C1D2A18BD397F11BC7715F63B184E1D3CB5B07CBC99DBF53B1390533CC1D2363C3E329FBCD03AE63C730B39BD2D7A47BC5A5CD53CC8BEA63C30625D3CA769933C30ACD53C28A7233BE1DBF5BC4D8E1C3B9D98B7BD567B31392B3115BBB00FF83D139878BBBAC1FB3C54A061BC3C66FFBBF691A23CF6DF51B8A063C73A73F83B
BA9F3A73BBD09CDC3B97419A3C2BFAE53AE74132BC353D1D3C7C7B4CBBD4AC3CBC9A85CABBD9FAC83B9011883B0473B5BBDD044CBB6B2793BC4C0155BC2A06DABC095026BB83EF6E3C8A65FD3C9A1F47BC0C310ABACA1BEF3C284393BA4B7A53BD059850BD008FF73C83208B3C4262D33C7419D93C28B14EBB8EE8FF3C68095D3BB5ABABBCA07160BB170731BC1F6A0FBC80EAC93C7025D13B1258993BA8B7493B60CDE3BD3F1D2DBC4FD080BC1380883C924B6FBB929BD73BD6837ABBFA88B8BC760B6EBC28451EBC6848BC3B04C5C7BBCE4DB53B850156BC6F21F5BBCFA4F93B89C2B33C515BD1BB389D1FBCA77FA4BC7DEBAEBBB282143C7A2DAFBB69CF3B3B04A7E73B0026ED3C6306EA3D067B583B514F99BBAF07ADBC28C700BA8C5C9FBD0B2B7ABC25DC53BCB65A77BC59220A3C57A206B9BC71BC3C2C9513BAFFF93DBB5453663C9678ACBB9046F63B0886D7BADD72FFBA9E30893B5BC07EBC3D991E3BE03193BBA7AE613BD28587BBA380E6BC8D5D403D6382623B83033ABD10F99EBBCA1E96BCACA460BBE7074DBCB59390BAA3C400BD0D62133C21FF21BC135170BC5041B43CC7F493BC94E2DEBC40F9783BE3A64BBC61D37BBB9F8360BD05CE9FBBB5200BBC8C2CC4BC4CF9803C19A314BB487DC83C8CA8D33D0212BA3BE8F0A1BC6AD4B7BC351E2E3D169A723C9AB98A3C0B6048BBB30D4EBC6B8C163BCD221BBB57B3A5BC620C0ABC12239A3BD5EA85BC3F03C23C564A71BC28C42E3AD0F869BB71FBC3BC433F5F3BA0E1DFBCE872AC3C524584BC1953333C299C6CBB894978BC8EE41F3CCE07BCBD1DE0E5B9F8EC4BBC89E04A3CB7DB5E3B6A05423BF37542BB7234C3BAAB1F47BB4879F2BC3C0EC33C14F763BBFBC1F6BC8DB4E23BBA621F3BDF598C3B4565B7BC872EA4BB122496BB834FD63CE5B4A3BA6E3213BB79A0133C4A16DB3CAC87E63BA615E5386E5C22BB27D0843B22673FBC510E693CAE8C313C344C4DBCB26461BC1F2711BA7FD066BB13E72BBC38C2E73BD9C833BA8383EEBCC206583AD776BA3BE64533BC6E9FC2BC9BFF1BBC495510BC4CF524BB648B50
3C6929043C2AF1F13C41E3D2BAE75D6F3C99A61DBB0DBB2D3CC1167B3B891A5FBC539ED4BC61F18D3C5D81D6BC0F94A93B821F153BAAFA86BAA3AC17BCB01BEB3C2B84DABBF85BC23D08376CBCD5EAED3C8E50563C08E3DA3CFCF11DBC4BEFA53CA8A9613C8F84B0BC7B9BAABC32E8D6BC4860F23CF3203ABB2A88AC3BAFBA9EBBF5AE173CE6CEC43CC3997F3AE8EA7D3B9BFF30BC333FA0BC8B96C9BCD1BADD3BF0B1243CD25FCA3CA749F8BD010F8FBC112AE13CAB9833BC51D62F3D63C0E73C87B82E3C4945CD3C6F61543C9086D73BAA4819BB1EA7303CA5151F3BD2FFD73BF69F033B9EEBAFBC40148D3C9EA5CD3CFE0A87BC59828EBCC2CFC03C7E61FE3D2EE237BCBAE50F3D336E053B96AEB83AE54EA3BB613FF43BDF37F33D86E8C2BCF4A6DB3CB228683D067F17BD0B92B63BE2EDC43CD9ED9F3BED936B3C29C8D5399B7D273CAA24A03C871593BBB849D93AA38DB73C21559C3CB59126BCD29995BD8F7399B95CF7DC3CB012113D0C25E93C3EB757BA1F5FBB3D59931A3BB81FDD3C0BB8C33D1C3BE23BE866663C067F0C3C3810463CA894F73CD7BAFB3C0855C63CB35717BBF0828ABB9E41C6BCCF8038BA5E1A093CCCB777BD228D343CC8FF35BC4D6F71BC6D40F0BC4AE12EBC0035733C2839953B6E75E73CC4A2CFBD0E2DBB3D207DEDBC196D933CAE3BF4BCD89E29BC4452823C67A6E23D56818F3D505CC23B80C2F33B8C26CD3CCB5118BB8FFC713CD0911F3C6D73BF3CEADE4C3CBF03CEBC17125E39A7C4E6397E86963CCAEF9C3D4612BABB20F14B3CA48806BCE34630BCA300293C70FB9FBDBE7B07BC517299BCC819593C39484DBC4467543C589F7C3D060CF0BC360843BC43C7A03D525A283ABD55323D542C20BCA19054BCC14E54BC50ECC33D019995BD43715B3C8891873D22176DBD6D829D3B53EA463CB8C6263CA68A883E1A6C7B3C0E7A883D0681F33C70E766BBAC29DC3CD215A9BC4D60913B4C1EDB3CA9380CBC13D657BCA591C1BACA4E933BBD0BBFBC7B989CBC081AB6BBEF8C4F39B83053BC15F2653CAB0E273CF60EA4BBBECD3BBC4E1081BC4435AB
3AEBB0153D848928BAE221873CD923353CF6EE66BC407218BC2401343CE551DABC632C0CBDE4DF6F3CAB4F233B1979DE3AAAB0533DC632A03B39208F3CEF4133BC48C1A03CBE559DBCD4C9503C6BD6B43BA686FA3D17E7FD3BDA0490BC85CC3B3CF67EAB3C5425CDBC9D7635BC39F295BBB2CD3CBD0B472EBB80B7423A20065BBE2059E83BE52DBABCB5D2373E0B0F8B3C6B07243D446C823C97812FBC9D16DE3D2E99F23C9E1E923D9D8E90BCD14A513D31A4F83CB94E373D8A915EBC692EFFB940429A3D31A0433D170FC23D8D18393B7784353C26E9D53B6B0518BC96B3463B7CB3353C674C213D39B2FC3CD48E60BD89004D3C00DA883E44A5D6BC817582BCA3AC97BCBE59353D2D6C06BC6787A23CC912D63A232B613C495631BE0823EA3E79906EBD086504BE028EBA3CBA48433C97BE1FBCAAB038BD700D55BCFB443CBC135B52BC9EBFD53E046B0E3C31E5923C52A61E3C997E0E3B504A563CA04944BE7E1B32BB53E4ABBC6C51E93C2DA06ABC863DF9BDAB8869BC9E1526BE3A843CBC9923BF3DC4132F3C73948A3C811E12BA1ECC8EBD5D31633C29858BBBCC4418BD105321BDBD8741BCD241703C221AEA3CD373843DC54EC3BCA45EBEBC01A4983C9317B43DAD6269BA38E48EBBF19A44BCFC7EF0BD11B0F33B81A93DBB5E6DC3BC0E803ABAE3D4B5BC8D1FE63E20251D3E2AC141BCC63A8EBD23D60C3C6C75BB3D6A093FBC2E5A73BE329D973D0D0E6B3DC4681A3AF593C8BE289B2B3B9C6F973B83BAE63BF1AE44BD10B6E0B9DAB71EBC1D18DFBCA3DF8CBD0418503C825E88BCD448F73D3324DEBDC04A473D1CB9E53DD27024BD170E3439D8FA5CBC6C8C87BCF4043ABC29C1F23CF6F9F33DFD41CA3A07DCE4BE4026A3BB576FAE3BA5473A3C96C30EBD7788823D32339EBCDEB505BAB12DA03DE347BCBCBEE339B9DB860D3D3D3965BE1515F63C242BD93C7EC2BEBD9FC98EBB8740063CA2E5BBBC8E0A56BCA0E0903E144974BCB9A6C4BC31ECA8388D527B3D47D4D93BE4E2C4BD009673BDB7E2DDBCBCEEB13C60A2493C80A709BC256B523E7F76C73CA1120D3BAB8561
3D4F598A3D520CD1BCA1CD9DBD095273BC8751ABBBA6800BBC322C82BCD9258EBCE6EC11BD4B0FB23BC2CFE73DAA107ABC61F0F3BCA71844BC1EDE6B3B01E2C2BC7E61F7BC028D663D5F1470BD678069BCB72635BB46919A3CF7E3C4BC2E44FC3D8B318B3CF4C56EBD8114F6BC9DCB773D6266DFBD8655C4BB400E633DD82DB73C75FADBBC10EFD4BC2AE25E3C6428C2BB2709533C8A001ABC656C473B82ADDC3C9525523D379E24BC0B16993CC216603CFDBEBFB9601C48BC855DF2BC33BD6CBCF9BD22BD333A533C9E5B313B952C48BC6F68C6BCA261D3BD2EC3903AF362213C7172F83D14C6ADBDE7799D3D1DDAC5BC909E123C25A7CEBC63C6523CCF5AF93C7631203AB9C41A3CD3C9B7BD0279903CB90EDBBC1684753CB409BA3D7DA8FBBCEFA716BC3EEF9EBC55308DBD7FABB338FD0A8DBD14465C3D613BA4BBD677743D121E663CD4D4F33C67F8733D1B59A63CC49378BD68D231BD6649F7BBF76E573B13CED0BB76AF623C4DBDC1BD81911A3CD317DFBD9CE1ABBDB143DB3DAA52D8BC6480CF3C84C2473CF921663D9942ADBC5B7D0F3DD29CCA3CFA1AFE3C4A87F7BC9E4D403D04CA403B0E4E78BCBCCACEBCD666E93D3EF3B63DC79B463C70273B3C811E88BD097F96BCBB133CBD0FC5D93C522E23BB0049C83C0E84863CDBA11C3C2C50773A6A01F33D1F1CAE3BAB3B863CB77F803CC28994BD896A38BD7A98363D535C483C25CFCD3D2E6361BC26314D3CC5532DBC1EB0903C0B519F3C695805BCBD8B663CA7A8513D1B00BE3CEC95503C02FE7EBCAFAB81BC316B5FBD0A05313A9970C0BD72E5B23A95F51E3BC7FAC7BD1F47C13C8B71B73B374EBBBC29C025BD281DBF3B3C4D01BD71F2753C980C52BBE8B2F33C78DCB438B292A53D22F5C23C5A13AB3BA339FC3B8F8FB1BC1301D33BF6E32B3D239064BB1EF02B3C941F33BC40C16E3D9A59D8BB445ADFBC7951D8BCDD0A05BC6A8F86BD2371EF3C96BE73BCC2292D3B6FA4EC3C1FFBA33C5004CBBD180059BDA39549BC691498BBCA15C7BCA53CB1BD0EB0E2399178653C0487FB3BDA2056BCA877B93C95797E3C27EFE6
BB290AACBCC7E518BB95BB4A3B9375993C93C69F3BCE930FBC7DBE883C03961ABC08E78EBD18E6EB3C9BCDA6BC21A5D23C925614BCF6F74BBC122E30BC18D5833B7636D2BC80D2A6BBBCE0E63CF634B73B5C9A0B3BDEA0F5BB4E0F023CCA96EB3C3663B5BCAEA8EA3C766A083C05108E3C1217463BB70E9C3D14644E3C2C50D43B8F9753BCBF1CFEBBB72C0B3B3718043AF5F71C3C6279AE3C216B3D3D02D722BD1F2DCABDC7120FBB545090BC26FAD7BC5E17D13A7962E6BBB790043C782DCDBC6D1B5BB94612E7BCC009B23DE7611A3CA93F73BBD7A479BBA81E343BF25CF33C9A8B0E3C6454BE3D016AD13BE456A8BC666EA43B172897BC24DBB83ADD4020BBD2823B392866753C87D8E23CE49CC83C7B2A753C311207BC6EDABFBC91678EBCE56EFABB6D3903BB5C5C5B3C1F69443A52D86F3C8D1C4D3C87FE1FBAFC63083C9A9E373B94F834BCF903C7BCC2D38ABC58AE46BC77982D3CCCD63FBB1E904ABC2246E8BC84F3613B5B8613BCBEFCE7BB4454903CF0A6223B97B7143C2D4F1EBAEB9B68BC93251BBB846056BD3880A23ABE3722BD3C4E5CBBBA0580BC2F421D3CE421E8BB7AC1273C1C250E395DB80BBBE6747FBB0FDBADBC6E9A443C769C433B9F1ED33B8440FF3C5DFC803C1DBB883BFFFB033BDF3139BB16086E3C8E052FBC5E8BFAB9E505B63CE6725F3C95D713BA0B651ABC18A8E1BC899353BD93792ABC6D3A9B3B76E474BC4E1F0BBD02CB4D3C13DA7FBB9538FE3C992CCABCC157A1BC93AE40BBEE84763B34CA27BC8C9860BC8192143C67832DBCC3E071B95ACDF23C7F45973D19E9373B0E91D73CA8ACF2BBC3C7323B87DF813C37F953BB31A219BBF5B11ABA1E15C4BC2EA18DBCB726A7BA10C2EC3D053F493B2DCF95379E88C6BC4050E6BC60F644BC91F3573CD38EABBBFA655ABCE6060F3CCD33363B072CC33A47B6653D0A37963A9C290BBB299ABA3C5E5286BCBE0AAC3C72077B3B9E14E3BB2CB4143C55C2A23C120A5C3C814DFFBBEB34E5BBF6112DBC0BF098BBF0A490BB67BD6E3C362902BC01074ABB457FDEBB51B261BC6596C4BC1827A33C8ACEE5
3C893CCEBC822089BC7298C7BC3195F537CE3537BAA3B3763D3A6240BB8925493D0E9B57BCE5311ABCEACD683D53D38D3C109B083D3FEE253B05B634BAE9F767BC3A69243BBC0EFCBC12A26CBCB02E1C3B1CC5FBBD5BDF2CBB86AC003CF415C13D4EDA2CBB4EA5AA3C6217B33B649D91BCBAAB053DD36E83BCE461583DB32F5A3D87FC393CB29058BCA537783C2738D7BC8E0CCA3D3827BD3AF341043C8D9594BB8BEE7739E9469B399BA4C23C7EBB28B8F352933C0DC11BBAEE7323BC4F35FF3C08A124BC28CB333C6BFAE33CE1C8293C9F38F03CC820633CA039EDBA88D096BD07EA723C4E3BD8BD1FF4B73CA2E04C3C15D04DBC337492BC6A2A82BB7936CA3B3B60A4BADEED05BB888BC83BEF51A83B2F2F9FBD05D1A23C94C2A5B93E5A51BDB5470CBD8984C0BD14E0763C59E3483CD19296BA0E304E3CC757FA3CE266273C07EF153D804CA9BD99FA02BB772B7EBC1B9F6CBCA5E2A83C6A874CBB44B31B3CDAFD1E3C1A199BBCD5FE40BCE4035B3BF8E779BD89A4F13B0353A1BC92BF2EBD12DB2ABC37B6B23B888D2C3D3D1510BCAC76CD3D5E65E7BB48A9D73BB7BAB13C8D3C423C943E21BC320C43BB2E9FD3BB03A0003CB55C99BB97C4B93DA8BBE83D678D1B3C959047BCBEA1B0B9D719563BB11A0BBA0EE586BCBAE50BBCEFBF2E3A90DEBEBA84AC11BCC94DDBBC2033423D1A580EBB747E023D2692003DA6D8763C811621BAA6F1143D4146393C2493D4BDE485D0BB3CC668BB3531E83C428F89BC29E2ACBB16777F3A554F1A3D54BE323D9B42F6BCDE09F6BCA92220BBE97B81BB745958BD32764E3D759BE8BCFF3795BC8325B53C60BE92BB5526113CEC0157BC49D6E2BC91DD4DBCEA4EDD3CDFA2E43B5249FE3D3C7BA13C9FA0E8BD82C690BCEB6EACBCFE4F59BD15137DBD0C2C0CBD117C353CCC34D5BC173A983B883402BBD974673DF99D543CC994813D028C6BBC0AD4493D8B417D3D7C2AE33C84F9173D27C8A13C51C36D3C2F64AEBC076F743C9BF1FB3D8261ACBB89424A3D42F3793D474AF5BC92B1FFBB9F64083BC8F0DE3CD970A93CB9CB89BCCD90C53CFCA0FF
BB9F5CBDBC26D377BC1EA4B53C6474993BC940343B19F01F3CACD067BC77ACC4BB93A06BBC40B6BE3C39AD2F3C9E9773BB84E614BB1EAA79BC5208D13ABEA6423C29FC85BC61DFC73CC14C963B88E39BBC89AA213B7537413BAF08973B271E9F392500CCBC154CB13B086B883B811B41BA9C75173B9422663BD509DA3CEF54DFB90057A7BB80335CBBAB695B3B585F98BD18AB6D3B123690392474A73B754CCF3C967982BD24D7EBBB97EFE6B98EF9C9BC0F97BE3C2DC9703B116AA8BD12BE9CBABF741C3AE6DC0ABC7EC8D2BD680A39BC5B7D533C4385EABAB6CB333C14407E3C01A3C23C82F777B9811D6ABC80D6DBBC5DA114BB676DBDBB89FF3A3B66F6FF3B53AE9DBBF1D10ABC6D2FB5BD22385ABBAF555E3BF200DEBB75FF903B732BEEBBE525FFB999FCBABC07744CB90634FDBC85A8E7BC0E05C23C2887763C7F565BBBFE6B78BC4BBC24BBA73427BCC1F67EBBD4832C3BE86EF13B8102EA3BCA74363BE1B649BA1B41083BB71B53BC890973BBB4B9813D83CE033CCC95C3BCA86580BC90B04FBCC05482BBB7CBDDBBA0D1293BEB5439BD89CB583C0248AA3AF983D93B9B188CBC0875643CA73643BB9EB82ABC71E329BCA6B323BD00345EBB9732DB3CA78FA9BC8CE9BCBC21E0043C458A6CBC12011F3C345620BAC2BBA9BBF82D3A3D787CE03C02D370BCE479653B851E4FBC6102A43BBDC8C9BCAF9C6D3CA83DF1BBB5250BBABF483FBD0D51EC3C9CF2F43BAD4A053C330D903C61F59ABC1396423C76A793B88FBB4D3BAB08B5BC0981893982E9833B57F14C3A98B084BC1D62F6BB575475BC610C28BBDFD491BB4A2EABBAEE76193C5ABE923C71A4703B89B4B8BB209C643C23BEB8BC1AD9CD3C7EBCD03C7A586F3BB4A2163B42A8D53B0682923B84F9F4BC82D5DBBD206677B881B0B53CBB3466BCF40D98BBF95F31BB418CC03BA8B2373CA1FF84BC0522813D0B2C6BBC475376BCA5A09FBB38CDE3BC1BCE7A3C0D14A1BC94C7CE3AAE08063C0850DFBC617597BCE750F5BC1E315D3B1A96ECBCB007B63BDEBEC8B9EEB69ABCBD2F2BBC13ECF13CFBFEDBBC8C62D53B11D0EB
3A0B7867BB870871BC06A67D3CA2D0DDBD0B97F63C3FFEC6BC961B57BC5F56CF3C291EAFBDB21EC9BBBEE9A23CEE815A3B89590E3C63160ABB20D9FE3B87CE773D0D98EEBC748D28BE144EB43D8DEDB1BD035DC4BDF4170C3D700E853CACC258BCE8145FBB5D7FBEBD0F75B23BE439F1BC6E379DBCA281903C6EF1663D09A3733CFB90903CE441AEBCB0C7E3BDD1AF943B1A03A0BD456292BDBECBF83DA6048ABDB0C2AFBD36E4F03D31A4A7BC295CFA3DA352DD3A59B4F83C5947343CDB826DBBEFDBA53CF636503C72EF113D05D8153B934FF23BF86ABE3C927939BD014AC33C4C496B3D67F651BD646BA43CDFC4E3BE59840CBCD7F31D3D37E0833CC0B27C3C7E092DBB8A2FEDBD383CE93BBC9FF739C1BD09BD313E283C3EB1C8BCE95CE73CF0AAC23BC7F4EE3C5D8FE6BBEF7ABEBA268A603C21C27A3CE0A3DD3CEE922EBB9DA5D6BD2E3D82BD8254BC3C0458473C983ACB3D3E3279BC200B733C52932ABE62E5063BECECDD3C557E68BBDE06883C0D01A63D6EB6FE3D28432E3DDCD12B3C1AD67DBDB1CFDCBB8A5A66BC5811543A3AA0623E0F71D23C8E1D3ABCD0436A3BD7E1903A553ABB3C74F95B3CCAC1443C09074ABD433C05BC3294DB3D4F9277BBB6771E3C52ADF93BEEF5E33B5DF243BC21F980BB35D5B3BBE4C414BCA463E9BC37CB5CBC44F71E3AB5B461BDA1C280BCF392C73C2019F8BD640E593D0234AEBC5A454EBBA03A9C3D499520BBFB498EBCA61351BC9D864D3D98B859BB818843BC11EE6ABC8F26CA3C9514883D081368BD4F1ADC3A83B6BEBA97BE29B915F2F9BCA862CE3D958AB93DD4D2133C0DE7743E2BCD76BD4D5B793CD24FAA3CB22B2E3C13DA213CA084BFBCBD6679BD9ECD403C408E953C0934BD3C42E000BD7286ECBBD89AEE3C97DDB3BD408014BCA6D9BFBCC751B5BDEE4ABE3B45ADEC3B37C851BBC9B2C43D2C76D33C64B0A13CD2DF7DBCAEBE693B95C6363C85B346BD092D8B3C4933443D5D11BF3C8265693C439A843D3CC28DBDE5ECABBB5FBEBA3C4051423C011AB9BCA8CF4D3CA03C733CB8FA14BC9026603BEE51203C5743003BC68A99
BCB9AEF43A0893A1BBA03858BA6AE56EBD0D7F393CD945BDBC3E0D723B7E9FC0BB8D4C7DBB8CB247BC94F5A73C7A39103C625ED8BD0E419EBC6DDAAE3AA7CA83BC023D313BA854AE3D2150843D1FE03CBCF131563D15804D3CC663D63B433024BDB8C9B6BD4664D23CC5F9E63C647D2F3CBE0C9C3D08CECEBC673F073BCB938A3B93E01DBB284B53BC6AE89D3D848465BD44AD993D01713E3C31771CBCD9D16EBB98CDFB3D089589BDD2E9BA3B422DA4BD676092BC89A85CBC91C503BCA0AD713B55EAFC3AAD53D4BD71F8E8BD7B789EBBE69B4CB9BD20AFBC8A916F3BF524F6BA2D34F93D867B4BBCA127B1BCD6F350BB5F8987BBA72A743D5810773C6F9FB53B53E96D3D00444D3CA19CB13CCACC6C3C41ABF6BB78CE23BD5BA942BD2B9A09BE511F963C79E82F3D93F603BCC30BD53B4BBE033CA81CD13CF2A2B73A36F34A39AFAFE73CFE6DABBD231C0ABCCF63DBBC315878BCD7C850BB8DAF46BC4274A1BCCB4EBA3C2D1EB8BB919232BD47B47EBD1F5E5A3E8644463D6811F63C92C44EBD853474BCFDB4F23AD5AA63BD141D42BC631A4ABE06428BBB98AAC3BCCAE7E7BB9527ABBC3BE2FD3BD216EDB8D17978BC926D89BC93419CBDA292E23CD8D7023C2C8B083BDDF28D3BED46773CB905F83C5E4AD23CE527153C0EDD7F3C4797213C04FBF53B5227CFBD681C54BD1CC6EBBCE996053C0F43A53C0DBAD13D008CB63CB24D423AC9231CBCACFC14BC5765B9BD2B68493C77CBB43DA07645BC80F838BB0EB739BC3D0C78BC5DB0FFBCECCF583D6F1F2E3B857E99BBDDE077BBD8AA03BCFB58EA3E03FFE7BCCDEADFBC95E0ADBD86A4A03C5EE6AA3A89B50D3BA37FA6BAA1040D3C84E6093A9AB4AEBD5E3716BC74F1543CBB97AEBC7C6927BC1BF7CBBBA2C411BA7C4A62BD8C22193CCB4B53BC53C3C4BD0501CB3C51C08C3C511561BC27E9A93E42FE37BC897592BC434350BCBEBDD1BC99C6B23B79C75E3D26A041BD517147BCC27BB03C7D7C00BBFD44223BBC1DD1BD75082CBB23CBC5BD72B2B4BD0451CBBB36C9393C16FA48BCB1F6A0BD8360E5BD060A8BB9A6FE6FBB9BE1EE
3C20DCFF3C3E556DBB63FD633BBF89FEBC9DD8793C392407BC1057A43BBBA41FBBDB640FBD4329A3BA79AE40BC02ED30BC0FCCB53B2841C53C49E67ABBC4E90FBC445C1F3A720F5BBA63FDDFBC06E2C83B725663BB9C175F3CB28B203C001C59BCBA5208BC27FE1B3B41E4613906B8173C9CB088BC4E1AF03BCA691F3C996C2C3C9F2CB7BC506AE3BB60F5F5BB989754B9C735873CF4692CBCD8A406391461DF3B34B7583BD6735DBBD91A9EBBCA7F6F3D3E3EE9BCB15E9DBA15EFC23B863BB7BC1ED1B9BA61AF493C4AF817BC0408343CB1EA51BBE72B89BB5D3D7F3BDF7F953C1D9B0C3CCB08173CB4EB6BBBC9988BBC8DF221BBC86F213806B0393C9920433D1007BC3C91F43C3CFE8E0ABC81E19C3B93C108BB1D3E0E3C999F233CB8A09BBC977CA4BC631868BC53480FBB821E82BA7618BABBE9CF6D3BE151B13B0228BBBB93C23A3C8D668BBC5D2A563B1B81BB3C0F963BBC682DC1BC9B37ECBAC7C4F8BC3CD76E3BB2C245BB272441BCD092A73B9A2AE23B966AD33CC9B5FDBC86F81DBC5C0DC03CA0EEE4BC408BC83C0CD3413B0FF1A3BC502C95B9C79C63BC23B727BA5D30B63BD71043BBD44102BBB8C38EBBA13D06BC61189F3D3CBFFDBCEFB5CA3B877D04BD8D42A6BBA714E03BD2E8663CAD4F103BDA202A3C0C9A813B95573C3BBE53D7BC1CFC083D0F2F7A3B206096BBBBD4933C61E226BD1C02723C4785A9BAC9067C3BB586D73D18FEBBBC5AAEB5BB3EB603BB3634B4BC755A313CBEC117BC4EA5B53C163A103C546E51B9E2FDF33C75797FBC1635B7398F60AFBC563577BC314562BC22A0323B99BA46BC14B0A5BCFBB28D3AC9883DBC3017DC3BC65B143C50EE4ABBEA15943C537D14BCDE4676BC3803B1BB88A54CBC0927143C5F994B3C39BD9FBB67B8F13C0809A53CA047B43BEC7D863D8FA0E1BAFA0AB6BBB65232BBF37CC93D75EDB3BB9CA381BBEF12EAB9471984BC4BF9F3BC7953A0BC36FC443C2D376C3C9BBD7EBBF01B59BB9B19723B294A493C156A2DBBB18235BBD412743BE4C4433B9CA10139F4BC143C951D34BC2BD5D03B692360BC1671A4BB7447FC
BAED1D59BB5F1C773BB6D571BB3D39EDBB8F23FB3C46A9993B99CC183D082C423B4DF7CB3BD3EC943B02AD613BA8861FBA3BA72DBC836E943AAE642738F7F1433B0E65FB3B8492753C705BD63BFAB0DABB1C62793C88E7003C1F6C84BC0D433CBBBFDEF63BAD2A0C3C0F1B353C5F8F5F3C21CA9EBC0E3BD53B7660F43C862B173CC41E2CBB066A74BBD122333C0F0F15BAC878533C2D492FBBD45E143C1FEF903B7B40BA3B52537E3C2CE96C3C0785DF3C70531D385B2B80BC85C0F4BB11EF7A39F82751BC1011B63C3B619B3B17AAF03A1813EB3C20FEE4BB386983BC09A28B3BF3A2F3BC35CE4B3C5F63833B068EC63AB052F0BAC2BE943B80D79A3C0343CD3A8F61243B063CE8BB8C2C50BCBB2F753B0549DABB18EC873BC1CFFD3C0E1296BC84B6A8BC1F325C3BEF45BBBC0D5C963AF8E7123C7648C83CCE42393C0CF01E3B1F0CC0BBD527CFBC8375623B937B01BBC17AEDBCDF3F10BCE45A3FBCA695FEBB2514B33C04BDDDBB913D80BB343EA9BB911B103C8542783C9548DCBCC53350BBCFFD33BC0BFA3BBB428559BCB42D833C0ED689BD4EBC813BCD3BB93A89A6ABBC7F588F3C1281FDBB0DCCEABB11A39D3BA4582BBCA0978F3C354CDDBC1DF1713C8303CE3C98BC7F3C9EB6B83C23D45E3B16E75D3C3B682D3C0DA3823C38C4B0BC9850183C3D66633C9E4F7DBCA2B3D8BC6B2CD73B9E1C2EBD1008263A9E40633ACAD64CBB8A243CBA5514B2BD0569F2BAA2DBE4BC3B86E63C46E7D23ADAAA863A487BD6BC754D693B81C8A4BBF2195EBBD5D2ED3C82ACDDBA479D1BBC2268C53BB848153C8695403CBD4627BA760BD0BB8FEFAE3C9FC852BC73DDBC3BB624CF3B8DE2F8BA30D7FABBE8D71A3C02A197BA053B7DBC3A0064BC3FCF093BE859BCBC41599D3A8B655CBBE755D6BC9430C3BC83DE203B8093BDBC28D2093BF1AF8DBCC923C3BC229A1FBC64324B3CA938B5BC87C13DBC0453D1BC40B1E83B56D039BBD39B713CD2DD173C60C69FBBA65BF2BBD89A32BC13A238BC77AAFDBBE02B20B98532D53C05BFB13C2F01C1BA9CF58ABC356D02BC01E48DBA664B0FBC1C2E3C
BCED4E313C46E93B3B3874DDBC5B3BEB3C1D83F0BC9ED44C3CCE2CCC3C515934BABB16D5BBEB7782BD095F013CA60237BB813A7E3B32A1D83A2043F9BCB1C4B3BBC2557EBB8B3A87B8562F9B3CBA3C02BC1E35DBBB5425EC3D6DC0B2BBF746ED3CB609C23CA97667BCCB3DBCBC5AFCA2BC88818C3B2EED87BC805E9B3CC92160BC9ED95ABC1AE598BCB13F673C996494BBE781D83BB45E8A3D19FBDC3BDD7341BC9668103CC8B9E83C5C0ABA3C19BECD3C7536DEBB6C61E83C90BB3A3C83AE75BCF112A6BC5E6EF8BCA438AA3A997C0ABCBF27ABBBB738073BE7EB81BC748733BD24AFB73C82122DBC9806FB3CC271003C2A5038BC6CFE8CBBA9826BBD007E25BC0FFA093BDB06243BCD2F18BC9DC2333A9DDA52BCAB65583B2BCF40BC3C2D6ABCCB9B223BCBFA1ABBEE00B33D664B51BBF0A39CBCE5F57ABC87E115BCF7EEC2BC00E7583CAECB4BBC360C31BBFDC121BBD5C10FBC404F43BC6365F8BC8BD696BBFBDA4CBBE58E75BCC5C76DBC390841BC2C3874BB1674F4BC0EEC86BBCA3FA43B569E5A3BC70C803BD1AC3ABC87F06ABCAF46FABB94143ABC7A5B283C4CEE233CB59962BBA73F38BC526FBFBC024C6B3CC5A461BB2393D63B438705BC0F5F48BCD396DF3BE857073C86523BBCD864CFBC158A9BBC8D00D1BCA9A6F13BC102D6BBFDA4C13C525EC23C2285853B7AFE25BC418DFFBCD66365BAAB62D8BC9918233B60B272BD198A8BBC401F963C5BE9FA3C561A03BC6117FC3BBAB679BCD700A5BA88ECD83A6D9A54BC2CCA023D5645F83BAFC5313C3A40E8BB984B983CA9E8BE3C86328BBA1C7555BCE8F1653C0AC463B887D381BC8CC8ECBB0D118FBC989300BCB85023BCFA0CDC3A91888B3C144DB7BC5491823CF6BB70BCA568193C365C613D0C0299BB8100E9BC6D51E63BB7835E3C96A65FBCE3C1613C24D8CBBC64A6D6BCD4B40E3D3C21F1BCAAAA173C11F6EFBC2E03B0BCB73B59BCA318E9BBD5BB23BB4C0E32BBCA6BEFBCD595C73AD76C9EBC52D230BD0EA7E63C383BD4BC7EDA313C1A3B8DBC870F80BCA4FA3DBC1F30A93BC1A8233C3A700D3CA5F953B999AABF
BB9FDE2C3DB9A2F63C7A8183BC6E33BCBBEDC46C3BBF29093D14A1B0BB3C5BF6BC5B36C6BE13874F3C83E2703DEC56203C95471BBD048BD9BCFD55F53B593A313C5E20B73B7231B23C8C0C73BB8B863D3BD4725BBC6A5C32BD6D9D59BBFF9689BA8E4B903C00906ABD4F38433A84767CBCB7BE803D2E438FBC4F5C15BCC5929F3DC2B6423C190D9F3D2995583D18919F3D45786F3DDE64E8BD34F9723D65274B3D9502383CE57BAABDB8E64F3CA1F4463D20AE8A3D28AB86BC9A4C0E3C30F5833C1F112FBC1827663CCCDB85BDA820C8BB6DD3693BC77D343C1E6C63BCAC1C7A3C03757D3D8D157F3C1E3CB5BE0A4AF8BBC7E759BC5FFE393C0F8BF6BB87CB34BC307366BCEE5DAA3D60078E3BEA766EBCEFA11CBC6A2C90BD47E9B5BBDCB3ECBBA8DA0EBC8429D63B280AE33C5CB4D83D3C09ECBCE14925BCEF101FBA4F50813C2AFA0CBC44CD7EBD5551563D5C6B59BB0F41DABC9A027A3B281B89BC6EC2E4BD84F7F4BCEEA7E8BB1FE2AEBB848A153BB81BE23B493D4EBE2595893E7E1D843CF3BB603DD9DED43D0A6321BCE4768B3CCBF528BD78B6F4BC94B7F13D8CE6FC3C67C34C3CAAF2C0BCC2D99CBB53160C3CFC18BCBDB01235BDA5202ABC82FF62BC5DDD17BD41F7E6BB8CFF32BCE4C4E03C0550EB3B9EEC24BC2025B43CF24EDEBC1BA44CBB8B4A95BC85123EBDB95D1EBD81E396BC17E2423D56728E3AFA15CD3DB964F2BC4C342F3E0074453BB318BCBD321C39BBC48034BDCCEE643C1BCB913C9113213BB2205A3C34BE50BB262ADF3CBAA6693C34C01BBBDF3349BC85AF893B4F58613BC196DEBDFF1948BCB8A42D3C9F96D4BC88C80DBC5BB3553B6F15653B512AD7BC550A93BCE5F779BE5FFAA8BC3DF6A63BF672F13C4213E23BDC51463B908AF3BD058579BCBADE843D9268AE3D475B64BD24AD6F3D5EF647BD08933DBCC55F3A3D2643FD3B778F3FBD0CAF913D6133E3BC9E1567BC99DFA93CE44CDFBD435893BD85B4ECBCDCB44CBBBD1EBF3C411A5CBDB5AF843C59AE7CBCC9252D3D9FC0A03B25DB20388C4F78BAFDED0F3D37AF7ABE4BD48C3C7A192ABCB81DC1
3C57879ABCF23077BCBE61463C417FCDBC4EB777BC316CFEBBAF03DDBD149B4EBBA5A9CF3C7B3F6DBB0A69B5BDBB0C20BBBB0C98BDAB12B93CAD55ABBB31A8FC3C8C79E5BB7D02C63DFF3479BD2C272E3C62F43FBCDFBACDBDB055463BD22DA7BD4590B53D0056153D411C64B99705FDBAF7D14C3CD505833CDD93A13C39726A3D0AA2E6BC442DBEBBC198AEBD35B86EBD633DF53D8D8D2B3CC510C6BC35A8FC3D0A0443BCE353AC3BC3FC1EBCF59D053C8E61D43C32CD47BD4293673CA865FD3CA99D523D1065C23C19B1513B62B1383D008D7BBBB4F0BFBC7448E53C8115983C40ED3F3D542FD7BC7C8E02BDC7B295BD5DE03ABA8595153CFAA5F6BB6D7F673A0D9496BC5CAAD2BB9D2479BC00BEFF3B82A0963AD863E23BED0158BDA5ED703DB0B7603D6A75833DD6C9963CB5FB71BCAF129DBD1DA428BD3C7FC73B807714BAEF35B33C346B5B3D5FA5DF3D17CAB9BC07370E3D6D071ABCE2A8463B6C45A03E20A7893CAD6A5D3C69F3BA3DA6C0BF3D118746BDAA91793D7211EEBC350D363D85C90EBB41F1063C72015DBB9707923CB700E8BD7C2A153CC639B3BC972A323BFBAEC43856A2263CE0E3033CFA2AD03CAB04353CA653823C8A4A4EBBF03B0DBBC3BF4A3D677E313B8ABDD13BBCD4F9BC405D29BB9EFAD5BC7C2127BCC24EB43C5EE1EBBB88799F3D03A4D3BCE03AA23E15576DBBAF40733D0C1864BDE2F20E3DBAE933B9728555BCB06EA63BEC374E3CABDDA63C78519BBDD2C273BC432851BC1EF6C23C450FBC3C8C85093D62E405BC301C77BBAEC39B3BA43789BC5AC5AE3AD6F6EDBDB85E8A3E0E543D3CA424AABE9E2650BC9C4C68BB8C31193CF63D4A3BD1F5303BDB541EBBFE448D3DD0FAD53D0C22373DCB8871BB26C801BD4B3D133CDBE103BD943BD73D340F2BBD860F0D3CB9004B3D5241AABBC59037BC1709B0BBC0D520BDAB88D03C4BF17BBC65A249BD2FE6853C418B68BD8AC450BB30245EBC7AFE9CBC43995BBB8B701A3B1DE1593C8D42A7BC76EFE33D0E66793CA7D988BB954C95BC3DF9493AA869673CBBA599BD294554BC803153BC7395393C8430C1
3C14CEA53C4382FD3CA4DCDB3AE3779F3B9919FE3BDD2F813B965D3C3C46546B3B8E8F40BD04D10A3BA06F0C3CF6FE073C0393093BA31F1DBBE2D8A6BC09628DBC1774FA3C56629ABBCC1251BC818483BCE60B69BCA3361ABC67A9963A318EF33BF4FEC43A217B5E3CF630ACB70ABC403C0CC5A63C1FD47DBAEA9E4C3D976072BCD74C29BC91C881BC1C1EB8B9825DC7BC6D7D203BEC070B3CE614B43C5ECBC43C5697A73D3CA3783D04B8F73CD82FB83C82F416B9B218243C6E83EABB86AF9B3C5B58223AC88C933AFAEB49BB546CED3B99DB573C46F5023BAF658CBC15FBE23CB97B8C3C4A9670BC861E473CCF2A333CC4CE453BB447C9BD103B73BC461943BC294CC2BC096814BCCFAFFEBC3D74A33CB8CBB03BE1D2FBBCA27C23BBBCFED8BAC51BB8BBE39C86BD118F14BBD6E9F0BA444B723BD725143D08A682BB60B08C3C04C5893D2A6D4FBC216ACCBBD91C533BC1CCA7BD89F888BC5AC9CEBBB991C2BC83BF6EBBA095B0BAE378D3BD13815DBC94729EBB0FC74EBC891DBB3D3BC5ADBCD0B84FBD3BDED1BB5C28E3BCA5CAD7BBDEC4E3BD993ECBBC1286B43C91A468BA397D223B8FA4C0BB2E0784BC36D6AD3A20146CBC7D95CC3AEB8493BC7FA3203D38A483BD712A17BB6B513A3C971DD9BBE2DC723CE8FF993C263A453D25BBC73BBE7FE33C2ED8EB3CA081B13BB2BB74BC8103F13B273B12BC6800F33B322F2DBC23FCCF3CA5C4BBBBE2B68CBC107F2FBBE48F2CBC26E81039C02D9B3C1425FDBB115CF7BC98CCCDBBA612183C7F711A3CF06C5B3C57CD3D3A24F439BB01B9D1BACEE8B4BBCBB2153C66CD5A3B2FD50CBD02F28F3BAD9A733C105E9FBADEFECDBC664EC63C634A0CBCCB24EFBC75EFDE3B8857873CF60F24BB0BAB103C06D4973C081C023B9F8EB138CB28D13C17A0133C128390BB69F8793D0C48FD3CA2CD8DBC876E863D2C5343BB8C819B3D02F8E1BA032D2FBCB74B19BC4C9B3FBC08F0913A3C7C923BD298993BFB40BE3C2C32CCBC791E73BCE49725BA2D26D6BCAC529B3C55A1D43C614B803B5B6893BB77989CB79F4AA63B8793DF3C94B3073C3DB52E
3C5306BE3C8D78E33CE1EF303CA97CBF3DEDF90F3B0598313D7E6E7ABD074D96BC42E98EBE786143BB300F1D3D2B248BBB1BA6A0BD5BDCC33D325E913D058943BB9D9E34BCB4497EBD35A40C3D0FE903BC7D08E2BD850A28BE09BACBBAECE126BDE8A2C6BD9F96803D26711A3CE3D510BBFB5F493C872E87BBF5115C3C31CC103D960AADBC6F3ED93D755C443CB5234FBC138547BC775B94BD8F54403E2A98B03D1AD6013D71D4E5BD121231BC8C3BB13CAD7E20BB87FCA7BC8709A93C299336BC7A5B31BD9D07353C6CEC38BE914EEC3BBA56AEBBE200A53D2D89253D0AFA28BCA6842ABD8CD742BD64F0C1BE5C867A3D1470E73BD59666BBFEE84C3C4E0C973C8675BABB8BC81D3D1C782D3C3E7C8BBD309FC3BCA55AEDBB35EE0B3DE33601BE12E9D938F34EE1BDD7CECE3C2E4B26BACD76C8BC8B7C1EBC6E8D863C325500BC8F35D33DA859B9BD0CAEBEBD381105BCA2B0C83D439E543D46DD4EBB51A6AABC829A89BCC4BF733CEF7AA2BE3A89F93C1A162A3E0377633C7DC0F13E43B5D6BD2E3DD83D3674803BD6C9FDBDB7FF153C0D855C3DCF1D453C66BACCBB5204CC3A5C0E35BC46189D3BE9CDF4BC40BA05BC83D06FBDF0B6D73C4F79EDBC0EDE27BCB1CB0BBBBD6C233D02EF4E3B98A88ABD03D5FA3CF31068BC58D2E8BC5D5A3ABB3A9B093CF4ADB43DAEEDC5BDEC1C213D954508BBBF0B833CCF4B87BE4B6A9BBDD053C2BD18CA37BE250E4A3BA2E37FBE1206223BDA0607BE4DBFC2BCAC5064BC9C3CABBC3AFFFEBBA8351C3B0B3AC23D87CB42BC946FE23B585C883BC485173CB993833D22770ABD842CE3BCF8128DBE1B18083BB38FC0BC223CD73B3139183D15ED183B0CB8193C3B5B2ABE1AA161BCCE6D123DC0B45CBD0B0667BD8CD1A93C7D28123D673B333CBBFC0C3D8DAC963B9F239C3BE70F5D3CDD2946BC33EC17BCBE9091BE83E89CBD34A50ABD2522E5BD448EDDBC1933F73AE285A3BCC83BA5BC36AC16BD88154F3C2E8F6ABC81BAF5BCBDE1BFBE92B4F3BC78192BBC0E33943DB04E5C3CE77E4ABC057833BD4342B5BDD009BFBD12ED02BCBCE2D738EC2A09
BB72CAD63E22DF9EBD7D5664BD3794BABC6FF8683B450F82BD0F9E22BD10406C3ACECBC5BE026F9E3C812774BD4747223B2B4E12BCC6FB533B316BF43C4DC1E23C8711D7BD81D63DBC5158C9BCA3189E3C9E553EBD6DF43D3D8F3EC83CA5A1BCBD3883A33D913DABBC6711863B5DD46FBC08B05EBD969FECBCA608803D449336BDAAAF45BBCDB4BDBA6F5A3F3C4A61FABD2600DBBE013519BD5B71093D2383CABDAAF2A13DA42CE6BCB411C9BC6FD17EBD85EED1BC95737EBC80870C3D2324F6BCD03A61BD8C1548BCCDC925BAE7C489BCE0A5823CC63D343AAE1036BB7D808E3B8E64F4BD22281CBC527822BDAF6AB1BD8D92E33CF2221F3C58E3603CDD19FF3CABD32CBB1612963CF04CE5BBE4E86EBC908017BCAADDB3BC8EA9AF3BCC0A703E2FF3473D6DCF55BDDF9442BD032C52BC271620BD34278CBE15098F3CC440B23C3BBEEBBDA2D6483D00C8B8BDB30CF8BD6C59433D3A9213BD278D1F3C15C14BBDC195A3BD23129EBC224D0FBD7677473C46E34D3E0294D43D427B273DC4E9EFBD3401E73E8202493C058E15BCC8A33C3CE977FCBD843E8DBB04AD143CBCBB23BC127F53BC2AF51EBC9D0E323C290ADABBBD3AE7BDA9F132BD34FBBCBB7A8F5ABCB96EA13CF2F830BD31768ABCD4DD99BCA416E4BCCE1342BCAAA17ABCE50DC6BA2D42C4BB93F1B1BDA77E78BE1F7C0DBCFCA3093D48C093BDE01DEDBDB584B9BD2216DBBCAF8271BD24F6CEBC654C8BBC7B8EC33C8EE16CBD37FCD53C59E1EA3CC022A03CEAAAE23D55A1523B8B14EEBD5F30403BE38DE93C8F067BBC2288B43C8FB53ABB9FE845BDD22AD63BF65B42BD8C4CA5BC80BBDC3C4F53883C2495783BE76ACE3CBDB50D3C70FE31BD7EB021BC3999EABDF73DF5BCC36115BD199D94BBB5BBDCBD1C8AD6BD43BDA8BD98AD86BD7A03A23D967EF5BD7B49B03C1E3E433B343211BD99C52A3CBBA028BCB86D63BC08C4E53CC875D3BCFF404CBD6BAC6A3CA4B9CBBC8F9F833CEC0CE33D4F98CD3CAE3C45BE23AEA4BB9B1454BBB4DB0ABD8E83A33BC010D03C7B187DBA9F590C3D01050E3CF24A473C9109FDBB255A23
3C6406533D83042EBCD1BCADBCAC48BC3B0B47323C7D0309BA3E576A3C011D41BC801AECBDB05EAFBC5DB9D63C6B4491BB454F03BD72B668BAFCD9B93C9A48443CC191B3BCBC9F973D1358D8BC852F25BC481A1DBD15DC1F3DF036913B0A67DE3D4E74C5BD1467893BF4D24D3C22A7D4BB8CF3EABD94CB4CBCAD26D33CDF88E4BD81A49BBC48C2A03C1751C13CB68668BB106B3ABC3AEE1BBC3278E4BD4543473C3E23EA3CFD8582BCB47465BB5C1D213C0605863C1D4947BD4B2149BB2646C7BC1D33F7BCAB0CE0BC87314BBC9FB1C13B8EFC19BC5BB6763C2FFA59BC05159A3C841CD83C0519BE3D1927963B41BA6F3C1629C33CA057D63D9A75C93CA0228DBC22052F3CCFEF023D5C86A4BCE84C82BCA2197EBCC0C2363C19F29E3C8BEEC2BE168D793CB7F4843BA2C8F6BD0E78FA3B03EF08BD008051BCA397F5BC94E1BDBB9457E6BE6A491FBC034693BC5C29E0BC04B2D53CF0E87ABC3B0BC1BA73FEA43D142F6B3BF71CA9BB0DE497BB93AE1F3BE133C53D98F1ADBCA8E90A3CD30C36BC39644F3B3654D23C8113C43C7B41553D0C2E89BBE12D5D3B647994BC40A1AC3CDAA2BBBD0A81BDBCB7492B3C8230D23B8E19983C9711A3BC549F523D0ABBA0BCABC1B23C2BFF6BBD03E50EBCF15CABBB39D4683B3092323BC6F24BBC9AFA5B3C8F0DD7BCCD606EBC5662D1BCE79F013DCA11203CF0638ABDD583003C1616BEBC5DCAEEBCA228AC3DFAE7D1BC673F483D37DA9A3C3063B6BC9E95563D0523073B18EFFFBC1768203C7718A1BBB19EF83D5B69C93B57DC853C9FA08B3BB7F9DABB27C49C3D4E40D8BD27F162BC183022BD281F51BBB291833A4190023CAA7C7F3BE8524E3BC6E8963BCBE6FDBCC77E48BC900543BD7D9205BC82E0AB3CA6A1D8BC789D7EBD0352AC3D9189703D2B2FAFBD2489BBBD388D9BBDF2DA653D06990ABCCFE3253D8E2211BC3E91583C5105CD3B8961E6BB7A8004BC05F429BC283BD3BB8458463BADD372BCC044D33C966CD43C11C2CDBC11EEEA3C0324F43B010AE13D5C853EBD13E6B93B1B53473C4DF3D83D2FF15BBD568EECBB570964BC8DF598
3CA6A8E23D12D1D0BB3DE4A83C2ED529BC3C67FBBC0BED073C9D5B2F3CB9D6A13AB5C5E2BDE78B813C315890BD20CC2EBBCA53A0BC66CF9E3C8BDBF4BC657896BAB62ACCBC2C2C3D3D454BFF3C4A6A373D2B302EBC97B69FBBA77C2F3B30A2D13CA1D0B7BCDB10BC3D0FD468BC0BFD68BAD5FD173C9075D33BCCF2243D977BE8BCCC40503C88584FBCA6C3553D028D24BD62BA5EBC6E985D3CAC7FA23C880385BC375AA4BD5AA6A7BCF0B3A3BC0A474B3CF2D4D6BD01DCCDBCAD63C3BC412FADBC2DE10F3C1C39E93BA4419E3CD399803C8D41723C1AB97CBB9C9DA0BCB4CFA63C75098D3BD78CEEBD2D58623CB15125BC8A8BB63C15C5413CAC170C3BB66B19BC753388BC804239BC84BB283BFD28923BB688223BAE0D023DAB51A53CED57483DF48B23BD1AC118BD0FB288BCCB0732BC8EDF82BCE258243C23E60DBB87A5AB3CCB92033AD543BBBD41E0B5BC187E84BBB2183DBCA7BA2F3BFDA13BBC40F922BCD4D2CCBD00B6FE3C8B3FD9BC5C7D05BC67CDB1B956B689BCE27F823DCDE1AFBCD7660CBD54739FBBDBC030BC859FD33BBF7AFABD2869B1BB8DF9FA3C863F74BC9AD57FBB64B9D73C9BB62F3BC3DC0EBA98304C3D24AC8D3C236BFD3C75455B3C3539173CA1D6FEBC2906533BC42A43BC0B3928BCA60393BC45A7533CF5968FBBB88352BB04051BBD03D2053D181C89BC33659CBC74768B3CCCDA5A3D47F2DBBC8EB5333CBCFEE4BC4738503A24A91F3D33373EBB98E335BCD818FA3CAC869FBCA95A92BABA1870BBD3BD003D6A13813CF31F933B20B37E3B5E537B3C2C8AD03B314F873D10464F3B0941E63CA269B1BCAF91373AB1C8613C9F0576BC3C5C9CBB761AF6BBFD28E9BCFF5F7F3C8DACF13C3A62B03CF2B59A3C12DCB0BCF8D25D3C9B38A13D1EDC00BB41DD693CAC65E33D226B6EBC63C1C13BEF4E42BC0E88EABBC291F6BD52D54ABA7D55C7BC2E1F41BCB9FE41BCA3F7B1BA9BF5AA3C1E8AD53CF991CD3D8D09843B2864283CD762A03B9198CBBD7259A5BB28FFC2BC3AB1FCBCB375A8BB36AAA03BC634733C3CA0993BC3E1F73BBB157D3C3B95353D1283A0
3BF1254EBC397E823C1F0FC23B8BE72DBC17E7363BDD65B33B98A1A23C00AC303BE7AC8FBCB297243C4CC27F3C2AF68A3C8EE6A23C062B813BEFFF9BBA560BB93C0A1C883B8AF120BCB5D8EFBBE70FC2BC0737BF3A67B90EBC807A213B51EB1A3C58DF403C86415E3A79B78C3CC1375F3A96B3D93C01AE4F3C61427039F8DBF9BB8362573CFB1E4D3C45CBE83CC4C8873B3BE13BBC8615F83C8848D0B99C72D93C40E2983D23B2503C6F6E783C762FD13CC9F170BB4975E13C1BB1293C56E7A13CED0EA33B97D025BCC9973D3C8D25A93C7D3F843AAC53983C84D3CFBB9890443CDABF7EBC264F7ABC175DF43CD86FDB3C2B3630BB90E7AB3A3F27EC3A156418BBDCE190BC2BCF993BC17DD4BD169BDE3AB2A1A53C51CA3D3C25B0153BD3BC383CFC2E633CA02906BAB637E23B6A5C80BB5E83DB3CED0E51BC12FBF53C8205DB3CF53D433C1278803D9F9BD5BB1D65ECBC21FF3EBB73CB243C10DFF83C61C4FA3C30E0113ABE1F6BBBD36804BC2DA55B3B93C160BD4BAD43BC21B72D3CFF1EBE3C5F370B3C526612BB019BD83B5C66123CEE79DD3BE8C7763C773D423C0E8738BC7E1650BBB2A4AB3C8216C43C8B0E4ABCB8790DBC0F45C6BC0D8A3B3B9BFE323C60382D3C36CB653BF49B2F39F9E3D5BB1DAAF83C5DA5173AF8CDBA3BDE862D3BB79CE73C76870E3C143B3E3A8A2157BBDB3C613C0B266A3C2C1998BD0AA8993C69E9503C5CC5643CDE2FDFBD268AA43D4078453BA094573CABD65A3C27D2793C9CC4F9BBEE91BDBC891EA33BBC2D33BD0210F23CA8B9DEBA9991113C1832F43C4F7A923BF8B743BCF3F40B3BB602403CCE621A3C9254193C349322BBA427CEBB040D763C8CD3063CFE94DC3B9692D23C90D7A83BD238C1BB6F0D07BCA30D133BF039593CA963103C27850E3C2720793BBA70D13CA9DC4CBB05A1563B8E28D23C396DB1BD115ACC3C2C9FACBC3B5C013C8871153B78F4BCBB8237C0BB9F15733B4549A538FEFE383B6867D83BFA290ABC1D11753C4D6616BC020C7BBA975448BC456C9A3C43BAA53C4AAF8C39CA06E43CE30FDB3C71E65B3CBADAB137EB526D
3C6F2A793CDCC3493B284B6CBC7F3CCDBB8FCC973C7D5C8DBB98C955BC6DE5813C0F2921BDE439343BD603EC3D0991A63CBD9934BCE820ABBC31D6D5BC9B278D3C94E6073AF1F7A0BA7F4E5F3D1AB27C3BFED748BB8A1A473D0CAFF03C4DC438BD027DA73B712B173D2440B33B9FA0AB3CAD35053D8F609ABC9973573D1B536F3D72C2E4BCC7EBE43B04A1713C801A78BD28E2F3BC8E463FBCDB4292B8A6242ABD10D2663D4208B63C6961AA3C45012BBD49A0AF3C99808ABBD1E24C3C0A8EEA3C2F69503A0D33D5BD098FFBBDA60540BBE905E13C84CC33BCD2B0B83C3A9805BBF74105BD9B232ABC89ED4DBD06EDD03CD2537B3B6FAEC8BC8D685C3A9B2EF83C8994DEBC79EE713D29EABABC1DB10D3B577256BAB37B6B3BBA02863DB1E643BD8714313C0055B03C5B574ABD31D571BCC8BD8B3C96462E3D2D71A63A9115E8BC6C04A8BC809E48BD20631DBCB790E2BCF259363931F5C9BB3A07723CC2D723BD831F493BACBA563C61BF83BD7B2A1D3B73FB6EBBF44226BD2046F6BD93376DBD00E179BE18801CBBE3CA963CE11DB6BB13DB2EBC6533353C9CA2FABC3042AABC133B3F3C55A81FBC8358643CB1CBF8B7B9B8C7BBE842BCBD14582D3C785CC13B59AF0CBCD16A77BBCFD8883BE91502BC7678A33C4FC657BCB1A8FD3AD78DCF3B0A1E933BEC09253DAC72BBBD4F75D8BC80BBD73CB5C0B63D1ABA2FBBE0CC00BDAADD6D3B2E205DBCDC9D8E3D303092BDDDB1FB3C47D1683BA9B3853C69DD41BBAA663B3B63BAD33C45CEFABB7DB7F83DC2BD283BC19A5E3B769427BBEB3566BB8E9E863DB5381DBE2EBABFBC4B8D26BD9C20DE3CF6A8A5BBAEE5FD3C960A2FBA3AD9DA3CD1A8E1BC16B896BD7FC4DEBA0406603D1B3FD3BC31AD9D3B58B4E33BCB71F53C83A2AD3CB071903C9C5C98BBDC719ABE0AF339BD828D643AEDB118BC995AAA3E6B26A7BAFDEA56BCD6EAA43C8759353B753843BC8C6C443D0DBF90BBB296B13CBCE06B3C47BBE6BB610AC93CBDE459BD3AADC53B9941253CE5676B3D65F5E33C2132DBBC5F6B1CBC8FB67EBD6B6490BC61E52CBC81C923BC8A57D0
BBA8E7D0BB57AE1D3A8C859BBB9F8B9F3C82348DBA1F0930BAC12FD23AC548AABB03A04ABB173B4A3C7A7DBE3B163B7BBB923516BC8DC2913B8AC5D33C097F8C3C184D03BB569B573B8048513CFDB95D3B4B49CC3C8F1304BB6B65883C3C68C9BCD3572D3A88E9673CCA12A7BBEDA9303BAD48593AE8B16BBB82AA043B69602C3A77C8513B59E7DF3BDE4AF1BC7384FABBD30FB5BC938A5D3C50B7BCBB17538BBC0473CABD0311D83C5078703A1C0F06BC0D7C7F3BF921F3BC2A7A263D895EDE3BAB6E50BCEFF18ABC60390EBC1AB4AD3AF969C93B84F2F7BBC609AEBC21D3B93CDFC996BAEB47C2BB5B6A71BC47826CBC5A03233B49D8123BEF4325BB74832ABA4F62363B1C2DFFBC81E5273BE900F23B5B55D4BB9CE1FDB93DB04CBC09BB6CBAF8525DBBCA26B9BD056FE73BB247883C40DB5B3C3D9159BB5C0600BB05B0653A15CA5E3BC926173ACDF071BC2B2714BC03C5B53BB5619A3B0E76943B06A7393B150B3EBC1BF6BC3CCCA60E3D04921DBC15E4293CFFF12E3CDA9642BC669E4D3D11194ABB92C3233B7429F5BCAC95F73B9CF0653AEE45443B8AF384BB1D6A1E3D45C8ED3ACDE1713CA16680BC250DE8BB4342BDBCC286E7BB6FAFC9BC809A573C3137A73C94FED53C29ED92BBA5CD1CBB49567C3BA8A7A8BCA90ADCBB4BC26BBD1097F63A1EAB28BCD4CDB0BC7A1B7ABC44F1D0BB4627C5BC921BBEBCD4143F3C1D7D463C0CF546BCA9A8963D809BA33C8287533C41229BBBC6C308BC3089993AC8BDB2BB0186513BCF90CA3C2792DCBCE53C8B3C6C71C33BAF5BA03CA107763BD0B061BC7BE92B3D1F5B7B3B4F48013BF5E8283BD3797D3C8DDAAC3C8C833D3B5B8BC93C2AE293BBAA4A61BB958F82BBB265E8BAFF390E3C6BB97EBC1C30563C83DCE03BA542423C1E5653BBD4D5DBBC810A0C3C590FD73B8A715CBBBFB8F13BA5A9A3BD338E36BB3FF2B23C524325BC589C5ABC0C07CDBD0AD68FBA9230533B8C4E143BE43BF93B93A6323C8BF51B3C6D57753B6D883D3C728015BC41B8663A6FFD2E3AF73C59BBFBD8B43B9EF489BC94C4F2BC040B23BC84C526BAEBFD31
BC2815D2BDAC8824BD2B57ECBCA15BCDBD3153BDBD19A4E3BE03BC443CF25262BD377CACBD9D58573B314375BD2ED2C8B9E4B86BBD0F7406BD8193AFBCB62AC0BCC99CC23C79785EBCB2BA0DBD36AE8F3D8DF456BD8C190EBD57D1D1BCCB7A45BA903558BC81345CBC8BDB90BD38703A3C12BF0EBBDED79FBD7DDAFBBDB7F7DBBE0AF538BA96E197BCA97C2EBDF76C153BBF10ACBD70397C3B351A5DBD75DABC3CE4A2443CBA45033C381835BCE552323DD99180BCB111D2BDCB16D3BBB80FC9BD6C0AC2BD14C7D2BC18FA4DBD7D96D7BD8D0D9E3CD32CC53CCE6008BCF423B9BCF874F8BC6E51CDBDDA3EF03DF7E95BBDCCD3283C232F13BE23F6C2BCAEB5DA3C74BB453A37940C3C99C4BABD361C54BC0C0CC0BCE521ABBD78D1E83DBC3526BE3FFBCBBD5DD6543DCF8379BD3AE0FFBBF0D996BCB8EC09BC89D466B805A311BC6076C3BDB9B24DBBE73398BE023133BC8562EC3CA069CCBE0EFABB3CDB6DF1BDB1D54BBD86B38ABD743560BD9A2D03BB9D4EE4BD824E523CC8FAE63CF4C459BD38210FBD8488E03BDE76773CB072DE3C73EABDBD24551BBC086467BC45D3E6BBD4C7CA3D8D7F0DBC13B84DBD012B6EBC42108BBD069C22BDA0F7C7BD2461D4BC99917CBE0F3F78BD3576FABC2856A83C377B7EBD8624E0BBBF9ED4BD5F8341BCE5A653BD761BC5BD6C53BABD045D20BD7D79423B5BDB25BCA826A2BC82837ABD318F6FBBE69D51BDDAE5C9BD9A3170BD49DAB8BCDABD29BE0CD5B8BD24A5853C8A5CF5BD373B92BD33D14ABCC9D239BDC992623CE1429EBDA5DA673D5EC3FC3CD7E3F53E5E124ABDB3E62EBD566895BE323BB4BD34852BBC419D0CBB93E301BCB33AA13CF21D3C3C0465ECBE04D1A5BD1EC115BE2DE8C6BD5C6CA1BE365DA53D7942F7BD7F367CBA78219BBDDF310A3C8BFA57BD1A5DEDBCCB96E63D7F929C3CD30E9E3C6061EFBACDAEA8BD5AD252BCA5FC78BD58FFFABD89B8D4BDD75ABBBD0CE667BDF34F403BD6B25DBBBA810CBCB0C811BD79022BBCF334E53C0120CDBD8E3CAC38A484E2BB0C574DBD5CD1D4BE2A122EBC97B0C9BAE16816BCFEFE10
BC951440BC334F91BAEEFF3B3BA308E53CB20530BCDAE45DBCF58D57BBE8A16CBCBABD7A3D88DFFFBCFB8B4DBD155118BC9FC6BBBD16AFE8BC7333DEBC9BCE92BC2B965ABC349B523CAC8E26BCE2CC383B96F2D53ABA142EBB7F155EBCBA0D843C037D00BAB0E9EDB9709616BCB610F03A2F966BBD5ADCC1BAAE8AAE3B3F96B03C9EFE88BAB60AD5BBCF2801BD6CC5AE3C86619F3C802169BD4C39C93C2D06683C0A883D3D7D5AA53C4C7895BC3345C63CDAD0DDBCC8315EBC46C1FEBCFA2290BCB2E0913BA15054BBCBDD36BC8CD7F6BC6580EDBB01C864BCAE38163C97CE38BCDE7D1EBC30267C3BD70D093D4169F93C978E25BCBD5F9DB9F93AB9BC91026ABD1D8E223BB4B8B9BB15136FBC3A794CBCE4F083BC51491BBCEB58AE3D0323C7BCC24CEABA56B949BCC20772BCA96C9B3C980E40BC2193EF3CCF377CBD1E393DBC99DC40BD25EB5D3B427B13BD15FCFC3C6D6D44BC97B57EBCCCE741BC94C2DABD26A74B3B1B17D23A7D9286BCB07648BCA35AD63CBA8866BD2E009E3B09A162BB7D2E383C7E142DBD088EA03CD838C2BBAD45983CED6828BCEF3B72BD2C41CF3CBC64F73C5AF3E5BD15D0EABD1E9499BCF32D3EBBFA74B6BBDB03A43CB058EABCF908E03AB273C5BCD5BB06BC9317E63CB5689BBC86BA15BC28EF8A3C3474CABC0B2C1EBCBE09173CF75B73BB158A8ABD10EE21BCA59763BD3C62B23CD0DE60BC9A7F52BC93E979BA4D50C2BAC9D42ABC07EAA7BBA8D90F3CAF8BFCBC1F3744BBA38988BC386525BCA5FBFE3BF4C6863C9C9A62BCCB5DF8BBD4101A3BE4F14EBCDF2B91BD1BF88B3D497CFC3AEA55D2BC7BCF85BCA186FBBC87C928BCAEFB2BBCBC0235BCE132223BBC4C5ABD2A62F2BCA1A8963BD0F7F0BC6595D4BB75622B3BF20EBE3C0C9CBABAF99FC83C9F62773CC349F43B2AEC58BCEF58683D21B143BCB7529A3CE8FE15BC0A0299BC7DEEA2BB92DF41BC4062FE3D3D54FFBC4D93053ABCBFA3BB56A250BCD587BFBC95EFB6BCB0F305BCB42E533C80C2D33C0CB5BFBA96FBF3BD0C4F0A3ADD767F3BB2F4653C8C781B3C06CCB1BC3F1A7BBCB76D98
3C8D67A5BC46DD083CB72C9C3CD52D833C2BA387BD187C513B2C47F93CE9500BBC9E792CBC41857F3C2AB8873CCEA761BBAAC69E3C56BCDABACE48D03CB2C17DBB4B4CDD3D2CFAD3393965B2BBA9C2F3BC4DB4A83D1B6091BCD4B0363AF905B9BB27B055BC0C146BBC035064BC400713BC8C64383D823AF9BCD25424BD408BF4BDB2B4E13CD290EB3C2876E73D7E32743C5A8706BCA454E53D8091483D6DCCD73CECE4E4BBFDF977BCB0BFF1BC20B6C1BD04ECFC3CF69C7F3D333C6DBC1AE0353BE78F873BE5E4323C83EFA1BCBCE2023CA0CB453A749E86BB57DEA8BC28487E3A5102623CBD6FD33C1E5F0CBD3B2B4D3DD480283B9B561E3E0756E3BC881C08BB9A2738BCC41AD6BDC6D491BB6C76523BD7987A3C2AC9EE3C4EC1EA39FA22953C8E89C7BB5A21FBBA8042C93D14775EBC7140213D5A9A93BD543F8B3B85736FBC98EE313DC5D572BDB923133D760B1B38FE54C23CC047783D7BE5683C802FC2BE1404873B8F2A28BBE77AB13DECF3893B4AB9BCBE16D5273DB548BBBDDCD03FBADB7DA7BD4BD98038B8ED9CBA1FF1833B2670F33DC6B280BBBDAE713AAC0EB13B14D81FBD960447BC36432F3CBB5FA73C9D83E03DC2287FBC9230B63CA05A7F3D30AFF33C80FCB53C592F963C3AD35DBC8EA14B3938E600BB91301CBCFA91B03A29756D3C2C1D65BBC662F63CDA81F4BE3F7738BD17A6B13D81529EBC98D0AABCB960CFBC45D425399CE9E23B4CE0353CE28A873C3337353D0B1642BCEE620B3C9DA9203CB0773FBCCAD51DBCE6B1DBBD071E16BC4BD23FBD116E56BC02983DBC2C96723DF067CC3DBF218F3C98E52D3D929391BB775B843C2A5E0FBC5F511DBCD515FA3CE15B8ABD070D44BE76C6753C7712D7BD85233A3D1F0ED63D6CBFF43C82016F3DC15DFFBDE21390BD9B4CE439B86FE3BD492CC53D621ABA3B8B5DA33BFAA29BBD6D75893CC75507BC17C20B3D811B623C2E53AEBC3BC2E33C75A8EDBCECF6A7BD356C553C82312ABC628D9ABBCD48743D3C924D3BE7434CBB88DC8ABD22C5F0BAA2BEEC3C272C9A3CB28DDF3C349660BD51821FBC89A9BB3BDCCA88
BCB76081BBF693F83CAE449BBB9165B5BD285B6E3C7007EDBCDA29273C6587863BC83A863D8B55493C2281E03D3EC3F53CADD7813D969CC1BA05CE7AB99F6A4D3A871A233BDF5B8EBD4D580EBD8EB053BCBA3425BB63C8B2BDDFD319BB0CB5123D15669B3C36CB92BD0C825D3D0341E6BA4071633D95F13B3D05012EBDC70028BB5025A63CD983A5BC37C1E63CAE28553C9630293C6322673D13287E3D94CCE83CB2FED13D690B693D77B37D3D1DF80D3D87886B3C7815713CAC2EAD3C9437E33D13AAD03D6B2A2F3C554C223DA9F2D53CF4F287BC440A1A3C9E9E87BD0C07CC3CE1BFCCBD25BFE53D5AE80C3D9762463CBBAC8A3CA3AEC1BD4CF4703CD8CD1C3C247FF4BC3EDB303D3C82213B2A08583CD95FFC3CF14F153D3EA668BCCE6D54BD089A3B3DD9B265BC715C123C9A30CE3B9FFC403C9623C5BCD8721BBBCA24B1BA714E603C96DB783D49FEC3BD0228C13D0BD10DBD1114E8BD8781693C5B6A813CE8F92D3D3CEC363CEF020B3C542ED93B1DB00CBE74FB5F3CA678593D9E3F84BBAEAB793B7E45523B83E1913A8C92EDBC6411CB3B3562233A0BEDCF3BE080F03C8D35633D1B280B3C57A308B97456C73C370CDA3CD756FABD91B98B3B8449463D4A3561BD3EAA5F3BF3DA343BECE9BA3B0A4FD03C774FBB3CE012943C2E6DA8BAE3A85B3BF34F49BD5FA0023C57CE0D3D146610BAF7FD6E3DB59EB53D8CE5E0BCFEB8BF3C57AE7CBCB792A63CC171953DD4E0A13C3B8EE13A8C19373C2F11213B652CA8BBF7B6A9BBDA78C7BCBDEDF6BD03D25B3D0F6A88BBFF26BA3C26E9F93CBAC824BBE081EA3D972CE13D14B65B3D3441A63C02FBC53D143D46BA90EA373C852AAC3C205EA93CE52AA13BF48E053B75B4CDBC9301023CFB59A53D78C12D3C63DFED3BA8C4413D515C95BDDCB90B3AB9C14A3C8071AE3D87CA5CBA0AF68B3CA638DD3C84C1763CEC4920BB8B54623C3D11BD3C0CBA40BCCE5615BD8455E9BC2D0A33BB8BCFEA3CC9F0E73897E8B93BB875C03C670B03BD06AEBE3CCE2800BCE27D583C8AC4F3BC73A12D3D01DB553DD97D2F3D9EFFEE3A7571A23D08EA17
