3D1AD2323D0DC058BD2E9F8E3D2929A83D6A420ABC6764C03D129C223D536B2CBD633F0EBB09C060BD713A70BD34C8AEBA827940BC4798483BB426E0BCBFA8DCBCCF21883D7FB79A3C05D618BD11CFCEBD56186E3CD930FCBC5F09783B0BC300BD2D98A6BC89C074BCFBD14C3D3BF8103D6175AABD1F1784BD10AD2E3A9FFD80BC8AB7A0BD0D4F96BC397668BD6AEBCA3D413A8C3D5F20A63B5C12A03D2A9CA83D3E7BFCBB9AC4603D7CA8783D1FF1AABCCC1BB43CBC8F60BD522D9EBD437760BD1494C4BC4CFA10BC052E403CBECB90BCC5316C3B803B203D604CCE3CADC1FCBC67FA18BD415090BD1C60723D1F527C3C7EEE60BC849834BD6875B23D094452BC7CB7D0BD4A64E43C88FA50BCBEC87C3CE6C9643D1F315ABD29362CBD4F35D4BD7A65383B776F403D17FB463B226B203D14390A3D67270C3D4E31F63D2B3FECBD5F9D243D5492EA3D10751ABD15D82CBD32371ABCFA1450BD74C514BC7FA270BCDF52F43CAF92C83C7CFFF0BD041EF23D5A55BC3D12CE663D3495B43CE025D43D46003ABCF61BF4BD432BA63D10599C39E21900BD3359F4BD4103283D4395A8BD05443A3C8BDAA4BC5B51603CB105F03C6C73C83CDB4E983D5DC97E3D31B190BD5618BA3CB815CCBD724C503D57AD463C088AA0BCE2992C3D0F11083D1186B2BD491F1ABCB313E03C96F4C43CD3B808BD4B3E02BD7174EC3D3D1B24BD1D26E0BD12B678BCB76010BCBFD1A83C6D85283CB4FC483D1586C83CA7B1D0BD17D12ABD2BE0F03D6821943D6CBDB03D7129B8BCD5A27C3D3480BA3D1C78BE3C9C9408BBA157A0BD7A99AC3CC6E594BD15E27EBC26CEC83D770F3C3B3AC2403D3C09AE3CD404D4BD1A9E02BD56C8EE3C3CB6403C710758BD7E68BE3C49E6283B86AF903CD84B28BD55FEEE3C3475F8BCD5BCA83D479A943CE4323CBD40F3C23D42F3EABD1FCD2C3CA5A3A03C8973503C80E6A4BD6A6CF2BB8C9380BD234E8ABCEF48D43C6F64E03D18BA70BBCE5B303D46046C3D3559123C95BB743D366ABE3D531C84BBD1F1503CA14D703C8AAEB43B851740BD1016DC3C61A218BC617A483B1F50203D7958B4BD725BACBD1537543D03607C3D1B040A3D720C143D1B2B00BC943004BAC2EE403D63D6FE3CF13F683D01225A3D2C8B58BD424B74BD46382A3D031E32BCD04604BC1E73E03CF4769CBD2EA2F03D314D5EBD7E21643D4C995239AC6A003CB4B884BC24FCD83CE22C883CF0537C3D4BE462BD61EE963C95296CBBB706C0BD6C03543CAB6BBCBD3419E8BD04BFB23D4BFBB83D5E6B8ABD5BE36E3CBB680C3D09D0B83BD42B90BC89BDA0BD0B642E3CDA41003C64B690BC5D57383CE670C83AD3D500BD789DD83CA345C0BD5E959CBD7356FA3C8CE754BCC1F0303CF201A03CF35720BC9F01BC3D0FD52CBC556678BD64A6C6BC523C88BCD12A803D3434B0BCCD133C3D3B56A63D5AD6863D2BD566BCAC88743D635E923D2922A6BD2EBE8E3CBE05D8BBB46A80BCC0CF08BD0179D03B92FD003D16F3FA3D46F6463D151F0C3D39B9ACBD75FD3E3CF27E543C4E5DC83C8840DCBC5171003CC6D754BD215D5C3CC9F398BCB3630C3D1E37FA3CF6E00CBBA8F010BCEA7AECBC05DB20BD7ECC62BCFC821CBD1F091C3D3A0D6EBCE1E20CBCE7DD28BBE81B803D7706EABD23ED463D7FA5AE3D7D640C3B5E02E0BCBD593C3D69A15E3D554542BCDB67443D2CA0703BA667A0BD47C7ACBD780980BD5132823C3810803D24BFF8BD7905563C42C8883B35A5403D6787743D728D80BC71ECA83D60DBF2BD1F09703D4599BCBD57A4EC3CE058C4BD322758BD7DBDC23D7DC69CBCD73A80BC63DD983C34A580BC8E14143D0AFBF63D635DBC3D52B0F43D70D564BC127CD0BD49052CBCB95848BD65BC2EBCAF31A0BC832D043BF577A03D5938F43CA374F0BC25FD48BC84672CBCD475ECBCEA8884BC0E0EA0BD58A01C3D15BC8ABCE77994BD4324903BCD53C03C002BA83CE8159C3C8002003CC85B04BCFBCBBC3D351C123C89EC0C3D09BED4BD208500BD7F30B63A30B980BD6AD03ABCF81D6C3D63CD903CBE1E00BCCB7040BD4CFE70BD31A6903D25A73ABB926AB03D0E7190BD420A8E3D4DA862BD3FA6F2BC493AD8BD71AFE63D56FABA3ACBC4403D3739EEBC5E0D003C9018143CFCBCC8BCE34DF0BD65462A3C6D08B83D267A52BD665CEA3D1D407EBD2F8ECEBC779300BCE8B1303AA03AC0BD5D89EEBCBD1CB8BD1E0F803CB78D94BCE747C8BD001602BC9AB9ACBC9B3AA0BD33EAB4BCD072B03D68A5B83D1685E4BC09A1A8BD7FFF62BD64563EBD0863863D77E2F43B2884003CEA41F0BC913D9CBCA23C4C3A9C5C40BC47E160BD4B7C8ABD5730DC3BAD4900BCDC234C395FC4003CC36A04BD3F88723D2A0924BCB174C0BC88B908BD0255343C9FC4D83D5EE36A3B0E1A40BD36A208BD1E5904BD022390BD71B3F83BDE0720BD7F29023D0F33703CAB930CBC804A08BD1A9BBA3D2AF676BB1157E03D18ABB2BCFE23B8BD2C9998BD7D72283D3CF6D83D7435883A4EB6803D1E8F76BD3B9D84BCF636843D00AD883CB0A60CBD3163E6BCE7D5B03D795758BB8C64103BB264B03D21110EBAE701C03C1E7C60BCF43ED4BD4DEABCBD0D52323CE03514BD750BD8BD7220063CA815443CFDACD8BD4C5AA2BD578A5E3C834E34BD0176123D1F05DCBC9615043D2BC84E3C31C1E83D298772BD4CAACA3D373C4A3D2987E0BD56EEACBC02E5C03D65FAA83CEAF51CBD2799F23CE3C460BCF92634BD2513E83C5ADC203CCF2BD43D1D10F63CFC420CBCBE2A8C3C0AA0303D2BA02A3D4CAFECBC50D930BC38B2C03D65554A3CAE702CBCF53334BD2CF84C3D2E8856BD79F460BC8ABF1CBBDBFB10BD6660EA3D31E6263D34312CBCC67538
3CE842003D453AD0BB9AF1C0BCAD3BDC3C3A93603CF8EB143C8B3C483D761D64BD23EE04BD32292ABC9C01843CE78588BD5B61E23C6AA1E83BF64C40BCED08BC3CB64B34BD5826143D1EBA763CFB01C4BC3CBCB8BBCB08E03C1B2320BD07B1443D1B16883C97B954BCBDC5E8BC8AF39CBD7EE9523BFB21E0BD5250DE3C1BE0A8BD52B3F2BD7835083D19A2403C2F01A03D14F5503C9C2EF83BAA67E03C8F169CBD24ACF63D7AEA2E3CC29F44BD5A1C6E3D1B65C0BCA47FCCBB305D203D1BEA1C3B48AE603D3E83E43CD4AB3CBB9872403C11ADE839235A003BD78E20BB3931003D527F50BD627C34BB9620803D2F72DEBC00BD78BD1F4820BD7F99A0BD74FA30BD7721BEBD3465523C4E15583D010118BD6F04503CDADCC03D4C69EC3D4AA7F23C68A0F03CFC4914BC3EF658BA4E9E80BD6686EC3A3FFB80BD55B35EBD07505A3C1DDDA03C97DDEC3B7621E03C298710BD0A2AFA3D514C48BC900498BC5C6F403D3E38C63D1342F23D3226AE3C2565603CCAFCA03D7EAE2CBD001C60BD55F3C0BD6B3012BC448A083CD50BD83CB1940C3D1F3C183D1BBA843D33425CBCA4DAA43D0F9A66BD56AD98BC24AD00BB919920BD7EAE92BD6E15A8BCB116D4BD55C8D43C474020BC2CC5C03D72469A3CFB2024BD42DF9A3D4D33583C9AEB9C3C9B2CA4BD61CB163C3DBB603B93CD50BCCDF118BD6C734EBD293D82BCE62364BD4ACAA43D6FF06ABD43140E3C80199CBCFC5E04BD1F8DA03CE38A0CBC37F3903D6E20EEBD0BCCE43D772A103BB84AA0BC14DF303C6FD4403D688CFC3D5770E43C97EA443D59A210BBCAC040BD7D557EBC213308BD1BA5B8BD1C5DEEBC1C38F83D7EAD26BCFCF25C3CFBA66C3D3D30FCBD1E39B6BA73E180BC759AF83CEA3650B9BD6E003C0AAA483D15C2C0BD42F28ABD4A99163D2951063CBD3C3C3D09A9623D2CD91CBBD224B03BE0D420BBB3A0503D43FDD43D148382BC8E61E8BD2E7528BC9720B03D6DE5603BE8B0D0BCD1A4C4BAACC1803C511C60BD7199BCBD30F15A3C96C454392D0C00BD0603103C093210BA3A8A803D05AF06BD3196603CCEFBE43D10572A3C43F8283D3855463D763DE2BBD6F4203CA0BA5C3D7218AABC8426D83CA08A443D04B1F2B870B0003D2367443C89E3C8BB7CE600BD3E0E00BD2E87103CC771B43D3099A2BCDDF5683D097A60BD05C1F2BCDC1C1CBD2B25D2BD25296A3D623D6E3B84AB103D3A55C6BD238EE43C3E84E0BC786E583B95F3D03C93BE0CBD358AF4BD1752683D776DE2BD7C76E23D2153D8BB95B6D0BD746726BD58215A3BF54E003D1C4F16BD159FCCBD67BE883D3FDC383D703ACA3D495070BD3E2EEC3B172C80BC78F480BD7257D23C16A0903D1561023D057DDABCE295183D0E1B503CBC7108BD19A45EBC969584BCB4137CBC2F49A83CF0428CBD682EC0BCAFE7503D024DFA3C0FAD00BD1BE7FE3D49716CBA57F3003D5B1DC03CF6914CBD473A2EBD669DE0BB4424203D1CA1CABD0049283C5AF2603D635C423D7A6F203D570000BD5711DABD1F901A3C9639703C0A6F503D12F7923D1A5E9E3BD650C0BCCF68C83A410D003D583F8CBD37109A3CD494A0BB7EFD803C959A54BC8FE1F0BCACF7E03D161926BD232B50BCCE08043D07B83C3D195EF83D7C2CBEBD4FBB383D7FE4FE3BFCF0B03CA98240BCF7EC38BC18E730BC8E19C0BCFE93A4BD0B67163D5264D03C12F008BBD6F8803D1EC78C3CB9B0C83D4E9DB2BC75F828BBDC0400BD2C727ABD1D2C463BDA56203D57AD6CBD1C08F03C85C6CC3CC6527CBD6432A83D3FA472BCF3227CBC8564183D12DA323D4683D2BD0FBB5C3CB6E26C3D3BB5E63BA1C2D03C7B58D03C1DA0C83CC8E628BD65963ABD1C2BA6BB8995A0BD4EB152BD25BFBCBC877E8CBC84F4D03B0C75A0BD1DF96CBD57EE9CBC05AFD838AD70003D752CDE38F12800BD74B602BCEE3A343D70B2483B6D3B40BD6C19BABD45C07EBCB88D803CD98CD03D495202BC7A9C203C8182D8BCCE000CBD0FAA6CBC7497903C9D60A0BCC0106CBD10EA1C3CBDF07C3D6DBF62BD6B99883C0720C83D21CAD23CDB0B18BC837F5C3CA7D18C3CB6E7B83CA8A380BC9226643CC885ACBC5187483C79A248BD6539E2BD06BF2CBC232EA0BD6DB19EBD339C84BCFF2420BD25E1DEBC892C38BC3040483D6DA67C3D581E9E3D6E1180BCB04D983D3A43AC3BFD20F0BD6A3436BD381806BD1435663D4A69BCBD7CCB48BCD3796CBD46F9A23C41A2983D04E28A3C8B26F4BCB9E0D03D6FD914BCEFBFE43D43F0C2BD7E8BF0BD269FA2BA4FED80BC059D68BBBCB7A03D7099B23D128D883D12B8D03D1FD3723D3B66ECBD2DC4DA3D3E95AEBD0ABD523D5285323CE55CD0BD04AEFE3D4EC6E6BB9A3F703CE14C883B4DF4003C92F2243CB38AECBCB9CC5CBD64D370BD2F4AC03BF0C6D0BA82ABC03D0C81FABCECD5A8BC06B268BD5A0E12BCDEA4A8BCB041BC3CB03F343D10DAA43B85BE703D005CC43D72523E3CF93E443CC63F283CC49028BD4A82363D14D496BC9623D4BCB1AE3C3C541FC0BD30253E3B37F5003C3A44103D00182C3C572248BCA0301C3AEF80C0BD3688FEBC7E92A03CD4FAE8BD2F811C3D0ED3E2BD3B17D83D60EEC4BD33A49EBC4DAC18BC909F80BD10473A3D4AFF02BA4884803D66A05A3D0E4AF43D76A6983D4ABEF8BD7A20BABCA65BD4BBA9E5C03D5710E2BBFC3290BCD07448BC757D28BD289AF63C761C40BD60D2CA3D1F0734BD5C9FD6BB8E3CE03C64D648BD63FB763D2433923C8B54B43C9C1F8C3D7692623CB63D44BBCCDF703CA7CC903D6DABEE3D304066BCABCB18BD204A54BD4F7756BD1611C0BCC8A3DCBB13AD40BB35D120BD2F2F8CBB86CE903BD995D0BC8BB96CBC8799BC3B273900BC18B4F0
3CBA687C3ABC3C00394AD0003C3BDED0BCB0E6883B2D02403CFA4EA8BBED7AD0BD1135263B6E73003CF128B03D66ED4E3C9358A0BD2C3EC6BC1437503D6691C8BD0666BCBD29E0FABD3F0C24BD24F3203BC5E760BD551094BD6518F03D0135043D68E79ABCE43A10BD3BFB06BD5BADD2BCAFC538BCE2B6A4BD7652AA3D2A6B043C950744BD126C623CD15A24BCC411C83D7E3F0AB98220003C5120E8BB79CD80BCE40138BBCE24603D603966BCF8B25CBC9BFDA43CC587B8BC965858BD44CF963D4AED043D11C0B43D135F263D638D3ABCC127B83AF5C8C0BCD1F58CBC7F56283D45397CBD1BAD8E3D031252BCBB0938BB9CF460BD71201CBCAD6FB03C1295D83C8D42503D1CA01E3C6637F03D325BEABCD6F9ACBC9E3F743CBB48B4BD55F8303B132400BC54ABD0BC3FECC83D1BCB723CBD8FD83D51E1F8BC7E9248BC069BF03C3C3930BC5B7280BD28C2C8BD170EB63C578010BD5E80943D752170BD31BAB4BCB1B470BCD017B0BC8F469CBD70C2B43CD9D5C0BCD762C4BD010DDEBD0AE796BCF0050C3D46CB04BB7BDD203CB1D4FCBD5155443CEBDA10BD4AE3B6BB673940BD3680283D15FF2C3C49FCC83D459C443C6FB0003D26A52ABD2320803D72910CBB91DA803D11791C3CB554E0BD2B9EC03C0BD7783C439958BB947440BCF7A25C3D1E4E46BD52C30CBCD3559C3D158B3C3C8181BCBD1093123BA9D0303CE038883CA0A538BB9023C03CC17024BD2047523B6ECDA03C8AC654BD7DCA92BC088588BBE0BAA0BD2DAC3ABCEEBD343D3D0AB23D25297EBCDBA65CBC131678BB12AEC0BB59E040BD7625423D1E894E3D2C6286BD74F7543C3BEF48BC80A17CBCD5D07C3D2A7AF83D366A16BC157090BD7D54303D1CEAFC3CB6778C3CDA9DF03D4028F63D7686563D72F8903D5F23483B1CF3E03C5CE4283B3E5020BCA29CE8BD4B201C3D085054BCA62064BCEC634C3CDD40103C35B198BD4C56DEBD05BB343D3A5C4C3D3241A8BBF51380BD140208BC3C7AC8BD55174E3BFDF6E03D5153EE3C295E88BCAE12ECBD03981C3C792B583CB7CEA83CF84730BD4EC9FEBC5704F8BC7E1A48BC4992E8BC7A72403D569C563AEDCF80BD033250BD44E18E3D0587123D272EB83D112926BD6DA52C3CD109003CB10C9CBD0400E4BC5C4AD83D20F874BC93FF04BD0C2F64BC73B1A0BC99D9E4BD1F2DDE3D6031E83CFE34D03CD5AF88BD52AC083D103DF63D7466E4BD45A4203CA7D258BCA3E650BB480D00BD13E202BCB6EA403CF5C2483C6B95083D216302BC5EE4003D2FCDCABD303E003CF56110BCE668303D3DC9963C520E18BB9C77703A280500BD02F7003D755960BD78F25EBD38132CBCB25CD8BC938FE4BD1D3A10BD13D5783BEA82C0BD6D197CBD7FE408BD132C0E3D38FB3CBC9EF0C0BD75DF2A3D37398C3D403FDEBCAEAE88BC565EA0BAF01A80BD688E983BD12F00BC587B983CA36348BC60A190BC06B9003D12707CBD244AD23D1C122E3BCE9AC03C330C483D1A79803B455AA0BD3C26063C3F80B03CBE2690BD0F12423D135CF83D40D71C3D6FCF703D34888C3D6CEAC4BC8961303D23E544BD5F4A0CBD7922F03D2EF3BE3D3B81503D523FCABD09A5863CBAB028BD1799A63D15BD143D4611EABC5557E03D5161343CF0BB083CFE2A0CBCAB1EE8BCE6C754BD45880CBD4C9B06BD0AEA58BD1F69ACBD4F8A3ABD37E928BB8FA370BBF499E03CA766A8BC254D783C6D4928BD7D8CFEBC396328BC8120B0BD7830C23D3DA7723D6873863D407BE43A10F080BD387B743D1F91B4BD565600BCD48D38BCCB8DD8BD08794ABD5733CCBD02C2F03D049A80BC957494BD260C4CBCC1FA1C3D1E702ABD2FC382BCE2BE20BCDEA11CBD11A0EEBCE77874BCB5A818BB0543C0BC90483C3D45CC203CF23D683D0D9E2ABBC85C503AB16140BD7929C03CA92190BB1DAAC0BC87A874BBF33A30BD2BB63ABD794D18BD1287043C8EAD103D68EDE8BC1BDD183D5DFA8C3D50E69C3D4A2E68BD10E4E4BCE87D803C72F2703CA14950BD5BE6B8BCC234383D5578D0BD7876A03AEDDA00BD41D916BBB7D100BC7DAE08BD7A3008B9D76600BCE53544BBA3E8D03C5B19983AA35C403D6DD49EBCC444A4BD0F6666BC0A78883C6288E83CA135983C301AA03CA902C4BD1C31583CA4C0143D3582F63B5F20E0BD601D08BCDF325CBD67C33C3D2867C63C26F580BB9BA600BC72ED58BD623B20BD2E49FC3D0B0CB03D12B02EBD128474BCC50C143D2FBE68BC2A04683C5F97F0BD12481ABAE95080BC910AB03CC814ACBD7610B63CD2F3E0BB800F80BA0D2A00BCB8B96C3C28B2A0BC8808183D12FA283D5C9802BBF86630BC351DD0BCCF3EA03C813E303C42EDC0BCD6DAD0BCFE7840BD0742F8BD23D1A6BC0534A03CB71290BB873DB03D12C924BCB666AC3D5644523CA420B03D07EDB2BD13C698BD0C7E34BC67A488BB062280BC9485683D0ACB6A3D17384E3D176CA8BD002BE63C7A9C803D119D183CDF4E743D63C056BBCCE2B03D4C9BBABBAEAB403D0DDAA83D21DB963C8ADC74BD3D8F7ABD0706E2BC4960903D3847303D28D030BCF40438BCE477DCBCC9DFCCBC0A1E60BBDDFF90BD22CE623B214040BD5D6FC0BC3E0050BC5291B8BD7220CE3D610D22BD78079EBB5D14803C5A38A0BBF6F8103D6F3676BC8C69C83D096262BD61DA4ABD750958BC54E8B0BD5559CE3D4B7F08BCE7D4FC39BB4E00BD1BEEC63CC3A57C3C869558BC02B8083C807E68BD2187FA3D72A1FABD38C8E2BC212ED03BCA2AC03BAC81303C11BDA03D2041F6BD3C560E3D2651063D216D2ABD375CA4BC6E26F8B919B2003C3D0A503D41E1EEBD1056E8BD1BF4CABD3B3A30BD6FBD223D74FA7C38D07C00BBBB2440BD3D90303C416DA8BD08E4FA
3C2CCEE0BD01C00C3D0F0D403AF38580BB46FF00BC412FE0BBA045603B7790803D412034BCAC9CF43CE76A34BD30995CBC4820203D0614F8BCEBDE3C3D425A663CC3B8D0BCA3A40CBD090FCA3BA97D80BD7F32BABC85AD6C3D44B5683CF22DD4BD0E91443D5FB2E03D322EF63D02C96A3D5A7F86BCF31A883D09B2EE3D2ADE3C3D387A5C3D04E6D4BCD972E83B8EAD00BB408560BBB6BB703D45D0603CFF20D43B9973D0BD0FD1923D3E94C43D2FEA4A3CB9E01C3D293498BC9946C03D1454D8BCFFF530BC0EEE28BD69AA34BA0099003D1C177ABCA657B83CDA06243BAD50E03C4E4E58BBFCAF503D34BDD6BD7D51EA3D61C4303C0A69903D6E09AC3C813B383BF07E20BCE050243BE411A03C4FF350BD6C73323D368B02BD6DB9B83C4ACDF0BD05A44ABD45D8903D268C60BBCCD8B0BD6604DA3D048D50BD10A37ABC833AD4BCCF1C003D03B64CBD18A13C3D191EF83B14AF60BD02ED08BD2BBAC6B86B10003D6A98D03D4C52CEBD243576BCD53490BD53DAB2BB7A7B40BC89B650BD537264BABACD403D5F56C6BD7450523D7A5572BD3EA6A6BD49ED163D6B6CD23D09B6AE3D2A43AC3BD8E0D03D49944A3D34365A3C80EF24BCB52D44BD257A70BC594DF83D47B6843CC147B43BC2D8703C3BFF88BC60FF80BCB62AB8BD4FD9443D282434BCBB0928BC6EA6403CE59EB8BD288B883D612D8E3B553540BD1D27BABBCB81503C426068BC5F4788BC855BF83D0B66FABD42AC04BC99F7883C3ADFD83C4CDFE83BA076803D442DF8BD39A9403CADD9DC3CBF78BCBBAEBBD03AC1B0403CF97F943D3D77363CB0E514BD0EF61EBD455AB6BC43A0A83D12B9063CF8E9E83D7A14683D7AD0E63D37869E3D1F480EBD5234ECBD066DBA3D428EC63D21269CBD663EB43D3D55663D0C9C10BCB05CE43B7C9620BCBB11F8BCFE243CBB073980BD357358BD6BF4FEBD2947ACBD0657343D6D34FA3D6D7BF43D393C76BD2F4F20BD65FBD43D012CC23D2EFC743D112EE83C57A528BC064E08BC5B90303D7C178A3CFD5A80B9C21100BC7ECDA0BC8E0F58BC210768BCC4A7183CB6E8783D0AD042BD785288BC8BA7843C6663A03CB5CAA8BC2B38C8BD440CE03AA3DC003D443C1CBD7B7FCE3A5B1680BCA56084BC067C28BD0EE6EEBCB501C43D231BCEBC752E483CBED4183D78C5C23C50C3A03CCC12F03CAC6668BD12DA023B0D49E03D6E10103C11DBA03CC7DD34BD7D1874BD59AC883D75EB283D1A3B52BD2452D4BC860FD4BCD7F998BCF900FC3C029920BCA52D243C8528B8BD72CC3A3CAF3BDC3D4F2988BC7038603D454F28BC2C2740BC93EB6C3CC021A8BD663E023CCA0F3C3D6CB6C4BCCF3E80BCCC8930BC3C3D203D6D6C78BD0883B63D683EAABD02610ABA029380BC8816E83D1646743D0E3C1E3C68E520BCF9597CBC5DB8A83CB3AA8CBBAF10F0BD018E6EBD0E093E3C6012A0BD51ED38BD524512BD3E4DFA3AB33440BC27A2283CEC86943CF1843CBCD97234BD1DE8AA3D4569E8BCBD7504BC4FABE03B9954F03C75DF78BD33FC26BD0E09E03CA46114BD0C31123C71EAA83D3890483D6FF9D2B87758003CF02CECBC4E23E8BD2C5BC0BD3608C43D14FC6E3D10B70C3CBAD038BD552AD63D59AA8EBC794C903D4CA69C3D29C1FCBCF12A50BCA1BFD4BC989E783C23BAC0BD25E198BD52FBACBD2BBE743D03C8B2BD3194843CC9ED4CBD182FF0BD6B66723CD1F4A03D1452D03D625CCEBD176434BCF20024BD04D58A3B929B20BCDA6D983CD835C4BC06B368BCE7B8D0BD7CB7B2BC6F6B00BCAA1978BD6CF4FA3910C4003BA18B80BD46F8FC3BD11C903D30CBC23AB426C03CCBF1943CA48044BCD9B584BD7C9448BD2B697CBD347606BD60F05EBC9957BC3D7CCC02BC9D0CC43D64311C3CF565D8BC75D5183D7F13E8BC511F703D1C0DCA3D661042BC596068BB8A1F103C7E9C48BD1655083CC5BB1CBC50F050BCAEEDB03D28E6DCBC8B2CE8BD07F15A3B9E73E03D453ABABD64ED32BD27826E3C360C383B840EC03D374FDC3BC110E0BD634F30BD61A3F2BD66E5723CA20DB4BD377DAEBC1EF6903D61CFE2BC6A35083D1A7140BB50FE60BD10BB5E3D442F403CF15030BD742B943D3598D2BD5CFF223D2C3D323C05D0A03D5C8F423D5C1F9C3D1AF2E63D1B85063D0312143D7AF16ABCC3F4603D191E0EBD03FB1CBD08DB983CDD82B43D182B68BCB06C6C3CA110883B2247403D112ABA3CE4BA783D3BF88C3B91F820BC994D1CBD3EB702BD751000BC3D07003D01943CBD6F24783C0484283D43F0CCBCECBF6C3D6269523CEA5AF4BD621F583CA63730BD189C2A3CFD9160BD394372BB951CF03B9A98F0BC5775B03BBAAD503C59E288BBDCB2303D4DFBA83BC0ADD03B5D0D403D0A68ACBBB534B0BC17C748BD3EFD423CA476A83CA6FB103D38678A3D6AA6063D2319CC3CA2CD743CFD433CBD2D8E943D206F6C3D46CDB43D5EDEBABD3BDA203D328D6A3D20296A3D72755A3D457F10BD0C475C3BB7FF10BD2CE120BD6F3A963CAD071C3C8E04B03B8A2A70BD7F77463C8464683D7A49AA3C1812D83C4130603D5306DEBD45F52ABD10A62EBC77B0B8BCE19A183D6E8B3C3D6D34C2BC740858BD6E28383D1F69103D076DA8BD7893C03D4326B83D397DD2BD62F496BA63E400BC9A1CB8B8E7D0003CB03F943BA292203D5246E83CD717543C526AE8BB79BBA0BD7B4CA83C1A9C80BD4984B63D08E2DEBD46878E3C32D780BD1027543BC0A1903CAB47143C16F1383D235DD8BC565438BD49B924BB16FAC0BB8536E03D1A814A3CD9E4783CDA77C03C8965D4BD250826BCD519A43CFDCB003CA2FA48BCDFE2483D5D24663CE8A6BC3C70DC20BC86BF583C8B753CBD33B412BCC7EA84BCA67DB8BCA5B024BCB12A04
3D2F83483D1C714CBD17F9CEBC8BB65C3C812374BC95AF5CBB0F74A0BD6345DCBA6F3D803CD810C43C1ECC28BD4CFADEBCC86DA8BCA558B43C827154BC8F078CBD560690BD384F28BC863F083C71D498BD60C1A83C4326C03D02C7DA3C958EDC3D228A563D69E914BC935F00BB9CBA20BD27B3823C8553083C3FF9303D7C470EBCEDF6C4BD723AFC3D41F4903D45FFF63D6F5C3ABBFF0C30BD0D4FEA3D6591863CD777003B9216303CDF12583D3973D63D6D48583D2C84A43C42A8183CD01B84BD613E603C169DC0BBED3180BD6FA670BD6232B03C9F2540BD352CBC3D0370F4BC8E1CC4BBABBDA03D07F02C3CBEDF1C3CB24F043D42A7DABD2410C2BD03487E3D6061EEBD740F24BCA80418BD238176BD04F04E3D454B5C3D0BE9983D49FD04BD1868E4BC9DA0343CE634203B3FD100BD39E7763D6651843CEBD680BCF808C83CC27F003B9063A03D7B6328BC44C2C03C510E803C9C8FACBCE761F43D0E03263D4C866ABCD78838BD03A6EE3B9A6A20BD30D1E8BBBD1A30BD7D88FEBCEFC8C43D7AE4A03CC0E2EC3D07BC203BB5E7603CB462243CAE01BCBD0133DABD20F2083C6FFBD0BD2210C23BAD2D00B96D2400BC89C8443D5C4EF4BD627CC8BD5BDDFABD6F14803CEEE2E0BD62F4403D339FC4BD584734BD4CA84CBC499FB83CB7CEAC3BC10890BCF34C283D6301F03D05E33A3BE36910BB8713F0BD7607683D1CEAA4BD0A602ABB2360A0BC819218BBB42FF0BD0481BABD3FB2523D28BBC23AB37D803D69C0BE3D39F552BD2A1FF8BD0F163ABB9C9B403C6AC4B83D5389DE3D677CE23D11414E3C872508BD3CB78CBD3B34DE3C8856A439F50E003C5F48283D5F94C2BD16FC84BD65360EBD0A1FB4BC561C403D7945143CFA19143C84F8F43D02AB4C3C51F7103C6944283BA31F90BD49CB443D357F3CBBEDA0D0BCBDA0C83D538ABE3C8FBFB0BD7729843D4802C23C8B4D1CBD4895A6BD0865603D3BEBC6BD06EB2EBD304876BD0B3136BC8828FCBD716B883D2F0DBE3D5276083D798E843CD57E2C3D248A203C071F60BBE9D9503D29E14ABA9FE180BD41C4443D6A28723D4CFDEABCE3E894BBD36DF03D2DF9C43C1AB1583D6BD0443A79AD80BD4991F4BD580E1ABD522E38BCF05AD4BA9875C03B8223E03CEB2F783C8D9F443D3F4A00BD39EC6C3CE3CB7C3C63AB383D4007B63D3402183CDF41783CC41C703D1815FEBD32C0DE3D1C0BBEBC2756783D64E2ECBC3FEC98BD499632BD25BE1C3D4642843B9577C03B2C5EE03D1427D23C3B1850BC7D84403C5281D83CF56EF8BCC5F2603C3660B83D379A08BD5ABF90BD4FD6ECBD4409AC3D7A39043D3D28F0BC933E843BC8C720BD7FDDB2BCF5D3383B608CC0BD433A40BC942B4C3CADD674BD76B4543CE9E274BD04620C3D2F1DF8BBA297603D3AA2023D63E768BD5B7CB2BCF2A9C43D47E3B4BD01DF6CBC62BF103D670DAE3C0E0028BD16D5CEBD2FAB84BD3EF7F0BD7C0896BD30A9703D725684BCE3ACD0BBDC4430BD529DFA3CEEBE44BD6DAD74BD2FF5B4BBEE1B00BCC4B3943CE71CD8BD1E3BBE3D328A2ABD52F3D83D25F1843D1810E6BD527AE03B2F40C0BD67E36ABD7CE7443BDF3750BD7AF874BD23EDBA3D0B6994BCEF8544BD2D2CC43BD6A3903D6CF860BC4632583D3542EEBB870710B99EC300BD0F449C3D5FFE1CBC4D8E38BD4AFFFE3BC27950BD4FBA5E3D171DB83C8BD984BD2EACFC3C08F7203D3609D63C9FAAF83C0D28F03CBB8F103C655818BD00C1F0BD780A103D0C7512BC9FC2B8BD2B04B83D74DC423C8E47D03C5A4D88BBDB9A503D6EC8A43CF0DFC8BD3E0990BD42F19EBCFD54CC3CD5AFF83D4CF580BCE0F7D03C32F4D8BCB7F228BCFF25CCBD0C89DEBD3ADD1A3D2F8502BD1345903D0E87CABCD01648BD45A6A43D62B920BD4A0A9CBCFAD0BCBCF9C4743CFC3C003CA6EAE03D622BDC3D730824BCC11E843CD579543D473DB23D3788B83CA0E570BCFB2B4C3D74BD30BD0AED6CBC8512E8BCCB2E68BCEEEEE03B5E3300BB7CE1603C735F983D4189163CFDD22C3D61E746BD6508143D3FD118BCD73BCCBD57B12A3D785F3E3D22CA48BD345E44BD76C30E3C1F62983C86572CBD6C1AB23CF796F4BD441B20BD075D983D2D8758BD56A2C6BBC709303BA155A0BCAA4DBCBBD007B0BD24D51E3CE35580BD53AC623CFF367C3C9C238C3C4B26883C8521DC3D5E03E4BCA542A03C544AB83C600CB83CE187DCBCBCAC643C50AFE03C993748BC021998BCDE7E88BD0F641EBD770E5A3CB80A6CBD77FCB23C8B74983CDF3548BD0C0DD4B925C2003D6D529A3CB774A0BD37B3DCBCDE56703D1D0F7A3CD31544BC8655B8BC08CFF8BBFDDDA0BCCE6F503D7CE04EBB617E403D37F0D43D5CD6BA3D3CC9C23D78C4B0BD7786F23CD65E843D6DB1503D40249ABCC878243CFD7EA4BD64E0B0BD7D57843D330362BD4B36C03D07C036BD6D30643D719AA83C68F780BCBD8CC0BD5E37B6BBF17B50BCBFFCC4BD134422BD19DE423D164AE23D0DD7A8BCA8EF3C3D224292BD5CF9323D159CB83D601B92BCB3D6B8BD1532983CFD9874BD0DB114BD1FB87ABCA54B8C3D5F72BA3D55CA6C3D0CD304BD583E50BBEF35103CB45874BD483D06BCD87BF8BD74B0E0BB812CC03D4CEE9CBC9DA7943D6F55503CE423083CF0AE183D6ED088BD6BE234BD7FB02CBCF6976C3CB677AC3D1D1CCC3C9370E43D58DC9EBD5978CEBD55B8C4BD3E4D6CBD6DF8A23D5C84F83D7EF4AA3D2F8AEC3CB8BD203D316DF0BCF730A83D3185C0BD3A2366BCFC2A943B2F7BE0BC6328B8BCFAA8D03CB69728BD61FED63D74638EBD2474BE3D4A9C5EBD10D5483D361BF43D2EF5EA3D16FA8EBD59450ABC6E15403D26F7843D1213423D3B69803D5EF3C4B8F18000
3D5793BCBD4B58623D7C58E2BC81E8783D6033323C5867B0BCA485ECBC35D0A0BC0C8FD8BC75C3E83CC22B603CBD33343D5438AE3D768A6E3B8BC9403B835BC0BCB0FC5C3BE274903D607D783C70C340BC9B1FAC3AD06D80BD7A3CBC3D248F143CC275F8BD704E02BB0E7AC03AFA9780BADB75C03BD36C303B677220BD54EB283CAAB764BB6CEBC0BD702AD0BD44655CBBFD40F0BB6CF5E0BBEB7500BC11DE383D232E183D033F7A3C6CC718BD453720BCB741043CA91798BCE110A83BDECFD03D040D42BBC3B000BD04D9243CB4E9103CAA2D80BCA3CCA03B4E4B40BCB53D6C3CE9D1683D522F4EBB68B4C03D5B6C6A3A813140BBC060503D2BB3943D704B72BB1AD140BD4D84443D7D5048BCFB49B83D1157F83CE8BE30BD57FCE8BC663518BD18B4E83CB35CE83D0BE992BBE924803CCD60403D4EDAC83D1A4FB6BC33E7603D1AB7D6BD6334243CFDF68C3D0F50D8BD26908A3B9C6F403C5F2B283CF390B03C4F1B40BC33DB703C4F0C883C9FB448BD032C2ABBF0A870BD6E0E72BD4C30C8BCB1D480BD2FC70E3C23B9303D27A0343C0C65C0BD5F2E483D669464BC92FE24BC700290BD67F74C3C8D66B03D51082A3D5D825EBC1954E0BC6D1BD83D2FEED43D045E843C08B078BB80D020BC8E7EAC3C851FDC3D058A18BBC186503D757AE43C208BA0BD64A3903D3639DA3D04C94ABD1204683CF664A0BD66FBEAB8F7F400BC975E6CBD0786243D10B43C3CC42A343C877B803CE4A58CBD2E435C3D416E06BD001DB23D092CA2BBFB73B0BBE1B1F0BB527FC03BCA45703CBA8DB43C09D1803D79E50C3D166038BD4B7D203C6E1DB8BD7A1010BD75EAC0BCA0D1443CEC89A03D0818303D4DAF0CBBDA7F403D4241623CC9494C3D4809623D0860AABD68C9E2BD646F243D3B7112BCC9C2B4BC72CE283D1B00EA3D0F7D143D7E2E60BD358E04BD51A82ABC082608BD6823B23CAC18C03C894D58BBEBB8E0BD10B5AABCE2D1B8BD00C48C3C809DF43D044912BD711A683D386C5C3D1D134A3D7EB1663C7BE6783CEDD014BCC3F448BAB78D00BD3A1BC0BCC24EE03D0338683D63753EBD20D468BD2FF72E3CB3D06C3BE217C0BCD7B0C8BC111E503D08EDACBC423EE03CDC7750BBAC23803CCC9A80BD59EBA0BD3A8398BB386E00BB854AB03C834B483D426E98BD3276D83BF632E0BD260184BCA306ACBC962D10BD00F8183D1DF944BBFDE0103D37EBF4BCF40A7C3D59D00A3CE43F743D1CF40C3BD8F600BC33FAD83D6200DC3B2297403D09372CBC8888F8BD4367463CCB733CBD4262763D22F7BABCD2454CBD7C266EBD239422BD2BED2ABCC16F283D65DAC2BD231B68BD64FA7E3CDD12F83C06DFA03CA7178CBCA80EF43D3AB5AA3C8F55D03C5ABF803D7E52983D211B28BD235E54BD56CE5A3C831944BD34115EBD2746DC3C17C478BD19A5CA3D29000EBD3660803D403558BCE9EDFCBB0087203CA0BFA0BD1FE0BC3C0217903C70AD80BD7C6400BD6802B0BD4C48943D34BDB43D1F0B4C3D122074BB439DA0BD711F583CC9B644BD45FD583D269E1A3D51E840BC99DF40BC6E4D00BBCDA380BBBAED50BD715AA6BCC947083D6D01A83D2486643B4C75C03C9981C4BBA2D4903CEFC224BD62575CBC8BF2143D65AF443B272C20BCDF45A8BD5EA5DE3C2D7FA83D0989B4BC1A94A0BD0AD08CBB9DF9D03C874B58BD12C91CBA97C8C03D4EB540BBA9FD50BD57DE2A3D245A54BD57BC503CE37A48BD0E9770BD19CE3E3D4D6F90BC3155D83D283BF2BB9050F0BCA969D03D0533ACBC50BD30BD2F713E3D5CE426BD08495E3D7CBF803CE96B483C0E7A103D6D4F00BD564660BCCFA0F03D1B584CBC9AAA78BC9E0BD83D7188FABD43332C3D1958883D517FE03D1C033E3CDF67C03C5C9650BBE060903C50B7883C51A628BD408C2CBD61B6143D3F77223D6C46183D4B9FDCBCEFC36C3BC86AA0BD15E6123D68B738BD0CF3363D75198CBCC6CF283CA66DD43CE489BC3C837874BC99C5903CD0B4503CEDE53CBD7DC582BD6B7DE03D08694EBD708CC8BCC5091C3D12F5FABB2A9760BCA91A64BD15C3FABCD32D8CBD4DA5563D2AB5BABD5AC4FE3C7372983B4344C03BE336A0BD75BBD2BC1739403CE1AEE83D29AEE83C0713103C4BA6C0BD56B7B43D735AAC3CF0F8E43C3012303C965E4CBD21ECC0BD151C58BD55DAC63D7710463CABA6743AFC76C0BAF24340BD73A21E3C998AA8BD3A95983D6A0AB2BD59DE78BD0986FCBD6069243C0D44883B72F740BD73D0BE3D454086BC99F9C8BCD1AEE4BD7D3AE83BD003A0BC38A640BC309300BD731DB63D6DD06CBD2739483CF6D7C0BC77F6383C42E4003D461B3ABCED65C43C80BAD03D3001683CE750BC3D1CB6A03C8B4D243CD6C8DCBBE692203D21CE34BCB4D3743BB92190BC38B828BD61F33C3D79E2F43D72AEA2BD20C4E43D1EB0543D1F3D483C7A9570BCD3E52CBBE06EC03C884B70BD4891F63C451398BD48A558BD0F3C723CB67CB4BA07F100BD203632BD09024EBD3C5C263C1EA5103D48E05CBD020F4CBC42E5283BFAC3603D1EB3DC3CBF2ACC3D727F06BD092D2E3C080EC03D351BA2BCA345683CDC3A34BD27FDBA3D22DF62BD2754463CB8272C3D4B2AA43B8FEA903D1F0FE03CE997543D6A6AA4BD3FAD423C524028BD67AFBA3D2B90DA3D694350BD14EB0ABD6A653C3CA5BFB8BD2EAFE8BD6AA1FC3D5415B0BBE369503D0DC37CBD52660CBD454B3C3D4D0AEEBD08A4B0BD30178A3AACEE00BCA4A3E83D1843BABB75C2A03D5F5F80BD717108BD5466E4BBEBC320BC24ECE03B9BCE70BD4957BEBD4110A8BCEBCCF8BD628B7A3C818DF0BB0D78E03C9042703BBAEE80BD65BAEABD5E26C8BB2312403D2F63EABCCC24643D5352483D0F9940BC8D3738
BD635C3CBD22A8243D311038BAFA23803CA15B203C9764883D299CA4BBFCD3F0BD100DBA3D612D60BD05608C3C5E7240BD5BEA863C92986CBD31F1E2BCB552E4BD6DE772BC2B7408BD615516BC956D643C5677A83CF660943B7717E0BCA6BDE43D308D40BD5FD096BD2101D2BB768420BD76242CBC818770BBCFE3C039467E00BA29E0003D080F863CBE4D203D1913083BD0C5B0BC1288C03C40E2303CFD67683C857F3C3BD87680BCBA62F03D2CB566BD6D5E963D5CCE1C3D3056CCBD69BC04BC3095383BFC1ED03D675204BCCDE430BCCB1250BC5FED483CCCFCF4BC9E528C3C6C12F03C8AC854BC16DFC03C1153A0BBAF0E90BD614C2A3D74FD283C15E4303D77A9DEBD574CDEBD7D8A7EBCFF8E7C3C67C818BD65B7683CBD00003B44E4E0BD05404ABC182A78BCAB1E843D385C7C3D6E4E2C3D31561CBD630032BD03D5FABCD2B2583D34AC843B7FD400BCD217083C5724983D13C8783D643858BBFCB550BC3F9680BC89D6003C7A0B80BCE89F8CBCDE8E44BD248A80BD24FAF63D3B6E96BD78A4AEBB1D6A20BD1B12BC3C442F70BD5980EA3D6E33043D6F120C3D0559ACBC9F1B283D23F58A3C8DD660BC07D690BD1822D03BA760603D1E1D743CA8D2683CA4F8243CC03D383D34ED1E3C980520BD4C77CE3D6C18E23D7E4AB0BC707360BD0C49BABD43AD543B1350A03CA77A2CBD3975F23D222F94BCFEE2283A4919003D0663D23CF1645039AED100BD09495A3D5A14063D7F4FB43C376580BD30DB623C1031883C3A9C48BC80B698BC0448083D4724523D570666BD17F3DE3AB12C00BCC38A243CEA15BC3D54C346BCB1B8103BF41C80BBE785B03D3ABA283D28ABDCBD3FB270BCBBF6703C0488C03D610C6C3D63CDEC3D3EDA88BD73FCB4BCCD036C3D6D65D03C4930883D73CC06BD13F8C03D7D1314BC1B8BA83BF72D203C18D6483C5322903D6FDC1A3CDD57AC3D3945B23D5A1980BCD08F7C3D40D148BD56FB86BD42F2BABBB573E0BD2F8BEC3CAAD7183D5089083CC928FC3D0A19BCBD57982A3D202372BD598422BD2A6AC6BD507BC63D07BEC43A2A4C803C33BC303AA79500BB4A99C0BD411C2E3C8B70C8BC8B0A1CBCE1EA5C3C9878843C2C36B8BBB244E03CCD20B4BD739D843CA319FC3C0787E0BCC42E98BC5B9EF83D14DA08BADD7E403C94FD683D0A6F44BD14D904BD3F5358BD0E860C3D0A42DEBC3A13783D52906CBD64FC963D6351BABC6AA0C8BC3C09583D4DF8D03D471040BD76B3243C93A104BC8DDEEC3CECDED43D64206ABD01B8BA3C6BF6A8BCE29A1C3D6B8B4E3A585B80BCDE37543CDF3560BBD6C580BCC72410BCD031B4BCBE9B0CBC1DBA28BC759220BAD458403C40F1A03C8EA5A8BD783C863D331FAEBCB15F60BD21C54C3D363C2EBD0BC42CBD02C174BD382B063D4B05D83D5E92DCBC015AE83D44649ABD08FC9C3D5BF050BD4729AABBF5FA80BD2AECCABCD17CD0BD44F4683D7622743C16F7F8BBC8F9803C9090843C8B5478BC7D63F83D79136ABC8F6904BCE5B1CC3CCA5A9C3BE74D00BC9FB3003CB06C38BD6895B03C8079243D650752BBA478903D2C6CE6BD6C202ABC8D59103D624A72BC62A8883D76298EBD146E823D5108C43B2E8E803CFCD7403D6710DABD65A6043C8E04B0BCA20D7C3D678F9C3CAA2094BD267F78BC8E61C83D590EB83C8F99343D34562EBD55F7DABD07713EBC3D03B03D24FC80BB90DFE03BE340F0BBE612F03C492320BC14CF703D51B556BB79A1E0BBFEA650BD565EAC3C9A19B4BD4036EABD3E1FAE3D5B48543C8F15D0BCA0D7603D465BC63CAC8BD4BB490E20BD30AC68BCF75F24BCF63998B7C32000BD4EA708BCC11338BCC92C1C3B218220BD10F0323CDB141C3D6F47823D47F5B03D598FFE3D2D12BABD000B6A3B9E2520BD21E778BD28231CBBFD5A103C9BD1543D0C685E3D21E094BC862200BC8A50B03BEF3FC0BD6336BC3C39A2783B572DA0BD2FB57C3D341A163D1E6BF83A0839003C56DE80BD135A76BCC2C68CBD11450A3C7BBCA03D76B8A83D44E0783CF0D5DCBD39CD523C3F1280BCD43EF4BD79269C3D636FEC3B534580BC22CC00BD09CC7A3C73A8B83D762F2ABD063CE63C064108BCE9C2D8BB434A60BD0483343B8DFC703CCE60003CBA57C0BD77CD20BD4D13D83B83A6603D3E45163C623FF83D016CFC3D39F1C63D569A443D136B563CA2F864BC8F925C3CAC5B04BD2FB388BC2CAB103C39C0583CC24D343D06D2343D741604BD2DF2F83D5B570CBD39D324BC6F8BF83D1A36A03CEB66243D3F58EA3BA5D380BCB7E9043BDE6B10BBD49740BBC54490BCCB42B0BD1B4ED83C9BF224BD72567CBC5068C83D46F848BA213300BD062FE43CA301B4BD1A49F23B529FA03CD8D8083D23A4B6BCE5BA64BD1DECE83D3A53E8BD3B37F43D270F80BB3238C0BD18923A3C971F3CBBBB7F00BCF37964BC3141383D05B8A2BC45B1A03D332CC03CBBE2283BEEA5F0BD4863CCBCCB4EFC3CD74EA03C1E9830BCFBC2143D43875A3CEF9DE83C73F288BC2AA1E83C959EACBB7E27003D0669223C82D3F0BBE422403D73A284BD4A1218BC91E0B43C4C75583BA403103BEAA1403D5CA34EBD240D123C3F7350BCB209183CC972683D3AC4B8BD3BE31CBC63AB903C27D0483D2A9ADABD3F9B483D68D9F8BD297D2E3D1EFB54BD70BE1CBC4868783D250578BBE4A510BC769E983D1FD0BEBBC84B30BD57C1E23CB824B4BBDDA4B03CC13968BD0855283D36FAA83CC3CBF0BD47F19E3CAA27E83C432778BD4F6EC43B9BE140BBB0E1C0BB525FE0BD0475763D1CF590BD2515D43D0B8062BD07DB62BD4178BCBD286874BC83A46CBCD79BCCBCF55340BD7322B4BD3259023D2327523C8DE8C0BD2046523C032998BCE157C43C6E78A8
BD3EA9D0BD3625DEBD7D5CBABD20608C3D0DC5463D5F2D923D781382BD0A98F63CF5A7903CC0D948BD6916B8BD14F5CCBD4064F43C994D30BD7DDFA63D54A656BD6746863BB1FD20BC129FC03D1C6878BA647C803D31A000BD1097C4BD509A98BC6A3ED0BCEE5F6CBC93D368BD7A7A24BD573CC23A345000BC6F4B703D3418AC3D3581723D1F05463D158122BD42109E3C59AD403D516D1CBCA6BFC4BD30F742BC76B8E0BC10A518BD1B8DE4BD505980BD227360BD0EFB5ABD1F33203BE2C9E0BD3B79B4BD466FD4BD64F1FE3D757B4A3D7F065A3CED8D703C87CF383D174E9CBD30E3F4BD05D352BD333EBABC40ECA03D54DB1ABD7487E43BC6DDE03D36988CBD240DCEBC7C1F303CA98D08BCC350703AE710C03C7A05D0BD685816BCA804A83D7CCCF0BD6A2BE2BC0ABC903D37B25ABD7BC4F2BBA53410BC977F6C3A36F0003D3F71F8BBE1DBD03C0B7EE8BC94E768BCD89EB83ABF66C03D2EF934BD075C243D65AD8CBD4E9AD23CF0DD783CF8EC903D0F59BCBD2F92F63D1A9E5A3D074FC6BD6C3A8CBC97F1BC3CFFF64CBD17FABA3D2BCF0E3D0529223C2EB3303D4EFA883B8F55B03D2BF24EBD28C91ABB394D803D27FD94BCD0D2983CDE4CCC3C8F245C39BA9500BBC6F050BAE299003D485B6CBD79CEF6BCBFD46C3D0FFAF4BC8F2330BB016100BD2617CE3B161B003D2B3532BD4B5592BC9C43E03C48C520BCEE3B38BD08FD02BB99ABC03D342EAEBD3D46AA3C7AF4003D748EA63D2921303D6E7436BC0AD8B0BC055EA03D419120BD5A75DA3CAFBD943D4B1B5A3D5CF420BC2B5480BD5B13ACBC9F17943CA934B43D023F523CEF1A603D5A36343D17E24ABD65D9BA3D6FDC9A3D7328343C9D6940BCDB2990BD5953D43C46F640BB89C9F0BD46A732BBBDE9F0BBAF60A0BCAE91BCBBAB65E0BD7F77583D2290B83D483656BD14F1BEBCA0CE88BD6C6A983BE251D0395F1A003D109E9CBD47F5243C761AF03B618EC03D7D04D2BC558DB03CCBA41CBD00CC4E3C9F30D8BC0D21683D281E5A3B5CDD80BD3432CE3CAF6AC83D542F863D6B065CBCF03D343BD936803D0AAA823D7862F03D1E50B03B7811C03C8B1C203CB4C04C3C8BF21C3C5F52F0BC4F19E83C2598803BF17F40BD6EC7A23C085360B99DB6003C317B603B8DC0203C1236C03D2F8A983D321A5A3C61C3303C8CEB383A764F003D4803543D3689623CFFFDBC3C7699F0BD78EF9A3D23C8003C3AFE38BCB6253C3D4C9B023D742E703D17BE1E3CE8F06CBC8154C43D7BB1DC3C723750BD3D7BD0BC6CE4D0BD347C463D1B1C4ABCA0EF6CBD616D403C4DC0F8BD16CE463CCC4A78BCD2A89C3D5750AC3D63A462BD48A5D43D0D2F76BC7C4A903C9F7F5CBD1F13BA3D6493603D455394BD5B46963D2E892C3D53473EBC2BF178BC066A403D53AAAA3B846BF0BC81F8ACBD6325EABCA80574BC1D6220BC8B8354BD3744AA3D4ECE06BD27438EBCBE9B6CBB9BCA20BD23E9C03CC39D243CF828443CEC4F803D2720F4BC7A35B03D58ECAC3D103166BD7EC5EC3C60CDD03C7E95383D0488743D487A063CF48990BAF5FF40BD760A88BD0A89C8BBBBE3F03C558720BCFCAC343C667018BD11BB9CBBA7B4503CBB3720BC7D3E30BD46CB28BCFD410CBC6D74A83C868E70BC614AB8BB2FF0403AC30C803D31927EBBA209B03D498E58BC59BE10BBE22DF0BD32E404BD37983A3B14CF80BCCF7D8C3D1F7B6E3D38F2AA3C5558C03B46A5E0BACAB6C03CC2DAB4BD318BA23D2675C2BC1F9AB0BC99BEE83D72817EBD60F9E2BD2359E23CFB4578BCA598B4BD061716BD65CE723996C1003D43FB64BD5D12B8BC1E6BE0BD07FDBCBD354B26BCF4FB3C3D3D8B983CF23C50BD662C88BD0DCB04BCE7D82CBD3AA304BD6FBF48BD30E372BC88A4E8BD07B7163CB5B3C4BD4335183C27A6E8BD5A9DF8BD435EC43D541F80BD6410B0BD56CDCA3CE94134BB5233603C7EB7B83D440FB8BD28E52ABC6A0238BD43DCB03CE086B4BA201E803D20646EBB1B04403CD0360C3D6EBAF43D7A6BC8BD5EDABC3CCC71D8BAC855C03D43830C3CD8030C3C882F28BD48F8B23D789CB83D64B5CE3D7235703C3E9E18BD7BE4DEBD4772D2BC57C020BB4A49403D238BF63CA5D0303CBA16D4BC394A003C83AC08BC284558BCEC3314BD61B9BC3D15CA28BCCD251CBCAD8BA4BCCA9FF4BD7B7D7EBD09D7AC3D54457CBD7FC3563C0D39D8BCB67C103C1A5D28BC61B6903D0D9686BCEEFFEC3D74CCC0BC0EC420BC842690BBDE31B0BBC79A103D2ED74CBC949F60BC8777F03D0C39C4BD5430103D1A727C3D2C4770BBF63FF0BD49BD16BD377F1C3CC4F1283CF87A783D513FB4BCE341083BC730403A518B803D789B7CBCC07E40BCC382883C0B3D183CF77CBCBAA892003C153C403CE1F2643C80DCFCBC32E8C0BCCE2604BD7951D03D0B59E8BBA986E0BC7AD468BD5E1978BC90E2FC3BC55560BC62FD60BCA022103D3982343CEAC25CBCBEF3183A28A400BD78C4AC3D206714BC8943C0BCE02D003D345EC8BD20B442BB3532A03D15E89C3C796778BD6B2FB6BBA68F40BAD85A80BD5AF0783D3410ACBCB4ACFCBD1423123CC9102CBAAB0FC03CFEEFEC3CA69E7C3D6E3BB0BCD78AD83B43B9603C1A97D03C814CE4BCA76BF83BA78AE0BBC0A6F03C4982E83C4E44E03CCD30283D66A3B0BD596BC8BD492AB63C4441883CB28EF03B53F0A03D4EB8523C09D060BC22A6503D092950BC84D688BC844F2C3D5461FEBD57769E3D563F02BC8FDDA8BBE155E03BD4F220BAD7CF003CF20DC8BD1CB96E3BCB17B0BD59B4423D61CC50BD6E6B343D0BE0903C19AB70BCFB1E443D1CF0A43D5C9DB23D356DE63C3603C03A086700BCF3AF483D76CFECBCC723103D5CE7F2BC95812C3C8421D4
3C06B8D8BB29B7603BFF45E03C9796903D08FC22BD1654B4BD6461A63D6EFACA3A2501803D38EB6ABCB23C40BCE8F0E83D0F7C4CBD24780A3CB80D283D20FB20BC922AA43D2AD268BBE04D60BD6CCF42BD2E6BC83D34DBF8BD61F32ABAC405403D6DA4DEBD16F06AB9E61F003A9C2800BD6767FC3CA9A0343CFDAFDC3CF92E003D488D823D1F79263D11D5083D32EF38BD2507563C70CD083CAAD7A0BCC77EFCBD6C10E4BD3D3FB8BD39537C3D106734BD0BBE843D2A1D5E3A5BA3803BFDFC50BD741D4E3D07CE063CA712803D2625A0BD21C7BEBC69E0003CBD48603CDA95F0BD3C32C0BC97068CBD64D2FA3CEF2CA83C420550BC11F0383D3C29C43D14BA4C3D2A4D3CBD6E02D63D556760BD08DB183CFAE4C83A291180BD57A45A3CFAFED0BD7EDE903D1E2BA8BD1724B43D60D2A63BF39EB0BC32F318BD6E0CF63D74F004BD31A0B2BD1AFC223D46F1863D5772E6BCB036443D5DEFC8BD609B86BD0C05863C54D788BCDB2528BD19E2883D4EB420BC2395183C7332C83CC477D83CDCAA6CBC88CA4C3C8BB6503D1ADBA43A865740BD5C3AF03D009F16BC9C55CCBD4E5DEEBD19D4903C8EDA6C3D7062DA3ACC4900BD349E16BD109C0A3CC3D4F8BB829300BC98F008BD09608C3B5FAB403D4B88ACBD1F0F70BD7C8E243CFFF3C4BD0DA44EBD66567C3AEDC300BCD7B330BD113AD03D592C2EBD7ECB4EBC5EF548BC7FBA70BD3D479EBCCB08783D6421C83D62682A3CE7A8ECBC904AF4BD1E83C2BCEB6820BCCF1DD8BD5A7D603C4FA4103D521E46BCE91EF4BD774E323C9E25D43D25BE6CBC84AC14BD128274BCE6DFB03C7D08D0BD520974BCDF7B283D4134B8BCB53C3CBC3AA1E03D05A2683CD10CECBCB0BE34BD7F98F43D0546183ACA71403D1E903C3BCB64603D024CF2BC048B78BD07CF42BCA32984BD21A728BD381768BD401B4ABC883ADCBD6FD8D43CC807003D2AEDD63D0244B03D49DC9E3D350F063C5820B0BD6058CC3CCEE8243D2F3A5EBCD0F5D4BD49D5803CBA744CBC668C18BB6D21C0BAE3BC403C94867C3D613010BD6B1B7A3CE3EF18BB379F203D4EE9743CB038143D79394A3D0C74AA3C9F9C48BC977DA8BC08DAE03C62C8A0BC389F983D0801E23CB598B0BCD1351C3D4C1C3A3C500E48BCD87EC8BD02AB5E3C7324903C97F7CC3D7D7A1C3CF3B0BC3D2FBEE4BCAF8E60BD4F19F6BD1898C4BD04C292BD375942BC3719483D1307A23D115AFE3D31CB223D07F9C23CBDF738BCEF2E8CBCA611A83C209DE0BD67AE1ABD7C583CBC91D06CBC9626C8BC3435B03CB10F5C3D090B98BCF0F9C43D3E1C7A3C97C5543BC17240BAAB0B803D3F13D0BB9281A0BD7389D6BD02262ABCF48548BCD38E583C321E803D188CA03D04B328BC60FDA83C972A0CBC9C1F0CBD6918103D3CD54EBC90E738BA4BF3003CDFE0D8BD37D046BD113D6C3D261690BD6B94AA3CEACF3C3CAD39FC3B5D1B60BD005FC63D2796303D3D5716BD162C143D427182BD76A252BD7A57D23D0EF1AEBD584CF6BD67CF4C3D6039EC3D2456063D61891EBCAF9EF0BD07E5C0BC82B438BC665B383D750B503D325F483C1C8450BCCEC4603D14FF6CBD07F2103C9B1BB03D5C67F6BD5872B0BD4BCF843B7A96E0BCC52850BD4739063BC255D03C7DF698BCD82764BD2D6AF0BC08EA183D611FE63D2F9EBC3D1D08FABBE0C5A0BD272B9A3D4BD9CCBD3741E03D07AE3ABD4B9112BD180EFE3BD19A90BCFF53783D65A79ABD1168363D360DCC3D19DCC63C36ADD8BD73E8783C867834BD3E1C6A3C627758BCF20230BCEE62EC3D124AC6BD79D35E3D382446BD039D443D69F30A3CAC8F20BC8DC3F03C1C8090BC4AF1E0BB0CA9403D236578BB4CC5A0BD4D2C6ABCAE6EC0BD0D4B1CBCFFC664BD5DBDDC3D6B5D70BD2B6A4CBB7D7E403D2ACCDCBC1518183D00EAD63D7E026A3CFCEDC83CD586A8BCC2FC643D6B43AEBBF85320BCCB23B0BD270D9EBCEAB97C3CC15208BD618A8CBD36CDC8BB561DE03D7107D8BCC999C43CF13AE0BCD2DCA03C1641A8BD38EC70BD5FCDDA3D421C8E3D793988BD386EC43991EB003D0FEEEC3C9D35E0BB0488A03BA0C3403C8577E83D251AD8BCA611183C207FF03D5A4EF2BCEC983CB9F22D00BD394CD63C982A64BC20F650BB98F3C0BC083D40BD577D34BCEF788C3D0F4752BD4140563D763884BD1E45503D4BD71EBCDE06C4BA4BED00BBF769103D28EB303C250778BD1D1930BC1DCFE0BAAB8F00BD143D84BCC05B14BA2527003C6AD3B0BD36EDD4BD5CC1ACBD034EEEBBFA8BD03D3FE3DC3CE08C20BD33684EBC602EF83D06B2B4BC325E00BC92C2ECBC9E6504BCACD954BD30D52CBD285FCABC8F13F43CF6E038BA8C7680BC3890D8BD0484F23D73BF2CBCE917D83D35FA263D415134BB720620BCEF3E2C3CE74C783CA4FA5C3C77EB883CDA6AC03C06F028BD09ACF03BDC17B03D1FA8243CDAB68C3D7BDCDE3D48E7423CE63CC8BBE82EE0BD2F787E3CAC1704BD3BFD04BCB694843D363A24BBCD66803D0396563B3E4A403D5B9DDEBCE50030BD40EC50BCE33E00BCE205383C4484B83C87A2CCBCB2E308BD0857D63B0511803D7FCC98BD376DF6BCCCE72CBCC35624BD1F1E06BC1028203D2A8D42BD65CB603D32D1E03C21C4483D079CC43D3D45563D1EAC463A80C9C03CF8B3483D4AD3ECBD2607F0BB64D200BBE79A00BC9C6AF8BD602C38BC56D940BC6DFA90BC3D0EA0BBD081E03D2A39DEBD37AE103CB4BC703D5EE64C3D22E22ABCC7BBDCBD0AE0EE3D59EE9C3D619AA03D78FD96BB4BBE80BCEA99F4BD2B84CCBCFED46C3D747064BD7FEEBC3CEBCD30BD778A20BC0B20F0BC94C098BD3343023CD115B03D2AC4FA3D4751BEBC03D9D03D729FB6BB0B74603D3B09F83C465928
3C3679D83C917D04BD6D88CC3CA43BB0BCC5A734BC8FF53C3BB7DF20BD056E403D7FD34EBCB7BFBC3CA49548BD7460BCBC5C2AF83D30D500BAC379003C8BD880BD7221AEBD3411E23CFC17A43D5F81843CF84C7C3D4E47423D0F84EA3CAEB170BD6747EEBD409B44BC1578003C4DEB103CE1B5343D3C263E3D732B103C62B0E03D3B7CCABC9E9E7CBCCD12D83D3DD04A3C0255003CBD420C3BF0A2A0BCAE7C38BD5AEFC83D574E903B6FF9003D7943BABD66716A3CC78EFCBC7D1B583CE7B6B0BD5C90C43C7B2D70BD0AE01CBD3DE302BD6953A0BD671C30BC01DB98BCF7853C3C98ECB0BCAB41C0BCDFD8D03D0AF87EBD6E834CBCA6EBA4BD391986BCCFCDDCBBAF4C703D395F143BD642703B1FB220BCC9D1703C5D0B783D6175F43D746D4ABD322BD6BD4DF2CEBD69E0903BA486E03C33BA30BD51118C3D48EEA23D7229803C897D6CBC250AA83CCAFAE0BC8BC0D83D1AACC2BC940E94BCF483E03D26251CBCA7D1703D30CB14BCECEBBC3D71BF423CDF87683D4761F4BD7B327EBD3202323D0365943CA374F0BD2A6DF83D7557BA3D138AA83D4147E03D25E5BC3B9BF9A0BCB2FCE8BD588668BCBF7FC4BCFF0914BD7C75A23BB3D1503CDA0B083D733C2EBD21CCAA3CD29C7CBD608984BD0EC4F0BD60D1CE3D6AC65C3BA830803D40F3A23CC85A303D47E2823BB3A110BD2D86C23B39E7203CBE2130BCC376D03D396E043D32EF343CC2AE90BD6A381C3CC458843CE35EECBD2C03043A9A63403D1626DEBD30A1EEBD60205A3CC54C583D2BA34CBD2DCDF2BD72D9443D04DA363CBDDC6C3D4DA38C3C9736A4BCBBA96CBC1D03883CB22E9CBD55EB843D2FA71CBCA06FB43D78E9AC3D66EABEBD4206DCBD5158B2BD2442583C9BAD40BD63FDBE3D1658063C8FADF0BD1C5DC8BD4422343C6ADB083C896C7CBD751C3E3D70D720BD06EA6EBA304D80BD337546BD2BB956BC90E87CBD36E1883CD97998BD2A42463D3AB544BD44BFFC3C04C9D83D4894F23D6F3A70BC820C68BC73F7303B386500BD43FDE63D1008B8BD3EF0B63D5F71303C8E3A5C3D28CFE2BD08DD8ABC15BC803D707646BC9F447CBD4244B6BC4297A03D34D7FA3D6670503D31A6903C69F5C0BC2532783C59E5883AE26BC03D2396C03D27780A3CF7057C3D083FB0BD0257D2BD216E3C3D0E8152BD177C3CBD325852BC31BD203C20EBA8BD740F08BD15BE5EBA4E0F00BBDB4CB0BB6582C03C6BBC30BD3E3C5EBD53AF0EBCF1CD10BD56F9F0BC611FC03D2E2072BD1A854ABD45C750BD39F0C43D5D7DE83D5B345CBCD668E4BD471328BCBFE5EC3D7A86D6B817B800BD428E74BD7BC80EBC3453103C4439E03CA04230BC807E78BD082FAE3D558BAE3D2DE438BD2AA800BBB6E2E0BB8025B03D7D46363CAC6E98BCD5562CBC62F558BD6581BABC2F8170BCC0D858BD729666BD4CA8C43D5A14503D0477E23CECFEE0BD389C78BCC82ECCBD2A0A123C059E483B0E6DE0BC8960E8BCC360A83C6F9E703D4456B6BD1B1CF83D6C3B2A3D72219C3C0850703A03AF003D5B5B76BBF99850BC230608BC9806D0BCBDAA5C3C2D57703D2EE9B4BD1778563D20D552BCE7ED383D2D32C2BC5F8BA03CD60EFC3CF307DC3CCEBD543CB765E43CC146283D665EEABD52492CBD3A7CBE3D3A29A43CEC9FF83D187B56BC19DED0BCD0677C3D3D77A63D102B4C3C91AC78BD627D963CB3F55CBD0F1DC43C931844BD62268CB9417A003D1FCF9ABD39547ABCAC9590BD7BECB43AE435C03D36DC94BC2028303D186B8CBCA24444BCAD17B43C0B07C8BC9C59C03D024D82BD030A023D2568D4BD430F063D3E3838BCF90BB8BB5767A0BD756A023C612068BD790900BD7DF9783D2A6890BC4987303BB037F03C4C0DD0BA9DCC80BBF901103C0D9380BB311900BD09A6EABC938BE83D3238C63D27BDE2BD324A7E3D56CE58BD76EC9A3CF690243D5A9AB8BCB17BD43CB81998BCF7CC54BC1735D03D235CAABCF8F168BD12AA3CBD1B6C2239027A00BCB4BFB0BD2C1A2A3BBFA3A03CBF798CBD4575F03D05F784BC1323C8BC287CB83D34725A3D5E3A1ABD041A10BC751B40BCF54E34BD3049D23CFC1D64BCE8BEC83CBEF048BC9881E43D5D20223D0C842EBD66E9AABB9EF5903BAD0E103C7648283D2FA67A3D23C2623D0E79923D4E23A4BD5BAD3ABD0347A6BBB901403D25CA9E3CA8BD143D390CC6BCDBFD1CBD41B5C23D09AC60BC0B80383CBC7744BCB08BACBCF2D7A03D285E3C3CC9E26CBC133EB0BD5614623CFF94EC3D7F629EBBC9F6803D63E4403D45C5F0BB84F6703D37DA4ABD1274023A792900B9A099003D68C44EBAA90E403D0E31FC3CD75E343D3C2D5EBD48FF5EBD109B1C3B035EE0BD08A5743D2050383D4425FC3D270AE439ACBB00BCCB23683B6CF880BD101720BCEF1A3CBC8631E03BE20490BD2B4DBC3C207440BCA9F70C3C15A818BB8E65B03D5F84A6BC925DB43D469178BC4D0760BD729AA4BD1CA3643D4C7F943D008542BBDBB0A0BD5345EC3D130F5CBCB48130BD25B000BB9633003BE96260BD3F15543CAB827C3D6482BABC94F6443C6A21883A5F10803C07F4B0BD7D31163CC86844BD3EF18ABD707110BD14F5843D429C0EBBF1B0203D14E7643D78B24E3CE711483CC71EF4BBB596D0BD6FC41A3D60FC6A3D2CD0A03C787240B9569600BC335E28BCA385E83D63996EBD5B3A8E3C6B1208BD4B83983D36BF08BD229890BBE848403D2C3972BD07A9883C30F6083CD50914BC8F3FB8BD1868623D4D8246BC353098BCCF33583D0D41143D2E9AC2BD7313B4BD73C23C3D0BCB86BD3F67DABC9E6B24BC94607CBD5752E6BC36B0183D1C812ABCEFAFCCBD094AF43D333D36BD3CB5283C8664CC3B792DC0BCE0B5B83B509C80BC572F60
BD22DEDE3D1CBC36BD68EA0C3D63D344BD11492ABCD904C0BC4E9298BCCD56403D76D2E6BD7BD6E4BC9EA0183CB0A688BD0FFADEBD566A2E3D4FF67E3C9D8A04BD313A42BC8925B03AA9F3003CC6FB2C3C9959B8BBE17D50BCC3BA7CBD5F6D5C3CC1A1F8BD18C17A3D01750C3C7CE388BC24E2E03CDAAF60BD2433D2BD65C88A3D217E063D1E497C3D32624E3D52E9463BC53CA0BD48C9EA3D21618ABC38C6283D348B30BD4973483C6DFDD03CA5AA203D2BDFF83D5C2566BC9104FCBA0BE980BD6362B0BC2C49E03B10CB203CC08928BCFED5903D2B7238BD3E3692BCB2C6003D7765EEBD42B4783D010A00BCE12BDC3D08E652BD7E4CAC3D713DA6BCA2BF50BC30AF683BF678D03C0D9D28BBC8DCF0BCA2B29CBD3586B8BCCB6F983D576F7E3B0453403CD0B9A83CBFB8183BCC60503D0F37AE3CD175CC3D478368BC74C1883C84CB64BC907B88BD02C7A6BD1D037ABD466032BD41B5343C93B064BAA5F9803D4899543972BE00BCDF5A2C3D03D5C83C5B2DE0BCC11F9C3C384D80BBA4E9503CC71F183D684E44BC6EAD603D20DF52BBEA7A10BBF08AE0BBE456E03D1DE0D83C88F9D83D6B098A3CBBF084BCCA4D40BB7A93203C667548BCDE347C3D2F2E2C3C3CAD88BD456F20BD78492EBCB8EC683D3342A6BD765DBA3CD54BA03AA89E80BD22D3B6BC88E0043D3D58D4BD4B9B263CEC40F43CCDF9A0BD216014BC5452703B93A5D03D274EA23D38F910BCA762A8BB6548C03D70AEE0BCFE19A43D4879F03D12D2603CD58734BD3AF086BD71F0FA3D56746EBD76CE02BC33AC58BCCBF2203CEB2DA838B7BC003CE004183CDF0FE0BCA0D008BB5750C03CC4F948BC18F9503D7584ACBD5874663CF4B364BD062B2A3D11B5BA3CF98EB43D4ACF08BC8B1DE0BC8689B43D2F114EBD6B05C2BC8BB4743C996CF4BCB4E5ECBD606A3C3CA533703D773C123D22AC68B70FA0003D3D5B26BD2CDB96BC6B8968BC0C0708BB9184503D6A698CBD7E9B683D2490FC3CD0EE4C3D28BED23D286A583D031CE83D26C344BC809DAC3D0CA7FA3D7F867EBB82E5A03B0B2240BD04228CBD387AEA3D057A943C8347E83CEEE5283D119606BB93DF503D23BFA03CD5C170BD2D9DD63D26397CBD5ECA403D45CE94BD03D292BD2429AC3C1F17C83BAD10E03D073E98BCCB8A34BD0B7E66BD01B66A3D0F1BF0BB4FA580BC82BBB43D3A808E3D041BB23C619B883BF2F0103CA30204BD513CA2BC7B4C303D391A54BC1FE4103CC28E3C3D0BD5D0BBC90270BD39E804BC1C8C40BD6DEF58BA76E300BD20DA4EBD5DC068BCE0A2283BD0CD50BD31DCA63C289A98BD2607A8BB3E4800BC9CC1C8BCEB05083D2948E6BB5DD5003BA576C0BD458CFC3D58236ABD0A3B96BD458402BCD029C43CF808BC3C2494D83BA63570BD0F8D103CE21798BD79C400BCC9E7883BF4A4D03D514378BD1995D43D6211E2BD162A4A3CB389AC3D5555963D7D8B083CC245943CD84200BD0E3D24BD7515183D7A85E43D4EF8EE3D2942DE3D61B3D2BCDE9044BD0ECD1ABC8F4B50BCB02CF03D2E2DFC3CA8509C3D5AC4CE3D2E1F463CC794E83CD59600BD20E8023C1D4E20BD5EA012BD4C84423C928598BCE7452CBC143F683D14AFF83CC809CCBCE53498BCC21C5CBD39E5483D7FE1DE3B396940BD060A32BD1F73183BD97CD0BCBF368C3D74ED643C602A283C9363E83CCD75D43D7F66703C72B2403D079594BCEBA00CBC5071C83CFA47403C8C76F4B9C211003C134540BCCBD514BB9CEF603C0FA8E03C6AC9383D651102BC589C88BC32BC18BD1B39763C5D5FF03D0B49FE3D67CFE03D570C28BCA270E0BD473CD2BCE71D8C3D6313A0BD15C1D4BCE0190CBA20DD803D098FC6BD3D97EC3D2351263D1428023D0D4DA43CD1F080BCBD6090BC5A07B03CB12C44BC74CCD03D630FBEBD317FF8BC8FA958BD690C68BC50AD78BC1775F8BD436F82BBAA41803C6928883D3D5D7CBD39341E3D2A71E83D0BE958BB10BFE0BB07DB00BD33AC36BC3329803D619CC43C0C2FC0BD1B885EBC7EF5A8BB0B26A03D38E9DABD4A83D6B9A2C1003D2719BEBC632148BD3DABE63C7A7C70BC836A70BC8EF554BD1EA5923D3A64EC3D7A081E3CE44FECBD05467ABD1E9736BC4010783D0AAC22BD2DB13A3B87FA10BC116F10BC2C07B03C67FF58BBE6C580BC4248D8BCC2BDA03C782B003D2079563D687A38BBA04580BD0DDF2C3CAD77883CED6DDCBCDF74C83D7CD41E3CCB62543D54DF463C5E7F403D6F75AABC14F5A0BD3332263C855668BCF844D4BD13C708BCF390083D62A40E3D08211A3D439BA03CD3E6CC3D1171863C8F0A3C3D2114383D0247B43CA352D43CF65094BD535AB23D60E1023CAF7C8CBD24DD423D7BEC88BC8A8F08BD4055DA3D7909B0BD5F845ABCE9B5903D78A2B0BD258CD8BD281C0A3BE7CD30BC8654983C8B5608BC28B0783BE099F03D6DF0EEBD0556223D3AF5E2BD7F10B8BC67CAD8BD0378A0BD4B9BEEBCB03B88B9DAE1003B917120BD5752C03D72420CBC85B0F8BC481990BD0941BEBAB15FC0BCF46AFC3D3DACDEBCA4EF783D4706A03D59437EBCDF1F28BD67AEBC3CF1E574BD3B2C463A3B3100BCC69DB83B2C4EE0BD3A08A43CA6496C3D6F7432BD6DFD0A3D2A8A74BCFF6AF8BC02AB9839D7C4003D0F73E03D4B3FA6BD6F6DFCBD7A12BC3C138D103D2DC2CA3D66849E3D43D7983CA82C183BEA42803A94FA40BB4B89C0BBCDB8B03CD37F3CBD2DF8C03AD51C803D428CA23C43E4503D446ABCBC8F81B8BD3A66903CE1FF7C3C2CE358BD2EF6123D67EBF2BD1D27ECBC47C2A0BC229F803D60719C3D401FE03D274C3A3D0144A2BD32BFCABD48A73E3D436152BD44C39E3C03EAB0BCAB69303C03EC883D3FA9D83D6C87783CAE4260
3CF48C8C3C4A48E03CA0169CBD43054ABD335DEA3B212DC03CFEE5443C945084BD74D87ABD6339223D5A5ABEBD62739C3CFB1D14BD07EB563D392B62BCA26CB0BADA1DC03D794DE8BAB24AC0BCA57AF83D2FC64EBD420712BCD44608BCC9A9F43D6A8AD03D3B60D2BD6A5F143D5669DE3D41CEB2BB4153E0BD50DC26BCE34388BB6D06803D1C979A3D32AC3C3CD271303D6FE64E3CC273C4BC96BA84BC3B86483CC14A9C3A5074803CD39708BD58987ABD6664DE3BB1B780BD5B0750BC8BDA18BD2A663EBCDA894CBC45C3483CA7E9943BF0B0D0BD4582C8BCEEE28CBC3C0CE8BC3F71E0BCFCBBC0BD71E5543CA4CDC43D3E05BC3C86517C3D20CDC03D4E31783CD714603CE14780BAE72F00BC48BE88BD39E24A3D765ACEBCE782D43CFDE7FCBC2996E8BD5989B03D76A178BD5BE5CC3BBE16103D1F42BCBD448F2C3D7AE458BC84F7A4BBEF0490BAB6AC80BD69B13CBD3F8E00BC0B6A58BD6C02C03C84A7E03D6556563CEA68443B5AD0403D0FAF3ABD6C54D0BD54AA8CBC60ED583CDE797CBC6D02403C7CB7783D1514363C55CED0BCB1AF78BA13CF803D71CE1A3D1043263CD0DA04BD523B36BD09EACCBC1F29E0BB203EA03BDA55C03D054EF43D6E0506BB8F1F703D0A98D0BD3574143CC8A57CBD30FDBCBBCC2F503BF003E0BCFF1470BD0D6AE0BD57A26ABB0579603D019BE63C1954683D4FFACEBB8AD8D03CF28D9CBD7905063C8364E4BB998BE03CDFB6783CAA7BE0BD7A504A3D69B0D4BC382AB0BD097E38BC01F1C8BC2A3EC0BCE70E4C3CA4AB703D1500CC3D5142F2BB6EC3203D2AD186BD60886EBC341BD8BD2AC4A2BCCE3BA8BC363A70BB91D420BCF57D143CC784683D34B5883BFC4680398AC700BC699690BD144DD2BD31433ABCF154E43BB68810BD65AC9CBD3442D63D00DBCA3D472FAABC8BDFFCBD03BFC23C6C7540BD342972BD06CE823CFBC130B8E28000BD374C1E3B8731C03BBAFD00BD693BBA3C4961D0BC35BBD03C483880BC1FABC83CC308F4BAFDC3803D2BC9C23B0897C03D19B2863D742F4CBD0F8EAE3B55FBC0BCE9A28CBBBC23403D457D9ABD73F722BBAC6BE03D7813F0BBD20370BD6DA16CBB561700BD23E6863D25B8A83CE834643ADB17803D3961AABD73AEF83D4A120E3D2C80D0BCEFF1683C8A4C00BCC91E003CAEE70C3C4E2208BC0CB4B8BC6901703BBD7A203D5277BCBD4736A8BD24E5963CD3D77C3C85B3DC3CC68A78BCE09A84BB11E1A0BD2CBAA0BD3C000CBC722F983D6D6B043CF32358BD39CB5C3D6B5A1EBCD384603D0A06E0BC9C5F4C3C980CD0BCB615A43C6C85D8BC1A06883CD86A403D6AEEDA3D1B60A6BD306CA43CE30E20BD5C22C03D2DEAE03D590BF43D486AC43CE4849CBC0813B83D595EFABD6C278A3D2F93DEBC9720B0BCFFA6D4BC9AF2C8BD118B943B86D1E0BBD446A0BBC6C1C03D48EB56BD40EFC43C076440BCEEFE0C3D1AC4C4BD6786CEBCD0E0103D3A79E23CEA33C8BB55D2603C9036C83D24544A3B5344603D2B453CBD09C4AA3C81D5BCBD6F8010BCB9F144BC9F81C03D27FB4ABD1087423CA9F570BD3D80BCBD3789A43D4E3B983CE6F294BC39A0783C3D9470BCA88F5C3BC20180BBC0A0103D2C0F663CA7E49CBA665780BC3BCE003C2AE050BC952F383C4EB4A8BCAF5378BD72E3BE3D000DB0BCDCD918BC907400BCCB05FCBCE3EDDC3CC8995C3D7316043D515DC2BC7580C0BD6F40D23CEED9743D588F203D1634CA3D4AE9923D0258D0BB80D1903D7A83543D5D6A04BCF7BFF8BCB5B628BC2FFD203C665C60BD556C7E3CAAD778BD66CB84BB251580BCE129203D1DB734BD69B0B0BCDF7C8C3CF36360BD647C563D0CA6D03D53449CBC3008C83CA232C83D68E188BD36EAF63D33BCFE3C91F95C3D32BD2E3CC33628BCA735BC3D4C60B4BC0D4440BC4A06D8BD4103E8BCBD0E4CBD13975CBD64895CBC34FC20BCF53CD4BB34A840BD15BBBA3C5DE2283D6568563D5F20BC3B3DA6A0BB12D8A0BC976AA8BCCC95D43CC862F03D63277C3D2882463D19BC8A3D57DA3C3D41FD8ABD5C0542BCF2149CBB45FFE0BC60C2A83D684A023D7E2B963C428A30BD1C35C83C2FFC603BD73560BCBFEEE83D02E4963D4310583CF90430BC753ED0BD66C81ABA239780BD3BF492BD3386F03B5033C0BD7995E8BB951D10BD09CC3A3D7A49E2BCAB46F8BCEDFF143A07FA80BD323E8CBD28CB983A475780BD6768B23D1AED0EBD459676BC8DB02CBD411CC23BC958703C03E8B83C69FE203D01C16E3C6253483C84F13C3D4C857EBBC26590BBE41AE0BBC94A003D2CCD76BC223C80BD08758C3C2C2D283CFFB8003D0C7F9CBBF0E7B03BC25B603D08661A3D1904383D761182BD16A1343D3428803CF43700BD5661783D2E9BB03D775E10BC16B5503D3F21D8BD43992E3BC2CFA03D07FABA3D44E5403D61DA1CBC824D08BC7099C0BD0C14D2BCF0D794BCB46198BBEFC9203CE40134BD455F48BD311A56BBDEE4603A1FDE803D3177CE3D5D866C3C9DEFC03CEAA260BD15BB803C62E450BB842810BD612946BD5D807A3CD470DC3CC70908BB8CF2003B4FAFA0BC15C8A8BCE408B83D2477523B17CBE0BCD106ACBB0AB940BD5C51E2BCB2E12CBBC52070BD7B610CBD339A5ABD3F28CABBF4C5D03D28B0F0BD01E4DABD0D486ABC5D64903D0A7256BD5FEF2EBD28312CBD37A2843CE75AE4BC153A08BD594F1CBC21DA803CCEF8CCBD236238BCC0A7AC3CBA123C3CAE4BA83CAAC198BCE595B83CBB33DCBD3AE2CCBC8AC96CBD52635E3CED2B783D563CA63D65328CBCBAC2643CC01174BD6BA7443D141BB63C67BBA03D40DF783D1836A43D641F5CBCF5E400BC6F9808BD17EE123A8540003D634560BCDD9BC43C78F4F8BD285152BAEBF100
3D7937103CAC3D803CD302F43D21E8EABD34F2923D62720C3D0FE8183B8F6340BCC557243D581CA0BD23A55CBD0873FEBD1F5240BD33E4DCBC81F2FC3CC97ADC3D6B83B03CEBB5383D40BE28BD10F3FC3D7E5BF8BD509BEC3C6E49503D7674203D7A5A0A3C120460BCEA9E4C3CA6A1243D38F48E3D72329C3D213BF8BD3BE81A3CD1CDC8BC309548BCB37B483BE46FF0BD2FA7D63AD7D9803CEC82143D2F35FE3CE78780BC7489983D393ABE3CD770903D34253A3CEE52B4BD77EB9E3D238D283D373C7A3D182B4A3CAC3254BD7E97A0BD4BFACC3CE91C74BCCE8D80BD5351D8BB998BC03C4B89483D4D3DA6B9595800BC745EA03CC49AC8BD125666BCF61628BD17F4423D06ECE03D152E9CBD3F1BDA3C3284303D675A603C70FE30BD4D5D583CF66B383CABEC28BD1200243B898F703D6876FC3D429A38BD57D788BCB4D3CC3D75CE32BCE838383C3B7E18BD3C208CBBFEC7F03CD39FB03C85CB6C3D64BF18BD6E3C6E3C999038BD508D7E3D4CE850BCFDD910BC96DAD0BD6FD272BBFA43103D6446DCBD4643223D093CD63D263598BCF034643C55DE48BD46A4CAB9C7DC003C7283A03D1D533CBD3CE92C3D3EA1E4BD616FCEBC4278B03C8D2020BD7EF32EBD59B87C3C9FA4043D4000943CC81A4CBD4C11363CC0369CBD5918BE3D2C38723D7444B6BD35F700BD21AA0A3D4455D63D6C7AA0BC89BE143D14D0F8BD6B808A3D68D7E2BBC9E520BBB0DD503BF07DA03CA588243D53D3E8BB12B0A0BC5C5C803D1E5598BD43B144BC59CDB8BD62A722BD29FA483CC773BCBCDB6DC03CA036343D5CCF3A3C24B7C8BD72D23ABBE98450BD3CB910BD52CF1ABC4B1B283D0240C4BD7B43A23BD69A50BD0ADA3C3D2483DA3D5BCD14BC179B30BCE14D54BD48AE2A3D3E8DFC38BAAC00BD1A116C3CB0E17C3D6A9448BCEDAB2CBD7813A4BD5DD4183C7396203B4F1BA0BCD45F003CADAA18BC3C3EE03D50DC3ABD2169A2BBAEDAF03B9365203D10EF72BD1C9F363D469CAA3D69CBBCBC813DC83CE9C95CBCCAFBB8BD4DC6DA3CF03CD4BD1B9E6A3D07644ABC615110BC28BB58BD753C3CBCA0E528BC4285E0BD66F1C83D1F1028BD3B38843D397B08BC4522D0BD10E95EB94F54003C9266F4BD4B9758BD475638BD05CEA63CFFAC3C3BAF18A03D7AC16EBC98CC50BC8F68003D3C8546BD290BB23C89B7E43B2F6A403C467D98BD5A2420BC74A2083C7705F83C815A543D6613B63C2CF0E83CFF65C8BCAC2FECBA9089C0BD63EEFC3D40253C3D614DBE3BDCFD703D460F2E3C8207343D37C4AE3CF4AC403D5AC03CBD6F47203D3CC9B43C850470BC6D6FE8BBA768503D2A04723D3D717E3D78615C3C5126503D7794583BFC6D80BD3D91A2BD3AAA94BD1E5DAE3B1D87C03C127E18BCF1CAE0BD4256103D487D563D3D1398BCD5F658BB18AC40BCFC5E983D6C1F72BC169250BD7A92123B75B2E0BC921A14BD56160EBD376ABEBBAED8C03CC0439CBAF3FFC03D3BEF703D296350BD10EE88BD7A49CCBD1CBE04BCC4D15CBD76C5883C60C1203D69CCD83D7D79C8BD19A6303C8E213C3CF715883D15CD883B7D1C403C5970A0BD46CBD03D370B923C48CB603D164F4CBCBAD1903D42846EBB9C98403AB9A4803CD1EB203CA395143D67FAB03CEE16CC3C77A678BBD8F8903B7828A0BCA5BF7CBC0126B0BC8E4A74BCF69DD4BC95BB743CCD51F43D19DC623D405F7C3CE9F30CBC4B49C8BD7E62AE3A260600BD4B9B483CD45A50BD17F45C3D69C61E3D0C9AD2BC1356C83C9B7084B9C3AD003C72E3283C4BAD18BD1D66323C913C18BC566D383D58E8F2BD61FFA2BBE952603D5010E23B84B9503CDEEDC03C99D768BD70FDA4BD0B60FE3D258B283D687F363CAAC7A8BD5B4808BC520318BD27B210BD09A1863D2B6FF8BCF2F908BD626128BD187856BD4AC944BD69D0C63C3543683CE8998C3CFC67B4BC8D64943CAD1B8C3B3FEAC0BD76A57EBCF7129C3D636830BC9056D43D6ED9623D7939E4BD3E8588BC157270BB02C32037162000BD03472E3D28BBAEBD4BADAA3C5F9E30BD6D5900BBFFD9903D603554BD3816283D28D80E3C11E2683CBB70A8BD0E76C43D3C0370BD1BF67CBC91BF5C3CD39B083D1987E8BD7570BEBC9DE2743CE465843D42948E3C46E8B8BC26ACD0BD57AADA3D3DC8A0BC68F4283D2BB23EBCC4BDE43B9374E03C2E19303D47A984BC6052F0BB308080BD6F4DB23D440A34BCBC7188BD40D2FE3D2539E43D420EFCBD2F2EE6BD53D40EBD0B379ABCCCD8203C5D9858BD597970BCE8BFA0BD6F5708BD533C063D571DFEBCB4698CBD4CA436BD6CC8A43C883E603C4EEED0BC7889703D6C63E03CF2A034BD4CB6B0BBF01AB03D3747D8BC8E9CDCBA95D340BC5801D8BC97C7683BFABB90BD0789323D385B643D2D2F683CBD9B5CBCC05B8CBCB9E9503CA2889CBB18ADE0BD24C2103CF342B03CAB36A8BD7F339EBD55750EBD6A841CBCE6B4B8BD0C7DD6BD13117E3C0E14303D36BFEABD5B42D83BEBCB203C05B9B0BC22EE08BC29A4603B7168C0BD182D163D19FE583D205E4E3D001F443D54D85EBC4BFD90BCC00D143C15FC58BD12D5803D7293C8BCAD20FCBC7C3FE0BD10A7BC3D4E1D623D4ED3083B6F3F60BD5E27DABD6F7F82BD56A7083D30D0363D159968BD336E2E3D0F9724BB92D090BD727E18BD2676463D2454E83D40A2E2BD6CA81ABD025C3A3D5CD5E6BCEA45E4BB1386C0BD59A3A63D43DF08BD7BA946BD158C86BD24C5F8BD3BB0A4BD5F5EDC3D68BC1EBCFAC6B8BBE680203D1BFC223D192E123CE12EE4BAD683C03D2AC16E3CD0169C3D5051AEBD1AB6FEBCB883ACBD471E2C3BB7BC103CA39FC0BD44E5923D7C0A3CBA04CC00BD68AE923BA83360BCD6DDECBD6DAB1C3D7AFC6C
3D6D67423C0D5630BD02DF22BC9BAFCC3D7C79F03D6C44EEBB6284603D7327D8BBF378003D6E0F8ABD5E0B42BD32CFD2BC20D0403CB5837C3D3F27BC3C949FD83CFF2AA83C179E003D00C09ABC537DE83D2AACFE3D3B25E2BD7AB1003C5FE7F8BD6E48883B73DAE03C1DAA70BD1781023C9FF7D03C577FF0BD6CCB8ABCD9DAC4BD057012BD1C05D8BD395E203C8B02183D56041EBD28E3083D2946643D027CBC3C883B58BD41B19E3C4AB910BCE2BD84BD28FD1A3BA97C003D46191EBC3E8E20BD510CB63CF396B4BC58ECF0BD305C04BC8D25203C92EE503D28FF0E3D3C761E3D2B27D6BB6BEB40BD6AA51CBCEF99C03C98B3703D7C25A63C68C128BB9F2F303D3A37F83CB5C92CBD3CD076BCEDEF103D50C71A3CE0FD543CDF7EC0BCD50AD03D070B4E3BC273803B869E40BC093AD8BC368538BD502D1A3D51B3E6BCBB03AC3D2750023D2317A8BCE3E1DC3C0BBBF83CAFA6E83D31C234BC8D1080BC678E383C362688BD10DD5E3B9CF4E0BB529D80BD22CA08BC8ED3403CFAC7DCBCBFCCB8BD2BDC143CE400ACBD7D7D5C3CFE18D8BCE95ADC3CF4A57C3CCEF6083CB32A103D2BF920BD0D8E2C3D4A1932BD50B5963C727328BCE98DA03D36546EBC464108BD4375C6BD33B4283C7618083D39E29EBC46BE183D5AB6F23C8928A43CF7B2D8BD6C0C1CBB641B80BC8B4FF4BC935398BC3BE4D0BD79253A3C40D7103D2B31663CFEBBC0BD7BA434BCDD47D8BB64D9C03D79464E3A4D4980BAA571C0BB9307403D6BAE7ABC7D2020BC68C3203D009E58BC6517203C8E25943D70C9423A4284803D7E3B0ABC2775003D5AAA98BC5295F03D1C88B63D1ACE823D0499E6BC2D09C8BD26B7603D6A52FABD54109CBD5A00DE3D2DD2463CFADD14BD06C77C3B038860BD7FF61C3D7A576EBC4BB4F8BD1AF64ABD1449C2BC7B35583D305F283C1DC5803D4B09E2BD60E3003D19F84EBD3F9C78BD351ADEBC17BDD0BCD83F383CEC84743D26B93CBD20E7DEBD2024263D64B3903B455FE03AA64400BD58A5BC3D1D1AAC3C9956BCBCC3C80CBD618CDE3BDC71C03D3E8C96BD571E20BD152AD23CDBA3F4BD652D44BD5DA75EBD5A61DC3C82CB00BCEF51303CBAF2F0BC9D2940BD79C5F8BC7C4D103CD91EF43CCDC07CBCEB256CBD24DF9EBCC40770BD61CB1C3D4FC67EBD3B49C8BD2668103D59AA98BA22A3003C9A42BCBD64AC86BBD6B5D03D2953003D5F98E0BD4E186A3C5B0B003D139E60BD1459A4BCCD84DC3BEB7A503B83E900BD4AD7923C541CE83D49A030BC8065E8BD59795EBD26A30CBD056BDA3D598C043CFB1418BD359B4E3C140E883CC0A8E4BC878C84BD1837B83D43003ABBD94230BD041FF6BD5353C6BD5154503CE84CCCBD37D532BB922690BCBF98DC3D6D0B0E3C3EF000BD4AD5743D714C42BD47AFDCBC199F483C68F8C0BD1861A4BD61DA58BD13B5B23D5709643C43D3D83C1403783CA35B5CBD60781EBCF6C7203CC2D0E83D24926A3D2D5776BD55B9023CF8F174BD4173A03D67DD64BD6DC9A8BC66ACA0BC33A0803CC12B383D62A3E63CC8DC283C0AAD583D538674BC057560BC6523B8BD08D6F8BD030D463D1D5BC63C5211003B83E3F0B8BCB400BD3F892EBC9A82FC3D42A6943CEF53503D46B6DC3D745086BD79F2343CE58A4C3CDB25C43D4DDE1EBD57823ABC5DA830BD628E643D4F212ABD24D7A8BD3C555A3CD4ED583D4B26B8BB9C7C903D7CDB7ABCC98580BCEB7060BD3D24DCBD7536AEBD344D30BB9FDC30BD7E30B03CDCCFF0BCE999243C92234CBC029CB0BD36A44A3BA965E03D61A7863CE686883A4CE380BCA1C7F8B9AA5C00BD051606BCCA27BC3CB7B620BD4187FC3D2AF8BEBD5BABE6BD2F8352BC2453303D5EC7963D7B3058BCF63978BD55F41E3C6DF2403C977EAC3D0A0A04BD256122BD38A3443D3452603D722CBE3D4315AE3B4B1980BD1529CCBAACDC403CC7DE58BD731CBEBD7D73143C2F89D03C0F97C03B91A4E03D6D19C03CCA0A88BCC6A0DCBCF222C0BD4617F03D7C141C3D4406C6BD73D2EABCC077F4BB3F3DA0BBD13F803D02BB56BCDCBC00BD1E3CFA3D1F1CB8BD6434863D6B241E3D17D8EA3D20D13A3D5A28D63CEC1E6CBD57B976BD653D1E3D0B3EACBD20075EBCD3D3FC3D5D46A63D142F26BD5C09683D08E4223D7AEB863C835B4C3CCDEC90BBE49670BD2BEE543B0003C03D6CFCEEBC18BC183D34275EBC8707AC3C811DD43C088F583D41F16A3D52882C3D2CFA7A3BEB1F803D3724AEBB914520BBA11D90BD54A64ABD5D9C48BCE53C943BBD8D00BD515DE4BBEE86503C0F29083D2AFF72BD27889CBCA2BA48BD4B50783CB578343D1F519EBC8A364C3D1AF7D4BB924DE0BD55F67A3D212522BD37F9ACBD1F10E03D23B300BD55775EBCCE5CA43D1A6CE03CB20760BD1E43163D54DCB83CA9F32CBD47252E3CBA36B43D72E8643C9CE81C3D759A883D0648B43C6EDD50BCF4DACC3D56B4CEBC6FFE103BFD4530BD18679EBC2E1CC83C871AFC3D7F9E103D5AF9D8BA9D8E00BD6213123C08A2B8BD031F0CBC1276483D308660BD1568603D31562E3CE11E14BCCC74B43CF8D1E0BCE94B30BC463A38BBCCB8A0BD19B196BD23532EBCC3249CBC70CD18BD3C3420BCC8214C3D7959D43D577C8AB976AA003D7A819EBC928AA0BD0C21E8BC966638BD41E366BD403C54BCA72498BD7B04F43D047C963D35B5E8BC1EE8483B4C5B803CB6F1A43A8D5000BD2F8C303D3ABE523B58A2603D22D41A3AB7E600BC063610BCEAEFE0BBF035303D40F008BCDA43CC3C6418B83D7D195ABD6264483CB888E4BD19282EBD4375CCBBB0B500BD38D97C3D6D8D563D2791F23B97ADC0BC8AF9203D20B6243D6645563CE7D4903C8C397C3CD53B5C3CD90E7C3D45E912
BD722F6ABD10E218BC0B97D0BD41819E3CC757A43D5F576A3CF7CC2CBD2FBD7A3C584B803D477276BD5C988E3D6829E4BB3EFBA03C50CD583D6E3906BD5596A8BD2B61B6BD7866B23ADCD2C0BD250CB8BCBAA0C03CE2F600BD3A9EBC3CED4EB83C3AB250BD4E9E72BC8535203D37F5563D01C0883D76E41CBD442EE83BE89030BCFE66143C90BCA83CC4273CBC013710BD00549A3D0DA5383D7A8C7CBD622B363D0D98AC3CDE3AA03CE4D8983D39F9583D09927E3D3F0E6CBD6741363D16BD00BD58B1663D16970A3CC777283A87EE803CF8AEB03D0293DA3D3B7334BCB35D34BD3B4C64BCFB7E44BC43F7B8BCC9F0A0BC6FF0B83D38C770BC6349903C477E503C9AA758BCED52203CD08A8CBCD596A0BD40B4423B5C7B203C29A0D8BB4C9520BCE615B43D43CB963D780F7EBCD71EE83D12095C3C138F783D34B61EBCC89C10BCCB0D74BD5033C43C52A8B83B727FE0BD67DB64BD7874A0BCBBD86C3CB523E0BD3CC2B6BBBD9FD03BD050703D2F092637BE60003C6C8620BC75EE083C8018783D7DA2DE3D040A04BD7176A6BCF5EE90BD25B3903D076F763B1B0A80BD537DDABB8A21C0BD44C38CBBE86C10BD4E54A23BF326503D176F003BAF62C03D4612EA3D309134BC6010E03C19FEA83CAE60683BACA6C0BC01A0E03C8B9A2C3B569840BCA875C83C3FF6583BD142603D6A1F443CA3D780BCD4F3F0BBE961E03C649300BD36D6EC3D66578EBCDDE7E4BCDB3F043D7390BA3D18F3E03C6209303D2283F83D5979D8BD2754563CB5C6B4BCB107F0BCEEE3F43C6798803CC4A7203D5CA9303B1D8F40BC5E1740BC102318BD7414783D01B68A3D0788AC3D570630BCBD62C43D0B29463C61F620BC1E6DA03C3E4AD8BD707D4EBD1650BA3D55CDFABCDF2CACBD54C9E2BD67F1883A95F9003D337A74BD2DA778BC434AD8BC0F25703D072C7CBD18DBE6BD077F0EBD2DCF823C1CD580BBCACF603D5AB6B63C4E7278BA987B403BC493803D242C283D0556A83D056A7CBD37CE04BC7302E0BCBC6C043B475A00BD62FD363D625D62BD2E7BF03A3A2D00BD55D912BD1E70E2BCAC69003D4358C23D304966BD2840603D6D77F4BCD74D943D4C9D943D5FC5F2BC1278783CEF5FB8BC0760F0BCD9021CBB7E47E0BD19D65C3D5C49EA3D45FAC63D61E950BC904414BAD62A80BD768622392A8800BD326DC8BD1DFC78BB9A5840BD68D502BD4C68563D49F0FC3D4B8650BCE4FC80BB8819D03CA5EB783B2B1BC03D78BF983B862860BD60575EBD5C68503D4AAB96BD4EBD223CD5CD183CBE8A20BD77AAF4BD56CCF8BD2AC90A3CBDA7943D55A230BC999DA0BCC641B8BD4CB3F0BD732D08BD2CD698BBB185D03CF2EDA4BD342E223D49C9483C02B830BD39DEECBD31E32EBD5DFC78BD1B4390BC98A8783D1B5E18BCBD3A7CBD3D39AA3C0A9148BD3CDD4C3D3BCF1CBCFDDDBC3C9B028C3C7FB3F0BAC926403D234D02BD1DFB76BB4E89A0BD41E46EBD13347ABC3C71D83CF5C290BAEA93803D6345123D6BEC84BD317B4CBD5CA0843D3A4A883D6FF2503D3F9AC63D1BC106BCF172743CD60CD4BD5158023D5D78B6BD13AA503CF51390BD4459EC3CAEC4403D5D098C3C8BB09CBBE2A8C0BCFBED983D165154BCED0B503B8C97A0BCFCA9E03D5128383C242960BD409D14BD2C1410BD222248BC7A9A00BD336010BD2F21E4BD6D8A783D4A1BCE3D06A89C3B8F47903BBDE7303C83FA0C3D6AF7B6BCACDFC43D28AE82BCA5D328BD05DE3E3BD63CC03C3A01803CA60A243C219800BD311AEABBE4D8603D64B456BD6059FABCDA3E28BBCC54E0BCDC83C0BD651D82BC46F0583CC88EF8BD2663FE3D55B6123C813194BD483D803D499A0EBD20FED43D5D21703C23BB50BBB6AE103CB9F8D8BD7FA98C3AB913C0BD1051703D1F5C9C3CFF0EC4BB24EAC03D7A77D8BB8ADE503D4BEF3ABD68C5623C3FBCF0BD5575883D018EBE3D7B7BE63D57B9783C2C1540BD5E4742BD25CC843CFDC1203D2FA7BA3D745A543C113C30BD2736583C22A268BD7719B23D7AE25A3D420ED03D3ABEE83D7A1C7EBCFD091CBD79E5CEBD55FBE83D0B21843CC508303D0C61BE3D1B52AA3C7F34D0BB9B6620BC9ECA503D2170163C6A2300BC5C0478BD4F9054BD2E92F0BD52097ABC95B9243D43D76A3D5D70FABBF97C703D106098BCEAE2B83D2F4ADEBB33AEA0BCE09D84BD6C9F2ABD6437423CBD9FEC3D0C7BA63D57A9F6BD4FFAC2BC4FF3A83AC485C03D69A7EC3C854C6CBD04D2E2BAB4F700BC28E6083B31BD603C376018BD08DC9ABBF926F0BD1F9E423C8D55043BC490A0BD16F970BC487840BD16B99A3D72C3F63CC0E4383C695BC8BD30EE66BD6357683D351A983D5E26E83D5A7CD83D003F943D640806BC4D18483CB5A050BC2186F03D5E8D223D3ECA8E3CC9AA243C61D490BC66CE78BD32D55E3D2BDFD2BCA2C584BCE54D403CF069943CD9AD043D36A4EA3BF93050BD103E66BBDD7550BD55C8803C402A40BD41B020BD65C342BD696C263B21DDE03CF343B0BC1E3BA83D0B43AABD1F29E4BD60F21C3D4C7C183CDDE6A8BD2B5A0ABC53F2D0BC5A63B83CA426ACBD2F76063D43F1723D3EE9B03D5453F4BBD99BD03C5F2A70BD045B6ABC2089A03C87767C3CC8D22C3D49C550BCD65C88BD6FFF143CB23B54BD6649C2BD352EAA3D0A7C743C97A188BC8B6144BD4637763D1B01823D3993CCBD2CB2B43D2AF8463B425F40BC1243883D60D062BCE7DE0C3C567DA83B1AFF60BCA17208BD69AC4C3C0A4E883C5276583D554DBC3CB153ECBC33F6403C8344D03C72F9083CB48E8C3CCBE1C83AD61D40BD78DC3ABD7C783ABD3D3412BC1F2E283D722094BC6BA668BC1DB628BC6424A0BCF92200BCE63B9C3BEBB690BD15DDDE3C1A58C8
BCD83A7C3D5B7F3E3D6055E43D3537F43C1AAA503D7E8FA0BCD968E83D176C983D7C3442BD7AB784BCA22B1CBD2FA22A3D11E89ABD57084ABD48B2183B7E1C003C9E89CC3D772BB83D386AB83CF4CFDCBD77A8C03D44D4E43B4C1BC0BD05A2C6BD79626E3D6B2C2A3C1B47283D120EEC3CEAD8DCBC9A3E7C3C2ACF903D2705623D7BC6143C74CB88BD17BFACBD11E976BC30D6983C8BE2F8BC2D4828BD701CCEBD6B8E34BD3518B6BD6F57DA3D3FF1463CE22E143C4F5E80BB48FD40BC2C8ED83CF2A6F8BC8FE0983D149C66BD4172C2BB9F3000BC83C928BD1D49B2BC0359003BE6A4203D5A90DE3A091B803CF53C2CBD581A6E3BA48E503C53B7503D7FEAC03C9CB5683D28A49E3D2F7458BD0D68DCBB5FCD00BB4AF6E0BC26B4A03CCB76883D5E0F60BD1D56C4BCF3CBB8BCE569683D58018A3CCFD6E03C9FA394BD5386583D78305EBCC671143BE1B1903D2A0DB6399DB400BCE877743CE9308CBC3F18483D33BFD23D6F35E6BA539100BD35EA88BD1104EA3BE560803D2DDBC4BD2550E43CC70D58BD2D45783A931380BC933624BD0C46003D57792CBD65B9FCBBE1B120BD0D93123D39DB963D0923CE3D593E403D43B972BD7011943D78E9A03D6934223B295BC0BD7120963B9E86603D4A49B03C0CBD983CE882A43C9B7A28BD22E38A3CBC72B8BCC0FBB8BD6EA7583D5080823D1EE748BBCC16003CEBE0883D3E1DE6BBD9FA903C5E3E38BD248A383D3DE8F43D3BE6C23CC93D443CA20818BD1EC0883BF745C03D31A71ABD0C6FB23D06A8503C4CA1F8BCF146A03D61CB5C3D11EC903C9BD9203D1974E43B2144A0BCDD71D43D041588BCB5AC443D52FC043CEF09D03D7F8CDABD6D2326BD760A64BD39C7C83D6FE7E8BC92AC703C680E783CDCB95CBD643FEA3CBD9B483C4E7B783D660B023B2B37803D19FBFC3CADEA1CBD05B10E3D50A4003C5991903D2198BCBCC449EC38FD38003CF6D234BAB0F800BD3A0F60BC29A2803C27C7A8BA8AE5C03CD5C6803A134380BC977F60BCB1D190BD3266363D68AD603D301EA2BCF2A7BCB8B2E400BCFFA7D0BD6F535ABBE79830BB33D5A0BD03AB523D7D845A3C8EF9483D25C9E43D5D8E143C4E9928BD0852463C3A6890BD182F463D6133183C924A00BD4787743C986B803CC4CD04BCB2C4C83D3488EA3D0B053EBD6A592EBD31576EBCF8FCCC3D0149223D787472BD14F21E3D71E93EBD77CE443D358524BC1AE528BBB684703D3D5264BD7BF260BB8FCFB0BB9F7F803C6D8558BD292E623CF4C8C8BD4E6628BD7CB89C3C6E7DB8BC7C6DD03CF6CEEC3D657F083D761EF03986DB00BB0FF2E0BD092AD63C6950A83D19D8F2BC60C9183CADB644BCE8D254BB48B900BC293C98BCB69BB4BD6648DA3CF40474BD5E011A3D50836E3C25F2B0BCD13D28BC647FB8BCBE6984BD6E8CDABD6D7B403D6B9B6C3CB4E020BD47C1BA3CB017B4BCACEF98BCADCFF03AD7E880BD3340E0BD1D4E72BD0EB57CBCBC49CCBB523900BD08A7F6BCC423103D6360A6BAB75840BC080930BB9EB300BCBC376CBD22D234BBFF81303C9575E0BD4DDFA6BCA71BCCBB07DE803D05D850BCC3AD803D1EF29C3D6898943CF0B7803C1E2B9839332A00BD04AD163D7A9B843C8ADF803D68DD48BCD0CCB03D6A9D2A3CAB0A88BD4783B03D4B058ABCC96748BD6320BABD74BE783CF360E8BD21F796BD51BEC83D6797B23D381836BD1E73643BBF17303D5B3A78BD3C6D10BCFE91343D2858ECBC4D32A83D6EA1603D3A44163CF9EFE83CA75688BC43DC583D4B05143C8ED260BD7DB6BE3BC1CB503C26DD383C54D7B8BC9D578CBCADEAC03D360772BD316DDE3B263CE03A7517003BFFBCC0BBF39E90BCB926C83D10CD2CBD71970C3D77C142BD2D9D1C3CF1D07CBC477780BD0EB99EBD184F94BD42341EBCACA328BD34FA583CBF068CBCBB4A903B1FBE60BD742FAEBC312308BC5B7EE0B9299A00B7C97000BD5E933CBC8A57A0BBECDDC0BBBB98803B86BA80BD60FFD8BC85BF60BAB551C03BD18F603CA95484BD4FED7A3BFD5870BD512854BCC224D8BCFC20603D2018343D1D34A0BC409AA8BC743E483C8B24D43D3F2B7CBD0C6CA03D26DECA3C654D903C057128BD1F0B4CBC630B583D6C4816BD3FD14A3D3DFD68BC4F68983D07C036BD4E35E43BB15B903D503008BD58B5F4BB95A6003C29F790BBE912A03D4809463D51C5B23D3D87883B9CDB10BD5B2FA43D2DF466BC99A6743D6DC202BD46B86A3C74C0503D6DC81ABD1297BCBD25B2A63D3854323D136992BC87A5E43D1902C4BD4CAFB2BB999480BBA64BB0BD1701C4BD7234CEBC865F7CBCDA34403D05393EBD030A24BD1304A63D0E34B23D748E08BD459F36BCCFE750BD6B87CC3D0954503D30ECB23C4EE2C0BD23DA5A3C67F9603CCBA1543D503D06BCA367383D24FEB23CD63004BBC10CA03D03E1D2BCF473CC3B8F6BB03D2226F0BD6FE6763C92EEA4BC7B6E783CBA43843A587F00BC4FAAD8BD1A61D23C020328BAEDDFC03AA79B003B219AA03D432EF0BD6949E63CD920303D29ABFC3D7CAEBEBD627DA63D6ADE143CD5B7D03D68257CBD4693DEBD4FC3E83B881C803D1FD1823C1C8E983BD79F00BC1548603D493840BD2677923D31A618BD074DAABD683E0E3D6D26C2BD136C7CBC495AD83D7FE5143D3B1700BCEB77D83C55DA983D760E643CD9E140BCC6F2F4BD5627B8BD1F222CBD39032C3B954180BD130588BA55D380374EE0003D5E4A903D3C43863C581BF8BADD4BC0BD204DA8BD36932ABD787AB43C3F8EE0BD0CF076BD4D12F63D33B7183D51A0103CF41F58BC5D6C903CA0DF243A7E9080BD7C65523C74B0583D6D53C63D7DB9D43CC0A950BD4682B23D3FE800BA1E81803B32C9C03D0206903CD6FD0C
3C7A98383ADF2340BD4A0D36BAE0C1003CBBC57CBCC7ED143D44D0223BDE8140BD5E4938BBABED30BD62D53C3D4746883CE939643C6494F83CC35A383C4E6110BD3DDD7ABC045BE83CB19DF8BD486BDABD1F20F03D4F1550BD3877863D0BABC43C80EE24BCF8CE683CB158B8BD3800CCBD71CD42BD042F0EBC7892A8BCF80288BD59A9443CBD8978BD5ECEFE3D7E68D2BC5C8188BC596848BD3AD75EBD3722403D7F930C3D6E6B603CAC7150BD0704CE3A8BF1403D769E103D0B30F8BD3E195EBD515CCCBC074460BC635B983C9E66C4BC9AE910BB4D21403D3E585A3D224D80BC8F6DC83CC16E64BD4578203D1775E6BB2B73A03D4E8CE4BB9F8A30BD4B6BA63D267372BD6FCC16BD4DEF06BC84B3E0BC9E40C83D6770503D576C94BC161868BD117356BBB4FD003BE352D0BCDB2FA4BD08A058BD15DF983D6D8812BD4DD900BC699B90BC77EE583D6ED9F0BD1151D0BA9D42003D142964BC994F44BD062D083CB51A18BD71A7883D418AC63BFC6DE03D7F98A83CA58A74BB22E8A03C348F78BD5B1BA6BC662958B98B2C00BC82F7643D6D089ABCB07F00BBE53B50BC4FE590BCC257E4BBC2F390BC0AF8183C5CD5D03C9F97603D2A43E43D7F929ABC44ADE8BC99CB643D2FB9B83D3A8962BD036ED83B0A08C0BD7BB676BBB441D0BD023FEA3CFCF5803C7D8840BD3C7FDA3B56DA603C8EC2A43D68B8A03CD7A0D4BD22E7F0BD29DEAEBC146518BD52C12EBD362A843D32EDDCBCD7C6D8BD40DB623CD32B3C3C0DD9C0BD7A03A83CB9AA28BD2F97B23D165E483D79D21CBCB092B03CBBC3C0BBEB9F20BCE201203C96603C3CF34C84BC8374DCBCF91F50BD20549EBCCDC4803CDE8288BD34E8003CD9E9F83D29EE5ABD0DAA523D595032BC141E68BAA2DFC0BD2ACF063D48110EBC491598BC84E2B03CBCB314BD03469ABD16EEB0BD6C97FABCE12054BC4B9620BD79CC68BCE4C4783D1AB3D23BA571803CAF350CBD1C9DACBD0407C2BD7575803BC0F1D03CCE57803D114FBEBC603BE8BD5A8F80BC29F8C83D52DE343D783C6EBCAAB1B43D7F3800BD52302EBD5259D43D234E3CBC083A08BD24E65E3D445D083CDFA9ECBC6392183D59173E3D38BDA2BBB94E90BD73036ABBDF72A03D32A9763D3835E4BCD767CC3D7E66A0BD7AE10C3AC071C03C2BDD783D7129DA3CC45A583D5BA0363D00A85CBCEBCC2CBD334BD8BCB92BB4BCB0A9503D25FF6CBA064B00BC9A465C3CC17718BBECC9D0BD1B63B43D3F71C23D5E8F6C3D1CAD52BD251F50BD167308BC424B70BC2F33683D37A5D8BC3B5A703D3F5402BD780D243D1236883BCDD2F03D5A56C43D1FC59A3D64B452BD5BFFACBC94FE90BB73B2003CCEB4083BFA65803CE11A783CF74C24BCB2BDCCBC34F0F03CF0D0583C3C66F0BCAB318CBD1192A63CD5A0843B3657E0BD1B13763D4046263D5CEE52BD74207A3D741400BB995DC0BD5ECF343B2050C03C6101983D35C0163CE5E6C03CD24358BD5DBAAEBC999404BD5EC310BBFB59F03D406DC83D300C743BA09F40BC673858BD43B3363C9AD254BCEB003C39F50900BBE34E003B0058003D5A4CD0BCD38130BD4584FABC6367E83D7C9ED63BA16AC03AAA9EC03C2AF9883C5204D0BC36C6903D4B74523CA79B7C3D150E8E3D2C8002BD169B04BD307A8E3D5C7D523D4A1CC23D13F6443C89B878BC18D190BCDEC8243D2DF58C3D778F2A3CD25A5C3C9E36E83C4D6698BD6FB7D03D42A84CBA06B6003C6E93003D5739623CC45F943D1AD8F6BC8F49D83C8CD32CBD05F1B0BD4BBD883D0CC528BD60C95E3D2E8E183ACE55C03BEB0320BB9AE3F0BC8A07903D5F6780BD5201DA3D02CE60BD3D02DEBC8A5128BD27336EBCE4FDCC3BF37270BBA897F0BBCF34D0BD688362BB4860A03D4404BCBD51B9D0BD2D260E3D32B45A38F974003D101F5EBCD1D928BD1AB4FABC5F32E83D5A8BCCBC0F9CB83C5C14B0BC868F3CBD50787E3D397D56BD4FC2563D7BB67CBD0FDBE8BD570FBCBD235A5C3A983040BD71B478BD3E959EBA920E40BC9EA4FCBD009E64BC089E58BD029F303D592D32BCC561D8BC8CD70C3C34CE00BC53D7103D72EA303CB00CB03D6884383C52D988BD376E6CBC934DC0BCB8D6B0BCF1A05CBD77D5EE3BF614603BA118403AA89940BC37F5283D2B7526BC957EE4BD2675343C6B81B03D21EAF8BD7F9C523D5E7C963CA425EC3D7A5BCCBD450B663C2081D83CB1A2083D61E148BD6F315ABD54AD943AA1D6003D17CA883D77E4B43BADA8203CDF5344BCE01908BD7E00683D5714823D01C5FA3D5F13463C871DF4BD570DE03CB2FF74BD17FE463D3C2B78BD4F03383C3AA5D0BD0BEE08BD03057E3842C8003BB48200BB6459203CB2DCEC3D69BC4A3CA82E44BBA07EA0BBD566503D731894BD549C683C7EC3503D177BE6BC7552C0BD01A7AABC9B6B843D437ECE3D70797A3AA6D5803D109CBC3D100AB83D6E3C4A3D4B04383B9F5B80B920E0003D2F805C3D0372803D10F7303CDF249CBCF37628BCB1E550BD7B1124BD1C34AEBC6833A0BD4A41BC3CEDAB143D67EFF83B9A54D0BD4CAE68BD5050C23CF65D203CEB0B343C83E0C03D56005ABCD8AD983D725E363D1B8B863D7D67EEBD442BD23CC119003D268B423C8B66F4BD085A403C91E288BC5B8948BC6E98C0BD09B10ABD78FD88BD070482BD30C8D8BD06F8F03C44AA08BB159340BCA5C63CBCBE6D34BD74F064BD24609EBCBEE3EC3D758AF2BCD2D4EC3D4C7108BD0499C63A864000BC9C562C3C894CCC3D03BE76BC9A06603D4A6D68BD64C07A3C1ED508BCEFA8203CF1B1BC3D29364CBD6792C2BD5117363D49A43ABD7E7D0CBD65036CBD1BF134B9A5E4003C4EF5B8BCA4A35CBC0B2B703CCA8A14BD0924FC3D5199663B577900
BC8EC704BD0A1D323D31D1343C48DC603C5184C8BD1E7C723C5BA938BD775E2A3C5F0AE8BD057D743D6A0584BC44BBF03D5D94AA3D5C08DEBCE15D7CBC858D5C3D52E374BD32B6AE3C0A5A783D1A44A2BC8F569CBD3D25B4BC096190BD6A21663D052B723C94F9A03D47264CBBA6FA703CB42C903D0304863D5A451EBC93AF683D15D70C3D1DCF38BBA979C03CC5E26C3D6F718ABD56EE203CD213183D1B1CEE3D741FF4BCF62BD83BA365B03CC50D18BD4E0E7A3D2456323BFD7920BD0D58703CA38A5C3D3B8714BC64E6983CD33D68BCC78CE4BD7DDB803A2AEB80BC5637583D2DB97CBC8F24D03D45BFA6BD6591A83D1647323D200D1EBD57E6C8BC9675B43C1590A0BCA84B60BC1A93E0BC309F78BD38EFB4BD6EC2C43BE9B0F0BD76159CBA4B2200BD4B5C7EBCCDB8AC3C1B8C88395D42003C119730BCFDDEB43CAE5DDCBB899D50BCCB40B8BB316320BD368B4EBB6620403D488E763C906360BD3A3F9C3D354CCC3C18A118BD464554BCA67F503D551F18BCE7C5783C09E8D83C4DBBA03CA255C4BC8934043C863AC8BD308F943AEB0240BCEE26A03BCAC7C03C9CF6C0BC36DAD03BAD31303D13E16A3D7537BC3CD7E2243D574878BCB39B14BD0179ACBD0C0162BD080748BD4D50FC3BF064C03BF0A5203D72E0A83D2ADADC3D6BC6603D3C58F2BCA725F0BD74812E3D43C094BD01FD443D56439ABC7B52E83D1B2C543CFF89E4BD0D1F803AFB4BC03D150A98BD381B803BF461D0BD6929F8BD40FFB6BD358E70BD0AF37ABD0A2BFE3D20025C3B0AA6C0BCEB1F90BB00A0E0BD1C2D04BD06A372BCF11238BD12A678BCF5B934BD660292BD536D9A3C14F720BD63DF3EBD0FE34E3CA29144BD431988BCB40F243B16D6403D214BCC3CC39FD03CE3C754BC0C9A98BCB06FAC3D67AFB63CC8D5383D19C64CBCC870903D76584EBCA96F44BCBA9604BC7D34083D0173DCBD4C7E4EBD127CECBD098B6ABC9FDCFC3D4BA302BD750D8C3D59C1123CCDEBB83D2CF2E23C547B88BD700E483D64B98C3D1D8332BBF082A0B985C8003D61138CBD45ADA2BC834B403C2EE5283C4FC2F8BD128C363D644CA03C32B8103C07EE68BD047C02395E0000BCB8EE84BC0628783BDEC4D0BD062F84BCF38F84BD783FC03D6C9DB8BD71C8983C88418CBD1012E6BCC96D90BC04E170BD48B804BD7A85E43D682B3A3D2C9D70BC91B68C3D7025823C6E2490BC86F130BCC0F224BC37CA10BCC38EF83D3B12B6BC5CC9503C95016C3C95891C3B5366A0BC50DA003C152B70BC6D1F60BD1D2E9A3CA148183CF727D83C44F4C0BD027FCC3D070B3C3D19465A3D4D645C3D4E64F8BC1F52203D5E69A83CCA2A3C3D09AB7C3CEE94ACBD55F496BCF297CCBD535FEE39F9C900BD3A54DEBC09E3F83D425E7EBD3E0280BD0CB7E4BAB105C03D572692BCE1014CBCC09C30BD2C28803C140EA8BD0AB32CBD1BA56A3BA16410BD0461AC3D457A06BD56B3B6BBA0E5E03D095F3EBB7830C0BD39DB08BD73D0E03D0984883D1482A43D23D2683D6B613C3D23CBC03D3458D6BD781398BD512E063D67715EBD17BCDABAD9D5C03A4C28803CD61EA03D3AF25ABC8F6788BD6D15463D703DFCBD04FFE03D3D6A823B6A2840BD6A6A7C3D30E83ABD29C300BBE1A9A0BD76B2E03D1B71EE3D5C539EBD1154A6BCE0D9ACBD4335AC3D0DF9383C86D0483CB05D283D6E1914BD2A3256BCA38DD83D5278BC3D49B0E03C33FC28BCBAD0C43D6840083CEDA394BC2786C8BD75A6703CD4ECA43D35EB72BD0B63463C586D083BCE28E03CB577E8BD3C68EE3D0B15343CD74E843D1526303D436DF43D67CA0E3D1525983D0EF062BC8C8934BD4C6B003CBB47603D2932FA3D2CC6E0BC3D81083CB936B4BD1548103CDF7C143CAFC5D4BD4E2BCA3D7874A2BD070C74BB0FE0403D2D0E223D07E0203D22914EBD0C4712B9955C00BD5C6DB63D6C4E64BD089060BCA81ADC3D256AEA3CBF3D083CEA67F0BD426AE8BD3924043D17557C3B9EA360BD3786BC3D02336ABCBC8E283D096168BD22585CBD5BB882BD006DAC3D153776BD3C79D83BCB1E20BCC019C03D44B5F03C1172603CC42C58BD69B5583CE2A7943C2DA400BD0B667C3D370D70BD45E09C3C38FAB83CE13EAC3D4A0024BD0EE66EBD531F623CF178143A20FC80BD506F60BD647186BD17C3E8BC2DE068BD74B0B6BD257E463D5D6E34BD00F5D8BD67B476BC2798B03C42D0A8BCA2C30CBC5C8770BD3FF9C63CEC4E8C3C8397FCBD10C5E43CC95520BD576CB43D72D306BD31C09EBD4869BCBD2203C83C8A75EC3BC30F90BCB893883D255430BD0B31143D6AC4BEBCA7E6B0BD67A510BD6A2CA23D4D3D44BD530254BD76CD5EBC3F64D8BD7AE7F4BC8D37B8BC6380383CAB48943D074660BA49C900BCB02AF43D55B3F23CA04BB43CB2A1F8BD7C0646BD38EB7C3D6ED7B0BD79A788BCF0A824BD626AAABD683E04BD327C80BD2B10CCBD751EDC3D5FA460BCC469603BEDF590BCD4217C3D4BE9463C525F48BCA951C4BD1B7AEC3AD81900BC473920BD3E11083C19FD38BD5BF7B0BCFA5D8C3D00542A3D2A39D63AAFE0003D3CAFD2BD0A3FA63CF2378C3C1DAF883D7A2E8C3D31182ABB9AC0D03D44EFD2BD5B69003D057D96BD626E2E3BEA02E03D1E8D303C2D2480BB8430203D4CEAFCBBD681A0BA751B00BD210924BD2FF238BA856F803B922230BD7CFB52BD61EA74BD168014BD04A16EBD10782EBD24AB303D387AD0BD651A483D52CBE2BD3183263BAAF8A0BCCDA264BC2063283D76A6CA3D2ACC3EBD73973ABCA1A2603D085DDE3D5B6CD23C5E1AA0BCEA251C3C987E743D1009DABD31C234BD3EDF36BCC681183C3D0358BD25F76EBD52BAD8BC8572CC3D5436EABD135F2E3C10D0E83CDB97B0
3CFDFB38BC907848B6A080003BF0F7803B1008403C31D2A03D76F5C63D355992BCF7E7E4BCA3B3FCBC95D970BD04C61EBD5DA26ABD4EBFB4BBD24BA03C3F23C0BD206CFC3D2E37683CB919A8BCEA1E28BD192FE63D60170CBD01744CBD3985AC3D0BD218BD6CA7763C99A5343D28E9263D66B5ECBD37AAE03B9F6980BD4283D63CA54C903C2E0D00BD7C2FB2BD04A146BCDA68B43BFA3CA03D4DC7543C46C748BD2DBA32BBD4BB603D2541B43D4F6C2C3C328548BD20804EBD348CB63BDFEC60BD1D138E3D5BD49A3B435EA03D52132CBC1A1100BCC28C4C3BABEFA03D6BAA6E3D01B4B6BACC4B80BCDAB8803D4BC128BC93A0003C5F3EE0BD7B04063D6AC322BD13E6003D18F6CE3CE08B14BC87DF703D1FC9D03D1137BA3C8A5F04BC4E9F103D58F4DC3CE69358BD2056C2BBEE3E60BCC31C4C3C516BC83C4897483CB4CF00BC3AD4383D4BF33ABD37895A3D01C75EBCF470BC3C2B51C83D434FEA3BD069C03BC22920BD28B4EABB35C1E03CB2F8783D38D180BCCE9608BD4943DCBC88AB903CFC87FC3D0BDB203CD408243C2DE9B0BD21269ABD13DC603D53747E3D2B2C1A3D193B7ABD7CB83EBD2525D63D545584BD01B4623D2CCA923CAD3234BD352C96BC9CF1C83B7B88A03C820EB03D1A4A58BCA88D68BCD82684BD456572BB03D2E03CD586B0BD264DAABCF24F8CBBCF65E0BCCA40583CDD7614BC5C83683D1AF4C8BD7F351EBC41D8703D47FF16BD3975D83D738096BA1DA6003D14FCBA3D09A6D8BB95CB403D6F0AB03D09AD5A3C92C230BD0C2B62BD602EBABD6BC1DA3C574D50BC8203183CE1F6A83D4A8BB4BB225B00BCC5619C3D50D4FC3B83E4F03B7384203D4EED4E3CC64C403D716188BD423A2ABCCEF51CBCA2C70CBC006B28BCAED27C3D1F49C83D654632BD54585C3D6DCF46BD489138BB43D1C03C843A08BD57CD36BC999F88BD485FC43C4A51D83D437B383C032EA8BC154CE0BD120A5C3D3B30FC3D6FF944BD0F10A23C263338BD30BB2E3D14976ABD32B9AABD05C89EBCF9201CBD16198A3C876F843D5CCBA63C301DC03D5AD710BA180F803C749898BC8B4D54BD0213D63D5188A83D427A723D6266E2BCC1C5A83D0410D0BD1040BCBD4C691A3C1BB9C03BE5D1703D2E3CBA3CA93F883CC08DD8BD5A97D43D66300E3C943770BCE24A8CBC85C320BD156EEE3D2DC4AC3CBFA2F43A8826003BDF0EC03D3D7398BCD598283D04AC16BC1D0010BD3A4B60BD569EA43D245C1ABC5808F83C07BA38BD262A5E3CF2AB043D7ACF2ABCDC25BC3CCA67CCBD0F3FD43CD20444BD381984BC776460BC9362443D1438B43D5ADA443CB3F2743C9CB7483CDBA0D4BD075DDEBCB34C0CBD51C4C43D60F094BD666830BB6027203BFDFD70BD1A95523CA7FC7C3D209F023D15EC723BA7B1403CF941B0BC1F96103D31523EBBAEC5003C84D3E83C9E34A43CE6B580BD62AC303D4764743CEF5DF8BCD95C14BB7E2720BD792488BD589B603C8F734C3D4F9FB6BCD890BC3C963668BD7F2794BD0EE55A3BAB59C0BD4977C63C609238BD25BFD63B989EB0BD37B9543D37A0DA3D6B35E43CDC20F8BD4F0E84BC70C6D0BD7A0E24BD6AA77A3C9A97B43D093F12BD6F089C3C2B20083D42D1C63CDB05983CBA26FCBD59DEC4BD15417EBD393610BD020F1ABD7C5A483D1871F83C5E3F80BD17BA1C3C85DD08BCD6CF483CC4BE68BD428962BB949F803C7F7E80BD01FDFA3C0092D0BB112200BD24591ABC930FD83D3FD952BD595904BD3F84F03CBF4314BD21B39C3C98AED0BBBE2C40BD388C10BCCF01E03D20DC2ABD2A8258BD548DBA3D7E9BFC3CC47D6C3D5B315E3D382F8EBC4FDC70BC4A87503CF478AC3CCB71483D1A96883D3B55A83D3E7F6E3CB6A2D4BB1F4480BD41CB42BD5B843E3D3B2E9ABD66F38CBCBAD9F0BCD1B334BD42E38A3D0E4572BC5FCC583CEAD64C3D2D6714BD698290BD537364BD31750C3C187C88BCD679883D41FA303D018742BD0A4D12BC3055803A8D33403D7690EE3D26747ABCC7A040BCDF0B58BD1581583CE51CD0BCEA665CBD2DA2263D5C676EBD2F67E0BC4701F0BC811320BB9981B03B4740403D530662BD5E9F6A3CDCED7CBD512A52BD0CBAE2BD695D6A3CAA7EB43D7BA72C3D4BC798BD7DF400BD7A4BBABCF8D9CC3C6835D03D75C51C395EF200BD55715C3D140EBE3CAFD13CBD4BF1F83CADBFB4BD342B2CBD6A06683C135D70BD4C1F36BD3959B23D21990C3CF57B843CD607ECBCDA85603D4960683D2EFEB4BD196E003C597E70BD7BC110BD2434EABC094158BD34CCC03CA6C614BC15DA403C247F803D23CE6C3D54807A3D1FD5A03D183CB4BD2819F2BCEA92643D0F0A7A3D6B5876BCF97D683CD6644CBC71FB80BD4B3DD23C12B358BC51E9C83B06FC60BD4CC6A6BBF0DC203D355646B9265600BD275766BD31B818B7BED000BD566ACCBD324E22BD1A2EC03C95B60CBB0A0040BD39C014BD5EDE80BCB2DDBCBD3D93783C93EC4CBD5EA7C0BC2F0D783B08FCA03D50A28E3AAA6F8039E7A9003D5A4E943D501A72BBEB79003C5BE9A8B98A6E003CD491143ADEE8403AF89D803D222C7238BCA400BD21E3D6BD2EBDA03C35CB003C0372883B4E78A0BC0B6330BC52BE883BC218703CCB53583CA213F43C05C8C8BD0F64F63D62DEF03CAFBAB8BD4D263A3D726CBA3CA8F6B43D2DD058BCF5DC30BBD93B50BD123DFA3D215DB6BCE2DFAC3D0BEEF83C8B66F4BD66A230BD78C57CBD1B3B3E3D73389ABA42F100BD401A1EBD55B3DC3D083D8EBCC03C9CBC899D60BD3F2FCCBC830488BD55EC663CA36DC83D06E6B8BD38E3683D7D52DA3D1B93C0BD1F57AEBB2DF440BCD0332C3CD47050BD5E275CBCBC82F43D2D93083D3CB8D2BD5029423D40B2063D5F1558
BCC352D4BD322940BC8F1040BC984950BD547280BC82B8D83C7E71B8BD0511903C383C30BCB44BD0BD28C9DA3A75EF00BD28C69CBB3C3540BCBD46043D2F917EBD4D93EEBD370CE8BCBFB88CBD2E0DBCBC6D56783CBB8D74BD283D123CB6DB543CAAF978BD5150ECBD3BD7B6BD7E55FEBC622EF0BCAEB0B8BD0FC0063D733A54BCA747643D256458BD6A231E3CB696B0BC9C5C4C3B9D02103CA5E3303D22951ABCCF3D943D37DE56BCE268683CB87A603B533A403D5284AEBD4943AABD67EF68BCE2E940BD3BFD80BD3659243CF03660BD21BC8CBD35285ABC399CE8BC833470BD25FE063D56C512BD2DA97C3D20226C3D44E260B9517A00BC325DE0BD33CBC4BD61BBF2BD0F225EBD12E786BD184D5EBD5AA4563D36C36ABD0F8364BD6F72B0BC4C2A78BD45F3943D13A8EABD1C0E4CBD79A4D63A143780BCB6DB083C8DA5E43D7AF874BD23011C3CA01BECBD2868923BB547603BC89B303D3386B8BB2C69403C21D258BD7D51823CF2CFCC3CD39D8C3CF6311C3D3C975A3CB464683D74887C3D5D03243A9B51803C9E2EF03D42E10CBD751E1CBD0E2ADABCAC2FF43B686140BD4CBA0EBD5E4956BD1E21E8BD440C563D5BEA22BC9B46203C95D17CBD68B3283D116ECEBD42BFF4BD668BD2BC23C238BCDF0E443C03E110BC63D4A83D5C59203D138BE2BB842C30BD39C8E23C7F72C0BD1960543D645B243D0A428ABD4AE2CEBD7BDC60BD30D68CBD3487E23D23658EBD5E5F4ABCF2CD243CAA3224BD2366103D6C112EBD22286E3C27A4C0BD4573563C6289603D77D5923CA20D58BB5D38603A966B00BD3733A2BD33189EBCC6F9343D04C830BB6D1A40BCE118D8BD62ED38BC8A5928BCBCB728BCF020183CE87F0C3D313788BD4149A8BD41311EBD1E6A723D10B1803D7027A6BC0CCC203D70A7723C7DE8D8BD09D7343D6890BEBD7E21D23D708AC63A874340BC68D1003D00A5803C7BE868BD475898BC381778BCF6FA40BC044270BBF1E0403CB4FAFCBD5ED7F6BCE275B8BC630E50BCBE70F83BC84D003C9623E03D4645D0BD68538E3D057C62BD2482D2BD49F9E03D15C50EBD3F94AE3CB93B483D14B63EBD3D99763D51F1AE3B6073203D42EF0ABC98D76CBCD58D743BC1D650BCDE5B68BCB334983D3AACBE3C6E3DF8BD6AC6BE3D47E0283D16249C3D7C00FE3D06A09A3D4ACB6A3D1F39AABD150BD43D42C41CBC0EAA68BCAF5C28BD40C6B63C9F118CBB135A20BD3767CCBD4DD39ABD4EDEDE3D6F612C3D52C64EBD5E22F23D143D36BD2FEEB0BD7A49B63CA98444BCB116F43CC3776C3C303AE0BB272C40BD31354ABBC3CD00BCBCB534BD0E13623AA82C80BCEA8828BD1CC8AEBD511B48BCC71A3CBD7E1ED2BD3FCFF2BC69D608BD7057A63BE8ABA03CF687EC3D0098F83C7D7B90BD76D7BE3C747770BD5BDE4E3CBFE4103C2DE9D8BD10B03ABBBC05103D03F0B4BD61D68EBC8DF474BD1FBCA23CD6FF703CA05D84BCDA0070BD7AF628BCEC6290BBAFEF903CEF69D4BD4DB3AC3C8C80DC3D103652BBECDFA03CC3E394BC038FC03D4F5780BC3EF6183CCBE6CCBD3D4BDE3CACB2F43CF8AA343D05630EBC07AE2839B3EF00BD446E78BD75BAB8BD2BE0DABD3224A63D353C0E3C1C7D203D2C335CBD3D64B0BBBBB550BD6EADC83D401BDC3D2FE4B63D17D19CBCC3573CBB966030BCB7F33C3D4B0A903CABE2303D352D9CBC34D858BD4522E0BC00D678BD764F063BC420D0BC681A483CC1EC383B73E0C03CC702F43A58C180BB3D07203D37BCD03D7DEE9CBC9C9300BCDDD46C3D43073EBB8EE4B03D6DD0863D750CFCBC6C26703ADDA480BD039E78BD57111A3D26F1BA3D7D7BE6BD7E0454BBC3E1703D2A036C3C5E51503C65DB083D328D68BD137D08BB6766403D70A8143D6C320C3D44C6303C08EC303D74AE183C0E8CF8BD39ADDABD321334BC90F8B03CA96D50BC2923E8BD2104AEBC99D3D03D0C55AEBD1B7A80BD4053D6BC23B2203C6CBD90BBF39BD03C00F8F03B6738003D0809EEBD675BCA3C16E138BCD8BE583C87C5D0BD11F3AABD7FB4CE3C0DAD503D5F88803C0FF5C8BD0369D2BC9652F8BCAD32A8BB03C060BD33092EBBC3D160BCCC1E68BD6879143CB06C003D4526903D1256C2BD3F461CBC54EDD0BD6F3748BCEB30D03D71EF96BD73B9E6BD476342BD48D6B03BC29BF03D5375D4BCBC77243CCF12E8BD25B8D63CC1560CBD0DBE043C333EC03D6B13523D4EF1F63CA4314CBC5B86B0BC877F903CCBD6C8BCE321C43914A2003D6222A2BAD02D003D7857CCBD47BFA83C61A2F83D00C13EBCD64EAC3D62E954BCF734803C10C918BD2E1D2ABC501B203D78AF26BD3598ECBCBCF8E03C3561583CFA8CF8BD046F083D5ACA80BD17268CBC1C28B83C7F17883BD5F940BD47D8F03D261E463C0DC6D0BCB9F74CBD730BF83D0D0952BD0179703D5C20FE3D385918BD0566AC3D72B1ECBD725B223D193876BD37102A3D65A20CBD20545A3D0B23E23CAC9438BD70DF2CBBAE81903CC809BC3D23B5FABD1230DC3CF5E5883A06F4003A8BF980BBD6ED80BD58142C3D4A59F4BB3224003D3B098CBC56A6D03C97BFD4BC1989A03CB7C304BBE796D039DF70003CD684403CD544ECBCCF71B8BCD522F83C4F75F83D5BE1EC3C8DF108BCD029943C35F5C0BD5DA85ABD717F5E3CF16DBCBD32E05ABD7F3F78BC6E4560BD4221C0BBE3F9E0BD7B5A48BCDB7738BCA823403C8FE4F0BD60209A3CF1FA243D0AFDE83C1144F83D052B58BD17E468BB9A30403C6588083D393DFEBD1C82C63B753160BD0E43663C754348BCE1CBACBC882364BCDB39BCBC1BE0E8BB44A6A0BCF1B0A83C06F440BD09BA563B629820BCA702843D420E7ABD006190BCB749203CE1842CBC865190BCFA3BA8BC6FE158
BC6DD0E8BCF80064BD04CEE2BC7A14F83B57EEE0BCEC664C3D635F403D422506BCAF0B20BD7443C03CF0F8543D764FAC3D3D60A4BC2C14A03B2F9D403D25ECB0BD185E403D5F65063D2397C6BD339EFEBD4DAB423D6EEBC4BC88B9D0BC8806E83C91F9903CB767F43D65F870B99D4C003D3AC95E3BD98320BC91F3BCBD60D71E3D781A50BA51BF003D34E8343CE8A3A4BBDB9D40BD2B950CB9E35600BD1A5EB0BD2F2EEABC1C8EC8BCB0EC98BC787AB03CF6F700BC960D9CBBB63430BBB582D0BC7941A83D76E6BE3D3A784ABD6BD99CBC613AD83CA2C49CBCE035143CFB1A343BEAEFF03CAFBEECBBCF6F003B870400BCA368B03C042AC03D0D9D20BD7F75B83D574588BCB483C43D4DD2FABD4297E6BD0BC21E3D728130BD006DB8BD5EB736BAD1ECC03D6296243D18418CBD1304683BB7D920BD680884BD51845E3D34E1B43D2D98263D3F7E0C3D01D922BD1197B03D4AB14E3D431EAABD49BBECBC88B300BC2F06B8BD263E24BBF3505039C9EE00BD01FBDE3D65E2EEBBFD8C00BD242FA4BD385F503C63F8A03C030C203BB55040BBDF3C20BCE3A630BBEE87A0BD7F87FCBD614AFC3CE56CC8BD010D12BD4070003C997E00BC478A18BD3893C43D4B722CBD6A56ECBC2E80F0BC8657E03CA86108BA4CAB80BD42C29ABD332604BCDDB30CBCDA56D8BCAB86D8BD222C40BD40EE66BCDDA5543CE867C0BA19D900BD7A6C8ABC2F47A03C4529E0BD3100763AFF98003CD3B004BC6F00C83B65FC40385B98003BB8E410BC35F418BC200A10BD7387B43B8E05E03D01E31A3D4D49D8BC30E4F0BB648820BD6F20883CE788783C5943D03AF8B6803D761D42BA76988038E3E0003CF6C3C43C9BD8203D56D3803D6705E4BD3FBB663D632924BCDCA7E43BFDD5F03D4EDC643BF463403D35C8CEBD0CF7FEBD53DEDEBBA66230BD2D35363B6FA2E03C0DC138BBA0E490BD603E04BC6F4028BD1E21FCBCB02508BBEA19903D215FD4BCB73E40BC83D9E8BC8925D8BD5CADB83D5B9904BD53443E3D5937043CC3ABF03D4F27303C8BADAC3CEE346CBD635EFEBD739F923D6D74C23D3CD750BD21A8023CC40E0C3D1B80A43D22E28CBD46AB72BD3F4D3E3C934FC8BCB396B83D6E90D43C56A2283D2E1EF4BD741ABCBCB1DF083D13D9503C24E2283BDCFB40BC67A7D8BD64B18C3D6202B0BD56638CBBDD6310BD7D3866BD5AA5CA3D1AE1343D14F23ABD3414B2BC65C6F0BBAE8920BCDA81ACBD350DB63CFC6FBCBD21591EBCCC5F803D00BF90BC9A0054BC1A7388BBE39B80BD39AF563D3B09E0BC10CA00BBCEC5503D68B9063CA164703C0B1F00BBDDE2B03C227AB0BCB560883C846C483A2342003CD6A93CBD2E34A8BCEADA10BD66F466BD26EF883C878574BD45883ABD453F423D0C9BA83D5F9670BD2C30BCBA68DE00BCDC1BD0BD2764F03D613CCABCEF42ACBCF5B9ACBCABA20C3C0498E03BCB59403D0A66163D087EF4BD708D58BD6B2FF6BD013192BCA38C503BDEBA103CF00308399F3E003D4E79A43B1120E0BCBE864C3CC8CC343C2E38F03D6CAB2C3CA1F7243D3D33A63BB255A03B9BAEB0BCA67DA03C4FD5783C21DA783CAD4AC43D29B960BD77BEA0BCEBF9603D0706983C031CE03D0494D0BA3BE480BD46D4EABCA1D778BD46FD063C4363203CC3E5AC3D01AE9E3C9229983C0A04003BFD42503D4CBC86BC8366A8BB37FBC0BCCF3D083C7C83A8BD2C438C3D2DBEEE3B947080BC8F5C0CBC9810E83D02B8D6BD05AB0C3CDAE514BD04843A3D71E25ABD3AAA30BD43D446BD6268903CB67A003BD71570BD7AEA70BD3F3E96BA754800BD7EF856BD325E22BCF15AE43C4B7D70BBFABEF0BD5C96BE3D1937C6BD63C916BD6CD9BEBD1ADD803CC846D43D03C3583CA716C83D2E66DA39E753003D679BB0BD3773DEBCCFED64BD4FDB8ABD6FAAF0BD1F315E3A32AD00BD1C9224BD15478CBD7E61423D7A719CBD7FEB4EBD6B3DA23C72F848BD4359C2BC5D37B03CAF9E143CBCE1F43B7F65603BEAF630BD5987CCBD22A18CBC2CC370BC645D90BD4E600CBD1FC4C23C8A2EA83D14E9C8BD2936403CC8E180BC925D88BCC231483B7D06A0BA685880BD2A04543D22084E3D6E4F86BD6AD8D63D2877C6BD03E568BD3FAE083C8C2F84BCC629A0BCE3633CBB8169B03D7D32C6BD7F26543D0E603ABD11962A3D79ADAC3D5D3D143D6E8E6A3D639DFE3C8153343B4EDAA03D5C2CF23C9612ACBC8849DCBC7EED10BD12366A3C324B88BBC97E20BCB9CD7C3D320F083C706B803CC481903D022DCE3CD66EBC3C5E7C30BD244906BC66F5583C76B4D8BD78E9483C32CBD0BBAA3430BCD32AB4BD57622C3BC2D6203B507DE03C91ACEC3CCC5050BD25D1E43D3B3FC8BD4E5B4E3D5DA6823CE6C72CBC13F1003CCDD8643D2EF4BE3CFD47E4BD26A8FC3C590A783D00CAE8BC3FBD08BC659F483D12C1F03C254060BD59E66A3D044D8CBC402EA03D70C8D63CFB26303CEDB8F0BD482216BD4BB6A03D3B74A63D28CDECBD66585ABCAD167C3D26B1A2BCDBBA40BC8EA0643C7344A83D66C574BC1EADD0BBC67650BD3C2EFCBCDDD0A0BCA6AC583CA5521CBD1D67C43D54EDC63C979AC8BD20E35C3CBA6C64BD39E1223D4EAABCBC289368BD6BC7843D2E7D783D14EC9E3CC930E4BC9C08203CC98E483CDA9410BC2364303CEC4A3CBD6034743BF635C03C6F1938BBBDD7F03D797D5A3C512860BC3336183D03792E3D547D903B9969B03D1809BEBC673FF03C144A803D22A1A63C34EED03D538260BCEF8AF83CE2097CBC996F08BC60E8903CEF0258BBCB10D0BCCE5F703CA11350BD0B7B5C3D167E2CBC73E5C0BCBE44BCBD5718323BE5AFE03CEEA998BD75A4143B6A29E03C70ADB8BCFF161CBD402CEC3CA05A1CBD3AC166
3D0CD3603B7FFFC03D1A4F72BD56ADFA3D0BB14C3D120F723D5B1F8A3D16FF9CBC79DC703B6CB2A0BD256B04BD3F980EBCF8D9BCBD45FE883CB56AF43CA0A170BD38B83ABCDA8728BD3B84583D5D60CC3CF7F0743CC351D43D705380BB49ED40BD251BE63C9830743C844A103D5A2B143C80291C3CAA5DD43BB44400BCFDD280BCCC6BB0BD7F3260BC7B63F03CFDAC68BC9D2E88BD192D86BD27AE483D7CCE5ABB0B0860BCBFECE8BCA4F1883D7B72E03D313F3ABD7111343BF194E03D2E9B52BCA864D43C8099183BAC22803D620824BD70B810BC044110BD01FF96BD65DDB0BD02A2A43C165D10BCDBC950BB91C9F0BD74A6FABD65178E3D0AB17CBD02380ABD3C438CBC3827683C2DE138BD7916EA3BD9B2A03CA204983D5D89A63CC43DC03D7D5BA63C5D26B8BD0405F0B9370C00BBE0FD903D09C79EBCAFA9143C30E5B03C3BBA383CE9E9C4BD6C7160BC6C54B0BCDA6F48BCAEB318BD126C24BD7695023D5D9F0E3CBD2DE43D6A9692BD5CB56CBC0725B03D4899FA3D3717323D15128E3D59BC203D4FA7C43CA19D6C3B85AC70BC50E0D8BD3639963D2885603D141AB8BA84D5403C77C1D0BD4FBD183D68396A3CCF4EB03D236F203CA7E228BC5C4FF0BC4CC0483D65B8D23D3F97683CAB0B843D08BD52BC18A5B0BD2A9B9439CF75003CC1AE903D4907E4BD6D99B03D391414BD25D8AABC673C503CE9A6183D11F814BD4C1DFE3D011D2CBD3225C43D5DFA22BC87D630BC257A083D50C53E3B9E6B00BD052348BCFC7DE03C872E14BD6F1B9ABA84E100BD06C74ABCD4671C3D07CF3EBCF91744BBAB8A003C642ED83D1C6A0ABCBD43703B2249403CE506843D01B2763C6E6F903C83D42C3D6A7412BD0F0C3E3C59A1C0BD2CF6003D14EE4A3BF95D903C1C5FA03BDE7DC0BD6E9F44B9ED3B00BCFD88743D12F754BCCD08E03C7981003D4BBEEA3D554344BCA4EE883D05A9DCBD1CDFB43B191E003B8F39403A459F003D7BE3A8BCC248D03C15DD28BC0AEEB03C982988BCCA23603C7C16F8BCC6F8D83D734062BA16C6003D757BF03C9E8FD83D21C9443CB62830BCDD4394BCF76704BD3F5EDA3D13587C3C1E59F83D4929083D6F1500BB0D5B40BD3A5970BCF9DB18BCC1C4083C5570C8BD066E923D67317C3C7C27083BE098703CE847F83D01D7963D2BC0D23D4DB8D8BD3B85E2BD3B59D23C433DC83C6A18B83C435B60BD5B14A63CD3AE74BCF94DC83D42F21A3C71E1D83D54734C3D2FEFC6BD033916BD5810003CD87108BCE28FD4BC9FC8943D26FA2EBC1597B03CEEFD44BC8351EC3CE391543C4C4718BC328DC83D1BF6DEBD7FC272BC801138BAAB8900BD23C1CE3D537B163CA26C30BC334CE0BD4995FE3D5598D63D595EEABD324FBEBCFECDD8BD625F2EBBE59B60BD3132EC3D4C81D4BD6A14CA3CFFED9CBC04B3183C95F4B83C03BD60393C92003D1BFC103CBC7950BD090C68BD1E6EA0BC363338BCF6F1CC3CC21318BCF8C6D0BD5801703D54B518BC348FC8BD716AC438067000BD735B883C26D920BCE32D703D72FE983D6E4C703D2AF7C63D63440C3D3D3252BD7D7CD83AAF29003D5FB12A3D6CB95A3D55AD52BD4097FA3C85C1AC3BB717803D4A2F88BD4594363D022AA43D3DE3223B9EDA00BCD41E98BD60A90ABD2658B0BC9F0E043D3C06A2BC28C780BC614F20BC3D0A38BC352FA83C9209743D53882C3D6D0E363C77ED48B9BC69003D0C971A3B0AB7E03D2E66DC3C153F78BC1DC9B83CA5500C3CDC0A28BCDAED9C3C7810303D76C4D83CB35F10BD33BE48BD1140F4BD3E1FD0BD6D0C4C3BB4F5603C8630A0BCE50508BBFCB8703C79D5C8BD53D5C4BC818940BD7C18C6BC42EBE8BC8FDD0CBC5786583D72CB183BDFB400BCDE3C58BBAD9F70BC8994503D0085E03D7A02E83CC88EDC3D4273A0BCDC817C3D31F8EABCC954283D4B5ABE3B1AC7003CF71EF8BD0560CC3D6267D4BD01BB7E3D3F7044BD2FC1E4BD3832D0BBF9EC303D43F6643B5D0CE0BD19EAAA3CD2C4703D5B255C3C4ABE10BD37E458BCFA3F683C3FAD203C149A18BCBACDD83CDA63E4BD610C543D7D7E443D6DFB8E3C99D6443A58D100BC8307543CDFF5943AB22180BD52F7343C29B6803CAD9CB03D6E87643D1F53563CFAD5A4BCFD1C583BE0C410BCC494003D4126043D3BD182BCB1BDE43BE902A0BD231524BD0FE222BC9DC6583D0C151CBD7B1D6C3CB773ECBA128C80BD53EB68BCEE556C3D4CDD4EBD52813CBACD6E40BCF47B40BC1E85E03B6A45203CCF96ACBD6C60B0BD1C73A83B3368A03D3BC910BC2AFC983D450044BD3C4000BD4EE1D63D40FECEBD23EF96BD2D57E6BD756DF43C45C9603BF943B0BBF4A4603B526CC0B9FC42003CAC6AFCBB54EC603BBF95D03D39D990BC82A734BD54AF023D5ACDF6BD6826C2BD734E0C3CA84DFCBD73891A3D56C620BCC9B6B83CE201683D726E30BB0666003D4323B2BCE2A6B83D6739443A77AD80BD0D46C8BC1A66903D65FEE8BCAC14CCBC1544983BCA0880BD0E059C3CD27D103C4A91283C81E190BD1AD9803C8E10643BA055C03C94E6D4BC8D1414BD6706E6BBA860D03CDF7BB03BF060E0BD4354B8BD43FDA63D4A0E723CCEB2F0BD7366A23D361FDABCD35630BD12C4003D44D562BCE2D028BCDE80A4BD7E69143D52DE1EBC43ECD03C69D6903D7EDE723C17DD683D2ED3B6BD18C08E3D5292323D413658BD17C04A3D6A6A403936CA00BBAA7190BD3583F6BBF9D2103D2EB4EA3D6D8C0CBCD6EF78BCE1E150BBB1E5603B7900E03B2A37A03D1A2E463D25DF243D5656F6BD3733CC3C9D3F00BD27AC94BD5C3B2C3C65EE38BCA50DDC3D50932E3D1C37523D3D1E203C69DD183A870B803D6256883C5D8570BC3C71683BD31690BC5E9F80BD5FF02A
BD524BF0BD1A58CA3D6F8CBABD3F02883B302AC03C8E5A88BB4E8560BD5B69EEB918CE00BBC61C603D7A8928BCEFC44C3B0835C0BCDF6CCC3BA011003D56D022BD0CD10A3BE27DE0BCFE66943D693D743C548F70BD375C383D1FE7CABC8536F8BCAC79F4BD38D00E3D1CB37ABC3F0E78BD6A75943D1F4938BCAF22903C283DD03B509E003CB97888BC8FC7843CFDFD603D31A22ABD55AECE3C839D54BD622A0E3D045F0CBC0944A0BD4C53F6BD160E2CBC4A79E0BCFD5120BCE2F248BD050B0EBD199F223D499918BCAE0C4CBD1FF50A3D5C36943D2CAD8A3CE534F43D611C94BC52F6F8BD710A20BD2C897A3D256B04BBD582003CEB1D143C95F13C3A987C803BDDAFF0BD029C343D3A025CBD140DC6BD3875C43D6BF6E03D278B9EBD0112323D42FFA23C0FA9F0BD1E742CBD07BD523D5B88583D478956BCDA902CBC167938BD4DEEE63C4C36A83D1D45B43CFA727C3D626B303C4796783CEE5A60BD0631343CC3562CBD71EE823D4012D8BD66FF02BC611DF83D3E87023D5F29C83B8729203D130B50BD10ACDCBCCE0714BD398E2CBD797CAC3D408CD23D16A896B98A0E003D7BD3DEBCCF0F9CBD05CD02BCE08CBCBD01DF303C12F0103D1D2E103CFC5F9CBD7E8CD4BCD9B3F03CA8FE5CBCE47DB83D5D033C3D5CFA5ABD0D3B20BD5AD42EBD65EFBA3D0418463D6F3D70BD51F63C3D265E7ABD06FB82BD020F5C3C401FD0BD5A54D03D1C13E23CC84BC83D6F0F943CA3CCCC3CF137383CE729843D614B0EBD1E338A3D1A3F8E3C892CDCBC4E27103D3C41503D636F2CBC831920BD53CBA2BD59520E392D72003C9AE5F8BCB5DDCC3CB8BA783D7AFEC83D748C903C815C34BD438A563C6CEF48BB3864C03D421492BCECA7F83D4FA4F8BCAE73FC3D678A3C3D511E52BD54F27A3D461DE83D26E6EA3B436700BD3D9B2A3C2D25383D4799D23C8FFE4C3CCE3810BCEB6BC8BC99285CBD5E4A28BCE6C224BCC107883D03938C3D56A5723D4598763D66DBC63D383FC8BD6BB798BD241F56BC9CC2843B6574403D57DC023D5945BABD6F8D0C3B505B603D59D712BCB0ACC43D20052E3D33DF86BD68468E3D14D658B95EEE003B945C70BC2A79E8BCA7AC00BCEA42543D3CA6063D47AAB4BD0E2584BB433BA0BD7ADBE2BC3D73B03D576CDCBCAF60ACBD1E8D3ABD57F16C3D30A354BD3A0FB43C2C42F0BCC804F03B659500BCEF19543BAF54F03B99B7F0BC02AFE03B9428A03CC0E6A43D7B1118BD60E4E63D3255CEBCFCB3DC3D321E363BAA92603CA9A24C3D50331CBCE686083D0CCA4C3D2271EC3BF1E0E0BD06B12C3D2DA186BD3A0AE0BD31D51A3CFC4AA83CE56F5CBD3D4F48BC0435303D71A9E03D2820A6BCE2F2C4BA163080BD635B1EBC473CF8BD495782BC92BEFC3D05C39EBCFD51143CDE11743CBDAE08B88CB400BB8F4CC0BD3A1484BD7960A4BBEA6EF03C9EC3DC3C4196D0BC0DC8B8BBE88FA03D345316BD1DDD223D5BFC363CA74A703CC6C47CBD175F78BC4914203CF373EC3D378BB6BD16A6A63D740A403D57E4783D1C0CD4BD660CB63C89DA6CBD7B01ACBB9F6470BD1857FEBD60B0E03D46BF5E3D1DE15EBD01B56CBD3AA84CBCFF4314BBC48EE0BC40D8D8BCF8718CBC43CAF83CEFBFC4BC62F220BD591438BCDC9EE03CEAB8C4BCB4C7043C6108F8BBE68A203CE52D98BC7AD4A03BC2AB00BCC3387CBD4E63A6BD51DC643D77B5683D103E10BD331318BC3597B83B921DA0BD2DB5F4BD1E268A3D032B88BC958A54BD2E905ABC7064683CD0D36CBD7FD4323D455D86BD221F9A3D2402823D65A0EE3CEBE6E0BCFF08A4391F1600BD083F2E3D7367ECBD0EB2FC3D50D4B43D2B52423D3442A43CE6CE70BD3A7460BBB92140BD69F7463D35E3F2BD1FF4023CFC58E0BC7C3DD03D29DF743D1452C4BC4319783D7AD0083D4F57F0BC9AE3F83D4E7DC63D649BA83CCDE04C3D748F203D2C4F0CBD3FAA4C3C52CF603C9CC590BCB21BD43B607C003D53C1C2BA828900BD7625E63C50AF083D2FA7DABD27B8B83CD1F4583AE82380BC0CE928BC4469603D3365B0BD3A0B6CBC6507B03C5AE678BD2912CEBD02EA083D6242D0BD2374063C5467103D26D78CBD2160EA3CE3A1043D444B9C3CF587E8BC93960CBD5468123D51A134BC2CDF503D7D0B92BD2F9530BC01FB003D27E5F2BD075AE8BD5AC8F0BD0725BC3D3A83BE3CF7E330BC87E7B8BCA3E1B03D20291C3D22A3443D1069703C37D338BC448DD03D7A2A9EBD74BC90BD64CC6ABD13B3543D576E4A3D131B463D3743CC3D73DA70BD5CCF3ABC31FEF8BC0A48E83D01D9C03D38EB20BD5A7568BD5C68943D3E844CBD06A966BC8EEE583D56A552BD06E7F83CC8DCA8BD787CD83CD27D183D015D243D1933B4BD1085183CB03B443D5899FABCCDC90CBC3CBBF03C88FEA4BD56B5FC3D0523B4BD7F6A08BD2BD8643CD415803D0C27EEBC1D46A83BC01510BD49097C3D1F83BE3CB61D60BD09DC3E3D5C5864BCF7D534BD72BDD8BD003E38BCED70D43D4F9D1C3CB569C0BC33BC00BCD7E58CBC2345983B9789503D131636BD01E83EBD398B003B925C103D05EA74BD45E03CBC89B480BD5EC3123CC8D9B03D75F840BD5E414A3D2A574EBD460CA43D69D818BD7D478E3C0820E8BD3234143D701EB63D7931EA3D0651283CE8F7243D6155F23D054188BD697ECEBC0F3448BADF5E003D0CCCBCBD3B7E68BD258FACBD265AF43C97E8543D3B0A0EBCA2C1643C0159F8BC370DE03B0F72203D6D88A83AAE9740BD058952BD0ABB023D095D283CA8533C3C88B708BCA2952CBD2ECE36BC8929703D20869C3C48C6403D7517A4BD776364BB7120203AE2BE00BCDFB1C4BD5F3F143D1A9CACBCB51098BB4B91C03D5A9CA43C6446F03BA9B740BD31E194
BCD73BB8BD3DA3D43D73D112BCA708603C8E25D83CCFD71C3C95F6C03D0DB6403C29B4703D04946A3D566F543C81D5B03D56BF023D5253623D634494BC54B008BB0EFF80BC9C0FF43D41205ABD39E2B63D1122F03D2BAE2A3C6E3C68BBFF8E50BA104480BCA606FCBD56B1ECBCF5E6C83D6D0A08BCF09BD03D4F7632BD0773EEBAF794803D0F80B03D3294C0BC16A048BD4538B4BCD281083D652948BC429DB83D2148C8BBCD40C03CFFD9D0BD0321EC3AAF3040BD43FFB43D14B5D2BC68EE78BCEF7F703D5FBA4A3C2EBD783CDE722CBD1ACDB83D3BE60A3C8BA9303CB4C5043BA524B0BD4F80E0BCA39D54BC319728BB326000BCFC03243CF758683D34C6C4BCEEBE84BD1E1108BD3352A0BD5A84C23C4C08E03D3A92EA3D40380EBC6C88383D6DDF64BC197360BC20D9D8BD5AFFD43D1E9F263C5E0F903C984588BC3B8A80BCF767543A593E803B389FA0BD19F056BD5EFD0A3D0191923CC04B58BD247CF83B6CA3A03D59DB48BD464E523D78F3F23D0B7B6C3D6F113E3D0B3B24BD2E5B78BA981740BD6D4500BBC918B0BB8BA5503D32AAFC3D6CA100BD6CCEB2BCB8AFE8BCEAF7A0BD0FD0D8BC523C08BD5328743BF54A00BD0788583D08BE7A3D70781EBD15BAAEBD59DE6EBD23DBAC3D5FA6AE3BB9D8103CF042703D05BDA23C88E0CC3D11D342BCFAB0703D006F4CBCA669A83D1716003CCC48E03AE033C03CDEAB34BC8811CCBD6B01A0BC42FD883C8067E4BB8E7E403BB687103D482A6ABCE67D88BCCE18D83D65B04CBD0A41D6BC1861D0BC2AD2B8BCFEE6D43CFAFA343CF7EE74BCBEE3AC3D4299903B4C98203CD6ABE0BD6412D0BD0942EA3D7C2D50BD28A69CBCE83E04BBD722D03D06C25A368800003B908650BD727D6C3CC74320BC257818BC6467D8BCC7D3B43D4A8642BCB7289C3BD994F0BD267C243CAC06FC3CADDCF43CE742103D793C9A3D73B92C3C6B24D0BD166B50BD0E480A3D01D310BCB635783C4CE7B8BD5102B6BAB69840BD3B0B023D6643983B9F1EA03D78891C3D0F35B8BCD21D703D47A062BC3EC6F83D1FDF0EBD60E772BD310AA4BD7EC1B6BD013E6EBD7674EE3CA695B43C963BC0BCFC9FC4BD5A58943D57004ABD2532F63BB766D0BCDA65D03D074FB03D10ACBEBD3C4BD2BD664796BD3706383CDCBA54BC2AFDB0BD2B60783B3F4DA03D51232ABD043BBC3C1828A8BD7E4262BC007678BD48F192BA080A803D3DABE03C0374883CA8F6303BD940A03D156E2A3D6F1E68BCB47AAC3CD7E208BCDD4720BC2777803BC497A0BBD6F190BD4D4DEE3C9858ECBCAB23B0BCC35FC83D23E292BD4B8D08BD05384C3D68AFE0BD55E67EBCD38C8CBD4E0BB0BC344030BD6DE0803D5014043BCEB6103C48CD48BD376A12BCDA4384BD769534BC557458BCF1D56C3D4C7D9C3CFDA6043D3938003D4C7B58BC422FC83D78E2E4BD0F06B8BD29B4D0BC9A2368BBA8DC003C36DEC83CBCECCC3D6611A63D77A97E3C66C5983CC69C1C3CFD3760BC0FC090BD7F12F8BD1E69123CDA3330BC3B6B98BD35B746BB2D69603D3B3A1ABD4F78BE3D10526CBC71AFD0BD02048A3D63D46C3D579BF0BD4E8EE8BD143E18BD055286BD3F4CBE3D276BE8BB9B07103CAF6EE83D5C62383D61E4A8BD74826CBC650188BCDCC3B03D231A5EBCE3687C3D5E5A483D6CB7363D7658E63D60EAA8BD0864D2BC9ADECC3D1D2368B9602A00BBEA07303BD90150BD55A688BCEC8C643D5A2D663D51322C3C8D137C3D73EA703D4EAF9EBD260DF43CF7CD8CBD29EB883C132C58BCE4B1303D6124AE3D46AEF6BD67EF9A3D2635A2BD56F5343C920390BD438484BCCF86BC3CC8AA883C8905C43CC13644BC0E11583D01E7863C7E5478BCA308B4BD6D22CC3D71CBF03C395D00B9F97C00BD24C83A3D0CDDA2BC8C4C683D09B92E3D2BBAF0BD24AC243C1133603CCB764CBC26A488BC5B92A8BD028E5EBD22ACFE3D027BF6BC1CD1E83D42FB1CBD6E65F4BD101E1E3CD0CA083D4E3EB6BCCA4DA83D0EE366BD095CD23D4639FCBD0032F43C7CA9D83D5856923CF9BB5C3CE34C303CF7C4343D75CD2CBCAE02D83CE882703D45FCB23D4EFE4C3D49EEE8BCE8EB8CBD0B5F68BCFB9C98B9FBFE003D381858BCDCCA80BCA17564BD2B65D8BD11A06E3D223CA23D61993A3D7D6C883BD273903CCB7A843D63C89A3D4577563BC83CF03CBBDB903D11028A3C7C09783C3C92883C9DA9003D0BC71C3D4AF2E6BD20BE32BC73D3483D1C08863D74BDF0BCEBBB603CBD64D8BCB79A843C4C55703CD613183D1299863D05E03EBD0BB160BD09FF443D1AAF603D5DD5AC3BE87220BBA7C0D0BC622E383D5C643C3C04F930BCB700B83D6DA5523CD50D5CBD0FF4083D426C48BD6A7E18BCE6F0C8BCB2F408BD076884BD32FA36BC4A2CB03BDABB403D48E1DCBB9BD7203C903414BBF819F0BD49BE783C9D07843D54AF2C3D606BA43D4561E83C643FA83D6807EA3D76B47ABD17F7F2BD2F58783D3231CEBD65B756BD0A9EC4B9BA02003CF3A3A8BCA756543B8CD9A03D1672EABD16B0D43D2C807A3D118C9CBD328034BD0D28943D368D0C3BA63120BD23BE463B1A82C03D4D9DDCBD37BB50BC847F303997A800BCDE47D4BB4638C03CE104CC3C236AC03CC5FFD4BC989B00BAAE9BC0BD1A6C8C3D268102BD0FA426BD052FD6BD75CA8E3D7AFD50BB94E7303B1964E03D1B01523D76420C3D4D08963D555EDA3C9C0C203CE62DA43D7CFDA2BC73D2B8BA044E003D6931003D3B7C20BD5024F63CB1A79CBD1311203D5B79183D2489243D24AB92BB4849803C4A0FB03D573502BD0EF73CBD0A856ABAAF7C003D2B029CBD1B864ABCC544BC3D1A2E3CBD6FE6A63D4D76B4BD3BCA64BC0D88B03D505DA63D39A9FCBCCEF57CBD6FD7E8
