BC8B2C00BC808B603D358C2EBCBE1D8CBBBE1BC03D03EE3ABC233FC8BD06CAA0BD550B343D33C31C3CF1525CBD2C2E963B3061203D3720503CAB720C3B7BB680BD64F82C3D09212ABBD7C780BD0EED0A3D19D6003B7CEE20BD13744439D2E600BD4156FEBC2EAFA83D064D50BD024E26BD37FB76BCF5D798BD48D03A3D53E3043D732DCCBD64F666BD656C00BD1DCC443CA59D18BCCE3E7CBD7415903D772140BBE20A903CBFAC30BD1B7420BD4ADA543D5F3E18BB2E2980BD02AE8E3D277F023C54C600BD300AA2BC03EDB0BCF05ABC3D30E0E43D7A137EBD16773CBB9F05D0BD378C22BD2F3E92BD37C5BABC9F10E03D64ABF23CAF93BC3D0A5580BD2E73E83D63A1763D08AD0CBCBDDFB43D461F8C3D689D063D4BF23ABD1D044E3D63A04C3D1A7D60BD10821E3D4BAA663A6D59003CF77100BCA241A03C8DD68C3B74B1803D77FC7EBD51CA4ABC71C650BD70D8343D15C41E3CBD4E103D20735EBC6730C03D51675A3D37FD163AF45080BCAB64583D2BC7143CC7AA48BC7823403C4829F03CE005F8BD3ADFD8BD2EA6DA3C54A6F03D6C06923C3320D03D5179CABD0561FA3C2D3538BC33FFD83C1CF6683D103B40BD72D1B23CD736303D5E3180BCD92BD4BCC041C4BBD58C903D5E1ED83D5EE6463D21BB5CBD005DE2BC227DA03B4B69C0BCBFBB983CE2DF8CBC429BF8BD38A248BD73A8D83D3AB2DC3CC418903BF657D03CF17E8C3CE4A7843D2D4180BD47A250BC7276703D4EFD323D5B79F6BD6159F23D6C1252BCDC0034BD7751A4BD6AAF38BC76F3503CB7FA94BBB29E403D6564F63D44126EBD10BFE8BCA23DF0BD614C28BD75FFA4BC852974BD226508BC97A7E43D6616163D514044BD2171C63D23BEA2BD7A0248BB2846A0BC91FD683CC14030BCC2ACE0BBD431903C7EC1D03D3D8D0CBD7F4ACC3CBE1E383D2325303BCC68603C6FCE50BD5179F4BCD74BF83C910198BB73F1603D45C08EBD4A8B52BD0522BC3D6537A6BBFC4E00BC0B50C8BCD251303CF4A3C0BD231C463D1004A2BD097EF43D14A71CBD75E1203D4119E23C969994BC81D5D03CE71268BC37ECB8BD4418403CCF4830BD4AFA3A3D69D398BCF99E94BD340C6E3D78BFECBD3170C0BD62CBBEBC6B08483BE45250BD5AEAB23CC6B4903D608F723D6542CE3D685034BBA2B3C03D3B2CA43CBB6BC4BD3C81CC38DDE0003D6B5E52BD3761423CAC7A00BC2919F8BBAB0810BBF12180BD70D2763CE573ACBC8F7868BD0D131EBD675CD63C4B07D03D62D448BD76BA303D5E5A6E3CAC3698BCB99C003D04D35CBD07D6BABD7B65B4BD3F980ABD327C6C3C625F50BCF77A04BD17AAD83B321B803C0B8B20BD139D10BD5B4C76BD43DB2C3D2138C6396076003D0C47DA3D33A65C3D011080BCA33F2CBB8CF5303D510DD83D24D5FEBC766F00BD6FAC2C3ACAC2C03D08F24C3D24515EBD707026BD7786C03CB17E5C3CAE22803D4481523D58A6983BF42BD0BD313E78BD18FD9C3C8544E83D055F163C9C46143CEF1D48BCC8D0C8BD01C796BD6F5C423A4B5980BC1C28803BEAB4403D68F9823CE52974BD5480ECBC438FE83C999B983C17EA58BD12CC2CBD3832B03C822AB4BCECDA9CBCD55924BC8CB21CBD1028B8BCC5A684BD0BC0063D0210843C10E3603D782E523D3741A6BBB7C240BCCA12743C2C7C98BD6342EE3CE9FA943D2622D4BC805EE4BCEDEA28BBCBD520BC8769D43C7FAA28BD139E1CBD12ACCABC0A03A8BCE1500CBB8F73703D425BD23D6157E63D6385123BFECF603A9CDBC0BBB92560BA5A87003D09F716BC3AD0A03C65EEE03D43244EBC9A24FCBD50C9AC3D41197ABD62753CBC37ADE83CA29B403C2D96A03D297BAE3CF170683D30BD023D025552BAA34D40BD5BE2403D50F6A6BA813A00BD7D9320BC925EA03D32839A3C4EB140BD5297AABD122C0CBD775D84BCA7AEEC3D60263ABCCB6634BC8F2078BC2ECA403D79E6CEBC45B208BB99D0103D07EFF8BCBC005C3C3BB6F83D416934BD5795BCBCC944543CEC6E88BD49998ABC61E4503C7702303CECCCE03CD9BB04BD6ECF7C3D391F0E3D2676D0BCB7BE183D119FAC3CE318843C5B72E83D21E4643D5D16463D06DBFEBD22FFDA3D09FBB2BD115DA03D4C5B423C85BC60BC0FFF50BD261812BD496DE03CCACF583C5B48703D4F369E3D71212EBD3ED4723D7524903CB637E83C9FB86C3CD57F743D358CB43D4D31043D576776BD4009EC3CF5710C3BDD42703C4273D83CD1AC5C3D2798C03D79EE86BD3AFD38BBC1B380BD046C30BD2CE0FEBD2469023D66E2C0BAB13C003D0EBA4ABD6B1E9A3D61943C3CC6EAA83CE9F5C0BBFE89603BFAC460BD1A1C643CC7E4F43D295DF2BCA762BCBBF54980BD7F16F6BC3306A8BBCC24A0BB6CD1E03D3BD7443C357FA03D270A523D7EAE0A3CC49A10BCFD0BF03D4CCBB8BBBDC860BCF5AB103D2E1BA2BC351278BD78E4663BBE3E90BD797DECBC6530C0BD67189EBD735EAE3D39F0303D4CF14AB9B90C00BD1B9A6ABC8AC60C3D22C4543D5A9698BD005FDE3D45EFA2BD211F4C3D10B4F0BD5C0824BBBEF1E03D0624B2BCC3817CBD4EEF5C3D1A3EAA3C1B5958BD3E518E3D1E5C843CE8AB10BD60811EBCFEB3E8BD0F164EBC898D903D14CFC43D0180BA3D50AAC83C9694D43C6A38C03D0656B0BCC00C843CF1B158BCE721F8BC6A4BB83B1BBCC0BCF4CC303D6B7BDEBC9293E43D4C9E5EBD0EC87ABD1891BEBCB081783B7813003CC410183C1356E0BCE9EA70BC384638BA4C1E003CEF6AD03D1560F43D165244BD15A882BD74FB0C3D7667823A8E96803A9808803BA4BE90BC268E783CFC162CBC8521DC3D1F42FA3C81E9843CC0103C3B073960BD4C3F22BC83D3303D4C77943D15E8903C238FB8BD685DE6BD48F116
3C07C6803BD1C1103C8EED54BC2D0AA8BD6A98AEBD4892B43CE39E64BD0517F63CD0AE30BBCBCA50BC606E383D69D25E3D6F988CBCFA8EF43CA05600BD300B0ABCB300943D47F1E03D59839E3D00A5A83D4AE532BA1057003C751DA8BCC2B5C4BCE1A4783C5430D03D033388BD37B5E6BBD8AE003D2A23C8BD694D2C3CE6C0B8BD180A943B904280BC789A70BB0813A0BD248D983D55DA243D5374923D4E422A3D32AA623C6C2C083CB77E283D3D5B88BCD72EE4BD5D5A303CD879C8BC2EC4103D5C83E43D7A1AF03B171A60BC879760BD0ED15EBC9B2A303CE7258C3D356F783CAC75203CCDE62CBD0599F2BD2239C4BD7401ECBD25ED1EBAF3E100BCC110743CA1FB943B5C2C00BCB9819C3CB63EA43D2288303D02A6E2BC31B688BC939AE03D436F8A3CD0C4E8BD02AA423B2B72803D64F324BBF984D03D3F22CA3D31A3C63D47D2C03D2AD800BCC1DC203C86B0ECBD23A3503D43622EBD513990BD0A22123D0C7E9CBD71700E3D75079CBB991DC0BCE2FC5CBD616422BCD4D8103BA5EFA0BC8FCE78BD468EE23CD8A3983C8084843A736D003C411B103C28A9703D1CD862BCB4AADCBD6B96C63D72F230BCD1583C3CEF3810BD29323EBD63CA1ABD5B704C3D15BC023D11CDFCBCD3F13C3BEA4140BD76CD26BC633AD83D2CF76EBCA420AC3CB00E3C3C2D1C40BD30A1063D783E4ABD18E4063D5635C8BBB9DE20BD6185903D0E5B44BD480FF2BCFAF3ACBCC471643C5DC3683CFD5F50BD76F6A2BC4F1F683D1A3D22BD79C44ABD4F398A3D1AAD3ABD12B25E3CD56A0CBC808C38BC99B684BCC03D403D351EEA3CE55CE8BCFA84C03CCC8CECBD5C7B263D1DBFB43D212342BD4268F0BC601DD03D32569ABB458FA0BCB8EC783B9D48D0BCB5E0143BA928603C05E2903D7589043D17E2623C607F403CEA7B14BD110FE0BCDA54C03C8EC3483D55B4FA3CE676D43D698EBA3C82C5FCBD08EA58BD3850C43CB89E3C3B925980BD190154BC95EC943C4925B83D443BFC3D7C820EBD0CD8C2BD2AE83A3D036C3ABBCE9400BD3AC85CBB50B080BD7ACE483C4BF108BC930F54BD4E3E34BC9565003AD14B803D22D8743D059F963C306FB83D395942BD5C4CAC3BDDB1703D3C2E9ABD7FE63CBC656768BCA8E5E43D72FE4EBD325F50BD57594E3D344D8ABCEDCD203D552D4ABCA55870BCCC7C903CE045443D51692EBCA670483D26CC923C03ACE8BC0D9758BD5C71CABD78F4A8BCF297783D707E803CD165543BF6FA00BC201C98BD5E07E2BB8F1B003D1792EEBB6B2500BCE817E8BC2575303D3C80203CD7A7B03D1C05C8BCFE4CB43C9645883CA56DA439F74400BD1B6AF4BD12B11A3CDB20543D24D0E03C0BE5803D6A3C8ABCAE82F43C9713103B63ADC03B356620BC8F2EC83C8C42C83D6F6ACEBCE0F364BD538AB4BD014564BD7E8462BC9B0694BA6946003CADDD40BA88BA00BC2E7188BD5E3024BD371EC63D6659ECBCAB18403D5CA5DE3D234502BD4F81F03D4C355CBB3780A0BCD0D5DC3D575A86BC35EDD83D1D1CB23D2D9F2A3C6462003C55ECE03D331FE6BC422AF03C7DB6703D2FB4DABCA2FCECBD5E4FACBBCDC5903C9CF338BD0A8BBC3C84A9903C5130103D76B6F23C92F900BCBEC148BC6F73683C9FCFF8BD2E2D1C3C720870BD32511ABCAE81CCBD55719ABD58DA2A3C5BA7F03C4681F03D08A4B83D0584C6BD24D78A3D5AAC84BD4FA538BC9F78D43D3952643C4CD9B8BD5644543D10543ABD598930BCC6A864BD5DCB76BBFBC7A03C770660BCB59E20BCCBB0203C28F4C83C6420E03D09D3A4BD3811C6BD2336363C9929ECBCD756A03CC01E7C3D357F3EBB4CE2003D461F4E3C61E0A83CCC0798BD55E5683D1FDBCC3D187C9CBCA0EBB43C73AAF83CF1509CBC38F3683D40E04EBCC680A8BBB7A920BD4B257EBD72B64EBC491C503D6D76CABCDD7A48BCE2ED98BC9EF2A83CD959FCBD4202C8BC9585283D631630BD4B9F06BCFC70AC3D343160BB6F93A0BCA878343C4F0AD8BD1C192C3CA183B43D176352BBE71FD03CAE57543D5257A43D139E843C9D38A8BB7076203CB41780BD1CBBCABD45FD903D5A98CA3BAF87B0BD422024BD04F902BD1905CC3D30922EBD4EFB8A3D0CA3743C712A703C946F70BBCFF3A0BD773E8E3C85E764BCE9A83CBD52FA06BD0444A03D266BD03B8FAB703D22C450BC84A8E8BB5A2400BD3B08E0BCCC1D00BD410796BD32A30CBCD8FA0C3D1F0186BD1E2268BD47A6763CCD9A703D1C03C6BD7D0516BCCE1AC4BD1DD222BC0CD550BD6D7DEABC9498043CC740543D61756A3D418FAC3CF92EAC3D6D27C63CB27914BD0C2428BC0845B8BC40EB283C68A5D0BD0D6AE63D00E096BD6A4ABCBD112742BCBDFF7CBD2982EC3BAFFBD03AAE0C003BC0EBA0BC2BFDD03C91CBB43D4CA37ABD00EBB43B3D0BE0BD4AB8FE3D04F5A2BCD0BEF83D70AFD4BD5D81423CFAA1D43CFA1E943D53B08A3D3560ECBD7AB4023D6718BABC7913C8BD560EB6BD3E790A3C7B64783D6E669E3B4A6D80BD74718CBD4AABBCBD2ED6E2BC2DC4A8BD1B0EE4BD1EB8EA3CBC63A43CE9D0783D23BB70BD7E12C23D6A0200BD6F7C7EBCE212643CCF2E88BD1D1E703D7DEFDA3CFBE1A03C1BEBC03D4106FABB9E56A03C89387C3D04BC003CE0F460BD76A30CBBDD8750BD660C84BC2063C8BD00E7CA3D6F398A3D1671C23C57AFA83D5B5ACC3D35F40C3D57A8F83CF32ECCBD7C003CBD3196183D55194A3D72EB28BD2544263D563216BD704B1C38C7E800BD36BBCC3C4B3998BD5A98403D67F9E83A6932003D091FF2BBF053D0BC189E683C9535A8BCA068783AC66DC03D3D50123C6FE8403CBEDBC4BCEF4D64BD672D8ABD5EA6763CF66F1CBCB70740BD3C3D8C3C1D6EC83C95E7B0BD6585A6
BC8661A03C8D8AE43B5D0F203D0D6D763C5A3FD83D2FE8F43D334726BD6F864E3C0EAB70BD62910ABD182A363C2B6D58BD3052B63CC421DC3CC604F43D32038EBD7520BABCE54ACCBBB354D0BC81EADCBD3798CC3CE91B78BCA47C203B5AA760BD3BD204BD4598CA3C6AE1883CEBBCC8BBE9D0E0BCDA432C3CEC7694BD11FCA0BBBA86E0BC573EC83CD40038BCD61A483D48AC80BC831A6C3C0A9EA03D5761A6BBFE1670BD2995A43BB8B480BD66F942BD6E962A3C7C6BA83CB4B7843CF124BCBCB215D43D0DFC6EBD17613EBD683D943D78B478BD695DBE3D426E763B89D6C0BD21A516BD2CD9603D5379E0BB6C5520BB654140BD74DCFC3C55ACE83D7D7A72BD0AC0263D5670383C6065103D0285423D16F4B83D7468CC3CFD1B883D1382B63CB96780BD6548DCBD492B303C8746E03C879070BCD75FD0BCF360D03D46F07CBB888B90BBE183A0BD677D02BC1411E8BB2015A0BD65B1C8BD25273C3C8F6C18BD60536E3D7D353A3D3F3C003D39047ABD52C80A3A164F00BD3C80C63CD3335CBBDF1210BCE1A1E83C7C02A83C095C80BD5374863D762EFEBCC0598C3C35A8203C1B1970BA832D40BD18FB483D23C91EBC229AD03D763748BD1FA4B83D6DBE923C19D290BB37EA60BBFB9AB03D163D26BD0FD2843CCDB6C0BD35586E3C5885F03D54B85C3D2DEF6C3D0E5A2ABCD498BCBD570CB03C0BFD00BD6AAD8CBBC80D30BD4E9550BD178972BD1DE8EA3D2197443D1B3984BA8A2D80BD4734D63D180CCEBD2564A2BD46C1B63D0C7FA23D0EDB5EBD14769C3C349DA8BCCD00ACBBA3E4B03CC56374BCB26B78BD531FCEBD532520BCF789183D5D62983D1EFE783D183448BD463182BD68C47E3D22F1E4BD1BB21ABD60CABABD1EEFB83CA34B443C47ED883C1640A03C729E10BD54E0C63C8C37D4BD6FE152BCC9AB883C9860DC3D287922BD1C1EC43CF747DCBCC061F83D0ED2723D667CD63C123E68B95D40003D3F2A6A3B947690BD3F07583BDB80D0BD782EA4BC0937783D40B3603C0A2D30BC3AA050BD1F1FCE3C48BFD0BD0C5712BD374DD2BD16CC82BCA38790BCF4DDE4BD514902BD0B97A43CB9635CBD5DC4D23D075376BD4E28D43C5D6D50BC60B548BC425950BD5EE4083D67518ABD43F3C4BD100E623D207A703D0A9CB6BD24AA483D30E1E83D5074A03C80D8A0BC7AAAD0BCDB72943CBCDCA83D528248BD5666F0BCBD6E48BD71330CBC0D6E18BD10027CBD2BBC4C3CBFFFA0BD62FCDC3C1813E8BD194CB03BA499D03D4A89983B299A603C955FF0BBBACAC0BD53673C3C3EC8B8BCBBF86CBCFDC1503A035200BC20C2C8BD1BC8B23D7BC47ABC325FA8BB9AC5503C42D8083D20609CBD16390EBD4C3B463D739F18BCC774C03B9E69403C054EF0BC9094C03D32B7323D7CFD8A3CC36EF0BCE34AD83CD9A164BC9A7484BD067E483CB262403D547A3A3CF21474BD3F4E9C3D5CC4A83BB7ACF0BC59B3B0BC9518F4BB250440BC8AF37CBCB337D8BC415C003CDE54F83C86F9EC3D78432C3C6349183D1ECF683D2678863CE9C6503D7E7846BD398902BD0DC5383B7E64E03D1F6FEC3D583E0C3D6F296A3CB9EA703D07CF143D19B992BD7E54C4BD7865443D4E1FE83D733DD6BC636158BD37BEDA3BEE1150BD15EC3A3AFE9CC03AED4300BD0CBE483CC7DF543D299E56B50200003CD341903D7D6D48BC91801CBCEDAFE83D45D6CCBD76FF86BB6D0220BD3F43FE3D7B6B063D283F843C76C1F0BD0D92803D770D66BC4351C8BD0BE71E3D4FAFB0BC31D3483CA52BBC3D5EC5FA3D01C6A2BD6BE1043D4C1CF03CD74438BD35B5F63D5D8BD0BC3F66503C004C58BC406028BD3989563CC15A9CBD49F3C8BD2FA2A03C0E5380BD5E8E1C3D2137923D4172623C75A6603C80FB40BD0D0E3EBD7CC8DA3D516766BAD82A40BD63E472BCBC04E4BCBE09CCBCB9F05CBCDD0098BC817C2C3CD038FC3922EE003D7A52823D085B02BCE7218CBD5CA2BCBCB01C543BC29E203D5D06F43D4C2AE03C845508BD5C0A1ABC97ED583D749706BD5011CCBD6F92E0BC87CFB8BD0897EABD597916BD538A5E3CA4B9083B846780BC089D58BCCD1EF8BCAB4EB8BA42B1803CB3BEA4BD140AD83D2759F43D2E12C03D4291783D04B8AABD4532C23D267A9A3C9889ECBCC36BC83D331D8ABB2250A0BD3B5A9EBD2120B43C4014B0BAC6A7403D09EB003D5F55A23CB4CCBCBCAFAA9C3CB48700BD2FE7A8BC6DA128BCA8DA54BC703860BD754DD23D3CC3FE3BCA13D03D339EF03D0D73D0BD4EC0C23CF46D603D52F59C3D597FAA3D5F47D2BD436A66BD4D26B83BB82CE03C972650BD0E73E63D43DFF23C9E34203D7C75043D6A87A83B0C0FA0BBC750A03CA217B4BD0F4E8E3CC785E43CF6E568BCA793E83C3F8EF83D68CC12BC271608BD5FA062BD67498ABC397B60BD4A1DD63D56A9463D7979F23D63FD4ABCFD5A7C3D247422BD76851A3AFD65003D4D61E03C1E0930BCD32E60BD557414BD7D57123D1750DC3BC402403D38AB7A3A6DEA80BC048CC0BCC3A598BD0C5356BD0E4CB0BD11D69C3D3B5CB0BD7A58323D30BC763C8AD0A83CD9A874BD7853743D5239F23D1AE362BD202664BC8E40A83C80CB783BEB31D03CD471F03C9E2128BC2077C0BCBE1028BD2C171ABD704A0CBD148A6A3D473BCEBBAC04103C8FC6E03D1FA97CBD4FD854BA9AB700BCF89058BC6A3DF83BF085C03CCA63AC3D4BC8E0BD6C9DDA3D3228A63D0F9F6E3C8F6D2C3D4CA96E3D09367CBD2894763CF3B4A83CEB0698BD5127B03C4099E8BCD39458BCDA0494BD4DF38EBBA8EC603BB218203D764CFABD2C8C863CA663FC3AD68EC03D59F6E0BCD80AB43C965E34BD4BE3063BD1DBF0BD6B68B8BD41B6103D6480143C9CB0803D21FC5CBD295770
BB63ADE0BCC06AE43D7FA1663D6575BE3D0CD53A3CD15EC0BD21E50C3D0727ACBA808800BCEB6C4CBD33BCB43D1171783D545BD4BD556A203D1ACD14BD43F444BCCE30A0BD4200F03C8723FC3B196C003D02EC2ABCE75B903CA727F03D2747B6BCCC4A543D4A7CFE3CDD1BE03D51B5B8BD32D812BD7F68E6BC255FC839D31700BCF53BC4BD0AFD583C2BCEF03CB86514BD1ABD8E3BFC83603CE5AD78BD4B087A3D248FF2BCE33E543C2B54803D7E7880BD75D3C63D65B9B23C9D6FA43D3B6BE83C7ACEA03D5963523B14E4C03AC69A803BA46AF0BD41E300BD7EE80CBD5BD5C6BD472138BD22468C3D6B1C38BD6E33B63D332322BC87BA70BCAD8498BCF8450C3CC3641CBD4402C2BD2D5050BD3D64EA3D4FC5B03D5B6246BD5BB7943CEA68083D07E44C3D21A0FE3CD6C098BC8DCD60BBE13EE0BBB6C3F03CD443A4BCC04464BD59E7B23D03D61C3B1D8040BD5241FCBCEBD44CB966EA00BB1C58C0BCB1CE703C3F73F83D60A67EBD77775E3CED5D883CC014FCBCD0F2A4BD75C8E6BD4F87F43C5CCA28BCE336303CF007103D4568263D4D70A4BCE4F7343D4F100C3D3B95303D2C9966BCDB5498BC1E6178BD7E2122BBEEF6F0BB8785503CBADAA4BCE8E31CBD055D94BD323CBE3D3C3B2EBC906428BD3E90B83BBD35603BE86910BD74B3583C9A307CBD64B3B43D33019CBC3A1CA8BD7FA488BD092FB23D1FC7A2BCDD189C3C8DD2903D43883CBD470CCE3D1B93283B56D6603CF4C2B4BD496A62BCEE628C3D52DDEE3CEFF7AC3C12A8C83D0622E83D11ADF6BC1BAC50BCAC2F2CBD0277803D300AAA3C1705C0BD70BE42BD6B58303D536708BCEED538BBBDBA003D3764843D01F142BD145CD83D47A8923D45431EBD76FD3EBD011DC2BD393474BBE78AC03D1B2D6EBB8C5220BD2E2FA0BCDEA5FCBD3A08BC3D3AD9723BD8A8303C3D8B803D3E359CBD09FF42BD5516D4BA5A54003D6FEFA63D012014BB7B3DC03D7585F43D2C5B3EBD4223583D6F2C0EBD55F61C3D7FA8243C771140BD02A45CBC036BF0BD2189F2BC2B3118BD735296BB6724A03C6B9938BD591AB6BCBF75E03D6D318C3AE4C4403D7C62BABD3163B8BB173CA0BCDC8BF03CD45DD83D091162BD7704B8BD54B21E3BBB50A03D444F36BAAF1D003C0047203D183BC0BD379EFCBC29D2A8BB1E54C03B201B40BD6744EABD2FFBA6BD4CF360BCB8FC4C3C3092C03C82B6443CE447003D5C12803D57941C3C4E47083D5D6880BD61A534B8C9CC003CF760D0BD673FBCBD2844C0BD0E82563C0E19F0BD0D8E7CBCD919FCBD29D0A83D2A0294BC121B383D5D2052BCA24FA0BB2A5560BD0E8E8C3D461DA6BC0F44483CEB9C2CBD3004BCBD6387DA3ADE23C03D7C85FA3D7F1CBA3D2CC52E3D2EE4D83D0B163C3D69C9A83C544540BD26A10A3D209B6CBD2D5FCC3D550FB03CC124983D0641AC3D6E156E3D6B5C66BCDC7060BD75D992BC94B1B039C71800BD5D0F98BD6E8C583CEAE730BD5FD7ACBC6DC5A0BCCB7B383CEC81403CA547F43D0A081EBD59F07CBCFA1BD03C2105F0BC71E1203D2101F83CCE177C3D1AB112BCBE66FCBB1E7880BD7C73B63C8DDE783BF55150BCB969043D6516E2BD5260BABC944C60BC6428E8BAE7BD403CBD28B03D7D565EBD33B94ABCFCF9483C1688C83C76E438BD069A943C822BA4BD32C5DC3D42BC303D79E8E2BCCC5368BD2CCBB83D223386BC870E4CBD572AD83CCFFE703D6AA708BD120DD2BC1D5CF0BD1DDE483C715088BD53B3783A4D7E80BCB6DAC83CE24DF8BC8C00383D5606483D2D2AFABD6CAAD8BCA952243D2867683D5C2E403C7C98A03B473200BD786E40BC0F6F58BD5C0EA83BD854803D434E1EBD7D15FCBC3EEAC8BCBE8F5C3C8C921CBBFB3190BD367A983D22F298BD5BE2BA3C0068D0BD15A69A3BF642403C8C4A283C5439A03D0C70D63D65F274BC4DD660BD54716C3B872D703CE73288BBD70680BD2579FC3D7C260ABCD065CC3CB2E064BCEB766C3C496710BD7DABFC3D3A6418BD49700E3CDDDCE0BD21C8543D40D9F8BD4365C03D35251E3C870234BD7C2434BD37CC4E3D719806BCC8AFA03CA76B383B37B260BB6D04003C1BE6903CD36B90BC89B5B0BD730574BA22B2003D18DBDE3BFA29E03C8DCF003C7F02503BDBDA403D117A00BAF1A3C03D69232C3C5A75603C1218583BE4CBC03CC7A368BC95D78CBD2E89EE3D7D9C5E3D632B26BD03125E3D4222C4BC748F40BCD0102CBD0E94F8BD6717CC3CF6A47C3D21A2C03D0E390ABD146168BC95D048BD2DEDF8BC596680BCE6FDD8BB01F5003D4AB5963C984664BB9FDEA03BA2A230BA29C10039E6FC00BA2B85003B22F4003D66ECD03C7503C8BD5C63CA3D26F4FC3D1F8C8CBC9134F8BD0BE5CCBD2EDBD2BD36674E3BC89CB0BCBF89E43D207D803D5D71543D39D3763D6283603D3DF71C3B954640BD2CB18A3D3454743D122E583D71EB62BD0946E03AE0ED403D4F5554BD43490A398B69003D2FC45E3B9136503C9467B8BD02A9843C5438A83D083CCC3D122AE039835600BD2EE3063D279262BD17BF343D76E1E0BD52F0103D591AD2BD6419923D6D25A23AC66F003D76E10EBCA1F5DC3BB7F4F0BD4D8B443C5228F03CC765EC3D7C794E3C830DE83D13D1EE3C3F0838BC50F2F0BCDE3278BD611F08BD765D503D3769E43C0B52903D214E14BD1094ECBD5909A0BD761F203D04A7503ACEB200BC7C17D0BD30C002BD5E762CBCC46194BC89D7C4BD58A6DCBD3C48803D7F61A03CC829C03D7506AABD21F8BCBD1E8C9ABD1DF51C3A1A9000BCADBCF43D123EB4BCFA64A8BD4BC19C3D17D400BD750C00BD45D3283D6B5F62BD10C0F63C3DCA98BCAA59843C3D85703CC96208BB855CE0BCF4FE383D1EDCECBCB6F1E4BD407C48
BC420F083C93C778BD1690B4BA8F5900BC172760BD03FC2CBD7FE59ABD4B38963CEAB6D43BAC9B20BCE0AD90BD327C8C3C11FB183CED849C3B9F80903C8DB9CCBD25A93CBD0A76EE3BFDD7B0BCB18E9C3CE5E844BD590D9CBC3514B03D160B64BC0DA688BCFFA374BD5E5F0A3C3CC8B03D788D74BC2DF1B8BD675794BB0500403D00A5D63C0117D83D420944BD5B323C3D5C0ADEBD5828483D41864A3D71F27ABCC95D443A19D7803D632A46BD75DD6EBCCB4E103AB79F803C0C88103D4A4438BD5C0714BD7619663D45C02E3C4FBC70BCCD27FC3D03CE3E3C7D96283D52DFD23C059BC83D43ADA83D6C7F803CF6D11CB95C94003B7285E0BCEE8F183C9DDE683C707910BD27A266BB8126B03D2A44263C8048A83D25991EBCCB55A83C378F20BCB9D7F83D12E4B6BD62065CBD419506BD54FD48BD555DEABD0786E03C5CF538BD74CF883D46936CBD115578BC3A7D103D7122263D7A96003CBB0560BD59E57CBCFD02B8BCB7017CBBBFF8103D3F85D2BD429A46BCC1F6443D3CF100BD705244BD315ADA3CF762603BD2F980BC77B490BD7F39903C6C62A03D754934BD0703D4BD27E3C63CAF65FC3AB15BC03D22C98ABD375576B89228003C9B3EF03D73C59A3AF5C2C03C9B75FCBD50B83A3C4D6C08BC7E3D40BC9AE8743D04ED8EB9F49C003D1B3B00BC289D503D1549D43B0464403D7332123BED1C203D2F290A3D3E30D83CEFB350BCE297F8BD15E2083D6D68963CC93C583D737B443CF7FC903A518A003D26C30ABD14C4DE3D0FC0443C4351A8BC3E61B0BD3830103CD58D68BD116D923BBAAD40BB11A520BC5200403C8E02A83B088AC03CEA0AB43D049EC23BC169603D20B7903D4BF8F63D3AF93EBD3312BC3CD7CD483CF66C683CBE3930BB9E73A0BCF1D744BD1AECE03D4CE7E63CB18FFCBCC7EEC4BB9E5110BD5D2024BD08800EBD3C30123D739F503D6E1FDA3D523E3C3C2AF268BA8C5800BD52B7ECBD5E33403D1EA1E6BC9492C0BD3EB4A638F134003D56B0C6BCE7D80C3CAE2BCC3CE0EAECBD2BD722BD794710BD238938BB8466503C864DD8BD6CA35E3D7A039CBD1E7E6ABD782BFABBA20DF03D39EC74BD293CF03D2A98163D07063CBCA61C5CBC4B64403CEC54A83CB974BCBD703BC0BCB50804BD69EE14BD689040BD0D0E383D21C7923D65CC363C3CBB503CBC7F30BD401D02BC5CF7D83CAF72EC3CE279B4BD59A4F03D5C2886BCC6FA40BD4523EC3BB23D603D4D71223CF4D2B83D0C150C3BC76E503D315550BD2B9C863D0EE0C83D0604E03CEED240BC16F0E83CAAAA8C3CC288843B3F3160BB8E96D03CA9B6603D5944623BFBD210BCD38510BD4F58C03CAD0E20BD139A3C3D496AA03C8B6C18BC9A11A0BD6AE222BC705510B8738000BD1DDE6ABD389AA43C5E28883D6D0A543D219904BB259060BD5480EA3D03B2D4BC8F59F83D0D965EBCE1EDE03D77EE90BD2E3304BCEC8BACBD77E5723D5F77B8BD021450BD76BA8CBC54B0F0BC850E68BC8CEB983D59AAB83C17D270BD2EAD7A3D1115063CDA1188BD40629EBD2E77783C1872A83C1247A0BD0875B83BFAF420BCE1E9CC3D5EF8463D1A58E03D5F99E43C93C0D03D2867C03C9A468C3CAD9918BCEE14083BD6B5B0BD08EA2EBCCBA17C3CCD50E03CBE6E443C98FC6C3C06C8683D3E0EB23BD31B603D0BABD4BD7B66EABCCB8CF83C5900B83D195DBABC94E1AC3D350BC63CBC2DA43D6044E2BD030F483BDEADE0BD58F782BD000F14BCF722C03D1A5F963CE14D303C088170BD4B7CE43D68369ABD359DACBC1E0918BD2351B6BAA7D300BD0724463D11AF4CBD539840BD2DA5563D5D2B88BD6E45B43D02AB4A3BDCF4203D4D4584BCBBB4B03CC800ECBD6A0F2ABD0CC2643CB88FBC3D12DA563B8F6860BD7AA99A3CC78E68BD44E222BD7E4B5C3BAD9AB0BD2246AABCA6BAC8BD3FBC9EBD0E3C36BBB0E550BD3B4B60BCD1F01CBC6C3BB03C0B5DA03D2B6B8EBBBC77B0BD6746723D3732C83CD259E43CF5ECE0BB443A60BCCB07D43C7952A83CFF56603C71A3B8BB94EFD0BBC997A03D4C4E82BCC8D1583D561E163D072BDE3D457D783D7DFFE2BD1E23243D2F6D703CD82AB4BBC70010BC1623E83BD1E8D03CC24FC8BD5285B63C91A1D8BB5C0540BD48D9063CCEC4F03C380C403C8837943CBA89383CCED054BD03251E3BF670B0BC288380BC2A7AE8BCA3F038BCE9D4E83C84AAB0BCDCE0703D255BEABBEA6CC0BC51B9503D4F508E3D1F3ACEBBE142B0BD013CD03CE483403D34BE64BD65CCBE3D7C103E3C937FE0BC99422C3D1395C4BD6A0722BCFA6A74BD6ADE14BC4AAA40BC1F5568BBC7A4003D528454BBBFE2E0BD5B960C3D54F5023D485AB4BD7EB8CCBCC27D70BD6DBD12BAB36F003C598470BD08C6D0BD76F3FA3D008DD83CCEA40C3D43350ABD02CBBA3D28D664BD0397E43CB7F6B83D6B6E7C3C9A40B0BD5CBCCE3D427A0ABC0E50503C607C90BD5D0066BD42DE36BBA223303D4084CA3CB0FC80BD6586E83C2C2D68BD680E9A3B3AE2003D5E5EE03CF0C4B83D46F1CC3C1A96B8BC11CA903C2587F8BCBB0B8CBBAF1C40BCB4AE1CBD10EBAE3C4BA690BD27574EBD44E19A3CB05CF039C5E5003C5567383D3FFF3EBD25749ABD644710B80A2800BCEDC6683D121640BC604ED83C83A480BD370630BD3F28103D4A1F243D12E020BC05AB283D403832BC3317D8BD69DD96BCCC7310BD503870BD5B16A03D13A2D83D479B7C3CA0D918BD721648BD0AF9783D093C24BB945F403C5E82A83D4F0E3CBCC903083D1334983D77552ABC1E68F83D030DF2BC959728BD417D06BD089D8E3C95E8CCBBED6960BD4FB68E3CC4C2343D7E9534BD0A46A8BD18B1C03CC45F243D114BBA3C86E7BC3BDD6450BD5C833E3D030174
3D12A470BC986D183BC64780BD0BBD78BD4017BA3C02C9A03D38DF443C9D6464BD2681F43C8C579CBCC041C83C932144BCEA2DE4BCB780B4BD3CB048BD5D2B823B9D5CA03C80267C3D619028B9E48800BCE5E3A0BB8081503D1D5696BD25085EBCB7D304BC067808BD33C5DA3C269F40BD5715FA3B8D31B0BCF5B3403D7EFB86BB65C7E0BC26D040BD1BD6ACBD55898A3D6A050EBA128C803D4723A2BCE0C84CBD136B50BB96BB30BD2953D43CB60A44BD3C540ABBB27C90BD2E62783C0A0210BBD7A6903D7B1B8CBCF165043CBEC570BD452BD43BB5B6903B0642E03C9923443C58E850BD03C81E3D1D7D8C3D0D42603C8F58883D0728A0BD27391A3C8C51143CC55888BCF69590BC2F74983D74601CBD14EB183D585834BC6F2C683D1D3A86BD1553EC3CB9DBC43D397C6A3C7FCF683D31C7263C0A37683D5B7AF8BD557B343B9E67C03D277B38BB79B4A0BCBE45443D093CBEBCCCD5043CAA2E78BCF5AB90BD6738DCBC7F70C83CACA8CCBD13CEDABCD24AB4BD1E4B583D3CAD263CC3F6383D322408BD4DA790BD6F1668BC4BD9B03CBC25C8BD6B3FBC3D608CCCBD246646BCB22588BC0B2BC83D07E2C83BCA6D703D0CBA1A3D641360BC67A518BCF4F7D43D2E1D78BCA553403CDF11A83D77A9223CAB944CBCAC47D43D500898BCB793C83C8DB228BC6F75903D47A0463D082F60BCA680643D1219CEBD4AA7543D5C3288BD4D3960BCD67358BCFB2B94BC930E203C191C403D3F62B6BD41B98A3AE1C7803D11B3A4BD769D803BB1DE30BD1D3CB6BCBC513C3C9514183D6A2A08BD175C5C3D562482BD5F63363C9DC858BD16F3A4BD6363FE3AD65900BD0062263D7FE2A2BD3B9E40BB6A33803D0402523CDFCF7C3CA7CBD0BD1DCCC83CFF309CBC2FD718BD5F0558BCB055443D3346883C125718BD7EE582BBE8EEC0BD644B66BD737D4C3CEE2810BD1EAE263CF0DE9C3C8033083D782A423C64A3203CDB7634BD55CA403C9B37B8BD207740BD691270BC9E7EA43C3673E03C4B1E28BC807568BD014AEEBC7E8580BD4277623D03616CBC9739383C12ACA8BD5C32543CC671703CB334D4BC919F78BD7873CA3D1BD1DC3D7D220CBCD62A9C3CE5C1CCBA7C1680BCEF46B03D30729ABCBC69AC3D418D9A3D200D723D2FC2823D2805C8BCEB3ED03D29582C3CCC566C3D14724E3D7ED3A23CBCFF9C3CDC8AF43CB3D5883B1F16A03B999500BD276C9EBB4238203BEB74003C4398783C510C40BD2BD922BD044A203D083BB83D1FA3783D5E08163D5B0184BD721968BC8279843B4FB1203C2517C83D783C343D4AE0D83D62D7623C8A614CBC90ADF03D00601EBBE1C800BCC162F8BB69E960BD2ABB62BD0095F4BBB2A550BC84F0D03D3F2CC4BD68A79EBCD9CA14BC9FE3D83C72C920BD2BC472BD5932C8BD4670FA3CED4BC0BC389E503C88A640B9768000BD4E4890BC70FA403D741EF23CC27228BC216078BD3592AC3B2716C03D64EA04BD51F0063C0F9DD83CC4537C3D620BBE3D32E62C3C8E65D03D79EE723BBD06003C8C1B80BD2C2454BD4C470E3D11503CBCC99508BD51C09E3D5EF7CA3ACFD2003D5BCFC23BDF74D03D0F7EDC3C5DC9F03C3518083D7797DCBD7FC520BD6F34C63CB91D5CBD0C0A1A3D2ED2E0B914AE00BCA695F4BCCEBF403D067C6ABCC79C283D2C1B4ABCAF48D83C7FAC10BD1326FCBCFAB6E03A499E00BD5DF3E8BD0943983CB1F6E03D5207C0BC97C3983CFD995C3BBFE8503D23BCE6BCFAC42CBD7832E03D076D58BD7D10FE3D4FA514BD4EB9EA3BAA0290BC94A9183D50F6B03D62CDB6BC1FCCD8BCCCA584BC654818BD07B0E43C4F4F403C348DF03B9B8A40BB7726C0BC43C0D03C5039783CD3C624BD7C469ABA5B3C00BD44B7803C2FFD80BD2A5F903D488E003D6E21C43D2F99023D28F122BB149C603D630120B9529E003D20F7FABD164E40BD3BABCEBD325D8EBC9823C0BC5334983D7FFF463D65DA14BD329D18BC27AFC83D4EE4B6BB054D00BCB91B543D4425E03D3637D0BD62C8A03D466B66BC85B0E4BCB2C5383D6243C23B1F63A03D75969E3CAC9DC8BC1BDC503C3707103D24EAD03B8210303C809B9C3D616730BC290A683D478F683D0809F8BD1657B8BD05908E3BFB87303D2BD6DE3C3D0E78B9F50C00BD18F9F4BCB3EA0CBCAA96A83D31F5043D0C54A63C3F23083CEFDA643CA1B0B43D46CECCBD1C315C3CDB6C74BD2769BEBC6E43D0BCA8A620BCDBDEC43B2359003C26E2F03CFE2944BD7ED0283C42D528BC61F2F8BC7C61C8BC83F7D8BC75C8A0BC1414703C9886CCBC90FFEC3D0E5BC83D086C663CCD00B4BD31EF5CBD29A2D23D792F863C6805183D4D7DC4BD792904BD0286623D184026BD34F01C3D5D49563D552CCABD1B8D60BB94CAF0BD4DD3983C802FCC3BC55480BCB79AB43CD4840C3D5CAC24BB51FAA0BD29E4F8BAC62240BD4123B83CEE34E03BEB58A03CFBA118BB3A27E0BCCB7E343D01239C3D28A70E3D5504A2BB3D17A03D5E84263D42A4D6BB91A840BD410C06BCF783D4BC172CC8BBF69AB0BD3F1272BD038220BD7C272C3D1A3CAA3D772E84BB922F70BD7768BE3C017FB83CEB959CBD4B2C5CBD006B00BD48E5A0BD2A355ABCD9D98CBCC79424BD498E06BD2C3E02BD5CE61ABD5D327A3D6132FCBD1E7CA23D0E6FA2BBDECAD0BCE9E8E4BC7727B03D75580EBCE37B80BBABDF70BD27B0243D596658BCB1F470BD00AC7E3C86B534BB7C4F00BCFD61B4BBB793A03CDACDAC3D0D9BC63D616C083D1EECC83D3677C23C5F56C0BD1AFE6A3CEF1E143C5B76303C3DA1F8BD3D21163C28FC603CDFB0C43C9A47E0BD5FAF86BD602184BCE433D03D1F11D43C9CAAE0BD7CF0E4BCB0758C3D378F1EBD389C4CBC3868C8BB89B8B03CC7F2C8
BD139DC6BC7F83E0BD2BFB50BD0F2BACBBAB3DC03D74BCECBD5EF958BD225BF0BCD105243C7EB218BD1416DABCD7C6B0BD45F52ABD5C8164BC74DA903C1C69883CDC9C94BD2DC4F6BC3264E8BC958174BD1CB91CBB6717A03B706D803CA1B348BD677CC239F3AF003D0FDB743C9E1D6C3C1B22803D6E15DCBC4857683D399C66BD51143E3D583D9EBD78E2383D609956BD7FEEC23CD4A6943C0C5AB03D6E810A3D0E3330BC848FD4BD1C5ABE3D14715CBCCF0DA43C5619A03D21D992BD39871ABC933FDCBD4A9D3C3C4DEB403C1194F0BC22F0C03CFFA190BCEDB3503D7F6C643CF2CD38BD1BFCAABCA8FD543BC8F060BD1ED1FEBC730938BD063CC23D3450E03C09E7983D1D3C5EBC64FE30BCCAD7383D5D340C3B7ED200BD1FFD78BD402BE03D45412A3C3E4950BD1ECD14BC9952243BF35CE03C3F08203D5CF3E23C467668BD229AD4BD4DD8BABD6BED823C4761483D056A563C6066503D420C2E3B966DF03D43BF943C8BECA83D2F555C3CB33430BAEA8A00BD00F74C3D2F2FB23C53A110BD190E123D6B3620BCE2267CBCA8D1403D6F4F943AE19B80BC189A30BBC3AD103D7859383CCECCC4BD1CB6F63BBC2BA0BCBD75403D3393943D013AD6BD2AA76C3B6E5F00BD6A714EBCE8DB343BA660D0BC67B2D8BD6B9ED4BC7689E8BB2196A0BC80CC34BD2C1AA43D48108EBD3BC460BD1123F6BCB7E00CBC55BE183CF39E583D49678CBA54E700BCFBB0F4BD611B6CBB8AD540BCDD63E0BD045CDABD0DBFEE3B58E9003D6E471C3B7A96803CE8B0543C77A3083D3A905A3C9D7A703D5404C03D6C5B8CBA0FD400BD188A243CAC682C3BF8EA303CEE29A43D64F4C2BB85F5703D404D0CBD675D9A3CA991C43D4EE7043C6CC9103D63B064BC4B31A83D434A663D4541D4BC85DE1CBD1B071CBC0BD9583CCEA80CBD09A4AA3D332B76BD438F783D5417663CE2826CBB062960BD3C76A63C4E5E90BBFF6F503C985DE8BCFD86F83CFDABE43D76BBD83D4FFBB83CE1EB343D051A803AFB58803D12FA9C3D0E2E6ABC166818BBF7F8F0BC140F403D71D8B03A9C83403ABEAD40BC636438BC82C2A8BD42A9D43B5217603CD3E7243D51F164BD7F6D5C3D7F5C183D2BC016BCC04D44BCABDA7C3B9578703D70A7AEBCE4B6DCBBBDD0003D672BE8BD635280BCC83FA43D6AB4A83C83259CBCA11B103D5737923D34FD003BA28B90BD12064ABC794300BD6B1CF8BD5C46E8BD7DE486BD34919A3CBC0414BD53DDB63D065FCC3D29390A3C6990A83D5B24843D1B1190BAF28600BC716310B8066000BBCF1F703C9621C03D51F8EC3B009A40BCF939583CBA877C3C7D1E403C3B9738BD55D0E63D601E14BD7B21763D543F8A3D43E06A3D75165C3CFEDAC83CEA3E44BCE3FBFC3D1A6DDABC88064C3D36F6403C334DE8BC0C3D80BD293D243CE7AFE43D741266BAB3BF803C8BE898BD5C36A0BC1AAC903D1E2A1A3CE27B143D0EF99EBD3416903D61BFF6BD6E57103D1E1018BD3412683C7492C8BCE10B44BCBF9C5C3B6E71603C1643F8BD6BA710BCA425A03BB59FE03D328FBABD2FE42C3C10A388BC07A1183CE19F043C4481E03CAC6298BD1D11703B3BC9C0BC91EBAC3D1D9770B99C10003D0FF9303D1278183D6F36EABD0E7BCE3CF70CF0BAD5FC80BD64CAD43D15C708BC70EF583D062F1EBD25261A3D6DC2643D0B1DB4BD39DF523B3B00003BA3F7C0BD40C1BABD63A6243D57C71E3D0CC3003C5552B83D3ADB6CBC48E278BD0C5000BC7691C8BB47E180BD1FC1C23D2DEF7E3D0B83BC3D0A3838BD1026023C1A04403C892BD03D1D8C78BC918F68BD5936283D091BEEBD3C677ABC9BF168BD418D163CB3B278BC842CE43CF5BABC3C64A5203D2A05883D0C095ABD7D86423D0F8758BD3D89B83D4FB8F8BBE1E300BC8076F4BD2B412E3CDC7930BCD551C4BCF3C3EC3C2668103BC8B590BB14D120BD3FF0003D6A21A8BD469FCEBD5CDC7E3C3F5C503D5393A2BD6E77A43D235AA63B2FFCA0BD0D96023D2D31643D3B2B2E3D1A956CBD6737203B5A9F603C5847103C809558BD59E0A83D6EA3F0BD066952BC023AC8BD040202BD27AC58BC31CBF03CC3CBCC3D675E2CBCDFCC64BBF308E0BD45C41ABCFE49843C843C883C2939003D3930E6BC4B0C50BC99B2CCBCB3F9BCBC7CFCF83CFC8CA03D169E6A3D4704DCBD6FA9B63D7C255ABC468B90BD08A61CBCFA8984BD65DF82BCEF8AC83D3BC85CBD3B0E583D0C8B24BD60F95E3D667300BCF474343C017EB83D42FCE8BBF6BBA03D6709F2BC94F0CCBD25B2F2BC396FF8BBE85DF03D3EBB08BA19C500BC1354683D5DE4CCBCFC3F583CE2E4F83D0642503C93F8343D0255CC3ADE0300BCFA9B703C96C348BB8CF7803D57F2303C40DF503D1D3B48BD22C00EBD571458BD6FD544BD474DB6BD3556823D38AEF83A9543403D3571DABBC4CCE0BD62B7A83D72998C3AA5AE003D61FFDC3D1021743D4B14143CC4E49CBC4582D8BB8AD280BCD1BF683D5B00EABD2CEF82BD259364BB9A22603D160252BD5056D43D436AA43D3ACCA4BCC838683D168450BD117998BCD6A86CBD6881903D29A7463C2D8E80BC9C6834BCCCF2483C9DF3343D489012BABF3D803D627C9E3C5765203D53A3363AC0B7803D26F7CCBC058918BC3406E8BC2D12B8BD730D34BC1CAE003BE808F0BCF418F0BD70EDDA3D4F4B80BD3463BCBCAFC3643C324ED83D3C43DC3CD57324BD5A3D2CBD4A96C8BAD5F1403B5B2900BC5CE9203CBEE9E4BD76BE38BD271ABC3C4C83383CC45878BD29FB14BCF0DEF83D1AF2E2BD0D5EFCBD5492623D2A55323C66EBA0BCFA6D08BC8D002C3D0AA1403D00232E3C3225603C90153C3D3F19A03CDEB830BC4B9FE0BD02FB32BA9A96C03C6D22E03D777E623CC12960
3B96CE903D17AAC2BB922DF0BCB062FCBD362B48BC03CCB8BD021376BA459580BBCC7AD03C2A87C8BD60229A3A630F00BD4689EA3D4CB76E3D4090E2BD787F7C3D0297C0BD352BB43C0CE8A0BCDAAA70BD679E04BC969D843AB1B2C03C5EB2A03C7490D03D7C30E83CD33D403D383F223D2B8F803D018970BAA02740BD25FF983CBB0DAC3D002E1A3D70CD18BC6DBE083CCCD1403D48FC02BC8D61B4BC8CC3503C4C9540BD0D3CCEBD3508603C376608BBBF81303D12B74CBD0F273E3D3736843D694934BD453A02BC8D53883D44FDFABD0F0796BD09246E3D3402A23B969FA03D4C1E983C7D1398BC8AA9343D6F54AEBC91E02CBB267380BCA45B5C3BADC100BD25490CBD2A5CF63D78C57ABD5672303B928CC03D70CB96BD5C26D6BD472DE23C3B48F8BD76E48C3C7FA948BC4D0FD83C9A77383C8EA3543D0DCD6CBCEF02C4BD43E2B43D3B5DC0BC13C9B03D50B62C3D7BCE3E3BE63F303D4206FC3C26EA88BCCDA598BCBAEFD43B80C5603CDFD8ECBD40D6A83BD7E3403B5897A03D4CC882BCC0C3A83CA48FB83D7D95A4BD00C2BEBC280190BD1C2B783C87912CBAD897803D09822E3D45B3563C69BAB83CA0D5203C8D18D03A8FCC003D0A642A3CC6FFA03D40A99CBAB887003CEF27583D78FE3ABD2BDFACBD4245963D26EDEC3D36E78C3CFC6C8CBD3B21DCBC89A6D8BD6B2CD6BC804BB0BD4619543B09A9A0BC617A983D0A3BA4BCCA8A38BD5A957A3D7E02023D365A643CD23CB43BCCD250BD12F05C3B3683E0BD40C25ABC8087BC3CEC3554BC7E7F183D0FAFBABC9553483D457B96BC271E983C925660BC1B25F83C072B503D79BFEC3D10D90E3D1E89ACBD5750883C7283D0BD59F53A3B9694203D349842BD2D3B16BC7E47B83C880E74BD3B138E3C80E73C3D0588743C684CA0BCDBF258BD4E9942BD28813ABA9836C03D45D374BD0380E8BC4081C8BC4568A83C28F0E8BC33E1F8BD4A90E03D5497203D0132123B7A0500BCDB1A24BBF0BDC0BD3039F6BD546D0ABCFC18543C2765503CD1E7C0BD1C809EBD5C7CB23D589426BC0BB5D83ADA2CC0BCE5DC2CBD73FEE83CADBF7CBD76748EBD03B06ABD74A186BCB376BC3BF4BC203D4EE440BD21C7583D6D76D63D657AD03D78CE90BD11456E3CC87A78BCC78DE03C4CFC88BD3A97703D3B7564BD2CC6BA3D654B963D231DB0BD3A4396BD60427CBC86FE20BAFF8640BD175D76BD5B8D5C3CB4A1543D13C42CBD5B22A63B6A06203CD04D683BF61E403D753496BD3BA7723BC3AA603D752E7A3D71AB5C3D0BF712BD05740C3B9113F0BBDADA10BCD63C04BC9FACF43C4F8308BD0503BCBD0AAAAABC866D243D6EE938B8A74800BC90FF30BD626B92B9D276003D2121C4BD75211ABC7653583D3471C6367900003D554418BD5107B43D3A4A40BCBA8D4C3C787CF8BD6490FA3CED79DC3D0A9B44BA86EE003D2062403A9E30403CBF6B303C553F303CD710543D051BC2BD3E9E983CD19208BD2DC958BD2D79263D040E683D50C4F03C8643C8BD70C2F4BD23C78ABC4564203D1DB6143C63F290BD3E078E3D2A7376BC2B7D48BD454CE2BBD3FE10BD21E4D43D1825063B96D620BCFAE88CBD0FE64E3B5E90A03BF3A3A03D0B9CE23C896ABC3D0C66A63D4E1786BD1ABD0C3D0228063C479570BCF2B2E0BD74712EBB32D1803B206380BCF281A03B9DAEC03D59A9D2BCC73F7C3D2F1E623CD6A0D8BCC0B560BD4C65E03D1D9CAABACDEB803D3C9A82BAA10E80BD6142D03CD12098BBEACCF03D3ECE8A3D388B503CF84B0CBD6010C43D39BC14BB8788603D1851FEBCF47FBCBCB585043D61EC50BCB7413C3D3FF8E83C8AAB883D485A383D38A88A3D12AD883D71189A3C5C26283C70CBA039F73C003D6D3D603B5F42E03D448A6A3CAEC37C3D7658AE3D0448F0BD1B51423D3E9DCC3C95AE603D17A4E63D6D0DF0BCA94B4C3D773C563CCB2494BD70F6AE3C0834B0BCE62DC8BCE26AE83D56E726BC9F2C7CBCE689EC3D166E82BD0CDC923BB4FE503CAC12F03D39A512BC02C400BD5CE1F4BD61016EBD06301ABD6BF6823D75208CBC9187003BB50DE0BC91BAE83D4619163D34B428BC7D8A703C618CA0BD34CDA23A4EBE803C878EA8BC754598BD33A536BD1CA1EA3D0DEF56BD73FCF03C57B2B83D162A68BB6F7540BD77C77C3CC90B84BC5AC7C83CB3B9A4BD3418723D633E003CC83B48BD3335743D0E301A3D1865803C0146283D74B494BD6BDD70BCBFD758BD7B0CD0BB411920BD5690E63D017516BD09118ABD6110F83D7142B0BD51696ABD7C82D0BD17DE48BD662852BCD70420BC304370BBAB6BD03CF88EC8BD0C61D23D4996DCBBD47040BD1ED71EBD44FC90BD7DC5523CF9AD5C3D422792BD0B4F523C7310A03CFACF0CBBB281703AF05440BD1594843D70673C3D6AEE6C3C9F1814BD7E46A63CCEEFFC3D6C2E6E3D7DDBFCBBB6D7B03D08F9F63D7818C2BD3BEFE43CED616CBD0B4198BD1B7612BC2D5D60BD5B11ACBD457E063C291958BC997F743CE22C34BCDFFAF4BD2773743D0CDB9C3D38AAE63BB916D0BCFD22F8BCE16A34BCDB17E0BCA9428C3CE701883CC155E8BD3BEC20BC6942A03C0D87F03D54BB3CBD7DF8EA3CD6D4C83BB522B03CF9BFE43AFB7300BCDE6270BD298244BC014E68BD6168363D4F4BE6BD215824BBF221C03D00883EBD56E4423C8CA8703D1763243D46A1843D53F60CBCD146F03D6EA31CBCECA3E8BCF415503C7061103CF6E1683D530A3EBB335560BC8D3FF0BB6996003D77AB7A3D56729EBCA1CCB4BC3D8D88BD4A6F343CD71E503D5E326CBCEFBF38BB7C4F203D20E5B23D1B1096BBFD7FD03B40EC603C80C87C3D21FA22BD0F8A8C3B3EC4403D19205E3D4CA84C3D08A9BABD71D6383D2F2F6A3B44E600
BBF05A80BD4C03D2BD2F2FFCBD49B0BE3D3F4CA03D4253B2BD7B7D2C3D5C54ACBC9E1E48BD7D73BC3D049194BD6CFD5E3D53A748BCFBD07CBD268790BD49E30CBCDA3B003D122EB0BD6955D23C6BF990BCABE98C3C242398BC0E38E8BD2E372ABD258932BD6B45B8BCA2BA6CBD21A5403CF04B70BCDC47083BE3E8B03C4F46703C82D728BC6CDBD83B9C1400BD202A74BD3FC9203D08E0E0BB9B39E0BCCF0EE0BD395864BD1906483D029046BD046468BCCC927C3CB9A648BD033178BD77F9B83BD015703CDA6A3CBC6B25883D63F83E3D1DF9BEBBEEFE703D5E192E3D13C45E3C02BDC03BA1DC203B4002203CC04C50BD24AC503D1C593ABD7D13FC3C6866803D6045F4BD541E7E3D244C36BC6A8BE03CDED7BCBC38D5983D107CAEBC9CD130BD41C8D63C8A1D9CBD558BAABCF5D9103AEC88C0BBFC7D303C6974F8BD71B0483C3E77203D376CD8BD480B283CD06EBCBB6EBA803D4C35963D76F9443D5AB7A03D78B162BD7897163C715CE83CF269E83CE307C8BD249A4CBCA6E5243D5C8FE43CF86CA8BCA8A42C3C1F3388BD11BA6CBD7B7152BC611F98BACBD780BD1B0B96BD092282BD3EAFF6BCC59FAC3D6023303D12F7C23D710154BBD48DF0BD54D0D43D60B1463D73D6743CC924383C5746703C632C683C363700BD472B5C3C32FA983D6AD1BA3CC556943CA86BD43D3681F03D5DAD0CBD0F12BE3CB18A50BD1211CEBD792C90BC5F0B28BC2AC9F83D40F4DE3C8A82CCBCE692CCBCD1FBAC3C6008783B796820BD686B903B7ADBC0BD1724B4BC8FB9CCBD10586A3CAA68443D5768BEBD0E33FCBD23972ABD2968A83D33D50CBCA1EBF83C58C188BD52DE523D3AA5A63C9596BC3CC6403CBD1EB876BD0BC522BD0CB0B23C1C5E08BCB43D30BBC9E3C03C19DD90BD17F6423CD4456CBD232190BD152F2E3D720F1C3CA1E8883D3AF5AABD30EF44BCAD899C3D7C67023D0B60D03CD8AC5C3C0DEB283CC0E19CBC972FFCBCBF49E83D34716E3D433CF8BC81EF28BD08DC4A3CEE43A4BC6A91103AB64E403C8706003D59BB8A3CFD35443CE3E3B0BD069514BBA206C0BD6C55DCBD6CA642BD35BF7C3D3B72FABD6B0EFCBD2B0A92BCD7A728BCE6A89CBD373F82BC90CD203D385F88BC891D3CBBB027C03CD1E6103D44535EB8E28800BC0321403D3744B23D03A142BB0C7120BD48FAFABC1718D83CB7B240BD249ECEBA2590003D2D30623CA5F834BC35F4883D7FEB5ABD36B3E2BD4155383D356AE8BC371DF83D2A8E0A3D77ED58BD261D9A3C95D9E83C87DBACBC952DCCBD180D183CE03DF43D3417DE3D775A12BD4555C43CB87F6C3D1E4E723D405F0C3D1DCA36BD400FE43CD262803D21BE12BC9CEADCBC9CA1483C3589E0BCEEDDF83D4A3A3E3D75474E3CB510183D7C35B43D7FCBBE3CF36B60BD607DBA3D0FD2F0BD6B46CA3D4752823C2610703D7304DCBD54FAFABD47939A3D22D8BCBD62BC523D325CF6BCDE2C243C074BF83B7F87A0BC3D7410BCD6850C3D60A97CBC88D4B0BCA665C0BD1D6A48BD07B9DCBD3541E0BD661C98BCE5A2ACBD7047DE3D34A3F63CA8D3E03CCC2EE4BD0ADF94BA6DDD003C9C2D903D65C996BD3F7CD0BC1A8C38BD4FCD643D2EDB3ABB2EDD203D446E5C3CA24A403B9992603C789EB8BD45F2443AA144403D5B90663D43DD263D329844BB296AE03D2F784E3D1F52083D4689243D4B53EABD13B9DEBD464D78BCF62ECCBC9198F03D35C3003C15E6C03D3EDC34BD151B8EBD2435C03CCFBE68BC9E8FE83D5279963CA480B83C94A4743C3F58E0BD0E37283D671B5E3C633B60BD144BCABD11C6323D4A3DFABD52BA0EBC57E6E0BCCE4D703D6406483D30DD103D5C3CF43D4CBC52BC67F1703CC79594BBEFF2903D5A9D923D448D04BC2274E83BCE2F90BCC23F1CBD0E2F2ABC5ECDF03C3439883D7D81D2BD020EA03D34BD8E3D257C18BCB4A43CBD0035EC3CB173683D1661F03CBB12C03D578966BD02CB58BC65C1003C96C5CCBD1A853E3B99DC303D5C16F23D5501FCBD1E093ABC6E5FD0BD6DF006BD6DF492BC47CAA838906800BC704AA8BD2629DCBCC2DB90BD175EB43C1C2968BC0637183B163580BD58E93ABD439CAEBCFDD970BC6820F0BD4AD80E3D549C223C99C38CBD6F500ABD26046A3D45AE323CA1F584BCF904E8BA4622003D7C6B343C14EFF03D1479D43D71C378BD79DDC83D6BF33C3C02B1F83C5C03603D4F3D10BBE47AB0BC3C5728BD2A58B03C366868BCC51FBCBD2C7C92BD61E62ABD5621563D41081E3D0144303C4762E83CF30C1C3D285FAABCDFF38CBD658C5A3D566742BD773C3CBD6D7534BD1E553E3C5360A83D7BD558BD7D8144BB864F40BB54D420BD780E1CBC673E30BCB11FEC3D7BB330BC256AB0BCED9AECBD528FD23D476C28BD0AF3AE3C2725B83CEA2CC03B4326C0BC274E683C928BA0BD4FD422BD27F5E83D7FEC5A3C8D5B04BD28C32C3C275400BD0E41B6BD5ED64ABD68BB143D062900BD55004CBB0538A03D00AB023BF440D0BC5D8EC03D1DDEB6BCCF3A703CBDCF30BD605C9EBC08CA18BC9AB068BCAA72FC3D3BA80E3CD44880BD657204BC8861C4BD6A0716BC077F88BD0D3874BD40D364BD61B9A43A34FB80BD58FBAE3C979F643D5E7E70BCF0DF80BCFBCF58BCD0412C3D0746943CF055683C30EE00BD2D02163CB53AE4BC0355403D66ADEA3D36B7C0BD68B1343D7EB3403BD16810398B7600BD299FB63BDC1E90BD555C62BD450BF8BCDE4DB0BCCC8864BCE6F5A8BD37E46A3D48120C3C68E200BC5325683D7F75243CCAEC10BC5C52C03B7F0AA03B1639803B4983C0BC5345A03C8536B83D74B94ABCDD32503CFEF7FC3D7C10743C811D943CF27AC83D2FBFD83B71E2403BB8CCF03B0907A0BC0B5088BD114840
3CB467A8BD702E8E3C2EDE28BD63E1123C8CDB4CBD3542383D245428BD1C66DA3BC315F0BCE9B8C0BB2F2B403D5D3202BD041EAE3BE21160BC8E05EC3A8A1340BC0CB4B0BD1FEB96BD5798943D35C48C3AACDD00BC9CC6783C570BE03D66AC163CB784303D6073903D39381C39AA8D003D3AD906BC5D92503B996950BCB621BCBCCCB2F8BCD7D0D83C1523A83D10FDD83D79434ABD09B2CA3D6C2694BC1BC2903D6D07C8BC2352A0BCBDC4FC3D0E90DCBBD7E790BC2F3D40BD3DAB9C3BC050F0BCEA03C0BD07AE60BC0AFE683D124BE2BD3054023D6D6EC8BBB350D03D39AC34BD10BE1C3D5711723D2877B63D3AAA6ABC158F10BB217A203CAE0748BD04DB843C99176CBD1FF80CBD299B82BAB26D803D2514C0BCF6BBB83D3C60643C81A140BD7828EC3CF6776C3B5E8BA03B9D50603CBD23543BA94D603D7CCF2E3C2477E03C178E183CC865303CE0B8703CFD631CBD236C643C3FF2503D5C32363D132BAC3C9CCA4CBC63C940BCE03D843D10284CBCB507B8BB841C203CD8EA3CBD221A8EBC631980BCB10A703CBE9F64BC4FB2403D333D423C89B12C3B492840BB8F7230BC71A9283CEC99D43D5F0BB43D327E743C0E41103D7A5D143CA94820BD3396F6BB749C60BB4808E0BBF76BB03B1660E03CE88A343BB4B4D03D3B1EC03D07C2D2BC3E15A0BCAD5FF0BD149DE6BCE4DF40BCA078ECBD6CE988BD3B7E58BD2EA0C2BD2C444CBD5D40863D359E1EBD237A3ABD44C9643D5546C2BD2624783D36A5AA3BB67D40BD2B36A8BC2DA410BD32F7D0BC7729403CEEA550BD25813EBC46A360BD7E40E43B2613803C9C7ECCBD71C3283CB284583D217D3A3CFA8820BC834F803D6D543E3D1C08543CE0B7343D0B2BACBD3924AABCCFDDB4BB06F4803D395C6EBD4D12423BE0DA303CDF4DF4BB4E0520BCCAD6783CD1C27C3D6EC06ABC3EF1B8BAB0F1C03CE3D11C3D454350BC93B6F4BD4D8B02BBC26730BC84C8E03C33F8B03D79E2B43D726E82BD403E20BD3EA57ABD7A105C3CB35ADC3C87D2203D5A18AEBCA4D030BCE5D090BD37FD40BCCF15A03D4501A6BD0B2D9C3D0AE08C3C6F33103D252002BCB794FC3C8DA730BD714D5A3D3C81D0BD4192483C9CB2503D3809B03D5A9592BD7406923C295348BD715AF6BCDA6674BD5CBBF23B9B01103C6725E83C653418BC1814A8BCB91D0C3CBC98703BFC1780BCC88E203CED05883D1A4070BCBC67803D2E303CBC3BCA703D2786783BD3F7903D7D233CBD3854D83C0A42203D59E5883D0420EA3C809B0CBD42E6403D703966BD40732CBD1DC812BD384DAABCB39710BD0362983D5029E43D795E02BD4A8F443D4A5D16BCC7E3ACBC255BC8BD7B526A3D175F383A31EE803C3E3EF8BD0B19783D7CB06ABC99420C3D375B863D2AAF963D44F29E3BA2A890BCDB84483D098760BD31BE203CEF9810BCBC77C0BD29EE763D5E079EBCAFF260BCC12B30BC1010503C92E9F839FE8900BC333A80BD2A3BB6BD3953983D34A79ABD37E81A3CD3DEC83BE0AEF03D0A8E103D5BFB903D117148BD5EA484BD42B3583C9A904CBBE2A2E0BD647FA03D5A792EBD266D14BD3578E0BD5CB1463D5FC4B6BC6297D03D32AC543C9743B4BD4450ECBD6E7EB4BBD991903C6C3E103C37C4A03D1F6D2CBD6B12EABC3415F0BD674A74BCF526F8BD6872FABC1FFF403CBEB070BC8ABC283D17E0123CA956A8BBE07F40BB6802803C7FE8D03B59EB403C006550BC1C9D583C648E603C5B73E8BCB73E3C3C3EC2103D6A47BE3C0270903CDC4F94BB46AA60BCC1A7E03D674B80BD5756FE3BB6DC30BD178ED63C4171D0BD2E551CBCE5BC343BAE8CC0BC6356F03B7D8400BC9D48803D5F07D63D5277DE3CAE5024BD5F6D2ABD41BAA23D79D482BCC51D003D78ED123D627896BD42CDFA3D23BF9ABD5FD30CBD66A9D4BB3168403BE25A40BBC63E403CFF50E8BCB604C43D36032C3D4C68CA3B46D540BD6DB764BD09BD583D149890BD7590123D759822BD3992603D7901A83CD5075C3CD739183CD2D260BA49E8003D57C5683C89E9F83CDC89A03D15E5CABD5C9268BC69DF103CB863E8BD2B07DEBCFB90483D7902743B8D4A30BD10F6123D1031F2BBF004303B918350BD3E723EBCB52614BCC40FBC3CFB33F8BCDC10FCBD54C0E8BD5E2602BD3951743CD164943C9D86B43CF414F43CA04088BD1D56CC3D40E022BD4EE38ABC9FCCE0BC0080183CCBCE48BB26DEA03D05CE823B03F600BB530C803D63CC563D46F722BD4B9D06BCCAAC68BCBD93F03CD2B9103CD05F103D41E18ABD370856BAF3CFC0BB8E74903D5BA12ABCA532643C1A23883CD412F8BD55A058BD309D88BCF40D983BFAE5803CD8984CBC70EAB03D3D7C2A3C831E1CBC81E1103D315EEABD7E272EBCE2A7F4BC2BA7F0BC7949783CBE2B50BD2399723BDD5260BD332D64BD407690359D0000BD115EB2BD0716363B3738A0BCD410DC3CE42B70BD33B8DABC5E76A8BD77DBB0BC0F43F83C3BD2703D168FD4BD4DFF5E3B3C8EC03D060060BCA37BB0BCABAB94BCB63BF8BC805198BCE1F2983D27A070BC3F6AA8BD6F20BCBD2523A23CFCDE643C82DEFC3D14FDDCBD17D54CBA095E80BD69EBFE3D15303E3D0B6A583CA91AC4BD3F80CA3D3CC9E03CCB34D4BCD386843D5FFB32BD51BD903D7E3000BCB39A6C3B9D14403D565E02BCC7DAE4BD1751CA3D1F72463C9E56B03D43729CBBB93A00BC625C28BC1A37203D7709E2BBF59E40BD0BF72E3B022EE0BC9389B8BD43766C3C14E3D8BBD78CA03D120A283C641D083CBF03A03CDA6D203C676E203B298EE0BBA291303CCB9F44BB849D003D06F49A3BC4E4303D4181DC3D401438BC90D2CC3BA41A803D61BD083CFB104C3D20F40C3CF3C980BC365830BD377638BD134E80
3B8849D0BD393C50BD5D93BCBCC9BC24BCA7AC40BD073AC23D3823323D4DC3A8BD527BCEBCC1B000BD76881EBC470AD0BD0FD014BD5F6476BCC84E8C3D5DC750BD0E429C3D5BC52CBC84BA1CBD246D643D15FCB03CCB62F03C53CEF0BC32A5B83D6280DEBD148E403CA617D43D5444D6BD065E7ABD56B86E3D79D3EC3D1EB970BA7D7600BD469F50BC8478B83CB46D383C5C36703D70570CBCCFF92C3D33142CBC294B583CB89BA4BD00CDEA3B9A5310BD0B34143D6260643D3250243D0BAE56BD6F7C56BD056CBA3D6E5886BD3093D4BD594A9A3D3114D0BD1511DCBB88C6803BADB570BD61AABEBD64DA403D4F66D63BA70880BD2269C8BC3ADCB8BD4C14D63BAE8A40BC577AD03BB1BCE03D74106EBBED3AE0BD40F974BD2D1A4CBBF99CA03D42D918BCEE3EBC3D374B443CC76E24BD01F03EBCB51DCCBCFC2694BCAC7C80BD318D5EBB9F0050BD713BA4BBC2F9D03D0039D4BCFAFAD4BCE323A83D1CA5943B2038403CDA301CBC6DFE68BB5F56203D22EB92BD1F68AABD6E7AA0BA9BF9003D63331ABC38B0B03D417CE4BCBB0968BCF04F54BC5BFE283CF88CEC3BE893D03CF9DA6C3CE42028BC88287C3A165000BBA65140BD61C908BD47B3D2BC4DE9E03D052E7ABB5E8BC03C8817E83BF83D103D3AAC08BCCB946CBCBD6E443D113E243CB81A64BD32CAFE3D30D4F2393D24003D56B8B03D2B1E2CBD0747623CADD9DC3D537B1ABD0DE1BE3C998B8C3D4D6F98BB80AA60BCE3F7983C2C28A83B11EA00BD3F6E603D7BA4083C80FB58BD6AFF323D480F44BD6D8F9E3C877DC8BABA4AC03BADA9C0BB842170BD1BDC7A3D6FCEA03D2A31C83D514C3E3D26DA54BD3E2E4EBBD9EF70BBE480B0BC9BCBCC3D2A30E2BD4AF6B2BC28D010BD5A26943C44B0F0BD30D76C3B59AD803D0F3CAA3B9DDBE0BD1367803D6DB39ABD1E18ECBCC84C643D17FA8A3C491838BCBA4E68BD3FD364BBB4EFA0BAD76780BD1149A4BD3FF6203D29719ABC913CB4BBA30CF03D25903C3BF647F0BCFA01A8BD72B7943CBFEF14BCF04F34BD318F8E3D6A331CBD3F090CBCB0EC48BD2E236EBD45DDECBCF58930BD501D1E3D07F182BCCF18ACBD2261F83D0196EE3D2861823CD84438BCCCFA04BCB16AC83D0A08D0BD6434E83C0CDA303D79D8523CDB0248BD4705443D54FE88BB18BF00BD503A983D7920A23D430D663D3F2F3C3D6A80CA3D40DD983CC60428BD15B0C43D203C0C3D31902C3CEFE0D0BCB3439C3CE56A383D16BADC38FD20003C17EBF83C7B63A0BBEA93503D23729ABD4BB9FE3D0603BA3D744CC23C98BAB8BD4F5B10BD0A51BC3C8A278CBD4AE7223D49BC983D1D97BA3B630BA03CD602B83D7D09AC3CB767A0BC9850DC3D6070D2BD6FB21A3D58E186BD4903F23D4782863D4CB02A3CA6BD9C3D15AB803D29F8F63D0427D03A58EC80BC746F48BD0FE6CA3D24BFEA3C0784B0BC9A21B43BC0DC00BC9BC580BBC999503D3294D83CF7A0883CE8ECC8BCEEA26CBBD7B430BCC2E0D0BD66DC00BC23E0B03D2D462EBC16DB80BD6C3518BCBC59D8BCC67A64BD4E0AB4BD35E384BD4578443D040EE23D44A6323CD4FD34BD5E3FFA3CFE53383C8C2310BCF574243D4E8B44BCCBAE58BBF03BE0BCF62E083CB89190BD391222BCBD9A303D40027E3CA6611C3CEB9A583BED8920BCFAE24C3C801328BB5DABC0BD1A9360BD747020BD36688CBD70456E3C4514A03D167BB83D26D6B83D6B46503D06C6D83CCAE6403D0B33F038B98C00BD5F1ED83D487D8ABCEBA02CBC5A6AA03D16CE14BD1736FABD1ACAB4BCE3B33CBC038A10BC9C38D4BD27F556BD7FDE82BC9EB610BC856A20BC332710BD5EF10EBCD928603D7F0FF6BD6489B23D4CC77E3C50DAB03D56605ABC7079383D4CAF48BAD82F40BCF762483D4645DC3D2F288EBBF3CE70BD5B6F283CF559A43C844C183D4580963D5FDB92BCCEE2D03D32F3863D28EB223D5E55F63BA22A603BF7A4B03D059C96BCC38CFC3D731EAEBD0A150CBC9EEE90BD19F12EBD720F34BBA022303C6C85283BF2EFA03D379192BD44B80E3C9864E03D65CA703D390962BD34C8B63BF3C360BCDA23743D0E20723CBBCA64BCDD81B8BD7A8D943D6757263CC10370BB026D403CE1A6ACBB6AF7A03B93CA60BC9F2C30BCCE5894BCD52D10BCE520103C9D0598BC7BF220BCAEBB20BCF067703D3D0920BC0B0EB0BB94F1D0BC8788683B5789603C4A55183C076FA03D1B7714BD028888BB9B6160BD41F7E03D0A2DB23C8E7290BCE9AD4C3BA42FB03BF976F0BD2F1386BC5861E83CD7AEC0BD72B08EBD315E0EBCD5D6ECBCABD7E03B05F4A03BD87CA03D78FBE0BD2F3120BCA9A55CBCABCB5CBD519F60BC38A1203C267C30BD33E0B0BD500A723D03E862BD35C1AABD3628B2BD13AB163C028FC83B597080BD2D6350BD39A9643D26C3A6BD3972303CFF63E0BB8851D0BCAF62883C91C8443C687150BCF2831CBC76EE18BCF66E7CBC8D36343D3687583D04D412BCA151C43B21A9E03C2AC8903C2A53D0BD1F26FC3D51D5DABD339410BCBDCBE43CA12924BC8288383C39AD503D7C56523C8963D0BD2DEF7EBCB7D7DCBD007D3ABCA4A4C8BC6194F0BBEADEB03C23FAA0B922EC00BD6A6404BD652788BD03C3BABD246C243D11D6C83CAA8724B9535C003D7DB076BD6941D8BD1F630C3CDB72BC3D6662D23D0D234EBCA097E43B09C6E0BD642CFA3D720EF83BD8C8C0BD4D10CE3D5FE4D63D36BE2CBBB7EFC0BCC4C33C3CCADF683CE4BA1CBCF00658393A9A003CA757303D593010BC919CD4BC6308A83B8B8800BCDD77E43CA9E7243D1B35343D6CC836BCCAE150BC9555943B7942603BAEB4C0BD0184F03AB03140BD6E3F02BD75A674BCE876783C81C7D03D22C6DCBD11A2E23C92D3F8
BD3031BC3D29CF2C3B425460BD6190483C559080BC843A70BC80C5A8BBB3AC80BB7F87E0BCC24060BD67F14ABC2B51A83C8C8F98BD639B4C3BED57603D687F84BCABFB80BD2AFD843D24F7643C9EE898BCE9261CBD1982F43CAD77E4BCAA82FC3C76A8503C87B614BBF25030BD1C9C543CCA19443C0355C0BD13C9643D5D1C56BCD98BAC3CEF27F839E181003C3DEDC8BD2A714E3CA3B130BD429B9E3D6647503D7278103C4CDFF8BCCE50343CD10FECBD0EB4D8BC435390BC05C7503BCAEA40BC44DA803D33723C3D364F66BCB4F7A83D5F3A2C3D795520BB6A18A03D6EC2DCBCB6D9783D272DC23D5501063D54441A3C0C35503A9373C0BCAD4880BC31AF48BBA6AD803CA884483B1F4F803D12A6FABAEFAFC0BC3FC018BD2948DCBAFED2C03D15DD12BD77EF4E3C0699103C8AEDC83C81DCD03D022BD63D36FFD0BCF16904BC56DC683C309628BC6DEAB8BD3FA8EE3D6D66F23C79ACC83D315AD0BC1EC6903D486008BCF3E7AC3D49E62C3C61ABE03D79DCE8BD07B08A3C6EA6903CBA72243D00A3C63D0DA0B0BC1091483D5F650A3D63E75C3D72DBD63D413286BC92709C3D4CF500BD6C9AC23D50DF64BD7B3260BD40FDA0BC2C82D83D0F25D03BB19A50BD79040C3CE725883C351950BAE0F1003D6D63C8BCF2189C3B0139003C0D7A18BCF2AFD03D49D5A83D4184C23D5A709ABC0D1640BD6430923BF2BB403D71187EBD0D7586BD2960E23BBEC940BD3F7490BD1FAFCE3CAC28F0BCB28064BCACF59C3D1EE5923D655B6CBCF628AC3D0B2C8ABD2513E2BCD961B03D23EE663D08DA50BD5405623D74F9FEBC738330BBB27CF0BD38FB243CECFD18BCAD81C0BD0212F43D7890063C455E703D2F4AE63B17FFE03D32DB483AB8B2803D049F8E3CA9B6D83CF7C7A83D0FC026BD70F0B2BD5A8958BD16DA3E3D65D062BCF91928BCCC4F103CE63BE43D2C0E3A3CEC9458BD292F8C3C907974BC8ADF203A9428C0BCDBC4C83BFAB2203D41EF5CBC8590DC3C9653A0BD086014BD1195783D5A2068BD47E67C3AF0E640BD145C463C886088BC1591F8BD54FC023D62972ABD4FEB62BC16D188BCAE4550BCFEF66C3D1DB9803C8CD7D4B9CFA4003D1669DE3CE899B83B3E1E003D0CAB743C6652E83D1A63FE3D3879CC3D7990E0BD48346EBD6BD74CBD6CB6D0BCE1FFCCBD1C56FC3D149082BD18B4903BF35170BD53E224BD525DC4BD2DE8BCBD775E78BC04A530BD6DD8FE3C9BBF0C3C8497643D672A1EBC1C2F583D19C69CBCBDD750BC6094003CCD18083C3475983CA1A8E03C369C78BBD514403CEBFB803805C000BD07C5DCBD0156CA38770000BCC44434BC4352B0BD171CA0BD0908AE3C279FA8BBEC32F0BD4CF356BCC391C83D1B962A3D59B3123D5ACA403C3799C0BD77FA46BC0AE1283B22AAC0BCFA9D603D2E5F08BCC7F52CBD432C883990B3003D199DAEBD3CF9C23CC8863C3C3D8500BC8C6D203CDE39183C968520BC8C50F03D57ACAC3D15AB783D2DB5E8BCFDED44BD765D943C4BC038BC205B103D167516BD4E0F163CF94E18BD21D57C3D5A00083D2360F4BD15EE723D4AE1E6BD2A698E3CB2C1E0BD5B8C46BCEF2C30BD1DFAC43D78F6FEBD5C9932BD1E5A943D637376BD6990223D3D867CBD1199543C9AA90C3CC45FBC3D365F44BD1E5488391B5E00BD29D5DC3CB4EEB83D28812CBD7829C43CB8A9983CCC4A18BD1402ECBC05C848BD05DBD63CE2B5C8BC1CFED83D749E8E3CD2A14CBC956B6C3D41C85CBD3B1BD43D6533F43C2ED598BC6AA578BD03B33A3D779F283D3B0EB03C997CC8BD349D18BD08EDF4BD7F0BA63CEC08603D4C946ABD3F46CABD3D8E903D17BCFA3B991A503BF92BE0BCAF2A08BC743EF03BD1EBD03BA4EE203CF49130BD39EDB2BC93B9943CE1B80CBC842898BD626D04BBC26C103D5CA23C3D059EAABCF3092C3B3727E0BD154E22BBC19A803C223240BCB877B43D51667CBD7B40BE3D402B86BD7101D03C8CE7843C334580BCAB7774BCE0582CBD577B2E3CF4103C3C0762F83C80F1BCBB5C59E03CE327BC3D167A2CBD346EA63D2942003B3D8E403D1F809ABD4A1AF83CA19CB8BCC7DA403CBE7B88BD21D6AC3D01727E3D00BDC03D277A723AC221403BCB8CD0BC4CDFC0BCC6032C3CC58198BD7CC4B63CC3AD203B431F203D5F5A34BD1B73BCBD6CCE64BD2522F2BD5FE320BB6935803C153FA03CDEA584BC8306DC3C4063303D67D7A03CE0AFA83D3D6074BD7C42ECBC81E934BD4EF4CC3B9141C0BCB4F380BD2F48423D1A58403B051D60BD1A0BA6BD35AC0ABD3DF4E8BD4A785CBD5D1740BD0C36623D4CAF78BD4654603D7E5044BC642FB8BC0FED00BB6607A0BCFD0ABCBC7E9570BD3B705ABCF6C31C3BCF2BA03CF3126C3D7816863D6C0ACEBD5A2BCCBC87D52CBD0EA7543CBE08DC3D618DAC3C6633103C84A1C8BCEC2660BCC5858CBAE99AC03D41FF44BCB0D3D03D16935239A64700BC971FEC3D2CD93CBCADC7C4BC3A81203D188568BD46A3763D0AC042BD795D4EBB76D8E03D6EF7A63C439B103D349CA43D2122FEBD1871A8BC678F00BD5446143D142440BC115BB83D747FF8BCFD9CC4BD55EFA23D6644E63CF471A43C1FAC18BD1D711CBD3A53043D36DF68BA70A100BC27A7903CA5B8E83C329620BC8381803CFEC3F83AB7B7003BB29CD03D26ACF0BC1222E0BD17294C3CBA5BECBCC78E703C067C583D0810B4BC7211C03CEB38FC3C0147A8BD34FC883CAF76BC3D498AD6BBD5FE103D0A0B36BC942CCCBD177B683D19E5F0389888003D0362FEBD17882ABD6ADC223C4E82103C994440BD6C91923D7FF5A83D35AA723D4EC160BCB140E0BD771A04BD1AFA60BAB310C03A593880BD70340ABD1970BCBCAF11683CA495FCBD0E582EBC822B7C
3B094F203CAE9E94BD37314E3C499E08BD2067B0BD1080283D3D78AA3CB471D83CD87228BC81A83C3C0A3BE83D6637923D19D66E3C9C289CBD087D66BD6BEA60BC5451103D295216BD4F9210BD424406BC97472C3D6D60723D7F8C94BD3FB85E3D227D28BD4F4024BCB9850C3D20A4D4BCDB4A1CBD4D2B9C3D02AE1CBD1A07483D3420783D06C01A3D1995B63D4D7B283D696604BD6D36C4BCB797A03D251BEA3D38627EBB8C72503CF389A4BD218870BCDA540C3CA7722CBCA50B50BD42515C3D353CDA3C38C4B83D203A043C077BD03D7A04B4BD174E103D3EB04CBD3ED940BD2FD01A3CC092F0BD438228BD772DAEBCC173003D761EBCBD6F212C3D35A1923D4823203D6EC79C3D73F924BD1EDF8CBD105E8CBBBE64D0BCE17D943CE9ACCCBD0225D8BD622A7C3D766F02BCEC5678BCA721DC3D1BA7843D5D84B23C1DE4F03C9190203D5587B43D7DF4D23C8DBBD8BCF983A0BD031A923B192D60BD594332BD5F5570BCB12FA8BD0839AC3D246920BD7A56563D4CDF16BD1BF6C0BD420874BD05A30EBD3D0F0C3C0B8C28BC498FF8BD54AC963C0BD8F0BC421FB0BD0D85983BE8A120BD6E5702BD1535C4BD4A961E3CEB333C3CB22810BD3D71B43D7AF656BCFAAB3C3D3B177ABC4A95D8BC460C60BCE431783D16FEF0BCEF3DB83BE145703CB79914BCB55790BB9732103CEE9C88BD47C1A43C3AE9A0BAA2C0C0BD512330BC031AF83D423EF63CCC6518BD6E22823CBB0FAC3CF2A8D4BCB3B7F0BC50D300BCCF36403BB950603D0CAA54BD4D63183CD603CCBD6F761ABCE5E850BCC53AE4BB6E6DE0BD3D86123CA0803C3CBF06703BD9E250BD0195B4BCACBE10BCD23C203D4A4F8EBCBE8D143D75497EBD1C98A0BC060A683C3908B83AF4A780BD32FDAC3D553B463D21516C3D6BA7B4BD289D063D7800F4BC0D0160BD43F9E23B8204803C9EA4943CB64074BCBA237CBCAAC1ECBB87DF103D17A3E6BC00E6A0BCB8D3D03D0909ECBAE8C500BD6AF7623CBA4E00BC111330BBF522F0BD367E28BD6EBAD4BC7EECC0BD349602BCB3C7F0BD03FBF2BD43D786BC97BAE43C9D7AF0BC71E840BD4CCA383D05353EBCC62CCCBCBCAC983C7DAB60BB4ED5A03CF3C3D03CDAF768BC8003043D25BE72BCCBFB543D0391183BAAC6303A69EC003CFF9640BC7975903B888800BCE3CEFCBD6B808639F7CB00BC0021A83D71329ABD2D200ABD19AAFE3C163420BB190B40BCB556843D0B5B56BD2C30863C5F2948BC1DB2583C9565903C649208BCF5BAB0BD45D45C3CD07EB43C0B4210BCEA0C783D583106BA8451803D5BFC843D6879F43C9271CCBD4F9040BBC4CE503BE104D0BB9EEF00BD1328BCBD75298E3D54F3CEBBA36EE03D643AB43C92B02C3BEDFA30BCC2AFB03D0CE00E3C21C8083C441AF83CEDF680BB00CFA03D5E6E383D1C8DE83D319C443D196DA6BD108ABC3BFCCDC03D15488C3D67F42A3CA39620BC2EBAB0BD24C320BC9F66C0BBBC56F0BCA013B83C1B56583CD6E450BD68D538BC8EFBBCBC88C328BCBB3AB8BB8FF250BC852EB83D16BF44BCEED0F4BD6920A8BD2648A23C893558BC5A66E0BD278010BCBB59D0BD3FC0703C830508BCCC9AA8BC4CEA283C9E3F5CBCC15BB0BCA689883C8656F8BD6234203CE381903D1B3C62BD049E763D77C5CCBD61B4883D5C772E3D65D170BCCDB8D83CC61720BCFD2A2C3C0D24883C6A70483C7650783D5CDCEA3D0959C0BD4BA8E63B94EBD03AF7C300BBAEDDA03D4F1A243D194226BD42DA62BD2B8646BCCE92203D4027EA3BEC65103C8DABD03D5D20DC39A37200398857003CB3A3803D1463203D0B7E4EBC43C2283CD077503C98CA88BD46A82E3D2FDDF2BD217DB23CA8B764BD2B305CBB1C80203CEB0944BD65CDB63D0C1D2EBD71D2B8BCD4DEE43CE72D60BD36FB0A3C8141FCBCE8BEBC3B765A803D01D4CA3B24FBA0BBFA2DD0BC12BFF8BCC526603C0B94703D3607E03D7528CC3CD73FB0BD035B9ABC45BD983D4AA2243CB99B8C3C414F58BD4B73B2BCDA1724BD7F0798BD3124763CA0A2183D42FCBE3CADC670BD4AAA9E3D5A4366BD4A8BB43D24B1D0BD0B6758BCFAA1DC3C0E85D8BD3FE7503CF96304BD08A760BD25328C3CB6FC603D2E98FEBD5B2E903C3EF9A8BBFDE9D03D06C1D03C439A903CBFB7BC3CC36E98BC6333D83CDC2A40BD18C7A2BD6A78EA3D2B33303CB011443CC6BD74BD43147E3D3EAC60BA1C6700BCC5ECE8BD56D598BCA695A0BD35A0D03D2FB1523D71B9D03D096F103D403A3A3D745A8C3D39BB183D447394BD754DB2B9FE1C003D0F11263C71FC683D146D92BC21A988BC2B6C203D062304BD3445643D05F4C23BB4C5C0BD0F371EBD2F5134BD59EC883D787B2C3CB470A0BD5116643D207F7A3D5E29D2BD5DC00A3D14DFA0BD1581F6BD6635A63D23CBB03D4C0078BD0383523CEE28C4BC5AF5D8BD3FBEB2BC627F90BCBC11A4BD22D8E23D1891543CE522703D3975243D76FE323CDE0A50BBD0AB60BCBB2534BD39F912BB25A260BD7A10563CA539803D55BC623BB047C03D57DC56BD1EAADCBC448E28BCF08B843CC173083CB79C6CBD7FC8743D02D9A0BC27FF383CBE39F439555C00BD38229ABC69AA183C80D2A8BD5579EC3C7A26003C809A08BD6B80DCBD4F7962BBAB8950BD30243C3CAAFAD03CCA1DA43CACF5B4BD7BE9D8BBDB6220BCFDA2983D7D9A1C3C271580BD36BFA83D5222CABCBB5A483CFBE8343C9727503C8756183D41E4B23C860E40BC4443603C249858BD1FA47E3C17FC283B8045D03D787F443D03E3B0BC3A17683C831D643B9431F03D60AE6C3D28B0FE3CF7E858BCFAD9803D3CB45E3CBF33B0BD1979983D32FE70BC9C3C6CBCE14820BD45ECDC3C29C6C0BCF0BD703C817F54BCDC2334
BD26A0D23D043FBA3B5B43E0BD1E24603C225798BD1C254C3D1BD4443C2DE2B83D4F3ACC3D34CA8ABD7DD652BB83F870BBAE76F0BB1CB300BB0276A0BD32D48EBD72E0A63D58961EBD2710C8BB280940BD23ECE03C9FCAE03C81D470BD4909843C91F4443C313618BBA18040BD53E15E3AD076803C23C950BB962E10BC915B08BD4670A83D44141A3D735AE03D6E2DE83C908D303C4333C83D7853603D60D6983D52D8623D341CC03D35A278BD16917C3CAFDE543D6CD89E3BC99BE0BD08D2BEBC1B30083C9EAD483A0F4D00BB4844203D2103483D72C9B03CD76FFCBD4057DCBD6ACCE6BBFCD2D0BD38FD043D71DAB43D24B5A43C2E2CF8BD37D9B63D27FB1ABD2A676CBD5B5D82BC447360BC579208BC4A6B88BD0DC9D2BB151D40BD10D8E8BB1D75E0BBA38CF0BC7C9E20BD793352BD5D14F8BCB7565C3D03836CBAAE1C403B71C8A03D1FDF4C3CF4260CBCC29DA8BC980400BC9A2AE43D2F28CC3D396E16BCE662B83CCAAA343D4B7556BD1109F63D176882BC9DA3D8BD7CAADEBD60B9043B1D3CE0BD2E01CC3D5E08743B9921E0BD5CD7C23D09616EBC4DEA503C9548943CE248B03C9F7374BD5543F03C17E4003CD4AEA0BD3CA256BCF6D468BD56010C3A7C7E003C5EB5683D3F011C3D31E328BCF789A8BB8825F0BBDC93B0BD5CBDBA3C6A21B0BD20C202BC0CDA70BAFFF640BBF044F0BC864B143CAF88D43BD97F703C9CCE70BB8071903CDA3D0CBD249C12BD0F5E703CF92328BCF94B0CBD0D12B43D1D10EC3D29906ABD68AD00BD040CF6BCC2611C3D207AA0BD2836A2BD564B32B9DE6500BCB01150BD46F8BCBD6386C2BCE9F358BD632E0EBD140B4C3CE671F4BCA7068CBBCC08E03D74986C3C3372F03CC14648BC8F0DACBCA41664BCC74E94BD3383843B50C3E0BD6263923CC06338BCCF42C83C9D0AC03D01825E3BB4BC30BD4F43A0BD76B5843D7FE898BCB4DC30BBA1FA103B8A2AF03D434D783D449D4E3C020108BD4F4D52BCD21564BD5EE0F6BD01EE2E3D15412EBD431808BD2A7A72BCC64660BCC7507CBD236F583C63AF08BC93D1783D3AEDA83D419B103BC558403BE04D80BC14F408BD60828ABC56B0B0BD56C7CE3C1C66183D6FB1E8BCD356C43C8E65F4B8A828003CF5F000BC078A30B93D04003D6E40CABD534E0E3D5B52023D78E888BD741896BCB065783D112414BBCB6F90BC2E1F503D6007FABD6487FCBD751FFE3C98F318BD72519C3D5B841C3CEC240C3D494C423D3B42AC3B1E1040BD6AADE43CBF18ACBD37DD9EBD34350E3D6F345E3D712C42BC5AD9683D70FCAC3CA97A1C3D46F0F6BD22C63A3B5AACA03C63C0003C467860BD11A5743D0051A43D6751FEBB1231A03D1153A0BD742D2E3C7F5B403C5A5FE83D4F25FEBBD708803C8ABB7C3C9833543B464940BD4138983D6C50CC3C4EC280BD19E2AA3D2DADCABB76DB603D487160BD2A6EFC3D2DFBC43D6BA854BD5A89DE3D40AC923CCADAFC3D538D1CBC8FDCD43AC7E7C0BCEB1AA0BC16E7603D0015FABD179B32BD2C0C823D0BA1323BF431103D5F6CFA3D041BD8BD1A4BE83D33DF883C0E63003D56A6B03CF5BC80BC67A2B03D059464BC1FA4E0BD5CDD423D1ADAF03CFEA73CBCE49320BD0D80463D5603823B87F170BCD8898CBD0918C83A506C00BD422822BBB766A03CF135483C0D7B283D6212C839C08F003D74B70ABCA15A383C442F38BCA6D6B03D6ECEF6BD4A51C6BCFC80C03A9CC940BBFAC2E0BD72230EBD19DD56BD1549063D2BF7F83D4502183C5F7F58BD0BF8283D3233543B467E00BCA33AE43D0BB4D03A6D7E80BD372A68BC3A5908BBC56590BCE1C76CBD43B812BCEE80703BB34FC03D79685EBD67D1C63D1CB49E3D09305ABD5F928A3D2CC7A8BB6CC180BBE4F370BD68A4FCBD74A2E0BCA751A43CFEE6743D0DB0623D232176BD14E9D4BC393E983791D0003CE1CB243A2F0F003CB55B58BCC5D29C3C96430C3C7FF9E8BD4F5D9E3D4E1462BC991724BD61F6DE3D776152BD72DDBABD7C78CE3D423CCC3D3034A23C8034D03C471678BD4FD22E3D66B58CBD7673263CE4AEACBD3A43D03C027468BD3DFD06BC27E3903C56D588BD7333FEBD19E18A3D39B4CEBD1D190C3D276D82BD2810823D40F3043C3BA3E8BD3B63723CA492903CD181ACBC872214BD5A4F2C3D77CF16BD6762FE3D3DE3443C7118483D3CB4D0BC8417283B897AE03A9BC580BCB9B6EC3B2489A03C2F53103D0ABE843C98192C3D50948ABCE824903D29666E3CA46FE83D36C72C3D25CD2ABC5E45A83D00AEAC3D05421CBC7AA0583CB94AD4BD31D24CBD32B8E0BD619DC8BCF558A43BE04000BD48674EBCF7A8843D298D0E3C8C1758BD323042BD64F9A63CA73430BC8E62F83CB7BABCBC61E168BCF507783D39433CBC62E7D8BB2D2DE03C1DBD503D0D843ABD22060CBD5AE0283D7BC2043D4B672C3D5795AEBD5DF3963C0AA0583D7A8238BCCF96143BC5EBB03D4608203CED84003CA14560BD1CDCDA3D32C5883C54FEC83D724FCC3CF552E83CCDBBB0BD0981DEBBF6E8E03CE665143D4A5050BC135AA03D19DBACBD23D7A4BC1CBA40BCA175F4BD3AE6FABC802538BCF43C183B4CDA80BD79C48E3CF0B0743D33BC9CBD2345CCBC0EB528BD270466BBE715F03D05D604BD3E2B4A3D423FCCBD1511D43CB615C83D682D6A3CA6FDBCBD7900303D6D86AE3D16DC4CBD5281043CF56494BD23D710BC9BE9C8BD741F9CBD21CE98BD6869B0BC8E9D9C3D6EAF10BD684E503D32C51EBA1E5E80BD4FF7383D23B0DC3BDCFF00BBFDFF103CCD19543C523248BCAA25283CF9E8F0BD12537E3BE523803D69D2B0BD0B26E03D14CEE63AB4D2803C8E74ECBD346AE2BD665E82BD39B90ABC714C30BD1C3B72BD5A08EE3C92F7C0
BD4191A63D6044D03CA1CDD0BD5C1CF8BD5875E4BB86A810BD6D8E92BB441BC0BD3E39463CF19DCCBA90E3C0BD34E5683C44D9383CD3B6E0BD0F60AABD0C0B483C3F8A20BD7C380C3D62450C3D1695643D632FF23AEF3100B9C3CB003D53B740BD6835F03D0635563BFC8C50BCEFA760BD5DD2943CAD0200BD406A4A3D6667843D559644BD0FF16CBD44EB403BF73650BD472F863D7FDEFC3CE1CD343D1E39623D6D550ABCBB6FF8BC1857283D4DCBBCBCDFB2F4BD39EDD63B7E1860BCD72A883D17DDCCBD25F3C0BC458D683C80AA5C3CA333A83D1A52F2BD1F5F123D270AD63C8C31D43CAAAFD4BCF4F6403CF8D9A83D6BDFF8BBC6EB20BD4F25C83BFFD3403C7971F83D76EE403D086260BD730BF6BCE12A84BCE5C67C3CE88F003D3AA472BD3D1F9EBD4CE52E3D0C6CFC3D71A2A03C8F40ACBD0EA38E3AD7A900BCC86714BD32CFB4BCB6C4C0391788003CC8D5ECBD64EF343D4EE710BCC53138BD584C94BD0C776CBBA508E0BC39A0C83C59BBA0BC4DFFE0BCAC3FE03D7B5A18BD3B656C3CEF1D103C1B3E60BC97E6F83D619C143D16BC2E3A974E003D7027C0BCB247B0BD41E7903D4416A6BC97F8683D2E70603A97A1403C42D9B0BC5B64803D18DC9ABC9413AC3C84F6F43D748AECBC922B38BD58001EBC075DA0BCFAE5FCBC370930BC1B4900BD0B3D843D7D77163C47D8B8BD459C9ABD31AB44BD251ABE3D6392BE3C95ABDCBD017D063D064914BCEF3C70BCC68D8C3D6C923EBD2F8D54BCA1DBE4BD3FC84CBD0B55E6BC6F51A03D2C59B43CB49A743CFF16183C3C56A0BC2DBC40BD136C16BD7881BABAE4C7803D1FFFBABD26B3D2BC9070343D7FA1EC3D6659D2BC903668BD4AF122BD456988BCDB755C3D63E26A3D35F4A43CE35134BC8895083A3E6B803CE68B383BB83CD0BD3D7F583D1D060E3D2DB5923D24516A3C991224BD4F4AAABCEDFCC4BC19DB403D44B076BC28C4A8BD172924BC454AA8BD265BFEBD7B93F2BA639C80BCBD8DE83C767C703C5402903BC279D03D228DD23B67B220BCAF2BC8BBF2AF50BD2B93743C1938A0BCE789283D234B043D581F643D3A81E0BB6FF920BD6BD0683CD901F0BD288B5A3D789C863D68D55A3D76ADBEBB7E9A00BC9BFA803CF7D794BCCA4750BD06E94ABC0BD710BD0088F23D2D7202BD601080BC5A0138BD46232ABD195478BD322CB0BD45F4AA3C1B64C03C9356B4BB8F0F403C5585283C8246D83D2E93F4BCFC6B08BD328002BD3586E8BC8F2B083C8D31A43B7D5FC0BD2391EEBD26CFD23D76DD763D4421E4BC450C683C193D90BD2D8D843D686CE63D75E57C3D78BB2C3C6D7110BC016D48BD11C436BD0E52E83C8C4784BD54D64EBD56EE583C9E09983BFB4470BD46B97C3A70B3003C86343CBD7E2C883CD466A03CBC31B4BD0DC3803C2E92F03D49CE94BD4E26FC3CBD22BC3CF3E838BD12FE72BD51EF063CC3ECA8BD28547A3C53E838BCC5D81C3D2331683C74AB203C8A099C3CB419083CCB5CF83D3836F0BD20D716BD63BBC63D4F9B823B815D303C7806C8BD7C29F83C32CD30BD570806BCEE9C00BCBA1470BD33DE683D4DD556BD71D4C8BC1912903D5A86C4BC9087703D3ACE0E3CA6A4643CF6EF0C3D42EC1ABCE141483B62C2C0BC9B599C3CE8A3DC3BD2CEC03D46279CBD4BF9B4BCB9EF08BBABFDB03C8211283CABAF243CD289B4BCFA552CBBCE1910BD5538F63D437B7EBCAADFCC3CAA44F8BCD2D9B8BD65A7563D35CCB0BD00C1D6BD6C54E23D11A3A83CA106B83BFD5980BC038E28BD26BB22BD4D39D8BCC9FDF43D55A8B23D5BCCA23C1883403CC4E0F03AA2F440BD414D50BBB3BE803D482F6ABCBFB7803CECC81C3CD748D4BCF693B0BC7170C0BD52FDDCBC874A4C3CAE5B803D6394783D2FD2983AA73DC0BD51AEA6BC5EECB03C9668A03B39FE80BC69EE903CD410203C8E9230BC0E90403C6803903D2D395A3D63D73EBD1EE698BD73376ABD5362EC3C9BF7F4BD69E194BC581B98BD4D1E303D3737ACBC8DC7D83C8D059CBD53C0D4BD662C60BCEF85C83D485F543D123248BCB2D6F8BD3D2BF6BCB22048BD741302BBED32403C066BA8BC9C78F43D15B3323D569298BD40A3B0BCC161883D4F9FA43B700200BD6F55E6BD346338BCD20540BD7CD60CBD74545E3BDEB2303C7A2FB8BD690BDA3D6410EEBC9AE3B03CA298E83B226320BD309D30BB98D2003D03D5B2BD446440BD1FB174BBF52FC03C1742C03C81DF18BCEC7FE0BD3A85243CEA66C4BD39C99A3BDCF5003D01DBD0BD0FB3DC3D271D3CBD48FE583CAB5D74BD4692283BD1A8E03CFE0B48BD005F4CBB98B7D03C080BB03D0FD034B9C7CD003C2434C83D7F4CCEBD722714BCDB03C4BD7FB8B83D30557A3A15C6003D1FC5F63B8ECA40BBAE7C103B5916C0BD6B21ECBD001DC63C4ADD303B6657A03B4F1320BCE8AC20BB01E3C03D50D1223CCE3A30BD56FA8EBD261D1A3D10AD3ABD5030E4BD0C04E23CD45A88BCACD4783D1FC3E8BD269DB4BCCC42283D32D67C3D527E2A3C6BA9003C003D903CDC9BE0BD70D97ABD2B65DEBCE254F03CFD03C83CEB93603CB3981CBD7695DC3D7D9C4E3C9D57083A4E90803D26168EBC97E8C43D1F750E3BE05730BD462942BBD229603D0075763D16D5DA3D58AB8E3B85CFB0BC303D10BB2756E0BC8943F4BCF4AC4CBC995EC0BD0004083D3E0C8CBCA937903C53EF78BD0C23563CC8C970BBBA47B0BC8BD8FC3C97090C3C955C083C0FED58BC2DA9C03C14A7003D715180BB5421E0BD2C32E63BA73FF0BD51C0243D0AD914BD4AFB44BD3DF348BCA5F8C4BD7F75DE3CB4C0C8BCF7CE003BF9B6303D56A67ABBDD8150BCD5A6003D41B17E3D0A2A2C3D2533F63D356D14BA1B44003D3E9C7ABD733ACE3D6919783B6105C0
BD461786BC1EDAB83ADB8A40BD603842BD0ACC7C3D6AC5FABC040A783CFE03803CED0FE4BCD724703D2E70C43D22174EBCBB51A83C222A88BC60F688BD2DFD4C3CEEEE943C6A1540BD698D68BD6FDE183D04B3E8BBFEB1703C826BECBAF71B403C9AAEA0BD3824663C944AC83D56801ABD424B70BB301280BD446EB83BEA0340BB2DCD20BA548980BD058AFE3D131E043BCFCA203BA061F0BCAD564C3CAE5208BCFFE4B4BBBB60203C00D5A0BD273C863D097CE8BD4C0B263D2D0C66BD3167D6BD2464D63D1C92343C88E7F03C5D9DD03D37FD403C5C6CE03D48A23EBC9AAA98BD3F19A8BC163A283D60123EBC8864243D4FE09C3C11B1603C3E62083D5346ECBCAA2D80BC16C0383D57C2B83B98BBC03C0EC1703D67989CBC9BCD083D1E08B6BCF6C2183B1EEB803D3FC3C63B28AE20BCAFE2A4BD6C04743D39A472BCBADE383C725098BCA75D203CB944403B16CB80BD12C43EBBB59A403C45A7003B196F403D53E916BD63EAD43D103F223D2E7CD03D73414C3D3B49A4BC9068B43D35F5023D5636CE3CED1DA0BD231614BD6DF7463B77BE603D31AA6EBB888930BA61BB003D0C31E6BD7C1BB0BCF7EBECBCBBB0943D40B93A3CFDE790BD14D826BD231D663D6B0048BD140486BD6EB454BD659A38BD7E355EBCD7ED90BCABBDA03D061CD83BB8AE90BAC31C80BCAE4EDCBC2A05783C4C7D20BBCBE9E03CC23A34BBC85980BD7A4356BD284282BD00DDF83D25CECA3C311780BBE46E50BD2EA218BC4C06783CB7D7ACBCC7E384BD0A0D98BD171ACEBCEF77CCBD49BB863D022A2A3CB77F443C4EB4583D6FEA00BD74801A3CFAABE43D6A6970BBE9A8B03C2AC0203D46666E3CABDA78B95A0E003CB32710BC1E1F383B538660BC346FD8BD67E07E3D3E093A3CDBC6FCBB59B9603C238618BD0482C2BCBFDE943D04381E3BE6A5F0BCCF8178BD66E88A3CA5AE04BA74EF80BC9C453CBD5C0B0E3BDE68903C87B44C3BA1BF80BD0BAA66BD5EE8AE3D0600E6BBB64970BB427F003D4809AA3D430B703D3E3A2E3D6147DEBD69B0283C4F0DC8BD79F098BD7563AA3D076EC6BD3B41843C4D60D83CFB07EC3D5F9FBE3D7F1AB8BD030D4ABCDC95D0BCC98F48BC0491383C2BC6E83CA4C1A4BC6432C8BC2995783D5ABCF6BD3FD7563BAD76303D3FD752BD3A13383D2E9E5CBCC0D578BCFF0D40BCDA32CCBD1B2DAA3ACD2B80BBD66D203CB6F8103C08DDC8BA8D8D403D6E60183B8B17F03D613EBEBD1222DABCFF16543D3BABA43D544E4ABCE8C8583D421C9EBAD091403D647C383D69036C3B9A5B30BC9664B4BD136B6E3D1DD3BC3D0DF360BC8BC598BD287A2C3C095B183CBCD0883CA03410BD4BC526BD45291C3D6DB8803D32F02EBCF0D3683D076AA0BD1B006E3AF32BC0BC96714CBBEEC7C0BD33BF62BD4DB5CE3CBFD86C3D68427CBD6F9322BD096A703C956FC4BD7B14EA3A7380003B1E6160BD6725CABD0C0E3E3D546092BCCBC9803D04203C3D763A543D3D1C38BD3D6A02BCAC29C8B9D148003D4525E43CD3E088BCD736DCBCB8F1BC3D465BC0BBB8A5203C8F9778BCD151C4BD37F594BD7CCE3A3D231CB4BD11E390BD0FA8083C5FA7D83D3A3A92BC9765643D0A81F6BC4DE5A83D0BB6EEBD1EFDB2BC84BB84BD4DBCDC3CEC42C4BCEC367CBCD6D29CBC9675D43D143EF63CC7361C3D6F8BCCBCD0363CBD28B99ABCF8BE943D283CC0BCB03DB43D1FED50BD34E5E2BCC756843CD0798CBD235EDEBCD2E9403D1F9102BC674A38BC1B6AD03D56FCBEBCC249A83CA01190BD2DAFA8BD057D56BD6FA7DA3CC4A3703C2AA7503D02BCFCBC164DA83D2D714E3D4749EEBA88AF40BC5AF9D83D75B29CBD6CD98CBCDCFC88BD2D46FA3C285AC8BD1A00423C0DD9183CF232C03CE9BAA03D4F1E983B036A603D2BB3E0BA04FF00BD10007CBD2DA05EBCD9156C3D2134D4BC72AE30BD25E008BD7D243ABD506190BB4D11C03B933460BD6A0BAABCF89D743BD406703BAFCFF03C4018003D167028BCD8C3F4BD1C40C03AB0EC80BD7532AABCCAB70C3CB7463CBC4157003D1CDE623CD3A3D03C204158BD4F1EDCBD4AD898BD58905EBD18C6963CCD11F0BD66949ABB88D0C03AD27F403D0A62363C7D6A383C170300BCFE49DC3C8DBD5CBCC759CC3CBCB95C3D7E3D10BD150E02BD6B570ABC03AE003CBF4AD8BD57AD7CBD066EB4BD7459EEBD4DA31ABCA254E4BD69F91E3C95E194BCEE1714BD05B3663D472A583D36F478BD0174CC3D680E663BEEC9303D1E9D98BCC205103D01CE04BD68B906BD6890E6BD14F9343C86ED783D1F414C3D504B60BD2AB1AE3C99EA50BB924550BD350C223D069D323D617E663CA2B76CBD330876BCA78D7CBD66CC6CBD2C299EBD08D3C8BD3659F2BA146E003CF3CB80BBD0F670BCA1BF243D2A5296BC664D483D4007023D2FB69CBC6BE7603D3219F03CFB4A60BCF172A8BB404CC0BCEB3A003D55E6E6BD6D68E2BD09AAF8BCCABF64BD21D7E83D0D930CBCC74508BD3CA4B03D15662CB91D0A003CDEEEA8BD64CBC8BA58E7803B9F0E80BCF169403ABB7EC03CF97DD8BD0D5BF4BB95A6C03D760F7C3D7CDF8EBD0D8940BC65C1E0BD7F952CBC79A4A83D6CA9463D53B878BC7BE8583D13E9E03BC3E8A03D36BE5CBC3ABAB0BC117460BBDEA3303CE144503ADD36803AC99980BD365EF0BD309528BD520FAA3D232C683D719724BB5C93A03CE7260C3D6BFF74BCD433F83D7A8F303BF69C103D271EEABD2CE588BC86FFC03C4128D83CF69810BC9EF4D8BD49FD5CBD020FA2BCFB31D43D3765BC3D5FD69A3C0D4D18BD10F348BD7B6E923C315E50BD71DEBABBD3D9B0BBA292A0BCFA03DC3CE3309C3C9C2E4C3BB866E0BCE352C83C241330BC8CC1843D6ADDBEBD3831A0BC2D7110
BB068420BC097A58BD456ED83CC4C650BCF08BD0BBAF5300BD0A77663D07C71A3B05F720BC559290BD75B366BD172D76BD4293963D32A234BAD61980BBC008803CEDDB703CE231B4BD331D20BD183E683D703BDCBCB00CA83D4BBF1A3D24F520BD6901DC3D4F35CCBD1584C23CD98AEC3D2D71A83D365F243D5BFE92BD59AD163D09296EBD6CBFBA3D2001EABD09E126BCB2EDDC3C784A283CAD3EC43CE76F883B9D7380BD204B0CBC869AC0BD03A6383C9F92E0BD4E63E6BD0C38B03AD82040BD4A9BAA3C7BF7483D582C58BC30B9F03BC93DD0BD5F93F43C2144F0BBEF2DA0BC72AA583C36B0C0BD7904F23D2C9ECE3CF6B130BC2FCC283D688634BC162DD03D7F4440BC0811783D1F7B3EBB12EDC0BC571388BD1186CEBC1D34B0BD6970343D58E3CABCF7FB543D051C00BC0F9A40BCD0EF083D267DEA3D71B150BD0DF0ACBB1E1B203C24A9A03D4C77843D5BA79CBC6309C0BCB4F7743D2CD4C6BCF8BF40BD7AEF3EBCAA8B50BCD1F6603C51E5503C82AD343D5807A8BD5813AABD4B6FFCBA299280BC4593383D379E903D7D6F443D10D2EEBC477B50BA807240BCAA859C3D3BF1343C68CDF8BCF1EFF8BCD4C678BCB564B83CC270ACBC90001CBD55F6F03CD3FE583D189F8CBD1BF09CBD4AC1D23D218B243C16D368BC8E19283D2F892ABD206D283BD67610BA93AE80BD29F1F83D005C763D40D9823D4DCE803D5F851E3C05E8F03D2DCDA4BAA54AC03D003EAEBB413DE0BD4786443C9432703D454DAC3B8E2E90BD71910A3D0DD8223D075A983BA320D03D5AF4C63D5B087ABD025AF03D4A24F6BD6A931CBC1D3560BC4DECA0BC852954BCD5ED3CBCF951683D1265F6BD3F6ECA3CAB4C88BC13CFA0BB52EF803BDF6AD03D3711223D3DD0B03D1A6EC4BD414B5EBB5E6C00BD7A3F46BCC3F9983D361276BC4D10A03D33BCFC3D29EC383C9E0E0CBD485C803B392A80BD70E840BD49BEA63C9048703C2299E03C74CEF83D62F37CBD5CEA0EBC4666F8BD122E3EBD63C6B8BB9E88B0BD65AE5ABD3C35ACBD60B1463D6C88D43CF2D7F03D15F5723D7EE0B0BCF855003D4BA7603CD8CBBCBCE24E20BCDA2F503CF9D85CBD23156CBC19E908BD2A28B03D630592BD7189A0BD220ACA3D2074263D3684A43CD565483C2D8360BD7D48B83B909CF0BCC653DC3D64D9943CE2801039186C003D79ACFCBD06FBFEBD72E39EBCD8DA88BD5507F6BD44CE5ABD3475563D76D518BC580A18BD74F4683C9A1FD03BE6EC80BCB09768BB4FEF803D2D446C3D2476D43D5823483D089A4CBD30AC74BD4D864E3D738252BD4E3C943B8CE6A03BC724E03CFD66483CC3D36CBD5BA828BBF1E1103CBA1190BC90BB643D002914BD1BD0103D0C1968BD5F5EFEBBD3D3603D45B46EBD3D990E3B66E4603D1FBD143D36A8C83D5400C23D336820BD36102C3C7F5868BC0B91883A7897803CE18244BD7506383C9B910CBD1CA5E03D5D6B6C3D4B22823B84E150BBF410703D00E4F2BD4E1AB63D3A089E3A8BEB80BD310036BD471C403D56F7B2BBED00A03D77DD8C3B2557203CBD75483CF989243D292BF6BD78B3343D02F1E03D2C62EC3B8A9ED0BD3B4F8ABD29BD363D0D1560BD5284BCBD6E8316BD698AA63BC8B820BD0288FCBC565DA8BD399CDABD005190BD2916A6BCA235903D34EC66BCEA67F43CFD1AB0BD056B18BD43A030BD0BAC62BC98E7483CBC24783CBE0814BD53A18E3C69AAD0BD04BDE23D37AFF2BC65F6B03D182B14BCADF488BD0A1D3C3C4BBB683C6FBF403D39D3B83D4EEF0CBCA9BF883D4EC134BC1B6E68BC8EB8743D1CA93A3D738FDE3D391D24BC347270BCCCB4A83D398C743D2953E6BD78B5CCBCE99E6C3CEEF400BD6676943D6735B43D3809EE3C4CE6403C0B30903D2FAA88BD298EE8BCDB70BC3D004698BD6DB4A03D0FC8863CD408F0BCD245FCBA8CCD40BD1A17A0BC67EBE03D4DF2D63D610208BD7DB496BD3480C4BD4E1ADEBD6492603BE067D0BD6614B03A916700BD21EDD43D5CA0D43D0799283CBF2484BD620BB03D27960EBCBDD42CBCC3798C3D54ED02BD4C5284BB891B10BCFBB374BD462A96BC94A5A8BCF36E6CBC39D6203B00DAA0BD0FB5D8BD6235F6BCB46F00BD52EA50BCAD6740BC555738BCEADA883D000E1C3CAF60E43D000B4ABD4D86603CF202BC3D7436A23D485E94BD7901BABC853A683C268CF8BD642C86BBD058003D28CAA0BB9902F03D0E6634BC0A8FD83C8436683D57B2363BBD13703D393BC23D4B968E3C0DBEA0BC8AF5CC3CC91CD8BBE19590BCF75A4CBD3CECD2BD2D3B3A3CC267683CBC10483D7EF6AC3CBA8D38BD6CE3C83C4F5F58BC8C68443CF12FB83BDFE1F0BD72FE023D5498343D151A5A3D24B5E43C737E28BD2F47163D7E33743D7EEB2E3D0BD73E3D653DD6BCBCB6483D2042463D013D143D0C6D563CBCE9F03CA7853CBD4C634C3CC10AD83C5A1200BC372B683BC55C003D089B0C3CC728F8BC9F12103C3272B8BBB80DA03CE89538BB1D66C03CC4FEAC3D62F4FE3CA8BCE8BC0B24083CA22EA4BC7D0E20BB05E5803D4D5972BCF7C03CBD6476863C9FDFCCBC271A183D1462283C4526C0BD780A5A3C249C40BD68E26C3CC3475C3C80A8083C847B403D58F7F2BC8975D43D6EF5843CE9A4E43D6984F2BD1F75063D3B06E0BC97BDF83D4868ECBC8A3D40BB8B7FA03D0BC12C3ADEDC00BCEAAB683C9924083C5FE8083BE4ABC0BD7352BABC5B3E383C7C8F28BC472638BB80BE80BD286840BD0307BC3CDAB230BD44FEE0BD12C262BD54A7ECBC761A883D42C772BCE75B603C3F36503D25F9F2BCFB4CE8BD27D3923D272C543D5BD48E3D1EC0A83CC86C04BC8F74AC3D6331F4BD3F05083C8116883D747AB0BC5EC318BC6838283D1A6A44BC576900
BD1647523D1F230CBD174418BD29454C3CF2CB50BD1042BABD2BE79A3A976B403CE89B4C3BAAD6703D3CD2F8BC9CC860BD38D4DA3D20B5A4BC8823FCBD24ECA43D5C38D03CDF4E983D4D63FE3CED2458BCDBB3A03C248A683CF08CD03D38BA843CC376D8BC9C31483CED8EA0BC91A78CBCCC5B7C3C912678BD6AE324BC1E39083B8F5FE0BD26DA5A3D6CA6283D0411343CCE37A4BA45ED00BCC18A283D129A96BD2BCE86BA690100BCED5590BD2439CCBC84CBA43D495F0C3D05D17CBCBF536C3C9332C4BCBE4EF4BC9985683C134AF83AF5A1403D2BB4BE3D44EF26BCA19364BCEC0FD4BD21B9DCBC088F78BD50CB363D63D24A3C8816D0BD79B0D43C79B8F8BD08DA7CBD32E52ABD758B323C94F94C3D27B990BD6CC158BD3D5498BCE20E5CBC98B530BB1490403D7A9A503A85C880BD3696B2BD1CFF44BD0B177ABCB3CB4C3D57CFFE3D075D7CBC278330BAA75300BD67D5343D4C3DA8BC842250BC86CC0CBCCEA96CBB68FDE0BD130A8EBB6CAA00BC396E70BCDC1E103C43EC38BD44A4E63CBED32CBD4BADDA3C4B9750BCCF1950BC287EF0BD607FE43C449CD83D15BE3CBCC0411C3D38B7183D3ABF22BB0590E03C3A4978BD45850CBCC7792C3AB51BC03CEC49DCBD65414CBCE2F6603CB561D43C8162BC3D521B963D5C49243BBF2A603D33A4C2395B1E003D7CB158BCDB53B0BD400EE63C8A99C83C1CF378BC04C6F0BCBB25C4BD64AB1A3D53B19CBC9642AC3D7505B23CB0E6E03B7C80603CA6235C3C67C4203B806830BCD9456C3D769F7CBD0295EEBD535CF83D44C9903D4EDB2E3D1BA2A83D2962DE3C4C0088BC642C88BC3603103D6A6476BD757DDCBD7A21BE3D57E2C6BA8878C0BC4B64E03D4743363D5025EE3D768A1CBA8242C0BC46E278BC999FA8BB919FC0BC654390BBBE5C703D1629923D7E0970BBA719903CA31CD8BD0365DE3D54C97C3D475B903D68C0543D71DEAE3D245398BD4CC73A3D440C38BABDBE803BDD9560BD2DA3D0BB85CAA0BCF7E3803B67F1803D7890323CA254BCBA946DC03C6F0978BD1B8D8CBC7EB9483C9B147C3D4851023D6530D83CAC3D503C31B990BC333A68BC340498BD39D7163C772628BD732B4C3C990634BC94BDACBCDBA7403C887AC43D3DEF2EBD4CA3583D5EA74E3C4CC768BD1D16043D5892DA3ACE0C80BD5976823C86AC703D2A16D8BD4CC7D03D2A28723D264AD0BC942DA03D43198EBC4C15C8BACCF1003C74B510BBC1D9D0BC4A9E083C435600BD6EC3123CBA3C383AD466003C896F243CC9FE203D30740A3D0068FA3D6A375CBCABE4ACBC7001B8BB4173E0BC147DF8BC3455D03D7B0696BC360AF83B3542603C363050BC17ABE0BD4CBCD23D76A1FE3D5C19ECBD79764A3D3D276AB8E94C003D6EA74ABD75AD66BD15F80CBC5CF9203CEB81803D50961ABD6763D6BCE4D8A4BC0D77B83C848A4C3D18DDE83A816D403D21C0E0BB229DA0BD5D18EC3D665D2E3CC366A43C94A6603D2B523C3D1D32CEBD663CE8BD1D2D8CBD05E1E4BC6C0DA8BCF3F7F4BCB97DB8BC815188BD374ECE3D1218343CB7FC9C3D0D018A3BBE7240BBDA9B50BD327FE6BC0A0648BC4933903C8D03983C901AA43D29A4EABCF5D5D43D128A823D5C1FC63CBD20A83CD51B443CC26F203C5E42C0BD5AB43CBCD4A520BC3A60303CBD2C6CBC977F08BD64FC52BD7D7CC03D35C2B2BC432540BD70B7CC3C9B0A80BD708D0C3D3D9F5ABD524354BC4819903D20DC523D282D3AB97B2400BC01AD783D1F7568BD60933A3D08E0ACBB043B803D47A7583D0886A83B2031803D351FC8BC08B090BCF340043D2A303ABC863E383CFC98443D53A1A23D27D99E3D1181D03C6E1370BD7040C23CE938BCBD1A731E3D7269CEBCACE5D4BC68E2D0BCD63C083D04C0B0BD4264AABCAFCC20BD3B569E3CAF02DCBD22FF7CBD5BEC96BD722B0A3D5D60203A89D0C03D20FE663D0CCA42BBF40AB0BAF17F803C7555C0BD4820C4BCCAF9243CD23B4CBD0E842ABD50EDE03BA4A7B03D71A350BCE1D7303CA86BCCBBA102D03CB5D1A4BD20F7B63CF43F54BCABD870BD25DB7E3C468678BC6FD9483CE188AC3BEA30203D4EB11A3D1C513CBCC18FA4BCBF4744BD76103E3CE7AFF03C8DCE98BD3D6292BB81B360BB9850503D620E36BCBF171CB96E28003BE96020BC80C164BD2F65963D29C2343CD63EC43D3B0DBEBC91C6E83C433F383D6F8656BC3956E83D094324BBC05AA03CC052583C95B6CCBCD647583C0D22483D5EC232BD17EB56BD620342BCEFE710BCCEA4003C88D6F43D3B0FA0BD0D7E3ABD4CF682BD071C3C3D2EECB03CD66E643C6EB8E03D6FE7823C81B428BD350CCEBD1AC97C3CBA5BE0BD67801A3C763F38BD45D956BD2CEA3A3CA1D228BC6BB3503D6C3238BD1031243C40F0203C6D2210BD47F37ABCA5FC8C3D053412BCF6DE603B6EBD003CF13D803D07F5BABC4D17B03D11AEF2BD4631C4BD111814BCCB66E03CC44804BBFC23403D18250A3D752BC63BA1AD003D79EFB4BC083F203D0090043BD26310BBD4B280BD3AB2463CAD955C3D17274C3D3D933C3B0B14C03D58A8D6BCDE8858BCDC6AA83CB356F83D7311863D772A8A3D53B4423D09EE843D53DE6E3CF250203CD8B07C3CA0A2603C9DB8D43D2D6B60BD078DD0BD42BADE3D3D780A3D076AFEBD0D90DCBD1CEB803D7DE576BCA3EB18BD0403D83C2FA9A83CE16CACBA871CC03D26BE463D2C514A3CA15EDC3C9502503D73FFD23D086AC83C2DA3F8BD27038E3AEB96803C764768BD7466ECBD5704E4BD68D442BCDAD0D4BD0EFA083CFF4C303D293512BD411C3CBB715360BD65BC40BD20CD56BC8373843CABBD003D74DDDE3BA820103D25A152BCF92E64BCF8C8D03AB76780BC8A78483BAF82403B56D820
3D0C09783BC22670BC2C33E0BD555BFC3D3F2D103D2EB900BD4B2F6E3D34BF423D7DCA7ABC94461CBD336B1A3C7C20D83D787684BCEBDC28BD0FBE1EBD1135E63CCDE2E0BD57E3323C8723A43D7F2900BC9620C8BD0A2616BCAA3C943B34AB203D4CAD52BD61A13A3D6CC2C2BD7CB768BD6F05A23C21B118BD58397E3D73C85A3D2DDFA23C6EDB58BD0C8ADC3CB3E644BD7303DEBC8C1284BCB48C40BD74A42EBCB558A43BC6B1D03D3E36BE39FD59003C5C83903B945390BC5DF340BC53B668BC352FE039BBA9003C535F28BCBD6CA4BC914BA43D1DA782BC365930BC704BD8BCB64B903B9DE4F03D2F01FCBBF099F03D2D96BABD0498663CA65C18BD1C2616BD03DDFA3D3324CE3D0A53263B6F6F403B475560BD1C30C2BD2A5D803CE277483A1A90803D70198C3CF623C438F75800BD7A31D2BD339368BCA62F403CFB66E03C3143903D6B513C3D2F282CBCBB719C3D76D606BCABAE40BCFBC4F0BD6C931A3CB1EA58BCFA9ED0BD04332ABD4566BE3D38FED4BD0453F8BD0F93383B95AF903D4002EABCEE4020BCB01BCCBC9BEA783D4C0FB83D589340BC3BDE98BD6B00AC3CDA8524BC26AB583CF669F8BD0FA5123A5B7780BD4C82AEBC65A118BD6271DE3D687358BC8AB278BD3C3D7C3D75495E3D70D03E3D0BA6EC3D76E810B6994000BBE2B200BD0BAE46BD028D90BC985760BCF6B294BC653E183D24C0843D4BC4CABD29B57EBD6A0DEE3D2BD05E3BA25B80BCFC72583C2A52683C9A4F50BCDADF7CBD1CD9A83D5DF6CC3D45BD4ABD7560123C3D53303D0D844C3CFFE2303BA392703D3DBAFEBC48F6B83D25859A3D3AA2483C2F50F03D0AC16CBD31C138BD2BEB8CBD7FD7E83D386F88BD6852BABD74AA6EBD72CF04BD5063C83D1C93DE3BE99CA0BC9ADE703D05C478BD18DD703CA4A03CBD4AA72E3D0DA51CBCD65E00BD050F183D35D5963C4710083C88DF603C3E87A83CBE898C3D3E8028BCEBFF8CBD7947CE3CBB97143D126B3EBB803B803B7B6D203CF2E6383C09FC803D56C7183BE2B250BD2ABA463D758D6CBD1FF09EBD08B0563D36A6883D1270B2BD0A9466BD4B2E2EBD1F54F8BBF2B810BD2FDA48BCC82F04BC773990BD5F35F03C813AC8BC8532BC3D688EA83D37A488BC8ECAE43D582A043D0D21A0BD643C603D2E2EACBD0BA4B6BC6BFB983CC60F5C3A20EF803CA9CF103C8EEDD83BF5E500BCED1D6CBCCB92E43CA5CCD83C5ED870BC45C400BD7673A23BB81490BCA0F7943D45DA603D3385543D04EC743D00D29CBD753054BD54BD40BCB494A03A05C1803CCEB56CBD28D9BE3AD2E7003D2A768A3CCE0E30BD50984A3BD94180BC6E3578BD65E9863C2080F8BD151AEC3D7182C63D148458BC110518399EF600386CF0003D0D6DF83C90A488BD54C530BB4D03C0BC6664283D39DD74BD6D50AE3D2F0BB63D3FDC20BCC215F0BD4865A6BC0EEBE83BC17B403D291F383CF3AEC03B857E103B8E96603D73E5323CF726CCBD488BF03AC77300BD0E5FB43CF44098BB0DA000BC8E1FB43CDE7E5CBD2E57123D75A68ABCDEF69C3D346256BD1B0D92BD0C5708BD3C4A92BBD44E003D7729FC3D1C855CBD235AB23D53D0C8BCC2DF743C006E103D2F3FE4BBDB4A40BCF2B5CCBCD786BC3D33B660BC7A99483C94B8D83C544BE8BBEED7703D019B28BD7B6A9CBD2F89023D383E7E3C355F38BB01B240BCAF8478BCE5357C3C1A47883C5ECD483AC46D40BCCDF8F43D668702BCF32C5C3B6891003C17F548BD25EE04BCD606683D16A86EBD53A4963D062C06BD479C7ABCAE76A0BBD83F603D7ABE48BD1365F83D64BBE83D4777DABCF40C503D1D1AAA3B311C203B954820BCE6D0E03D0D92DE3CF17E0CBD54185CBCD14FB8BCF7F4883CFDEF78BD25DCD6BCA2B7B0BCB5E624BD6FE5703C6751A0BC51C7E8BCE21C883D2566623CDF3B803D1B00543D61D33CBCDE4B383D3A9F2CBCED2A403D306514BC7D1C28BD639DE0BB9C0E70B9CA1D003C29E3803BA015B03C1672803D18C28A3D7BD8143C6061D0BC5EBFE83D7FC118BC3C1FA0BD5EC39EBCFF09D8BD4B83CE3C88AB183C23EEF03C92ADB83CE48B5CBCF579E83C1E87F83D5CD37EBC58E638BB97A090BCBF7900BCE3F814BBE61E503C593910BD3BAC16BD505E843C9F33903D7386103D70600C3D58F5E23D09E2EE3CBC7524BD666F56BCBD9F78BC823FB4BD0015A6BA4E6500BCE793B03D031992BC9B7F203C475FB83D1B4422BD3DEF723D06FAAC3CB36FA43CE6F2B4BCAE69683CC267CC3B49A560BC5A03B0BD1065323CAB15B8BD45065C3D0DE46C3CC4F5F4BC9D21103D18D7C63CE47FB0BCB60C3CBD64C2F03CD730B03D393F343B0C19803D5B0124BB080AC03B6FF6C03D20B55C3D75EB1ABD12AB52BC6085A0BBCCE7003D592DC4BD60AA603B84B9003D2ABFC0BC121C10BCC46C143CCFA98C3D00B9E0BD6AD578BC3820F8BD36555CBCFDE66C3D35BE18BCA06B383CE81FA4BAC186C03D1D06AE38DB1C003B3590E0BD33A1923CE2D464BBC12B80BC598B403D13CF5A3C6EC0E0BD05AA56BD6A190E3BEA6FE03D7C9AB23D0FAB86BCCC5EF83D588C123C3D25183CC350483B13BEA0BD77EAC63CF40D68BD731B8E3C08BDB0BCCB6014BA90CAC03CA2A6A0BC643EA03D2A55243D045082BBA1A7303CE458D43D2E1C48BCE2F54CBB5B35E0BD4AF4D4BD5FB34A3C5BB520BD5CC9FCBD239C8CBC9708383CD1B2283D074B64BD3E513EBC29B610BCD3E9343D08DCFABD5325A8BC63C288BC4F3B48BCD1A380BD65C516BD5DB176BD034934BD46566ABD75B6203C8497A8BD1EE8A2BD72442C3CEF56603C8E74243C6E2698BC904F043D64EE22BCBE731CBD4977523CAB1790BD0C22563C7D61383D7548723C20D0D8BD13FD2E
BD3884203D2F15C63C35CBD83D686D3C3D65993ABCB5449C3D314004BD7760B4BC092370BD6F96263D54EBB2BD45E09E3D03CADABCD20F083D753460BBF190003D7399B8BC114D68BBA21BB0BC63B1783D5DC1DE3C52E970BBAB37703CCEB3B8BC9F25D43C187758BD5BF9C83D240C6CB939BE00BD64B32A3A0FF1003C96054CBD43367CBC2569B83C87AA503C86D68C3B924EF03C7DE2F8BD0D23B2BD268440BCCD4D50BD39364CBD4182DEBD491034BD6DFCAABCCBBD643D6A8D883CD17B183D54D0B2BD7F2BE2BBD8D1C03D66D24CBD5CF4663CFFCD983D337BB43C996488BD0BF6F43CED6140BD27FCDC3C8FC3483D5A96DCBD4B4444BA0EC6003D69A516BC1F4E30BD00C7D83C9C7350BD72FC263D616188BC2A05703C7A93B8BD2B33303AD09EC0BC7BC1083D5C63983CA6FB183D00934EBD5A5468BC5F66503D20E2303CCAD270BD724ABE3A097C00BB52BA003D32500CBCA686C8BCFD3ED4BD428DC4BCA1DDCC3ADFD000BAD20A00BCE0DFC03D55DC86BD0409E4BD4CE77A3C8368F43CD39408BA8479C0BD405CD83D710CDA3D2167E8BD3CC5043CFC9D98BD072820BC662CC03C9FD9283D200FB4BD2EE6A6BB9D86D0BD51428A3912FC00BD414B8CBA84CFC03CE77C24BD64188C3CDE4DB03D254594BB80A500BC053D38BCB44D20BD68D8843D12FD363D57B57E3CA869083C8D3E60BCD0FD2C3CBA62543C9DA444BD6FD19CBD56EC3EBD6376A83D7CFE0A3CE925F0BC7980C0BD064A323D180E483D53D6723D59DD0C3D25CA00BD3E54E0BD25ACD8BC7E59F0BB7F18003C11F0203BC33B20BD1AC018BBF30140BA8DFFC03D4F80EEBD01E0BCBD768A7EBC3C6660BD7AA6163D3481663D5930F03C2F6BB0BD42D7FC3B9A33A0BCCBC0543C9C2AAC3CBCFA703D2ED0FC3CD5BB443D4914B6BA8DFA403CB0FDD03D21CE66BD7BD348BD1EFD7ABD147056BC4499303D55870ABCE9CBA03C697100BBDE00C03D616B22BD5E83DE3D02186A3D4266CE3D51A1263C31A608BCC232CC3C7C3C103CFC2ED4BBF511303CD4E1583D3F498EBC95E9ECBC52D128BC8E627CBD6618783CF529643D257BE8BBB329A03CA30DACBD0B2430BD21D7F43D73196EBD3E83EA3D4C8A02BD5253D03CA6E000BCF65C7CBCA434C03CFC22FC3D2CC8D63D73F592BD11F6043C0F42E8BD76EBB6BD30E60ABCD3D2603D4983CC3C873AC4BD267650BD60D6EE3D40A7CC3D54C88EBAA0D6403D2462283C8A77CC3A0FD2003D60C64CBD5EAEA2BD0BFFA8BD73FF7E3D6D53EABD5978D43D7D86403D336F44BCABD73CBC6CF8683B9B02403D1664C6BCD207083D115C403D57FFA03D17702C3A9EF3803D5F5A9EBC51F278BCB54EF8BD3250F6BCA39350BD5BF2BEBC85B45CBC0C16383922D8003D684B5ABCBDFF30BD71A2623D42DEFC3C19A630BD47F1683D1F30203D264D5E3A7A3180BD7606B6BCCC0D983C413B68BD5AB438BD5D0D243D5BD696BB2CB7403D7EDA0A3CD3A4CCBD17B94E3D1490E63BBC0C30BC1401B0BD2C3928BD68129C3B648FE03CC4C3A0BBD16300BBD8FA503CF50B34BD3CF5823B9CCF003B9C35B03D07DD48BD112E3CBC0C91B8BD49C816BC92A148BCA8EA28BCAA8DB4BD2DC4683C7B7CE03C628998BD6D25B03D6DDAE63D78CE7ABD57A688BCDCC730BD4982543D3961B4BCEE44E0BC358CB0BD7AF4F0BCB10D803CED7AC83D027F6A3D5406B03D61ADDA3C53D7803D1B21043CA195B83CCB1C1C3CA58F203D63DC1E3BC31B40BD5C164ABD6D3D04BD78737E3D1263C0BD4AA49EBC37C6D83B5E17E0BCB392F0BD1162DA3B672E80BD122BBA3D739D0CBD55F15C3C1ACFD03CE4BAB4BC6F50B8BD3AF9483B155D20BD394C6EBC0445903CF80A143B6FC760BD4D46823D1539C2BCABB9F4BBEB4D40BD26970C3D1CD568BD77F72EBD2C33B6BCF78D043D6B6166BD4FF50EBC8C72D839AC6D003CC445B83D7E0EEE3CD7B08C3CFA7A34BC36E720BD0CD3ACBD72C3B8BCD9B3C03D1A94ECBCD78CB83C563E983D5DCF66BD7EED70BC96C5A0BD26CBF0BD727A20BAA09840BD1817483D6DBB04BD73BB20BD5D26543CEB2930BCEA55EC3C8CCB04BD6D77803B132EA03D063AE43CBF1BC0BD42F76C3D226826BCC09990BC7E2960BC1537703C9B56C03D28C09ABCFF9660BD6A58323BC12190BD6DA0AE3B8ADE70BD2EAF24BB0FBD203D5D30123D7ECACC3C9DFB68BD50BE803CEB81483D34D43A3CBDEAF8BD6FAD22BCC9FB54BD78454C3B312E20BD2E0662BC5C6AB0BD1B4C723D29B2763D25969C3CD951D8BD7DACA0BB1606C03D0E5B06BC81F08C3D5125DABD17A85A3D63AB3A3C6B7448BC9C38203C7EA9403D6FC4883C1F78D8BC40E1403CBF99503C96D6D8BD7320A03D012CDEBD186E743D3E6C2A3CADF5803C0949F03C5A75A8BD1DB4743D16E33A3C9433A83D2D8258BCD5891CBD2760103D52DAE43B125C60BCD56AB43C2C83183D6EE08A3CB02B70BD06D172BCD11EDC3D5E1986BD79B1F2BD3CF76EBD03FDE43D247B54BB87B6C0BD5698E23D1D692CBCEC1F0C3D41D882BC885198BCDB68243D5E3584BC63C6C8BD7637063CC5E19CBD065290BD4650E43BE35CC0BD50DD46BD79C9C23D5DEA7C3D32CBC43D2B95343A8A8B403B8146703C088C303C9FF754BD0608D8BD7008863D4A6504BCADA6D03D3B2560BD60D018BD653CAA3BBEE2903CEFBDD4BD4C07A6BD149BE23D708F5C3D0E6974BBC83320BD44E264BD686B743D39ECB6BD1360643CFE29B4BCBD0768BD493C38BB868B50BBB6A2A03C0AA010BD4E8652BD41F6E83D38372C3D6BF5DABCA8A8A8BC0685F83B3216A03C304D18BD17C4ECBD0C779A3D799E04BCB20850BB1E7F003D10025CBC7BAD78BD0F54B63CB01B84BC9DA1D0
3D177C24BC0C66403C2B4670BD1981B0BD072EC43AE9B380BC0AF3E8BCE0B9A8BC5779F8BD38D292BD50442A3D10C8F43BB5AEF0BD7F95DC3C8244B4BCC44E4C3BB163C03D737468BD108348BCD44ABCBD739DB2BA2F83803D5BF8203D4617143C168D80BCBEDA2C3CAED5303C93DDE03D51916EBD30D31A3D2548BABD2B996C3C82CE94BD7888F2BD0D9FD63C4C1460BBB90B20BD434E6EBCB525E4BBD350803CAFCBF83D26D1983D7F974E3D51A2643D264332BD6BECE6B9FD2F003D79C23EBCF7A3383C85EB703D2F6D98BCB1B010BD7A978C3D0ED19CBCB07AE0BD4990723D7BEA6E3C426D28BC72E2103C8EC3B0BD2B34CA3CD91620BD553D90BCBE96B83C7FD128BB17C1603CB713D83D4CD616BD0D9DD83CC234B4BD47CC143D5D3CA8BCB1EB8C3CDFD7703BB0C900BCC686FC3D3856D0BD6E4EAEBD3F57903CF11DC03D382FFA3D26FAEC3BFC32C0BD5D59BC3D5FFCA03D1F1D5CBD4CEB08BD1E0B2CBD44CC1C3BC8025038FA7800BCC58CC43D3E965C3C11BD88BCC51CB4BBAF0AD0BB00A5A03CF3AF08BD523BFC3D66B8743D470E9CBCD9DF74BC8E12B8BD21F792BD3ED556BCA52A20BB6F14203CF895DCBC90BFB43D47E0EC3D2B4F223C15FFD0BC90E69C3D68D1DE3B63C260BD6CC43CBC28A3883BC14280BD5C44CABC9783ECBD03244E3D37385ABD7EB7DC3D5723DCBC64E8603D6442623D248CD8BD68A6883D72DD8ABC8618C83CF2EA803CFF1F2CBC838E44BB3D6FE0BC27BD003D5E07343CE208C4BD457AD4BD73E4823CF13524BD7595DE3D366F22BC6228B0BC5CD4D83BF187603D51D794BD47C9943B1FDD003D1FC3B0B8F88800BCDE831C3D23C098BD2DFA6ABD67B9BA3D4E93E63D7B9E103CA515D0BD0F9612BD432A96BD79E7E2BC40D108BC8B78FCBC8046F83B13B9803CDF613C3CFB54C03CF856E43C4129E0BC8675DCBBAA6910BCAB5FA4BD0251A2BC4D9840BBABC090BC201598BD2AB3243C24DA58BD01CFD23C63CE783C9DA4603CB81B943CA024F03CD270D4BCBA15B43D63A2CABCBAC1E43D1947F0BD24DC72BD78FA5ABC6419903D0517D8BC3507703D68955E3C6872803CE688CCBB8655C0BD379C823CECA2143CF986A8BD3D5D9C3D0CB204BB750CC0BD53F6AA3CDB17D0BC15A7B0BD4751463BCA26403CD2BFDC3CE77784BD261828BD1B5D403D4330563C7B3B283C9D7A803BA9ABC03D4159A2BC75C170BC4F8D103D752842BD07995ABC8454483C2038583C458600BA532D80BB5D0020BC5A2ED83C2EE4F83CF4D1C0BD1331F0BC74F6A83D7712B83CA8CA04BD6B14603D3D28A83BD54A80BD2AF6F4BBA187103D6592E6BC869EB03C180BE03D67E5E8BD6CF97A3C2E7DA8BD5E3CB23CAFE1BCBAA69C00BCE39038BCA7B2183D0D9B56BD671E36BC609CA8BB272080BD29F9823AC00BC03C7393B8BD105402BD26BCA43C779BD83C75FAE83C6A04F0BD7544D0BB744AC0BC0A19D03C6463203D792DB63D090CB43C8CAF103D2C3B123BACE8E0BC325A38BBFA7F303D4186A2BD2D95DA3C2A36C83D70B6C8BC238F48BCB4C3003CC92990BC6151203D76A70ABD134C4E3D5F59603B7EAFC03CF92580BC998028BC895AB83C902AFCBD004D403D5D8A20BD0D1C24BD158B04BC9B6770BD5006A4BBED24403B003580BCD754C4BC985C6C3D6E9FA8BD0D02FABCC44ED03D37A8BA3D5600223D44BC88BD60BDA2BC8A75DC3D68AC94BB648140BD23E2ECBD53040E3CA629283C6B9198BC83850CBA0EE1003D65FF9E3C3D14783D49675E3D66D8AC3CEECA64BD5E6640BC8B59D4BC5174D8BD6A603C3B088EE03D2C4A9C3D74FF4EBD2762423D21DF243D5EB7E03B550C80BD3529E0BD6C2D3ABCFA354C3CAC9188BD6CBF4CBC82CCB4BD4ECA983B6EA0403BC0D5C03C6FA0D03D1181EEBAF05D80BCBB6EB43D63B2A63C2AAC28BCA8B5283B5C60203C24C9083D1928C8BD5720723C24DEF83D2F8D3EBCA587E8BD0ABC2A3C80DE703C983EF8BC8E4FD43D131632BC8CA0D0BD516AA03D2B8ABE3C4F09303D619254BA7C23003CC4F3AC3D22F1F4BBAC06C0BD0BF67C3CCBD6E43D46BD3CBB4CD300BCCC314CBD59DD56BD31F1EA3D6581803CF55E383CD240B03D5A24E4BCA90A283BFC8C103BA8EE703C8E14303BDC1C503CA0D6543D54D6ECBD0653D0BD2DEA42BD5B9752BD0BBB943CEB3C80BD70DE76BB37C240BD3B9004BD7E0ACCBD7D6F9C3CFD5B3C3D1627F63C548270BCAE2F303D6A53643BD9CD603C408E383D7A483C3D3259043C8CC1543D18CB0A3D4B78E83CE458203D515DB83D072874BD63779EBD6FA698BCB2A1AC3D249010BD4DF9143D3DB6D83ADD1C403D4740B63BDC94603CB8407CBD0EC3BCBD5FBAEA3B741A403CC6073C3D440688BD48D40A3CDEB648BD0F7312BCA7E610BD2919C03D72237E3C5E93C0BAB955003BC88400BD3B4AFEBC412628BD6316D2BC047FF0BD70C3DA3CC91678BCF2D1A03B11C6C0BBAF2A10BCE067E8BB81E7703CE254C4BD16B5103D7F2878BCEE75883D75057ABCABC4A43D1C8A52BC7DFA08BD1FDE083C61E0B0BD450748BBA422C0BC3D2B103A9F2680BD44041EBD6C823E3C7B05E03D174CB4BC58D7503D455320BD40D1C8BBA64AD0BCF03ABCBCD0E1CC3D22400C3CE7B030BD44DF00BCF1F3883D0C66D03CFF3990BC321C50BC3F3990BC970EA8BC607B603D2EEDBCBD555558BCBE4BF4BD2436BA3C73EE103D00E464BD01111CBC5211883C7786503C1192E8BC1CA7983CB624943CDE46743D3EF6763D762E2ABC9E4EDCBC74C840BB946D60BD212F3E3D19900CBD57C12CBD44D3BEBD20C4E03D081C363D61C9003CF9F2543D72AAD63D1053AE3D5337863B0700C03C1AD830BC3C10C0BD62D06E3D1DE3CE
3CF6657C3D122242BCFA4EAC3D0ECCD63CA8340438FB2C003D075A0CBD1D362E3D796B28BD71FA8CBD418CECBC7DC480BBEE8A00BBC42050BD7D69043A6BE5803CB7F9843C46EFC83C4BDCA8BC3DD750BC3CECC03BD41170BD75F696BCE9B16CBBA6B4B0BBF523B0BB83EC50BCB4ACB83D2AA2283D5216FE3C07C7F8BC1BE3F83A853F403D7F0C66BCC72EE0BB28C9403D62E7A8BC4708C8BD2569503D1B78E43D3992E4397298003C475DD83C09FFA83CE65D00BCEB1D083C7CC4E8BD60FD26BD56199ABCEBB4EC3D1804E03B054D203D1E8B863D1CBC2EBB231C403D34C4AE3CB5C5F8BD1C0B60BD776B3E3C978B7C3D068A883CFD09D0BD2B4BE6BD6B97F83C35D2903D3F5A703B984B60BCB14860BC5E22D0BCA43A80BC425710BD4C9D4EBB8598403C94A060BD27BFBA3D6792FE3CEC0B34BD3EFEB63D2065223D095BC83CEE4A343D5C7DB83CF5E1B43D60ECB83D55B21CBB2B8540BCA887043C641F18BCBA9C383D3793CABD6FEB4E3C241A68BD4D126EBD1B44183D27DF20BB6679003C35E2D0BD706C8C3B8CDA80BD00FBEEBD1BB91CBB454DC0BC89192C3C33EE183C56E6083D05CC1C3D6E742EBD1B3E68BA9BCE00BD6A44C43CE32ECC3D219A283C0076E8BC12B780BC49C6A03D255E3C3D39D4BEBD1812903CA633A43C6E9D78BCC28D243C18F8D0BD5A1B943D1020823D47D852BD153498BC905B60BCD32CB0BCEEA9A83B9FF2903D39A86CBD54AD78BD7E9B563D46949C3CD0AF903B3608603C8406783D60DF703D2696C83D207B72BD695FEABD3589AABCBB95A83AE95180BD1640A43CB63B0C3CD981043D4E1F28BCA9274C3D310F803D3C52E43D67CA0ABC165DE83D69D702BC149CC0BD3A4CECBD315196BC408F683C3C40E83CE71E3C3C90572CBD2C6DDCBCE88CC8BD175586BD2CEA54BD71C376BD741A44BB9FBC50BBC551B03D3F8986BD5BDEBC3AF9EC00BD24CE6C3D16E422BD042854BD5594AABD5809D63D603250BD1FFC78BCFB6B203D0762743D6B548CBD57C7DA3CA2554C3C555AC0BBA69D70BD52B1263D0A9F78BC01A3C03ADBDC00BBA862203C2D1F583D42C5A03C296BF0BBD07D80BBE04450BD5860B43D25C9983D33CF663D2D3BE0BCE1DBC4BD0736923D335720BB1DC280BD7A9E503C40CB10BD0AF65CBD6080223D6E86A23D7E7F963C6A37A83D323CE23C8F01243D3A17E0BC75CCA83D32708EBD2F9524BCC134E43D4E70EA3D36795A3D22C686BD02F8FCBC73FCD8BB28EAC0BD23B8D2BD20B2B83BD253703D71E86C3D79489E3CC1CF88BD02754A3D5611D43CBFEF143ACF6840BD7E97DC3D2043DA3D0AD0023D085104BC820820BD2776123BD7A5003CC144F03D72CFE43D26E77CBBFE6E903CAE33303CB604F03C730DD0BC5BADA83B1DD1603A5C7980BD0B82EABD03CAE83D2B323E3D4075B4BB9A4C50BD01DCECBD390DFABB3F80803CEFB060BCAF21FCBD04D276BD60FD5C3C77FE583D10CD0E3CA46DD83C143AF0BCEEDD303CCC7020BBD827D0BBB23C103CEE13FCBCEDA3903D600FE23CC9F3F83D367606BD6F172C3C8A0908BD05731C3CAD82F8BC79CB20BC4F5440BCB6CAA0BD4291723C0ABC483D2BC02ABD159F3CBD1455143C5ACD083CECDDD03CD3F2F83D637E7E3D340B1EBC8730143D02A86EBD1173ECBBDF80F0BD202B083D2DB65EBAE24440BBF76EC0BCF0CB983D029F903CD7C760BD2A9B3CBD2ABF0EBC6AEB283B90E6F03D22807ABC1736B03D4C20683CBDC31CBBA0B050BCE672743D15B040BC920414BCC88D883D068C9A3C94DAF83C7B1790BBF6D6D03D366FAE3D2FF2FABCCB8C283C906590BBEE08C03D6C8D7EBCA9BCD43D57BC50BD12DFE43CD2F9103B65B140BD3BF8F23C50DA203CEF1330BCDFD7F03D08F802BCFF2C5CBBE0ADD0BD13168ABD624C1C3C757CB83C41DBC0BC5CB640BD5E08D63D4691F2BCDA5E383D610E2CBCFA67083CA743D4BD62682ABC811FE0BD61373ABD28F880BC65A6B8BC3521C0BD740B40BD51B6A43B0AF920BD6029DCBD4B6E403D42B0343C6B8EA83CBB3784BC2D1510BC5ED5A83D47666EBCFA6D3CBC0E8078BD2DFC623D1614CCBCEDE7403D54A67038E41000BD6C58FE3D68017EBD57421EBD4580A4BD45563A3D565A98BD01F5C63AF66E00BCCA3F4CBD6C2CE43D5BC1E63D425C9C3C1EB4303C6382B83D55E96A3D7A3BD4BCE07D2C3D6293BA3D48717E3BAB44903CF22B203CEA10A0BD567AC43CBB78F0BD3F2BDC3A1A098039E2CD003C784800BD53A580BD5B2B06BD36E348BD22F9FC3C7174983B5ECA803C26A8D83D5A8FEABAF874803D332BF6BC4B1610BD3E4AF2BD44A70E3B91D3A03D5AE0783D3471903C2457203B2D7C003C72C0003BBEF8003CDE051CBD2E9E323BC1A2D03D608AB4BD6B26C63B1DE9403CBCD9FCBD2DBA5ABD4B94B6BBDD4550BC46F6883C5C53683D07C8E43D418398BD2ABCFABD4DD712BC61F4B8BCBF4D903D5F37F6BCA51B003B7180A0BD61A304BC90E1883D66DD2C3C1F4EE03D459968BD0CDB06BC39B1403CE23E0C3C6B8348BD2C449EBCCDE6E0BD1F1E2C3CC50DD83D19595E3D207D243CD680D83D5EE2543CBE92A0BD6FC0D23CED8F7CBB1F68E03C788320BD29B686BD22AD283BE97E803BE0A7D0BC225480BD2E3528BD53A17ABB4D20E0BCFDD5683CCBB760BD08CD603C8749043B94C0903D1658743D7043C0BC3E7640BC505F90BCC0D4583C34F8903C3523E03C43C920BD3782103D0E8120BD2C276EBD6688EE3CB99E34BD66AF723D74CF1A3C7B9CB8BD28E1E6BD50C6943D1A25AC3C02E260BD3150043CD4B6243D7894363D42C724BD0C78B63CE4AFE8BD3D8EB83CDC9468BC8048843D47D8563CC5BDF03C900A3CBD5E5FC63C043218
BD3074763C8E9B4C3D6298FEBD6197063D300A0E3D52EBBC3D275C52BD51A6643B9B5FF03C02D6403D4706D83D777820BCB6E3603CF6667C3D7EE92ABBCE35A0BAA85880BD450DC63D2915C83C1A7B28BCD182A0BD677CDCBD6D7A183D1FD0843D1057C4BD221EE43D1C3FBCBCB8DE68BCDAA69CBBBC1090BD356E123CF3E7E0BD443CB6BCD0C5E03CD0903C3A9EC4403CE33E203CB664383D6EFE9C3D3D661EBD1006A4BC5FB630BD077516BD7D77E4BC66B6303D47ADA83D0A2E523D28D354BD1767DABC1DC978BD58A52EBD175A5C3D4614F83CC7CBD43C410E483CB7F2743C5EBBA03C29F6D0BD69393CBD7B6D6ABB8E4550BC7E92983D0898F6BD7A0B2EBB5181003CA30E4C3B8CE920BD2E7086BC882FAC3D6D29023C45DBD0389C0C00BC310CC83D51C2A63CCDD060BC9F0F5CBD3B6B463BC6F610BD7E0A4ABC84C57CBD57F81E3D669768BAC917003BFF8250BCBB2D1CBC754A68BD22AAAA3A8FBE40BC7C68F03D2A8308BD568ACA3CFC8E383C2C2B00BD384B9C3D610BE4BD247D4A3D31F09E3C968A7C3C1F02883D7DCC92BB42E480BC8932C0BD6592CC3CAD1E903C742F203D7D76403CCB60583CCA793C3D09C2883D6563DC3BCC4ED0BD65551A3D67DDE43D249598BC397DF8BD6F68FCBD723BD0BD2EF6523C965264BC2B0288BD486924BD1B90243D6C0578BD2493A83D2D17DABD669B06BD38DE4EBB267E20BD65FAA2BD73E48CBCE440B03D7C7A903D6E4E5CBCAD4D68BD2E3A6CBD2E867EBCB43E1CBD163A483D13B2043D20AE20BC62DBC83D55730EBCB043483D79BF563D0004E03C72D0603D015E9A3D1501203D524DA6BC9C38903BD635B0BB8511603C5AA4B0BD04FA08BD4A33B23D59F5FA3D2CE0943D29306ABC311EF0BD4F44023D10B8D03D1EAEDEBD2A45963D74355CBD588B78BD32822C3BE985B03CE6B448BD44624C3CFEE628BC08CC383D4B410EBC835CE83CDCF584BD51495C3CC738E8BBD10230BBEF4350BD3EC37E3B6F71A03CE4CF70BD5369283D48E6F0BC3908783CCB52103D4EC62EBD6EEA243C0B75403C5D6EF0BC913F343C843BC4BCC23AE4BACB4E00BB1C09C03D678D683CABD9403D2CAAA4BBFA03D0BD3125563CF7457C3CED0144BC119A18BCB4AD18BD5F3B16BD0CECF23D47E3B8BD78ADACBD64C4563D6CA682BCAE84F4BD61C3BABCFA10743D75E6643C273ED8BD6A7F483CC875283C84DDEC3AD15D00BCEA7DA8BD4EDE3439669800BCD97F7CBCB82424BC8B1B4CBD2C04ACBD18FDD43CB7C1FC3C98C648BAF11C003C876978BD0D117EBC63AAD0BC93BE94BCCDC4FC3D632922BD62B312BD3824ECBD665E563C7FF2083CCE022C3AF3B780BCACBB403D7480703D609CCA3C843DA8BCDD6EF0BD472D123CDC54303C3331983D6AB8A0BD107FD2BC79E0F8BD6BD0B0BBAF78003D13601C3D0795B83D7F4CE4BCE47E54BD54449ABCA85DA03D3C4F623C5B6AD8BD0A3516BCAA47483D52A5623D1A23D8BC3B7E583CB890F03D6956463D45EDEEBD048BC4BC8F6C70BCF84A78BA258C00BCF931C8BC0DAFE0BB734060BD007362BC88085038B5F8003C9F5AB0BC803B3CBD2242CCBB0D75C0BC2593303CB797C43C9D29B03BEB25C0BD624EB23C3CAC903D2E1D263BB1DBC0BD4BC8123D1437183D039EE83BF91960BD6EE2C8BD0A214EBBC60360BBF591C03AEA2A40BA2C00003B7F6D60BC788DF03D23F1263D64BCB83D33D14CBC0C79F03CA6C3A83D6D3EE63CFD58B8BB69E640BCD895C4BD04D32C3CA7E32C3BF86A403ABD7C40BC9209743D582CC63C8751A8BB48B7A03C999AF8BCEA2908B95482003CE35AC0BB72B3403D64AB0A3C0BD5A0BD754334BB6B0DC0BD36AACCBD317AB83D198EA03C8B0008BD5178C2BD6BDB523D14F8EA3D1DA8C63D74E7B63D4FD12C3C12CE20BC568C083B979E00BCED5978BC79E9E8BA812FC03C814D6C3CBEFA64BD3CFE50BC145820BD219C4E3D1A63563C266228BD7CCEC0BCEF3BD03D5115003D6D49783D25E4DABD545D7AB9EE5200BD0E6DD0BC9A24643C92DA18BD7D40C23D724F923BE49870BCDF6F643CFD40B43D2609723D217BC83D38C312BD0A80DEBAB26D80BC1403003D046CFABBF918D0BD06E4CC3D6C05683CA3EC6CBD470C983D3E37D6BD7299C2BC4AFD583D1ACE6A3C4CB738BCB0F994BCFC96DC3B9F4820BC03F768BD769BF0BC82A0EC3D086362BD4E85B4BD55CEACBD1F2A6A3B72C7C03B2762403D1B9FF4BD462BB4B96FE200BCFB6AA0BC9B22703D379A58BD77C30A3C2A75B83D15E80ABCA84A5C3D418A6E3C397210BD09ACF43D2EBBB8BCF211E43C925BDCBBED74303D7C1BE83C4B9A98BD1F8202BC7832E83D5600803BEB9BB0BD4EC16CBC8275E83D260C1E3C8F272C3C3954403C6BED583C94C8343D26A108BCAF745C3C028BC83C263B083D50E93A3D70EC98BC3790F83D02DF743D272802BD57A0E63B3A8320BD7E1812BD3D6D3ABC88ADA43D5D9FAEBD1FAAB0BCC926A03D2E0D58BD71CB543C6F27B8BD65FF803D642D9CBD475E3EBC1AB548BB0E7F803D4CB9DA3D5495C4BCCA67883CA3BC48BC5DD6503CDBC9703D56A1623CB6D3AC3B341FC0BBFC0040BD15F030BCDF5F2C3CA44D983CE32C443C8FE88C3B8F5AF03D301BC6BD4B01303C7C41C03D008818BCD63FB03D38718ABCA1C1CCBCE10C2CBC40BBE83CA6E074BBE503B03C63B138BD722536BD3AF8E4BD16EFF8BD5C6A723D4311B23CA186BCBD7A45FC3D367B22BD34598EBD39E570BD6D075A3CFC7E743D25CBF4BAA74280BCAC3C3CBD555FAE3C37F200BB88D9D0B923CA00BBE7F3F0BD410F36BD3D1BDA3ADC29C0BD40AA9A3CBD7A58BCB680ECBD73AF323CF608F0BCE7A86C3D7BA1C63D26CD523BA8F3A0
3D677F263BA55B403CC6DD903D11C4C63CEC5D103C758348BD7F3B063D08C23E3C2CCF78BD66327E3C3150A03D42E04C3C9020943D2E49BCBD2EC050BCE09B50BC86AB903A4BFF803AED7340BD659F8EBD3047B8BB8672A0BD2B63E6BD3BDC86BC0853F0BD04B5203D67AFC2BCAEBFD8BCE674AC3D7D8D2EBD5E80503D6DF1FA3CDAB4243B783A80BC5C1778BD03481ABD6E99F6BD238B563C8EB96C3CC333A83C0B23403BCB43003D4DF34ABD484274BD6579D43D67C7AE3AE5FEC03B56A2E0BD6EDEAE3D16D9A03D1255E0BCA8C3D0BCE6A4ACBD4470A23D7A1770BC8BA558BCDB4420BCB6DB543D0E12BE3D4F69683BC227703D704496BC4DC520BCC3F600BCBCB4D83D688D3CBD65A53A3C814A84BD0C3FF43D74075CBC73D7E83D4854BE3D0820E43D72ECD63D102DCA3C3DAC303D5467FABC250A70BCD5FCF4BC0CEEB0BC4E23F8BCE8D450BA64EA80BD5161083D23846E3CDB5664BBBFB2F03CCE3950BD5D92B0BBD78CC03D74C4823D46C60E3BF36CE03D0F1688BD18519E3D1F4F703CFB53FCBCCE9160BC7195A83CCD59D0BCEDF4003B83F0103D006BDA3CFB3F903D72E318BD5D9634BD12710E3CA0241C3C82FDECBB5EFA20BB841700BD3659143C3EA640BD434B28BA8FFF80BCA503783CE3A0203CAE1A3CBD69BF1C3CFFBB54BCEF9564BD46C6EEBD529340BD244BB8BCA2EA90BC527288BB6BB0003D5BB06A3D0621C23C958D30BD1764583D1432F03CB6C8943C395230BCC873E0BD4756943D19BC1CBCC913783D61AF64BCBE38B8BB8BE5103D40CA643D789E8E3D198988BD28617A3C99BAA0BD3579ECBCAA40E83D6E1792BC5805B0BC50F3F83B7796C03D02C2063D738FE83C9E1E98BD537C283D70ADE23BA637903D085250BD0A659A3CCAE4E83BEB14403D5F3F48BCF7C1543D53A93EBB7496403D0C80FEBD556F4CBD3D60A8BD09F7B83CC9C5D83C7DEE283CF85EDC3D02E62E3C304BF83D68809CBD259D5ABCE6F798BBA0F4D03CD017603D436354BC516F00BD44DBEEBD26CEB43CE4F3543D3F8F6A3CA6A0F8BD4F1070BC91ABAC3D683B1C3D5156CA3B170C203D7D2BE43D2431443C5788A03D0A50B4BCDE9BECBC911DE43D10643E3CE2DDE8BD41CBBEBC6F11E8BD4D2F4ABCFA511CBBF6C840BCCE8D60BD25005A3BC64A703C2466F0BD200F3E3CD1D89CBCB35E18BC845A0C3D012970BCFFFDA8BC98161C3D42C0ECBCDDAB283CBCB08C3CCD2620BCC3F170BD781F92BC3790B03C846790BBA7C5503D0B504E3D5AC03EB9A25A00BBFD1780BB8067B0BD46F072BD21BE563C2513103D5E7D9ABBB622303C1500C0BBC9B490BD21C666BB137840BC8D02F03C9954ECBC0D2838BC91659CBBECE7E03D5EAD3EBC89BB08BCFFC4E03D15B99A3D24502A3C3133783D43FA38BD06EA06BBABCC80BCDB2B20BD259AFE3D7C91623B8EF6B03D5FA3A23C7BCB08BD04EDE4BC5CC5B8BC065E283C333638BD4214303CA21F5CBD27225ABA55B900BD18A0FA3CDFE6EC3D61CEA4BD4F493EBD272D0CBC2A47383C0592A83B698700BBF1E4103D7BC418BBC4C6803D1E063CBD3DA238BCA71310BB44BFA03BC99960BCACE9943C826B64BAAD88003C7C65B83C4BD3F0BD281196BD7033A4BD720C82BD03319EBD792E503CB74CC83D2C9264BCE8CBA83D1D4858BC945AC43C8720243D0C716E3C084DB0BD58F326BCA869283B8AD1703BF246B03C765AC0BD08FFB03D48226A3C0450A83CC0745CBC971FD4BBB18C50BCAC0094BC26B9F03C24F7203CE504F03C7C3860BD422E123AC93C80BD0E562E3D189F163D0AFEBCBC946144BCB22518BCB918043D0C3BA63C93D520BD022DDA3CBBF95C3D00E9F2BD3411EABC5DC650BC9874FCBD6CAA063D71EF763B931F903D4A37ECBD64CDB03D5AFDEEBC12CD28BCFD2C6CBD31A7E83C0DB8B8BC0701F03D55E1DEBC02AB50BB9BB5203D3E7E88BD0A78AC3D0AA70C3CC937F83D70085A3C17D2D0BD5E6AAE3CFC55143C5A3D78BCA11CE8BD27BCF23D4D2862BC4194383D57099A3D2ECEC0BC8A7FA4BA833B403D0135E23D57DCBE3C9780A8BD193FC2BC9140AC3D085CA43D20FB0C3D5E7902BD4892763BC230403D49F464BC8F5BF4BD658210BD5F3E2ABB770A603C7BE7703CBCAB04BD289DA43CE4A0583D70BF2A3D27D5C6BD3A36923D0DFECA3B3866603D12599CBCE1DE54BC3B68683CE05B743C3F7CD03CD36C6C3B83D800BD543448BB051F40BD4BA1023D2F73F4BCE38C60BD07C782BB5D3CE03D5CBF7CBC782AC03D70B8183CE1F720BC483AB83C0994583CA0BCA83D2EB5BCBD4DD1623C348F48BD1D6F1CBCB37D84BD31C3D03A3249003C85F0E03BDAAA50BD26778EBD4D1ADCBD51F77C3B7BE5A03D2A5014BD3CE2ECBCA10734BCC05EACBD5A9C18BD4C9950BD2716E83D03860CBD79D5C8BD417AC8BD7E32703D60427A3D5744B8BCA90B4C3D30BDF03D647DBABCC7E3C83D7D1E7E3BB902A0BD469614BC80A9003D554CFEBC8EF2B4BC7444B0BD474A243CF4E5AC3B93AE70BC90CB7C3D3B5C923D5264B8BCB122743C78A0703CE1B76CBD6DF3D2BCD4B020BD126FF43C984FC43CAB18303C4C09203C0AFAF03D6C39A4BB8F3B80BD7E9600BD367FE63C5848F03C09EAF83D6DB740BC9B33B03D45B8823D7B55F8BC1B30A03CCF4534BD41238ABC90D7A8BD015D1E3CB7B05C3D5C108E3C2D1B88BCFC07D4BBC860B03D5476F6BB010A40BCA124183D04DC2A3D60B3CCBD3484AABCF2ADE83D00B4183C4212E8BCE2AC18BD224976BD53DF7C3C2F83903C8699083C27D2783B835740BD6D089E3AA5E9C03AC4A100BCB9F8ACBC628F583D1BA6763CE376C03B2DBD003D6581E23CAE60B83D7915B63D1B22203C419FD83CFA6A70
