3CAC9BFC3BE4994E3CE5D7423DA6D905BD233538BD757D7D3D1373F2BC8BC2693C1A9122BA9BDF5EBB93CB593C4C3519BAEC36F5BC453E913C87C6933D09576D3D170162BC94D1F83C6B9F623D2C151EBBB49F473CFC35A5BD47146BBBF09EFA3B9C3512BC39ACEE3B46FB793DCD5F55BD16A64BBC205B3FBDD5A06FBCDC120F3B1E58753BB01596BC8405C43D54EE1E3D31B0203DB589D1BCF49DC53C52219CBC801E763CA475B23CD5AE943C9E39BABC88EB91BD71E845BCFBE5CBBD7D52113D104C063DB808B93CB930B1BD55FB89BCC19ADCBD44F9283C61CD403D99D255BCACABD43C9DAD0CBC9390643D851C4FBD64D753BBD807293CF738D1BD864F30BD58CBC23E259E67BD1BF5293BB2F29B3DF081F63D808E053BAA2CCBBCACBFD43CA1AAE83BAA32303A882FA3BCB2F440BB413F253D4BE5373B8EC4A73E8C60CC3DCD00CFBD86B16FBE0A0AF6BD381DDDBD41DAB43D4E16F8BAB18FFF3C82DCCD3D797E153CC35ED6BCF5ACABBD5368E2BBA18E9FBCE201193BBEA3A23C4C0F3B3D128351BC4D0D6EBC80B6D3BD225547BCDF8D72BDA0DC883D4874D9BD233E48BC34401E3D4FA0443CB13F63BC7AB4F6BDBD194D3D57E18DBD471C49BD4A633EBB9C3DF6BD9C8A98BD299B9A3BFF981ABC9CB893BCADEE7DBD6BD43D3D869BAB3C4DAA7E3C75B5B639E5B679BB2487E93D57A1E7BD768CE33B661E59BD02B3F03C6CA8CB3BAC0B48BDDFFAE0BDAC9FC73E48CE7A3CF1F6A33CBD83C13C885BF3BCFBF9733DA10AED3D2604DD3B3C56EDBCD32E90B8D1394B3C6251CC3CF95DCA3D8775453E8B4D0DBAEDF701BD643276BCD977DA3C7D8EDC3BCAFA6ABD17AB5C3C3A1B26BD443DF1BD2E8C95BD47C69F3D207C6E3CD91EA93D5F08823E49CCEFBB60EEC839C54BFEBBE6629EBC055F9EBA32697D3E0D7AEC3DDB5779BD6107D53DF4FEED3D99745BBC5AA57E3D8C5B04BCF4FA02BDE0ADBBBC203C76BC0D3ED4BCFC7B2E3CD51560BBB255C63CC0B057BC96B4683BA38014BD129DBFBD86F843BCC0CB003C9D2DCD3DAEF8D6BD8F3D073B766EF0BD38C3DE3D89B5BABC00FB153DD5C43FBCA718463CAE34FBBCBD37B23C1365F73DCC2AAABC26C7DB3D0D90A93C681BEF3E37A4E6BD2BB586BD383C14BD42D6903D8D28613E49251BBC9EEA613CA0B5D1BC321892BBCFB6773C3ED38A3CD15B2B3C8C6CDE3DE5042ABD9F54BABCED5EA9BC8184F23BEF31D23C96C3963AA50E1EBD156F3E3C6313553D1EB3B7BDCDC1D73DE628BB3D0593703D95FC513DC01B57BD4F10DDBCA034F33D9ACCD33D8A9847BD4DFC093D4B452B3D04ECD83AF99FE33DCD3890BD48929E3D5983783D364C6DBD60EB14BC0382523CD3157D3D42A6FCBCB5C0ADBCF02C343D3C0D9DBC14D03ABD3E3E15BD278A273D03237DBBFF32C43D12DA10BCDF1347BCFC9BF63D3B9947BD2FE2AFBDAF23DE3DA16C6FBD8AE191BC64ABA43E3800FCBC826456BC189EBABD31E6F5BC887940BB068B70BD880FD23D87C3D63D96E6C6BC108472BCAAEB46BD0E3101BD1E9A89BCD91650BCC10BF0BB47A4933CA3ADD2BAB03A7CBD3BA3063CE5C7A43DFA05E73DAA54B1BD2311BFBCD9BEF5BC4161A4BCD348563B8ADD38BCC18CC13C5D003EBCA60DEFBC1569153E801A8B3B035EBB3CCEECF3BBBB15CABD09AD4DBBC3A1AE3CFBD818BDA1F5D13B87246CBD04F1AC3C45EFF5BD818BBC3E471684BD02E505BD50A23ABCE0DBAFBD15523C3E0A5770BBAB63043BF5CC1A3A8820B63C3ED6DBBC647F63BD643238BBF88011BC43570FBD1B5318BD64F9A9BC1E6C1FBB0367BE3D2FEDF03D8608B93C4625463C6E843C3D35B68EBAF21CB8BD46031DBCD56E443DA5D4B1BC1E35D03D8041E23B63A64B3BF32686BAD572EEBA8D73993D2BC760BB9054D83D60E3FBBA8A903EBB722A9FBC30A285BD29111D3CF90628BC1C96A43C40E133BCD30D87BC3C16BFBC9FEFEA3DA7F5A1BE0BF4EE3BB209DC3D0CB678BD463DA43D368EE3BD83BFA3BD077CDBBD20C4BDBACF3E3EBA7AA9683BD227C83C1A8178BB8D99E9BBDB2D4B3E26FEA13C9496023B062A4FBC584E20BC2969343CB0F93A3B924369BC18ECCA3B3C71DD3BFF7755BC98259EBDAED01FBD09F7C6BBDF21E6BC0709933AD10939BDAA60773CFF8049BDBA7B383D9D34D23DEA3C60BD38398ABB943D33BD5D576C3E73F6173D8540F0BB750B57BC167FFD3E455FE03DD7C8A1BCAB88163C3A7E2EBD03A01EBD0BBEDC3B69507F3CB1AEB03DFFB6A03D102A5FBCCC0733BD7D50423C7A8895BD850741BC5AF1863B987F10BDADE0A73DB540CD3CDA54F13D8AFAD3BCA34627BC5BA44F3DA822223C3EDC81BDC536B63D925E78BC528186BD7F5AB83D6F63C1BC107249BD8E2B613E6D2FE83E0CEF3EBD0B10593D22F1963DDC799C3D5479663B69019DBD96BE7E3A191583BCA00F3EBD8669BE3D55E3DC3CBFB97B3C6AD8C6BCF976D83DAFD9BB3D2E7D603C5CF5AB3D64F7123D3FBFC6BC5EB22CBAB07DFEBCDBBD26BDAC29FB3DB17FE8BBFB5F47BC7CAC9B3D46F9DF3C8E68E4BD184AC33C8DCBB63D9915D03DA7944E3D1A5F363D4A53D6BD1631CF3AC1B3F23D3D113A3D4E1C0E3BE0BDE7BD8AAED5BD09F21F3CD556BE3E3F169ABD8727B43CB79A373CC96304BD3978E83D255668BDC6AFA0BD106BA6BD9D2DED3CC444F2BD4CA02C3C3C8829BD610DB1BD89CFB8BCE0A683BC8BF7D8BCD07FEB3BD3D53F3AE91DC1BC3530073E1D37333E8240B83D182A70BAA70E31BD1ACE233B06A2843D14A9DA3D3ED4D33C939242BD787DEBBC79B84F3C98E336BD09AF603C80B0B23E3B55B43DD3E7AB3D6734963D971D283C722908BC5E62BF3D0AFAAABC52095BBCFCFCAFBD49590B
B9C5EAC83C263EC5BA8D070BBB0C8E9DBCF5E5EABD0FE54CBD07EDA0BC3EFC613DC16063BCCA1A11BCAE6199BBF47471BB8E95D03D580ABA3B31E34B3DDA6A1F3C2048AA3CD94F0A3D02BA31BD9A23A33C26F374BCD30D273D2CDDB1BD2AEE46BCACB6DEBCEAF4773CBCEFA03D43FD2FBC48A9B7BD176FC53C071ABABCB9196E3B88990B3EB1CAC53E16832F3E1026FEBD549F853DCB5CAE3CC3F12ABD8E7F5F3E01B2DABC22B6F1BC60DEE93CB63FCFBC69119ABCF86BFA3CC1FFBE3CC7F1693C3E4E9EBA26FCABBC19D2D73D11C3AABB9CA4DDBD045FFEBCB2EF92BD6DDE49BCAA2194BCF07394BA9F492CBD080046BCD93F30BCB195553C976025BD8353CC3CAB55AB3D0B82A43C2736453F1D9F353DF30FDDBCF435383B13DCC8BD205A91BBA2EDC0BBE1820A3C96D557BB0662E5BD890938BC9146533D77D1A93B9D04D43C9977923C87CBDF3C6E248E3CB49500BD8D8B003C04C597BC2757C33CD5A5B4BD09E9DCBD166C67BD3E0CA33C5276C7BCDAA6B0BDB1819CBC7675C3BC88A4D8BCDDCCC9BD65544A3CEE80F9BCD6808FBCB0ED5F3D93B7283C933BB2BB52738EBAA9EB3FBCFD180939D543AFBCC951B4BC050CAD3BCF6062BD7C3CFBBB3CDFD3BC50E0AD3C3ABB03BAC141E8BC92D4123B8BD30BBCB69FF3BD96F92ABD64A694BD5C385B3C8587E6BC8E012DBC83F1553C3363D5BCD298B33C6DDB09BB463FDBBCE90D9BBC8D7E153C05062EBD1157283D22E772BBCC1DF63C0A3C49BD88A88F3E21FA0FBBE6904BBD0C0174BC89F3783C798DAB3BE2A473BD5E1A323CB72C583CE829E53D7FD829BB7BDA7EBB80C509BC4D129EBC32B3BBBDA618093C7053053DDD54E3BD3502153AC86E42BD1A32DF3D9F13DA3C05AEBDBA125AAD3C42449E3DAF0384BC36EBA13CF2D3EFBC2CE54EBC94B7DB3C9B4FD83DD9F600BC9E2D6EBD9031EA3BBB971EBD2F2378BA002E0C3C489DF9BC8CE9913D4CE297BC13F64B3CF951303D8DA4B73C3129B83DAA5D31BD463DB8BCD9E26D3D607CE43F0A6BCCBC5803533AE4463ABC43F81A3BEF96A5BD49C7E33D285359BD9FC3D83C3117E9BCBFB88DBD825C663D00A11FBC48CD343BF91D17BCE96CA0BD0979323EC5C16F3B9673EC3C30E2873CE4807E3A740E7CBD8F700CBD099E72BC937F203BE1F23E3BDA50E53C977EC0BC58FCFD3D6A444FBC2CFC14BC87E2B23D335BBBBD3F4B01BCB33F3EBA592A2B3D361BB23C342D703CB6A15FBD116728BD088E8DBC9A8BE43DA0A10EBBE79D3FBD0DBA79BCBE0953BD7B52BABCEF13B93DA28B6E3D827B46BD1360FDBD1D677F3C3F098ABD315CD73C81EE96BB1502FABCA60589BBA6C214BC44B6873CB868073C2FD687BC8FF788BD18F2AFBC991D573C009216BCFB242E3BAAE938BD2C1AC2BB402947BD25D1D03D2F432E3B60553EBC69ECF3BC655B4BBDB28604BD171C25BDE09BC03BD2B581BD80ED363C7401F3BC98F4C03CDD57C23D96CF70BC0EDD65BDC4571CBCC3930EBC3D94DF3D8810F23C92DFE2BD5781F9BCEF0AC6BCF11E00BC88AFE03C0129073BBAD409BC74941EBD6373D9BD003611BC2B970B3C0F705CBA23F3A03D9192683C39AFE2BBA9D2923CC0DDE6BD3CCEA9BC31039ABD309E78BBEC070CBBAD7E4BBCB7F3C9BD2CB0B73A8CAD30BD06177FBBAB7B3DBC81040B3B76D8CA3C47F89DBD3240913D0249913D4D82CDBC007FB7BCFB22ABBCDC86E23D028C4A3BE501DD3C31A409BC85CE593A48133B3C737B41BD46D6C43C415AF13D75DD503E01B6383AE27BB6BCFDA5373CD11F65BC12760939A96E7EBD075EFF3C885687BCFCA9E8BD0A0094BBD49ED13AD79755BCD23956BC8B02F6BD488EEFBCC388ACBDA8757D3D1DDA21BCC56266BCF0A7BDBC8054CEBCB777323C6FABB6BC49AA91BD8A93D93C3B4E0BBC9932943B450D81BD561EDEBA81BEB53D23FA493D3365093D42E7473D16246CBC964ADE3CC4EDDFBD650EE2BD4AAACA3C8C3733BC06D78BBC8D45333CAA0E0A3B40E1A73D07655DBC470CF23BB1EF5F3C235632BC354A53BD2AB49F3C2121073CEFDC353CDA3C003D006893BB3AFAE13B9717E4BD163B46BD35C97D3A3F3EFABC9E20123D20EFD0BB295F053C8CACB43D24CB243B9BFAE139F0F9B73BC608BABC88755DBD7165BD3D4054A6BD327EA1BD05E698BCC1D41ABD112CB9BBA86E27BC0BA235BD13A396BCCF77D9BC876C853D3CF9FCBD33D32F3B9E2004BC35D8EBBC6C4C113CD32F5EBBC2A7723C66B9DDBB8976383C6D6554BD4426133B86D0A0BCC449BEBBC6949ABB21CC633B92E222BB589C46BD42A9AD3CB1D4F2BCEE6251BCA50CE7BD8B0D8FBD2F6F7CBC05640B3AF90A16BCFC2AAE3C6EC170BD04694BBD8C2EDA3BA0FADABD488DCB3BE1CF29BD77309B3C1740DC3BAD3DA23C2F05E9BCBF8EF8BD3E210FBB8F54C4BD0CEB0BBD496EB0BC544695BD671713BBAF1DE53A209540BD2CD41BBD2FFE813D18BDADBCBB0D5B3B98361DBD46DB823C9EAADA3CB85968BC49A465BCFD8273BCC66BDA3CE66564BCC69C1CBD7509503B505003BD062AF73C268AB53C548AD9BBADD826BC4C0EBBBB1C16F3BD12EA1BBD10AC6ABD3C8597BD3D4218BD546BA4BCFF4399BCDE3B5F3DA1F98CBD0D6F86BC5C1F02BC172F57BCA0035D3C272244BD7A787EBB3B75C4BA1E70493B94CFFD3CF25315BC9289253D72AECF3C885FF23C4195D5BE0EC54ABDC450453C7D7EDCBCC00217BD0EF8E3BD33B341BC9CED873C316958BC83832FBCD65FE7BD0AD5CF3D996E45BC9326B5BC7E1EF9BAF1AC123C46ADCB3CFCE52CBD5AAB4C3D365C82BD85C292BD73D74EBD13B74A3C512899BC762E15BD2436093C2B318BBCB82EC2BC4F5BDDBC77DD25BCA68DDEBCB25AD0
3D0B97003CA1F670BD065ECF3CE5B1563D53C9563D260CB83C6730E83C5A8E64BD83AE2C3BBD57C8BD0CCAEC3CAFF1303C6FDAB9BD21FA13BC621CA43D24DF5A3CD86C6B3CC38E563D2C12E73DC18297BD8F6DA8BD59FC123DAF451F3B34BF483D054F8339AAEAF83D0720DF3C06414EBC99A06FBD1AEAC4BCC4134BBB2BE9113C866BCA3B51D1423DE4AF2A3D3A08BFBCAC3D853D133FF5BD9BA5ACBC1F57E8BCF804443D029391BD48CE843D35FECF3A856D99BC4697C5BCD9920E3C0F5FBABD0359473C84BCB3BBF6E95EBD77648B3BE0C39B3D23A6683CB0653F3BEC5975BCA55225BAFE686CBB14036BBC8437F4BD5CCF5BBB7551ADBBA2D170389D1888BD582156BD118138BD382F56BCC4AEEBBD443A233CE0234F3C16D139BC4633F83C9A0E013D1F469EBD00B484BC764AF2BA97E7EBBCAA0ADE3D2C94B73D0CB27CBB71C66EBBBE31263C75618F3C6892393E11A6FFBCC3718D3C2E6FBF3C297E3F3C37F03BBD189E44BC4CEF59BC02B2DE3D01CFCDBCF68FB73CF4061F3D2713073D0A00D53C704AFBBCA4C3593D39126FBBC01EAD3CFA1C02BC8B6A89BD79F011BAF011E43CAB355F3C9A826B3C813E7A3D948DAC3BB35245BC934CE9BD205E73BC4B7ABCBD05C74D3C2B817FBD74EDD6BBFADEABBCAED15CBCA966AE3C4F026CBC3C7CD8BB2AEA273BB42757BB9A08D5BC105B043C795A08BCDA18803CE70375BB4A46B8BB704D2FBBDF2FF33D3E78473CA3BF453C0D488CBCA27E22BD4C00713BD1BCE3BB49F2B7BD27B439BBCE4CF13BEF0FF1BC54D355BBC9D07EBB1CF32FBCACE95EBD42B9A6BC9D6BF03B7B03AF3D658A6ABD08A6B63CE23D3CBB9E643A3D9832D63CDA0973BC7BAB543C87C77CBDC5A3563CA72B343D19AAACB7BA8CC63D1A1A5CBC876C8DBC8BA3133A0FDD75BA470A3ABB119C2B3CF87DBD3BCC0BEF3D8090383C425F773D5A4CB6BA0D059DBC976DF33D8A8F08BCB40E663CA7BE7B3D059184BDD39B3F3C84D891BD1245CD3D8A162ABC7A4135BC57A1E23D2BD1633963B95BBD55B5B13D11595EBD0EEA9ABBABDF0D3DE4B338BD91C4753CE78A1D3B4F724C3D2ABC853DE6EC10BCDA54A2BC68F211BC44ABE33C4281573D2306AEBD08C991BCBD3E263D5BA4623C24BB613D6EC997BBAADA4EBD7A56FEBC0EDF333CD4CA60BB900EBB3B1DF3453A79AE36BDA3E7FA39EB797A3CC2D1793CA2C748BCFA6512BD0235B73B258E38BCB6A8C8BCA8FC2BBC039E61BC3708E4BBA7E2E93D0EA4993C9D5046BC930EB73BBFD7C4BD816AC33CDFF9FABC8F5A8F3AC46CDD3C1D879DBC42FD06BD2876383C99BC3BBC8DCD61BC6E48F0BCDD98E0BC0E67263D84545A3C71FA7BBBD873613B209E263B6043ED3B59BF76BD0571E3BC9CB773BD1999EBBCA1B488B9103DFFBC102B10BC413EDEBD381109BCCFB5033CC4690DBCCABA3BBD4E72A83D3DA902BCEFFFB3BAC7E6263D31D4803D36C45FBCE56911BDA6C2A23C1ADCFFBC2C377A3C08DC4E3C2603D73C5EF85CBAB5044EBCC7FEC53C7E34E7BD2EA005BD180657BC3640B139543FC2BD2B824EBC8B7269BCBD64603CA776383C1FF08E3A76FCD5BD46A500BD7D2E063DA793DEBBAF961D3C660B70BCB0F9593B99475BBB1D8D1CBD241A3E3C9B3B93BCAF58DDBDC511923C53812A3C96C7983E1790F83C7F8C8BBC3A0085BC80C139BDC2DDACBC771A6ABDB55C2039DCC5203D03014A3CE29E863D35F0E6BCABCC433D2D1F633DB4765C3C86274D3BBEAD47BCDACFABBBFF9905BBC494C9BB804CECBBCD82CCB7D64EF73C565DC8BB03B916BC12CCB5BD1F7E193D74E2C7BB96DDC03CCA59943E9A54E6BCC8B5E2BB61DDA8BD139024BC7D2251BD1A259A3CB4E7C23D4104F7BCDACF7FB95BB3EFBC1D9A8FBD30E2CD3D87FC363D2541D03C75BF27BDE416F8BBFE4400BD630BACBC4F9A69BCA6F1C9BD91D4963D894A9DB981F53D3D5DD251BC5B9FE03D1625ECBC26B0F5BE0570E4BCA08747BC9D0F4FBD3588AA3C8F94F4BCBEEE58BD4B8DDCBC3307E7BCEF8064BBB1CB42BDBDA739BD90631D3D028FEC3D98BDB93DCEE2683B8D521BBC89352B3C6BD6C93D038881BD992787BB3A0746BD5614FA3CC9B98EBD2199773C44233B3C4B0766BDC755D13C3361DF3D1711653CAA1A9BBC3ED151BCB5EB64BD2B1618BC82A1993DA708D0BC77A5DC3C7D0D18B9EBDFFABC71E2443D15A3C139B275F8BCBD8E9BBD1BEC8DBC8921DA3D648069BC88F547BCDD38E8BD22C3C73C93D9B13C41C7793DBFD63F3D24B40C3D728CCFBD58A861BC83AF3EBBC1DBDCBCF0D336BD699A05BD24DF5ABE1B460EBD27222F3C49DC6DBC8F3E72BDDCEC383C169DB3BDB195F1BD4448AA3AF70C67BB17CC263B9B2885BD55A9D33D1D78643CBF282A3D166008BACA296ABCF0F7923D3C1C39BC2F31A9BBF13194BCEF3336BD5576273C48610B3E0E7D77BC75C79F3CE63707BB77A3FFBD10196BBC3C54BD3C0FE6953C0C2C703DE2CB5B3C2E0233BB320383BBF2156B3C79AD003DD46071BD1CC7183DB7F1743BA1A9A2BC91C8693CB9ECC1BB8DFDAD3C82C4D33C866EA0BCAA08113B18ADF2BC5B9536BC9172843BF7EC973C08E1D03C94913C3C6FE3363C456EFB3D14C6A83C49D9D03C39FD7FBD7ACC733A7D04F03BB69F8FBBDCA0D73D750C973B19B3C43A541122BBB466FDBD3AB0AF3D2032EC3F3644823C852F293DDF6452BD399FB03D6EE9FC3CD1F712BC6864F93C90B877BBEDE6B7BBCF09933D7F19DE3CB655E53C50202FBDB5734EBCE919E5BD33748A3D186D1B3DE595803C157053BD31B1713D70918EBC5E832BBBCEDA7F3D921036BCC5BB80BC33621A3B976E3E3CCEF91F3BB1431DBD09D9CC3D78ED24BC6B35993D2A7821
3D8026A13BCC8A70BDBF7B453DB7D601BD6A1C713DABC8773DC46B633CD9DEE33D8BD78F3B9C6925BD8AD13DBAE5EC133B52C05DBD2A78A6BC37A223BD16F1403C8108D0BC7A9D47BD2102273D8E7E62BC95704ABBA14B06BD135858BD9143B3BC0616803D2FECBC3E27F8303CA54AC63D17C601BBD0516A3AED5D803C90D0A9BD5163993D5940D7BD57E72BBD6879523C41A5FB3DD2B4D3BDA1A8603D1D81EB3BE960F13C975DEB3CC76B51BCDD237CBBEE70D7BC81A6153C303070BC2524193C1161833D09661C3C03A816BD3DA2AB3C1633783C72AAA53BD2C811BC133C073CAEF026BC6381D8BD15AABABAC378BEBC9482CEBCE39B44BD9362EF3D5231CEBBE1290CBD3D21EEBD1493A63C32B31BBE0A189ABC1943E5BC4B60283BABB85D3C8B60E9BD6DC88B3CC584D73A8198493C896B78BCDCBF22BCD15673BC9970453DCD580F3C9B8B0FBD0EDCC33E86FDE53D189D813CD82C7DBD5869F8BC1BD91BBD2A4B863C6B21CDBD4B89E9BD95FB443BC1F819BD35850EBCE8DD7DBD2BDC7B3CC811733A9EADAC3CE47AB7BD18761DBC20ACE93D8822633C47EBE33DDA92E4BBAEA96C3D051DD33CB0C0923CBB03B8BD9240FBBD553A7DBADD8E013D0E93AD3B4317EF3D4F4FA7BCD2CC983D6AE5F1BBECEE6DBD49F0CE3D2E4E9E3D379D103D09380E3D876DD6BCF76C533BD478C83AB2911EBCEA69F43CB6DB693C104CCD3CAF1D4B3C14CC69BC49436FB97ADFB03CE6D3403D1BEA5ABB7121863B1D7FCBBAB252F0BD0A2115BC725464BC07E3D6BD658D4C3BD8CDCDBC7CCD303E82EA96BC7742313B6CD9793D96D31EBD88B01CBD9E994BBC035F61BD90BE263D177BAE3CA480CC3D492A94BA098D2CBC5F03183CBFDF48BC3BE3D93A27A38BBC724AB6BC5892F33BE3C06D3D1EF4E33CAF9D3CBCFF01A8BCEB15B2BC6CCB613EB0BB27BD59BDE03C2550DD3CDCE613BCFEED22BC82CF4B3D9704F33E259689BA9BDF3FBD34E09D3D9BEF7E3C90B535BD2F723ABD497F98BCD800683BFFDC75BBF53F293BE2BF923C014933BD736AB53CE7D5213CE833843C616CD43B8DC39BBCBDD52DBDBB0F52BCECE6AE3E01A5A1BD3A65E7BC7498DBBD1D27C73C2DCF3DBBFF8B153BACDF733DBE0A4DBD228D20BB52E64A3CFE6BE6BD570D433C57E833BD0AEC753B94C0ACBC9113FD3C2326CABCA82E7D3D2BCB053D57B00C3C649742BD49B376BA682EC83DE1DB11BCBD8B5CBCBC164EBD1D0A6D3BADB42EBCBA4451BC32DE11BABD460DBD86DF2FBD19CA53BCD93C583CE9EE683D57D28DBD60D6CDBD5BDF5DBBC3816FBCE133ACBBDD28B3BD51D8D9BB839AE53DFC50F63B624897BCAE2E06BCDC4086BC23E802BCC8F0093BA02AFBBDA9C7A83D38D6CB3B24B86BBD379CFFBD66C0943B93A10ABCFF6D313C926751BC837726BC1357183D34EEDF3B8D73993E62435CBCB6529EBCD9DDBEBCA9DD23BD12ADC13A31132FBA9FF4ECBD4C528DBB4461863D10B7CA3D008D06BC15D5E5BD2BF7053DBF10AB3CBE080F3CC8CE86BAF50F9C3E063E593B184557BCD3C71ABDA616853D01F9F33D81AA5EBCBD35A23D2B9974BBD49F163D29DEC33C8EF31B3D47F7653CE41B9C3D035558BD08AD8B3BAF07F6BD0366C33CB171CD3D71A0FDBC87F831BE00DE10BDA3641C3C0D6C9E3BEB69E53BCD7D023C017469BD103075BCCC56253C9CB065BB6265CB3B7952C6BC3B72B7BCA6F2F03B76BF5D3D3FC7633D03AE1EBCCE0BB1BC6C262E3B9903EE3CAFBEE23B6AEA0BBCDB7C6A3C94FC26BDA424ACBCFDCDE7BB9990FE3D1E7C89BCCFB3C03C0451FDBCB90C6CBCB1CA6EBBDA65103CCCA566BB0F0B7BBD5260AC3C08CE1CBCE84DDDBB7C47F6BD4E65B4BC23B650BC801A20BD4DD1233C085370BCCF00B93EB774B5BBA63FD03BD0A8BB3D39607D3CF4B58DBB967D74BD8B03063CBB945ABC40A3F53BEC755B3C9DA06EBD90FAF23C5542063BFD09A53C95B58F3DA2E4DA3CBD47C3BD409DB33AB6681A3D4EC97A3E09D75DBC0120963BCE99EA3C43EF1BBD541F233C7AE6A2BCD96157BB7CEAE73D33D0A43CF4B6673CAADE743C105C8BBC8F5F48BD5621BFBBADB1A33D491E7CBBBCFF94BC206AF7BC8F57D7BB0334E4BD33AB26BCA45AD23A93C43FBC987088BCAF335CBD5C5381BC9D4BD13D83292DBC018CF33DB9A452BC0FD5B13BCBF130BE1EAF79BD342727BD3C80DF3C0E2FEA3C95EB563E7A075D3B11F7243B96B0DD3DF4F55DBD4DB587BB577C70BCBAFAF4BD3F27C4BDF424C4BD034AD33C18165DBCF536183CD030E5BBAB83DDBD1D0500BC2A324F3DB2479D3CD7E54BBC21818EBC9A36563C3AD7B0BA9C82303E232741BB970F3EBD4211E3BD27ED67BC143D093E8E9789BC33E96CBC4ACBE83DA77323BC0CFB893F034650BC65ED55BCD9DA91BD8BB41B3D44511EBB48A3AA3A8C2C903D54D0D9BAEBBD67BC2F965EBD3CB91FBB5A50733D2FA9B13CAC71FBBD0B89403CF052283BD4778BBD62C73E3C89BC633AA8E6D4BC515B043CB273E0B867581F3D995634BCED65C23D047618BC7016A73CAA4363BB6D3E94BCEEB36BBD14B00EBCD3E35CBCC91161BD291B2B3D7FDE76BC51C42E3C306A85BCD4561F3C576AC83CDEEFDCBCBDB4FF3CF5DE623C816F343CC9C6123C21E7F83D4B16CCBD28E2083B4DB4863E036BD43D6B0DAB3B946C653D8E4AD7BB96BF493BBB29B53CEB0E723D62ECF93BB0790A3CB066703C391E583D2D8DF0BCFEE9D03BA99127BC501FCE3DB11A473CE7F5FBBA88475E3BCA6AFFBC986FE2BD396B56BD111FDDBC3A99EDBB4D7C1E3C30E492BD85C8E5BD0085C43E7EAE67BDA669463D847FA13BF7B9FF3DAA2D9EBB92CBEABD16370A3B913853BCF2EB2A3DCC4224BD2B7FDE
3BE406F6BC3B77C73CA65B0BBCB5A37A3CD5F06BBCA18C29BCBD6AA4BCAD0132BE2E3448BA1AE6B83D56E64D3C8F04C83D76937EBD8FEA733D09E5413D56CA233C7278BE3CF619B0BBF1F1ADBDA2C44E3C73EB903CAFB20D3D4697C1BD9C86CFBC3BE5F23CA6ABA13D304FE83DC8902C3DAD6F613BFD1C7CBCDE076A3DA8CD80BDF6F8613BE4631BBC357C44BCC8BBD43D5FF157BD700690BBFD45A53D2DE4F63E441148BCA7B8613DCA239EBD54063EBD294632BD0060C73CB768C6BC53B22D3E114AF23DA11F20BCCFC0223AC5C40CBC8CF265BC8BC6663CA1CBCEBD841F00BD090A6ABD22DC763DB12378BD7D5FFC3DB3C8C83DB12B533BAF7DB5BD81FA58BBFA1CB0BD58FB783DA5374FBC90B1AD3E7151A4BC1E5462BB4924FCBDF5ACE6391CD0E8BCB0EB1FBD0B461EBD97520B3D38C807BDBAAC4FBC0494453C2F64E7BD099CCFBD7463D7BD3C69F03B476483BBCEF106BD632F3A3D93DE1EBD452EEABCD36A6FBCB9139C3C2503E8BB35376FBD812A043D692FC7BCFFE7FCBAD7BEE03D8A49ABBBB2DE603D5251C1BD6D2B4A3CA51161BDA4EDA9BC1B00583D3175D43B8B2591BD285457BD13EA30BCD66EACBC082DDEBB37C3523D1F82EEBCFF4300BABA14313DB01CA2BCDCD665BD61B394BBBF4E45BCCF1A8D3CCB5233BD2FBFF53C0CFB0EBD06F962BA911EA33D49722CBD8D26883D8D3AC53CDEBA9A3C7930F43C09829F3AFD47DEBD3D4601BBC79ADD3DC0AFAD3E5DE1F03A782FDCBD05A87DBE10ADB93E4A78983C861A083C776136BC8B60373C43C58EBD3B58AF3CE0D7913D943C2FBE275E973BEBB0573D9C97D13E3269F6BCFD538BBC6D11FF3C8A33473D65712F3E02B5053ADB8882BCECB43EBD6D60003BC41C513DA83315BDBA7DF8BD50AB913C8CFAB13CB308EA3C22A80ABD2B8EEBBA9DCA613D37BE28BC73AFEBBD527D97BDF1FF073E367228BD593B41BC0D94623CEB34A3BD8D3BFDBC7DF554BD811C9D3D9CC6973C960E1E3D089128BCECA9393CECB3863B927F273DB696DC3C1133B3BC6AFFFA3D778DD73CE4EA943C9F9DA13D8CCECDBD48477DBB16792DBDE2217C3CB02A80BD29961ABAE98DFEBD700BCBBC8448363B4B925FBCF01C5ABD5806703DDB01873D7E6CB6BD02D5343D3A7517BDA69337BB8AEB803BD21119BC948FC4BAA7932FB9BE2EF4BBDA92DE3CA4F8BCBC7F19D5BD9D2BD03D50E7643C06D7A43E25FECEBC19DF6E3D84CDCBBCF376963C49D06FBD725FDEBD0BF9C2BCA38A2E3DCA21AA3D4105D53CF7CC1A3C581A7FBD6987453E72F4E7BE0C7EC23CD505EF3DD714F0BD1368C3BC70A752BC634335BDB5A36B3B46D7783DAF54F4BD22ED533D83452EB981CDC6BA85B1FEBD15095A3CF995323CF38ECABCBA8DE1BD1091123D65F92E3C938E233D0B12E63D80310CBC1D76CCBC8668873D5E899C3DBB93DC3D097F84BB3409B2BD84CD0C3DB71114BCB4D55E3D6D9F8A3CD3CA97BBD61A41BCD4B6AA3D836FADBC3BD3F03CE7DC2DBC8BD9873C195C37BD50168D3DA5D0013CD96428BDB0B357BC2E0852BD39DE803967CDFCBC22FBB7BD02A4F13C63F91BBB207A2EBE07AF553D187452BD79108DBD83BFCCBD114B923B54F208BC98A73EBBE133193A0B0276BC1DBC173C0C81083D670A00BD074C8B3C9BC60A3CD9CA12BBB2B2143BB97D14BC85441ABD6590343CA365963CA881A13E9386D4BD7110A33DD555F0BCA6AF543D80E0B3BD32DEE3BD5154BFBD8647F33BD16782BDB31723BD8C956DBD071EEA3D2A07B9BDB683733D00B7C83C866A373D4781193D4109873CAB29A8BD25BD27BE1CE85D3D5BA1253D1D1B1BBC32ED793DB1E38CBD02B4663B877A963D4E05C4BE1E437F3DEA089D3B8C4C5ABD17F4DABCC7062ABD5DB85A3D17273F3DCBC9D23CD3C318BC72F8FA3DACA2E6BB7D0211BC194F08BD8645C6BD1C00793D15F150BD2A45EFBD5D3330BC4B496D3E2111E9BB5451AD3CA7209CBD0566C9BD9C72363DAB3D12BCB6874DBCD6446E3D8CF16BBCD612DCBB8E5488BD8353073B8F3738BCC9A757BD48F1233E0A9A0E3CE43D2A3D92B247BCB4EAE3BDCF3E843DB789F4BCBEE5DCBCC927473C9264173C9F066D3BD3EC37BD9B6146BD4CD5C4BD64D2B83B9D4347BC92DCE8BD11264E3B94A7B53C357661BDC78A6FBD613C8CBBC148833D8BE5A03C618982BCEDC2B13D42EECFBD8BDD6B3AC1C4223D3C5A23BBEF1691BD1543DBBB1B223C3B9537253CF1FEF23D4E315CBDB92B683D132EC13DAD4D59BCDC1CA6BD14CBE13E9256CC3CBD99A9BD82D6AB3CB83C203B5982B4BD27933DBCB46F89BCB639CD3D893528BC8562883C0A2B8CBE102C493C7AFC4D3A08C3B33D4A7877BCDD8A4DBDB2FDF2BC7F832FBBACFB3CBDEA3523BD386463BDAFC5A3BD44289C3D2BA975BD4D5D9CBC72F0163D056F12BD15B586BC89997EBB8D5E7D3C19D9B83C6624603DA9138C3D553FBABCE54D5D3DB89C363D37C580BA7C0E1EBC80B4BDBD87B974BD071BA83CA2ABE63D9C030D3D9573ACBC3750043C97183ABD07AAC73CEA969A3C9020813CF6FB72BCC2AC0CBAC4F0193D977E05BD0F1270BCB95000BBFEBD34BA8AB02FBD1B050D3E0648593CDF5707BC83E2DABBD1C2213C0938633D55076ABCFA29CD3CBE3AC53C7ED4143DE42DD93D282A91BD5E95173D64A140BBF46B3A3C2D7593BD6C2643BC91CA9DBD3064C53E5DA5713CA81B7D3DC37BEA3C846B0FBBE3E18F3D1108613D92F0CBBD4685A43D91CD603E49749A3C33F3553D91D5AF3C61CC3A3C4DEEB0BD90B586BE044596BD32CE48BCCE1DADBD37CD59BC92E87C3CA96061BD9FAAD1BD1F0F573CC360B4BAB0655FBD3E9E673BD5A36CBCA14DB13D687BCFBD97982DBC9C06B7
BCC785BA3B8AC7FBBD9918223DBD8DCDBD44959EBCE4EBA1BCB9508C3CE76193BE007FB63C299D44BC717976BB8070BFBDF5C7A63DCEC774BC57F319BAA91A49BC12552CBDC2752BBDAA56DCBCB9B1693CB755F73CF50240BD58B5EA3D4CE4A23C4F6208BD339864BDDAAB593C9F3A13BDBD8DF7BC45A5BEBCB1B394BD6876C53C8AB94D3C2120F53D29E5AABC162DD93D086624BD906222BD8DA360BDAF1A8C3BE960BFBE0D3B683CC3CC593D5A2E53BBE209A4BD2118A0BDA51CF7BC89CEE33BB5E7E03E14CBEF3B83946A3D9C3C103E934BACBDDA68403DA3A62ABBE5475F3D5AF59DBCCAB250BC5D35C8BDE676883B91BA3CBC378E033D5725293DA82F083DA1B5F0BD283DB6BB41167E3C9964ABBD988F81BDB49D403B6EF74ABDDB3200BB9C62E1BCE234F23CC6AD59BDBD08623DA3A9E03C8BB677BD132370BD0EC6E6BD9C2A81BD80DD87BD0B5AEFBE0569FE3CAA75F0BB0154A33E4B476D3D4D6F95BDC405F73CA2BBEBBDEFDD923DF24222BC1E9C803CA1B37ABBFAD3CE3CC1A97FBC1213D3BD0776593C349889BCAD4B6ABD0C0E42BC980547BBB5B6ED3CBD8F4B3B92355F3CF8EFEDB9E93D84BC5D2E61BD7488CB3D2D1A0F3D0228FEBD835021BCB5179C3C3E73CCBDD98DF23CB47B3239BECB68BD66F39E3D1A5360BD7AFE6DBB6524E43D7A45783E506BAE3D400A61BCB03542BD0D7EC3BB07A3153CB8CD71BC1A70DE3B659EBFBDBB8377BC7FF856BD626BBDBD132AF0BB76CA9B3D1403113D8849E53C616EF13C229945BC2FD32E3D7E84043C15A4583C1EB62CBDBA5A5E3D2110FDBD6FCC2D3C4CF0AE3D8475FB3E00A2143CE040B4BDAB3F753D32F4253D9AFE3C3DCF864D3DA5FC48BDADA4603C88ABDFBB7C611DBD86BDCA3D1571BA3CA47FF73B70A4FDBDBC8A993DFD7DCDBDCA80A8BD331DDCBC2060513CB0C9B03D215A45BC516E74BDD3A6CDBC96737DBC1534593D5C6AA7B9D67C89BD41C8023DB93A3DBE11673E3C20A4F23D882883BD463390BCC3D2BD3C08D7593C92ACD93BF833A13C0648ED3D88698ABCB64EB33D3C2BA83BC248FEBD11DF7CBCC55802BE076E6BBD5ED413BC8B7E4BBD4E7C953C5A741739AF40DBBC62B68BBBDE16543DF263D0BD6E4EAEBA8B22343DA81C493DB30872BD1AA0FB3C9485CDBD340139BC46B51CBD208768BCA5F0E8BD4233C53CA3029B3D080662BD06B5173D6366A2BD88683F3900AC453D19DD16BBA65287BBF435CB3D9453EABC720A2F3DBC1FE7BC2A582E3DC18899BDBA642E3E2A3BE2BAC792703E213E4CBDAB80B9BD27F078BAD2AABDBC685A63BD2BE075BDBC5E4B3C5F04F03D22835E3C2A69F03C59DE5E3D0CCFE43BDACEF33C245CDCBC873F913C9C0ACDBD9170353C44304ABDF2A8ECBCDA80673CE725D93D8E869B3DF1B4FCBDBB4DCDBC7CDFFDBA8DBBE3BDE4A21B3E272936BAE4CE29BC4423963E987F3EBD1059233ABBDA043E2AECA33BB8ED393951CD373E1A1B313DF159CB3C5B3BDEBC6FF23BBD123CBF3B94F2883CCB74AD3DEC1B12BD1283EDBDA8403D3CF7BD93BC36D7603CACB243BD4F15CFBD212212BC82E0ADBCBF2ADDBD80D6FB3D0670A63C08A2ABBCCF36F4BDD94BADBC75046D3A2D036B3CBC89513CB6B35D3AD46808BCB61E58BC9C8306BD92FF8CBC8FC10ABDA485323DE99A1CBDC57AFB3D860CBDB9E979313CBB7DC9BC2F5FBABD5A07413D2B48F23CC2212A3ADC2F22BDC9ABF7BB3FAD32BD2E45E4BD60984EBB9BDB2CBDBA33343C14304B3D86950DBCF98A413D95B718BAC989DA3AC11E31BD991FC43D70995BBA8322063D7E5A00BD6584DA3C24F30F3D30F5083D14B763BD663DDFBE1A6498BD201418BC91E8963C04AD94BCF295163C00AFC3BDC7F7BDBDB8F982BD96328CBDDBFECCBB8133F3BBC792903E27D1BB3CDB1E573B37B0CBBD71CAB3BDC5061C3BFC7CBC3DE2E94F3D14DF5CBCC901D03E620195BCC05BA3BC3F344CBC7AA2E1BD0F1A93BCB42127BD4F8B23BD446867BC2DC65D3C6D9D073C7B0D3ABBBD9A0EBD0C83B1BC775E9DBC52665F3CB99399BCD51F613CF8D83CBD6975C0BBF0DC92BD82C94ABD8261C7BD60CFD93D001DB63C73B3243CA8CC353CE59B7D3CC42664BD301E62BD7523D13BD277CDBDB0DEB73CFC04DC3C27B1CC3C532AA83CCC99D0BD932360BB9B102A3C9EF565BD8902F93D74BF18BD20513B3E2F53BABBBD63873B378E993DDCAF783CAE21EFBB8F9EECBE0DAA503C55D91E3C91DCD33CDD65453B16A4303C162335BD447D823D9B7D1BBD0F4566BDCDD1E9BD924428BD619716BC6AB6883D016D06BC6683913C0B7E49BD2D682DBD9908673C95DD883D2B4D1B3AC3FE063DF8DC2BBD90D5F4BD13DF383B7976C7BDBD5FC13D07B707BD6807233CC2CDE73D985C1BBD1EB2BF3E12B10DBD0E3628BD357E4CBC26D2823D103CD13CB7D9E03CB89394BDEC6CD4BDACFB1EBD2D9B833D344115BDBDFAC2BBB2ABAEBD93DDA7BC90104B3CF538E9BCD3D4DA3D605918BB6CE2C83C94F741BCC3FF9CBD9ACC8DBC988D79BD99E32FBCF077B93B5E47CC3C035DE93D2E18A4BD06A1963CC7A98CBCB260373D9064BEBDCDD8433EA39585BD37AD033DA2E4EE3C5EF7453C5A5C96BD0ECDBB3CFE87E8BD0056E23AE8D1A43BE719543C9142BF3CA69945BD212A7FBDC505E43C7F0EB4BE07F30E3CDE684F3DEE3E793C4C7D6EBD3BFBBD3C9A49F83B84039B3C69FDBA3C8946D0BC1474ABBD0BDD5BBDA29300BD282B83BD529C1CBD8495B8BCE48EBEBCDD87F5BD4127C63DADEBC7BD69AF143CC37038BC0FB69CBD2A301C3DB4C708BC601CD1BDD0B089BC86F9203CA9F3E53DB1A57C3DB9A3D9BD99C2E4BC5C977E3D2E1335BC65D295BD061B23BCBE8A2A
3C9597F1BBAD10D4BD858D6ABAE0CD733D6A8B6B3CD310263D867A5BBCEF5701BDE75EE7BBEE98AF3D15F2273C4717BFBDC904543BFEE0B9BB44C66ABD05A1493B622F8CBD81519E3D070E0C3DE8890ABCD1CF1BBC1F8E01BD04D6413D7DCEE6BCDE23B4BD30EB093D7EAF5D3D425E78BCAFEC71BCB371B03D5ED910BADA46343DB1E7C4BDA759B6BDEAD7A63D50FE12BD36A382BDABC8AF3E01C4B93D525248BAAB78E5BD02E2863E8EA6443DD20B64BB9E37643D838816BDB1BD243AAF6B763C9AB9E83CC78742BC90A8743D88D63A3D466D883DB443BEBD6B914E390A13D53CD587BF3C4F351B3D55846ABCD43AE63D24CDD5BABE1385BCBCBBCABB0D1257BCBB08A5BC94F612BD1C6E8B3DBB881FBC9D0F6A3D6BCE74BBD4A33E3DCBDFF5BC6F57FABD87EF3D3C8522AEBD7C995C3B777E24BD9067F8BD2364C9BC781AD73BD832A23C9BE98EBD80FDE43C8A10B5BD7439B1BD0022CFBCB49942BD7681233D3B8C9C3C746AE53DE0C6F4BD1B77A73C512035BDC33464BCE97CA5BE16E9B9BCE21C473CB5E328BD39E92F3DABBF4F3C3D9556BDA267953BA37C08BCC2D04BBCA6A0543D3CDFEE3C7B8C273C04D42DBD76692ABCDE45383CF5A910BE06B2983C01D714BD458BA1BD27CCFEBC7BE422B9D8EEC53CAB8386BC4ECDB9BD2CC4893E101A5CBD74A68BBD6C94393BD13AAABD6277DDBDA72F383E41951DBDB1B2A73C13EF743B82BD1BBAFE59603D92F7243CBEF5A4BD7D3410BC0ECF77BD4A49373D971395BD3DAF753C451E9A3C14BD47BC6F4FB73B1AC0E83E0EE6ADBC8E2E21BCD611353C5D3BA33C8019EC3C9378D9BDB869DCBD12C94ABD36CD0CBD4F01F13D9E6FA2BDB0840DBD4878343C197B4E3DB291D53C193953BD6528023CDB97903D19B8303DE58ECD3D9345DD3DEF4FDABCF662C0BCC9FBCF3D65D0DCBD554095BD4F4C573C357D94BD0F7C83BD91354DBC9B686A3C88D1BF3D310A9E3D11429ABD10830F3B89898DBC351AE23C37F5503D1F53193D8BA6BF3D25F0123D83DB423B616AC03D8518B93DAEE45FBC9A84ED3BDFE81F3D2FA05A3DC456A438E5802C3D714258BDFC00B8BCBB161D3B0B8E93BD12762CBBDF46EE3C8CF0E8BDBFDCA0BD0A4047BD25E17CBD35B4623897E5613DAAE297BD851CBEBD3770C43C9F93CBBCC8834739F9B4BE3C9D938F3D30112B3E21437A3BAD80C63D44CC1CBC07D7D3BD2DF6FCBD939639BCCBDF603D6A725FBB2CFE5A3D70D7F53C0150993C96E4CD3BD0BC87BDEC63A73D65B1C33E0545DA3C6B7F3DBC8B9E85BDBCBF6D3D4CB5CCBC80C5F3BB595D05BDDDD3ED3D8D33D2BA0226A53CFAAC613C6BA985BAC3893C3DB14D3ABD2E479D3B9FAF823CA0F20ABD29418EBCAE09DCBD25B3413D964771BD49E8B73C8D4258BD168EC73D9BE52EBD8C45703D7B0CE23C1F04F8BC965319BD5AD1FB3D550AC439D0A1013D57C7B13C4E3C0BBD189A513D5004B53C38F206BC82EAE5BCB50442BD5D82883BF3A9283E1C55CD3C34EBB53CED2DAE3D1BF9083DC490553C9DCB983D629ABBBC1B03B8BB161A73BD4B23CDBD6C8E38BBB916E13BD486A43C0B0228BC4ADED5BD9D0AD73D4F56313E00AF72BD520A7FBC0403B2BBB838B4BC9E37B93CC2F480BD127F3ABD00A4EB3D38522F3BCE5BEB3B61A54B3C42F924BDD0B4B13D1EBFF03A56F839BD32ACDEBD467E0DBBAA633FBCBCC23DBDC087A73C38BB5ABC1172693D599E1ABBFA34D93DA29F7EBD25920D3C230D123D85B714BCF2BBC9BDDB0ABA3DCDFD5E3B180262BB39124E3CA38BCA3CF42CCCBD8D0F31BC8B54A63BEC7469BD8EABA03DFE704A3C4CF8EABD8C91263E08F552BDA51267BD1B62FBBB8F6250BD58ABF8BCED7D3FBA023DC5BD29502D3DB8E51BBD4C97B13CCFF6533D8AE7B63D97C23A3C282181BD705B0DBC592D9F3B0970B73DAA25EFBC44702ABDDCC235BD92AB82BC568002BD3684DDBC138AF2BD4DA6473D80985DBD33F1EC3C368F6EBC564F703CB2DCEBBD4E805C3D1D71DD3BE93FC5BC282946BD2BEA6DBC947FFABCC8C2A0BD14E3A7BD1C29F93C64CF593C89E36CBCA8C918BD8DA2913C5BE67F3D986E53BCE1CE59BB56F96FBD32D5093CA499F43C8C4B933C9D16E93D03A4B73D1DE274BDC1F07DBD922FCA3E3E67113CDA8461BBA7D2E3BD3719AC3C325DD63BE4A4F0BC9C475CBD416B6EBC193509BC8CB3ED3B6B2746BD51E5CC3D3B7CA73D184AF8BAE3DF573A33E5253D3B11FABB9A134A3CE2DFFDBB048B483B51162DBE0D09313C83A1CF3D36ED5ABBC9A06CBC5E3D4DBD2843643C8DD9A0BCF229E6BD8FAABABB920DB7BD57B4C53D19FD9A3D06EC4DBCF636A8BB48CC213DBDFD233DCABDBABCC11E573CFEC83BBCF3D063BD19EAC6BC82D1A0BD101F9E3C0ED84F3D1AB8C13DAB44383D7F103BBD515E99BD12C0B1BD47A6433CF265CF3B1A64B03CDD08ADBCBBA2CABBA78F453CD278D9BCB85835BB3570B03B12FE80BB0EE62FBCB7EE9ABD15217C3A58FEC6BBB70B80BD7E2B3E3D4803DA3DDE47123D08D3373D03CCAC3CA75171BC1B6926BC6543A63CDF4DFE3DB422CA3C551250BC69EB593D18E5523A43056B3C9A378E3DC31AD03DFC7EAEBB984728BC80878C3DCB32873E48D28BBDA04210BBFB3E163B46945EBBC269E7BC84BEFBBD045A6FBD2BCED43B7CEBDABD3CCA0BBCDB215F3D15511B3D633233BD1E559B3D78757EBC29BF7ABD6EB8A43BD780DC3D0230A9BC9784673B952A07BD35C01BBD261DBF3C769566BC4863153D8A99BA3CA4A1A53D12F072BD618FC4BCAFE7A13CDE3CFF3D4512C6BC97EE82BB3FF5A93CFF63F0BCD416C33CE221463C9A0313BCEC2EBBBC115BB53C7E6C0BBDC841F73CA756F83C1E4CAC3D3DDA28
BB775E2E3C085C8A3C8EF42D3A843E803B1064AABB6E6314BB8BF883BC5D7A1C3C6C894BBAF53A84BBCF85DD3C4BA8DA3CA8913DBC784E9DBAA7A7273D4C16763B6A26043B7DABEAB86827473C2DE458BBDB6142B9A480D53C32235BBB8330AC3CB279BCBC0E5155BC3B976E3D2B6D433C6821FEBC972CB0BB35FAAFBBF15421BAAD4F6D3B48F9503B61EFDF3C1211A3BA8EE29E3B618509BBAAA6453B62E97EBA80861FBC14C5793B5708ABBB4718043B49C76CBAF16A7DBC1EFEFB3A5780E2BC5462FFBC9ED5A53B00F725BB132220BB9A90BD3B2DDCA43B4B4F94BACCE20F3BF83BD0BBC08C823C39CF323B4A402E3B8B9ED1BB19D2A33B598E11BBC06B6FBB9129983BDE6683BC0C43C33C171E543C9F9E16BB3109683B4E2273BA83D38F3F905FDABB24474BBB601A7ABAAAFE263C51B394BB86D7C33BA8B803BACD89F9BC386FF73BDAAB253AC621E43B1FD382BC50A76EBAEEF784BA91433F3B374A303C20C182BBE007203B435E6EBC2CDBC73BDB0C4C3BF916453AC8CE6B39A3990F3CE0E484BAE5C74F3A92391E3BF544DDBBB2D0443C8A754CBBC922273C200F223C2644253BC49966BC0D195FB929420ABAB7EC273AC2D9203CB27A73BB0087403B43FEC53B2033563C5BFEB73D14F8023C995AC93C1DD8B7BBF28A7A3C4979CB3B6CD26A3C0522C7BBA2CE5039E22A8FBB2309B53B8931003C8796F13C24383D3B73F567BBAC24D8BBD7B20FBB665DD4BACDCC5D3B965F493B3B14EBBB9B150ABA88BC4B3BE754093C14C877BB6163A6BBB00C783B82E893BBD2B5EB3CF27F69BC07C1083C286CA3BB426C163BEC9278BBCE08FF3C4827273D4255FA3BB726253B98F70A3AE7B2C13B6F5E093B0772663CAD7D6ABC09B0E93C66C1123C1F14E8BC0712933BE52B54BC1F8AE53B9D2CAB3B1DA5173C028B8FBB851F223B301DE9BC12B4DBBC4BA7153CDF81EA3BC3D1F5B981F1E8BC2CBF023CB53DEABBCF77BCBBF242263C1BB203BC7A8D64BBA943DFBB256728BB18EA793C05189EBC3D84673C12B8E43B7132BBBBA013F43CC151933C9C04D43C2DD7443D0E35C93C863D30BB02D2D63B508583BBCCCABDBB88A9A8BC12C7333B1BA496BBCD035BBAD523A4BBDB6537BB96C39BBC58D48439F4622C3BD02F06BBBE56CEBC72E3093C11F8003B2375D9BC09E3D03C22C122BD34D64F3BD8F752BBA347573B8537803B8B627A3A7B58BDBB865AB6BB7B20A73CAB686D3CE02D89BC13E44BBBA01B7B39BC3B273BD09EA6BB0D1F8C3B85443DBC1416083B4F8D43BBD11BDA3B4D70D83B468E2F3B785C7FBC26E35EBBD728C23B728F9C3AD119ACBB8C91EDBB16812C3C880486BAC5C2393B176ACDBA970B423B87EAFD3B67EFA33A8859353C02EF17BB54F4293B84D2F43BEEC18B3AA0FCF7BBC71E91BBB2B2A93B28938C3B4CA2643CA2B6D93B28CFCD3BD70DC3BBDED16BB98C37343C1BCE2C3CE24DECBB6DA39CBBD5FDC9BB80B6A9BBEABEB3BC87A4743AE54C493C435EFE3BE26863BC3FF06A3C474360BB3B7E553B764403BB840C87B9208E61BAA915B7BC0ECA973BC4D0C8BBEF1EF03AFE17423C4EA2E63C205BA23C845796BB24CD8CBB9EEFBBBB792A843BE9B5F73C0DB45C3BCA92163AF57DCC3C43E9F53B616F413BA84A123ABC7CDABBB1CBC23AEFDB86BC62E89C3BB2D8F13AEFCB93BB95EE44BC3D78F73B484924BC01B68C3C1EF42A3C998329B9E4E0CFBC447A97BC74D3E7BB5FD30B3AD499173C5E8571BB92AF883C36961B3C1497243B92A4C43B91BA24BC4CB30DB8F35AC23B8A36433CA721BF3B77A43CBAC805BDB9AAD6CC3A987F3E3B8881043C3856983D0985A1BA1009BABBCADFE9BA933EC83AA8FE413B4F4EC53C0C32B03B3705A5BB8C362D398748953CA5779FBC5D00FCBA363E2C3C2BA269BBE64CECBC261D37BBA60D103C266EBC3BAB269F3C594AEDBB582CE43A11277FB98F2D673C300E5F3A052399BAC38F563BC07193B981278E3C89F508BBB19C343A6EE185BC027914BC08E88F3A3370303BDA373F3AA5F9F4BBA6F68C3C8372C5BACEA6753C5D4A363D4A66553C744886BC8DDAFBBC24CB8BBB1E53D83C1A3AEB3B0A8EAE3C234B0C3BA2861ABC03A5B73CAB497ABC79C40D3A1AB31C3CB1F914BA3E25FFBB0B690C3C72E833BC45E5E6BB567A8C3C51BD6CBC0DF02D3B357A7A3BD47EA43C0FBE76BB3E6FF0BB8695453C3FEA443D14F95F3BA848A9BAE3FF24BB3052403A9DE350BAD0EE0AB8892441390BBA5C3C26C2E5BC126621BA3AA866BAB669AB3C3EC886BB0B36A43B8396D6BC0B3BDDBADA39603AE0758C3BCC718F3B3F8C27BB66E1C2BB8CDD8D3B9C9D17BC5E9433BC0A69F0BBEFD4353B36A6D03CE3A5BB3A8DE344B9FBA7D03CAE55203C0418103CA95CE8BAD035293B96F5513CEF3C0D3C7768B93BCD47733BDF4156BB7A09DFBC281F06BBCF0D18BB8D58C53C0821A9BA91E73FBA9E7A9BBB96FAD83A5F89E63C881FCDBBCC62FE3C0576533B336B0ABAB6300B3D2A4A1F3BA903F0BBA6170F3BADBF39BB7A7570BBD6E1C7BC04EC313C9A15173C1764A53B7E1BCBBBF70EBFBB1F501E3B866CC2BB983BC0BC2BCA7C3AADC3D3BA4CF5663C3D5A23BA7E9AA0BA2CCD9B3C9EE9C83C955C69BAEE923D3AF3C2103B94DE613C3EB6C43BF792153B83089EBBA58FD03A1E04803B9F7BBE3C3B4CBCBA93EB06BC69216E3C6B53E23C4A709D3C44C64BBBC0E2DDBB2C304E3CF1F024BBAD06593A2B0F13BC8E6AC4BB481B263C98DBAA3C9C0B42BC03F2E4BB517A2E3B459425BBD025BE3C0E389CBC1E6639BB980DEA3C755C8FBC1097833C4AFFB23C25C804BB6EC429BBF18630BBA3166FBAD0104BBC12DB6D3B59A627B993A4A13C3DC238
3CB48DFA3BA03696BD629CBC3DAD4E793DBF19923B22966B3DB544BABD2D3E2F3E032BCCBABAFCA5BCD141CCBC39F64F3CDCE6B63C8B0E373CD2981C3C0EFE773CFA3FD1BD6B01C4BB037AC53D4A3A143B5B5D22BC26BABB3CD87E4B3D9801023CE1FBE23C80F9963CEDB2633D9674C3BC9764533A52D9DC3D15C62EBC04C6EB39E0C4873DB86DB23CB4623B3D07168339F44876BD3914153C635C62BDAC9F203DBBC4D8BD8048B0BD3541323EA14AF4BD4FC3203C2122E2BDC8F86C3C76ABC93D03204F3DB2ED183D13AB49BBEFF3403D94FFD7BD06FD7FBBC11753BD0406293CA411ABBCA1F1D2BB1C0A19BD09979C3D1BE53BBC847D2ABD8C7C02BCE17EC63A6C825F3CD5857F3BABF427BCC9D7E43DAB2C95BDCF0AE5BC122C70BDFC5D323BCFDECABD1B0A163CA9E542BD4149F8BCD603303D238D963D804518BC08E9983D5DF3E1B9D05939BD78F51CBD42C7DE3D1537483E05CEDBBC59959FBD3720F9BBE8020BBD64CEADBD0B631B3DD5AEAC3C268A693CF3E26B3C57DF42BD12001B3D179EB4BCA1C6F0BD73D566BC9B32D6BCCFB0C23D544D2D3CA66C333E64A53ABA79A674BB0C8C7E3C30BDDBBD5C37213DE465B5BC288B333C10D8D2BB6C5CD8BB3012E53D8322493E6BDC813D33BEF8B9F85C443DBEE8C6BDAB519A3E292349BDB7A56639E698A7BC079D5E3D5ADA923CB8FDC8BD9F9B79BCE22F673CCB85D2BB90DB413BFFAE693E1594FC3DF5E32FBD07B346BC92594CBC2BAF0BBC787B173CA20C723B5BE435BC9195D93BB071483B47A1EEBC37847BBCF2BF90BD28E976BD03EC50BC5E0C24BCCB81E93CB3E60ABDBF8D02BCBF60903D599C4BBD019980BCC3EEC7BD85989CBDD2892538400F923D1AF2893CCDB4133CE243B0BC9B052FBD7994C83C32489FBCE90565BD2A10083D365034BC61E319BD04F5E4BCDE076C3D2443CC3E2D8376BC1374E5BDC5AEF9BB71D2E03E12B6FC3D23D0F8BC64F3B33D51A4773C9094633C7FF3653B3A6D30BBD44E553C1C44DB3D06E7A73D5AA66C3C440F493CA43DC13E32FC823C27DF4B3D41DE59BC6AD92E3C806F83BB4640A1BCA39423BD00EEC33D0869873D22543B3DD9F0CABC792B12BC8C9AB6BDD8ED0EBD2369413DF8F746BD6DBE64BD73D37CBD02ECC13D837E67BD21A85EBDC3E2533C85F4D53B1D9AAABB786400BC8B2E5FBCB6EFE33D0442CB3D9116FF3E0034353CA473E1BDBCB811BC0BA176BD3CB13ABAE937533D9B4706BD0BAFEDBCA188ABBB39D7743D58040E3D8EF2493D11FDC63E9CCFF7BDE262CA3DD95948BC45A5EB3BE506AC3CA82927BCFAEB493D9CBD39BC0F01A0BDC1FD99BD7B426DBCC14B0DBD1A5A53BC876CDDBC92473A3B3BF91ABBC29932BCA77BB9BD5B9741BD5B9AEB3C9F02673CD5AF3F3E0471F13DA1EB0E3D485EA7BD4DAFE4BDB3E39ABBE5DE93BD8DBC4F3CA0E073BDACD9D53D3DA3BABA82E4D4BD4DA5CDBC9AFDBFBD705978BD6D935F3D0C412F3DA521C73BEA0CF63C6B3682BD2DC0F1BCE5F5E43A4BBDAFBC2A06DFBD41AA353DAA84C7BDAA40BABDA37BF73B07648CBD3A3BF8BC99AE79BC730276BBAF5363BD847B01BD3F0DA5BD0D1A3DBA9BFBF3BC86F100BCBA2826BB4484E9BC5EBB05BA9EFD9BBB2A3B6CBDB7BB67BD5774A0BAB89569BB58F70EBD3D8CF5BC150DDBBC571D0CBADCA062BC98060B3DC93AECBCE0FE33BD33FDC43E10CAB83D281BADBCCA13DC3DD4B8E23C81192EBD8C7707BCB35461BB430E663BE703EBBD4E04943CA6B86DBD13F492BCDB45ACBC53ED3EBB8877753C338FD53D03EFBF3CC213AC3E5011CB3D15DDF4BD48A4D2BD688D61BD7D8762BCEEBDB5BCE9CAB7BDAC99CBBBC4066D3BCEF50A3D0375B1BC9E3CCEBD84FB30BD0D9A4ABD29B19C3AA4391EBD9538403C8CBBBA3CA9B8EF3C73C93F3C89AF783C6A7102BD1BCACBBCFC622D3BE92218BBA03058BAD46785BC4F3DC23F039E0ABCDA457CBDE8C7613A015D0ABDC10599BC0554CA3E31466ABD0BF93BBCE4B395BDC7FD5CBB16D8B33D8A9E0FBC585C3BBC944BC33DBCF2C6BD2774CBBD48EAF0BB8E39453C35D1DFBCCD52D3BD26730CBD017B233C27100ABC6C7A35BD97422BBC34C35B3BE7193ABDD71D023BF25D5C3CEE3F873C491293BCE1C1AD3D7CA70BBC5122BE3D1A9C7A3E52184C3E3120F93C2C96643C3C4576BCFD95C13D4ABEF23C8BC60CBBEBECE43DD101703CF236EDBD0612003B14E36E3C912404BD7329D7BC3BC5373CF85187BB8AE4D43E8FA1FEBD9269C1BC09E0C13D07D4FE3C9FDCA2BBF6489C3D16CE78BD1BE61B3D8AC326BC32CB46BAE1092BBD095252BC7893C2BC40A04CBCBF0CDDBBFF1D15BB98EA903C0AF7ACBD5ED8E83DB9257E3C514BBEBD5F53193DB71B00BD199B2FBD8109C73D301D7ABD88B9D13AEBC7E1BD109D33BC39B9743CFCA1B5BD064876BC133900BD21F7AA3B023E37BAD91010BD1E913A3D84A614BC50D4803CDC25A13C3BF8BEBCC6B3973D011C7D3C0AC886BCA815ED3D1A2523BD6F119E3DDF0D5CBCB9B008BCF6F600BBA16D4D3D653E6C3D1B832A3D68196D3E275A00BDC78DD9BC53E1573B1682B3BC80146ABCBD66FBBD21973ABD5809553C2C6540BDAE7D783C2F7B8C3D375DD93DE30B0D3C9BDA45BB859B8A3C917EF23D3248C83CAB24A2BD39718CBD1ED55BBD436534BD40899B3C84B3993C9269F7BD4B3022BCD0D947BBC67AC3BC34A12E3C9B71B83BD0F340BDAE7597BC876C53BCFBED6DBD63FB3ABD7C13ADBDE126DDBD2E5ECB3C2D3B7CBDABB5903BFBBAF8BD8D0E3EBDC02079BC5801A73C1F7664BD0DBE33BDD642C8BD2FD05ABD4C22303C471302BDB599BB3D4FCE153BB0731C3D1B076F3C7D52E73C8299363CDF22EE
BC8EC5833C0876F7BC95A745BD82B1E9BC92BBB6BD02625C3E5D4691BCAF64B23C81B5013ADDB961BC90A67C3B9EC4703CBD6D873D656D803CC739053CBBFB1BBCA6505ABD1CCFCF3B43CF313C2B2AB03BF55BF13D97A6A3BC3B2EA13D19F629BC2227CABC1E3E7B3CFBAA173C0F5A5E3DAB0C94BC451E15BC389C2DBD986F51BDA0BDBBBDCF06B53D7C52FF3D092D5EBD527BB13BD1C7833C388531BD8A755F3DFA10B5BD418CEF3EB42D0DBDA37D5DBD3D8D8D3D1BE6C9BD0D68DDBBDAE3B9BBBD2A0B3E124F413C839F6EBA897446BCDE86A0BD194ADA3D4CB116BD1BA1E0BDC6FEACBC1BF59E3C7B4C37BDB460CC3CFAAE3BBC2C5FFABD9CB229BCCE78263D2E6CB6BC9B5A1CBC90CEC63D4CFEA9BB86B4F4389E6CE039DBB7643BC0342A3B91959339B66DCC3A8B0203BD175E12BD6CD962BC952FE7BDE2DD5DBD9519DABD214E92BC6B69733C615D203E935794BDB708DF3E479CAA3D2776BF3D072CDABD6CD3013DCBBF2DBD4B44013E56496A3E79CA5A3C2038DC3D3A0FB63B4D97FFBCB2766FBC9A53483CE639453C9293773B8FD33DBBD16D593D5961BBBD88DDF8BC4F7613BD2366A13BF8CC05BDDF7DF33DF2FA58BCBF37CF3BAAEBAE3E664DF4BB5907CC3ABDB0283E176FF5BA6154EB3B654957BCB224F83DA35440BDB64B0DBB563DA23DCF1B71BDA9F1F73D9E4A363E36EDC93D3E6B933CB006003DC1DE9E3BA50DE3BC25FE8CBD06AC4DBDE1E90CBBA99E283DA26D743C8D1E9ABC59F4A23D147AD3BB4EB68ABD06F0FABC65C55A3CB3CC31BC8EE8033C9E5DBBBA6A23C4BCB86EB43CAC79EABD485668BD3AADCA3C69CECBBD5E562BBD15E0C73C183BAABDBCAF3D3C0EA6C3BD0C2FD6BD84AF1ABCA63410BC240D633C81589B3B4C5491BDBD5DD9BC97118BBCF07EAE3C31B3313DF3EAFBBDD78CB43D63F8053DB599E33C83DA633D7823983C7AB7FCBD664F32BC8A539C3C25E8F1BD6AE01FBC6BE4D7BDCBFAD4BDF78A07BAFF4A4DBD94773CBCCAFC6E3DF841A6BC062D76BDDE093FBB879051BD9AF9463C9FC9F8BCFE473BBD420D963D09C0A8BCB39F42BBD0113FBDEC4F683D000A64BC6EBFD43C99D607BCE5D4EEBDA0DD86BC57BE3B3C091DCB3D2376ABBDA00E6EBD9D61D73CE76EF03DC2F1A0BCCB2FF43C9818F3BCFF7BF5BD0CCF113BD621D1BBFEFB05BD16E28EBD234855B98FBA85BD88CB7FBC1E71C5BD747FDCBD38C56CBCC9865FBCE855A0BD3BAAE4BD613F55BD0506ABBBBFFB193D43F37CBD42366ABD2E9100BD6D12C6BDB8990CBDA0F34F3BFE5477BC8F8AF93B94E5843CC87671BD1DE694BD0EF4433C55E1D73D5AF7F0BA719AB5BC6E8499BC1F7CBC3CDA65A3BC8D1EBD3C7AF316BDD69980BCD59CDFBBB4C2E6BDFABD14BCD38C3DBC7E48423CF1D5093C8042263D03DDD83CBF56EE3D0A5796BC80CE6ABD5E204E3C87197A3D4AE2A1BD6D43C93D3A89FCBC25959CBD314414BD19E1DEBCD57FFABCF7BCADBD0D49673C26FE603D4DF5E0BD1C16FE3CD58CF43D9D0347BD30E9283C21E2B0BC6DBCFFBCCF521EBC9B7D68BCE2C952BDC6A6093E6CFCFBBD0548B23B8CA993BD9E0711BD585CF3BD0604AFBD93F9B3BC9A5FF53C28A2ECBC1D73C9BCA133E6BD018A97BC187852BD52BCBB3BB232B6BDA0010BBD0EABF6BD058C033CA6145BBC35C423BCE3D19C3B548E083DC83D5FBDA98F6D3B16F3043C07C83EBD68F99DBC998663BD1A8A89BC5C67A03E0EAEDB3C62F106BBC3701A3CECE55DBD939C653D0D621EBDDCB199BCF8B314BDAD4B20BC296778BD1F545EBDB2ACB9BC1BCEA63E02397C3CBD5317BDE48D3CBD773391B91CDB3C3D30C9CA3C9C4FF13EA9BE7BBC1BC14EBD5EDE163D6A2076BB0836513E0AD90C3C2B529F3C0AD5C53D17024FBD33B4343C368E0FBC8D656B3DA0B520BBBA766CBCD083B6BD82E9453D0A0EF43D5CB0EF3D9A80A0BCA15B5CBDC7E990BDAB37FE3E4781B0BE09D5603BED0D483DE3C2C4BD333D25BD0CE30F3D6B093ABC94FF2F3AC778CABB520C533D747149397582D5BD7C3973BC50F76ABDA476D4BD34CA293C9914BE3C86E8B4BDFAE1E0BCC469E63C9529413D1D5A5EBB819D51BD81FE6CBB71211BBCB440D3BB07C7EABDEDB5DDBC3E426D3D1A2B77BCC41403BE0B36663CCC47CE3D42477ABCA5AA79BD2BE929BD5B10D8BCC2A3F3BD11DBB33E509B2EBD7380913C29CB1E3CEE779CBD1366333E4A560D3D0C990EBE1590163C02E9533C5C71403D0E4BCF3D2D2086BD7F8D293E2188683D420B3CBD91416CBD4397BCBD4AB7E53DB15A2DBBC44B37BC2DE5F13D2F3A183C3B1EA43D355C633C4882EB39A5FF2EBDC7C54FBC416E293C8B2B513C9462D5BC144AABBD89F038BD02203EBD79EC54BDE05498BC957BF4BDF96474BD8264323C484FA8BD3B05A73D21A315BB444B34362BF882BCE531EA39CFBE94BD0BCDA43E5CBF843C33969D3CE22E88BD93A4FE3D0C17163DA357C83B0944F8BD52FFB2BD50A707BD247314BC256DE33B1606833C8E493DBDAAA5F4BD8691A0BCB2FE823B4BCD31BD8293123C1C40BC3CB1A1893E26C17E3D80E767BD43C4FEBC1F8CFDBDDA9A35BC826688BCC38681BC9FC2B23CA64D6E3CE1ED183C877DF53CCFA8BABC9A6561BD4CF7FCBC7AA99CBD4F5B043BEDD0F2BCA336E93C1AC960BBE3BC07BDA398E6BDB3D087BC9311853D4BABC43D83E7FBBD7378F5BD4AE917BAA5531DBB5E653DBBA3030BBE0A4CDE3D851810BD27728B3D7BC718BD837CE33AE14EDCBC8AE071BCE99D333A219167BD9CBFE03CEBAEDCBDA1A00A3C914450BD82A1943C91C52B3BD94B92BD41FD7DBD19FB3DBDA7CE72BDA1F636BD1A6F323D388C12BCCC1B7B3D02ED15BDCB84143E8BF54F
BC24AE163B2C2CE73C5BB60DBBBE55283B3147203B93894BBB3D6873BC8470B63C1AF4B53BE8CDA1BC0BBF9EBC1226253BCAA6A9BC75F6963C01A576BC3939CA3AAE37A23AB0D11D3C176EC43B9D43FFBA1B44B2BB900EC1BB25BEC63C918D353B6DF33837E9509639258A953B7C209BBBC2440B3BBCDCBA3B5D6115BAAA8DB73A7C14453C8C68653B2A3EBEBBA573ECBB62AF3ABC0406393A79B06C3BF9B263BB04BA323A04C83DBA9FC86BBAF815303C650E9EBBADD47EBAF93B2B3B192EEE3B1DDBC23B915043BC20DA1B375BA33D3B519120BA96823EBCA41466BB1962D93B80A8F63AA30D2B3B857F77BBD38839BBEFC8ABBC31C313BB8D4176BC0E16413BD6F3F13A694E4C3B6A10BF3B9A56763C920085BB9616CEB96582F13BDA59273B4B7293BB811C08BA0016DEBB80FB033BB542D33BE805A3BBB312C4BBFB962FBBD2E616BB8606C73ABAAAC63BB07FE4BC16BBB23B8C8C863B93D5213C88C7BB3B7532873B31D479396FBFB6BB5DD91C3B8E401D3C015305BA3ADC6C3CAD958ABA32B6B6BB1060C93B8FC73A3B98A4ECBB769FBEBBB63FFDBC0F6E143AE19854BB8E8A83BB999DCFBB94C52A3B73ED993B45951E3AF0E123BC3E049DBBA01CAFBB720F20BA1FF6B63B594F313C535AEE3A55643DBB1ED5AB3B0386A63BF988543C1C6A63BBA11EE13AB90C7B3C852EA2B9B94EAD3BF140CC3BE68411BB5ACD2C3A747979BC7479F0BAB6B74DBB1D2AFBBBD6413A3C108B97B9F36C77BC02F0D4BB5866E03BF7D8A33C8C0E04BC017A0EBAB554EE3C77EB903A83F12C3B930F243BA5FC443CF698D4BA7A25FBBB924A8E3BF4A1AD3B01BFAE3AEF3265BC16B0B43B224180BBB043B23ACC9AE03B89CC7A3BC13F3C3C901F333B10E872BBA5C443B9D7FD8FBA2CA779BB398169B9AC76843A0F9CE03BDF63143BCFFC70BBB811D23BB6D60E3A9FD6033C5672743BA3E6093D0C019EBC0B1825BB9B1462BB6DDB8B39D79D833B848A2CBBEBCA62BB95B4093C580FCF3C327EC8B9BD209DBC01D7D5BA625B3CBCB6282ABAC892DDBB38959A39B4D6353AA719623BE4C614BC07273DBB4F46EABBCEA8DCBA85E76A3AE1ADFB3BA6E1AFBA8DCA2CBBBBE7B03C002E9FBA0616643BB0D63A3B4B8311BAE4173EB94F8589BAED95EB3A8AFABE3B82A392BBB5AD003BA927163B377855BC104B89BBB2A5F8BB7A86083C874690BA61CA8E3B17F7C8BB95503B3BF20CC9BC5594973C0DFE64BB918ED0BA1C7D533C47A9A5BBE4EE623B9A1A1FBC25AD62BAC5808C3C5FF0CCBB23450B3C85142C3AB8991FBB628F6EBC6379F73B8A2E4CBB862497BC0B1C71BBACFD10BBB894ABBB8679573C80E5273BCBE84F3C30FCB3BB34E21BBC1C3B31BA2063B7BC43FF293B88A9B03CA023B6BC072FA93B961F4A3B3DE026BC3172653B276C12B95E21D5BBEF801DBB809A723A0013163BFCF5CFBB16BEEBBBE3B932BB7549C0BB712FEE3BE203C53B2853123A80085F3B7DD1D53CD42ADEBB1D50F23B9DC59BBB8D85583B33DF843C2C8970BC353F14BB139DD7BB24F84FBAC114F9BB05C66B3B0CE54C395EE9113C51BFC53BD7BC533C3CE80BBB852E873BF6F6F7BC2770FBBB6FA2493C758D14BB4FC3E13C0D8CE8BC2DC88BBA1223CC3BCCD6C939B1F2333B1F79F9BBEEF831BBB5F382BBB1E5B6BBDF3A88BAB7639D3C074FB7BB1F912F3BF6B69A3AC526EC3B5CEF553AFA157B3BDCADB13A275F243C293D02BB8B159CBBB0C9DFBB0725973CE4F4F33A90FC2F3BD89741BB942B303BD5E5CABA78F3F83C15A3EABB6A5AA8BB2F61FABA97118ABA17ECD73C9C5B9ABBC9CBDE3BCBFD113ADAD48ABBA3C55F3B1B6836BB9C9F06BC3A0D533BA5F6733CAD2BA5BB22E923BA8D896B3B8115BFB98766953C2C9C2ABB5EDC413B6942BF3B63F044BA8F98F6BB3E19D3BAF92A953B08B8E839EFE81CBC0399593C305A4CBC0E651FBB8AD9E6BB4A2E8BBB5D8DC3BBCE9C943C86B8C0BC26286ABB80352BBA1341AD3B80E5453B937B85BB97265ABBA8316D3895A68BBB9294513B6639A03C78ACF23BA01BB2BBBB25193BDD6BA439D64B83BC067D143BC92D66BC1769A0BC03874FBB239C433B534E91BA4A5845BAFB0F1F3B31926FBA815B84BC33C9CDBC22D39BBA9ECDCDBAAF4A07BB12524F3C16F8EE3B7D3F68BA261F8ABABE6B673C2348C3B9179A02BB7274EBBC74719F3B073FE13A61DD563C653BAEBBF59D9EBBBAC8D8B8BFE24D3A41C4C93C009D3B3C331BCEBBE8D0713AE332ED39927302BACC38413B80FFDA3BE4A1363B4E01E63AEADC4BBB18CA973AE795BA3B5EE001BBA212D43C0C4EBC3AFAA2D43B197EE8BB7EBF0D3CC4A0BF3B23196CBBB45E9B3BAE7DAFBB18E3333B809740BB9A34B0BC0C94C33BBCEEEDBB112D7736A78A63BA071483BC0F15F7BAC2BA43BB656E46BBBCEEE23BED6443BAC66775BBC066D73AC4349C3C06B4323CDB0CB43B0228BE3B934B583B1217213C07768B3B94480CBBA7E35B3ACAEFC1BB8FE453BC0BFA8EBBAC70A73B4DC9B6BB6DE5EBBB2197B13B74883BBAC0FEB63ACCE7A13BA71F3B3AB5B4313B0FCB7F3B5053C93C8DBC7FBB61F37E3B6DE4DABA4672973C853CF8BC2864B839E8FC293C31614E3AAE37623CAC3A03BAA1E0123F6ABE46BAD66AA73BAE63553C5C18EEB8E22216BB8E84173B13F98BBA00AC1FBB77C1AB3BE21D363C07750EBB5DCD7A3C8B1BF43AF1CD583B87BEE3BAC64AE6399EF02B3B64C2E2BB646A0C3BD4E231BA6645A0BA865555BBFCC4F93A83EEF83AAA9CDE396FDE67BB712612BBBA76CC3B52F262B8ED3D8B3C24CCB1BB362CD93BC879543AE5FC133B8F15DE3C1F6D29BB23BC8F3B19BB353B950AA3BBEB5DD03C992BC8BBFB130B
3D9A1EECBBCD95F03C5E8DFE3CAD615BBC9837193CCBB5313A3BD764BCDC3388BA952C3CBC868E3B3DBD800C3C33E6383C24C5EB3CAD454CBC4231E43CA992DFBC4A06993B809589BC02BB7D3CAA1179BCBFCCE13BDFE692BB5361833D79A4223C53FCDE3BFE1F3D3D2D3B90BC59ECF9BBC1FE5B3C2B65DA3D2A338A3D7E37B03D2005343D61A0A93C6B6C283C53692A3D313E30BCB26BECBC9344A4BCE08177BC7EF3A53B00D9103A48A027BC8A31343C8667373BDF13633D06666F3C2BB48F3DB26C5B3C9EC444BC9BBC75BCE1FDC43CF0A5ACBCF4AE2F3CE486E8BCCED034BB5F7E1BBCC7DFE23BD67BC5BA34A5B13D06447CBB17B7313C4214DDBB5A1287BB9C0ED73DC245A33D8ED9903C64094C3CC58DB3BC34AE40BA28A4ADBD14ADB63AAE1BABBCAFBB97BC840D383D62E77939AA45D23D4B6C1D3D4F7100BB192D13BB147A32BBD588BF3D042944BAB3CDA5BB9DAE4BBAC1F203BC4CA2F93D369CEF3B54FB7F3BC52A45BC5B0B213B6DDF68BC97EE1BBB26A0083CDC486FBD30C9CE3C992264BBBDC2273C3A6E163C52CB07BBB28D3F3C9E4D4C3CAB8035BCCE25F33BADCD123C6CA70A3AC7500F3CD218293CECE95D3C7085E33C2C70F0BB2BE23BBBC139AE3C5DFAED3C1A56543AA63E84BBC00A663D2641513B44BE98BB183C9A3D1D25F9BAE9F2EF3D00E3913CA91F123C526EF33C578106BC5190C8BBBC77273C3169A23BAC71F63D5E7D5E3CB9992E3B3DE9043C017A5A3B416333BC87A70E3B19CBF83D0C5A623A8028BD3B8D1327B9312FA0BAB8A2A23C65E1ED3D106FAB3CB38E07BCFEEE9DBCA90687BC620353BBA509413BAF4D0FBC0E07973ECA93BC3B98DCC43D291ACBBC68FD6A3BAE74EFBC29CA0ABBCC2E7D3C61F5A0BC3A48393CC576B03C9283003BB0DEF43CCDB8A1BB84CE7A3D47C651BB3B99AF3D56C5CA3B8202B7BCF19BF73B3FCFA7BA9E0971BBDED3873D8828043C02BEBD3B3053CB3CD447C23CC88CD73ADF7437BBE0471DBC064411BC615B103D4169F73CA183F43B8FB4673C18A7F2BB2AC21E3BF0FCDB3D4438873B81BD9ABD9D7551BBD1855DBD9010DFBBB9B3A53D8EA67F3D1BBDF83D7DB7B63D9249893B4284F3BC329D703D1E1ABDBB4E5E1D3CD13908BC0DA9BB3B91B5363B9A5991BCC8EE43BC7F8482BC1EBD323C5148493C54621D3C92AFA4BC43E3E5390BB066BC1199663D36A321BC8194323E0D4D763C8B944FBB8126F43D34296FBCAA8EFB3A47513FBB08C818BAA2C9193B55603CBD1C5AC13C86F35E3D39F8AB3C17BE08BA95F54D39D05E3DBA8B1D243AA3E3953B94FBAA3C28A595BBCD3F5EBB45AE4EBCB1B7B73A8B0750BC0F89273CEB57143C492855B8CFEA3E3D9C7FF0BC525C68BC7C7BF33CC77CDDBC2FB18BBCD12A713CD7F5EBBC8AF4CE3CBB126BBCAAC159BC2B5F6A39C43829BC41971ABBAB3CB23D6B51A7BB686E293CF4E6C23C0A8240BBFD0950BB0709E6BC4FA292BCAF5FDDBC3AE4D2BC6393FC3D26320ABC30FD3A3BEA932C3C88DC95BD1FD80F3D3CF5E4BCBE6388BBD78ACFBC2978693B482C203DD88BCE3CDCB1E0BB6809993B8FE161BB9B758E3D3103EA3D45BC7B3D343E0DBC4541F4BB9A2516BC2265FE3D4176B23A74010CBB3AA2783C4F03B13C0C0C9FBC9259F83C794DD83B9750493C9E2A9ABCAD5BED3C1FCE043DB468E73B36C46AB8C611C2BB9699853C995BD8BC8C1526BCB3792A3D0EA7933C458F01BC825971BCEC98303BF285DC3EEE07C9BCA8962A3BA85D40BC58CB233C8036703D000069BB37195A3C96F8083DCCC74ABBA7805EBC75B6BBBCBEE6503B749E9B3C45B132BC90B1F83D69DBE2BBC3D301BBE51EF23C7E25F73C417DCCBC8B1339BB9D828ABD1D89B03C6748AEBCB218623BA5130A3D1DB64C3BF2071E3C2827493CE3C6B93C6BA82BBC8DC3BBBC8B27A93CA456E8BCD3019C3DADA9D2BBB5686C3CD2D77139F276AF3CB5468E3CA2840EBBE5B66ABD079C883C948AE43C94B3103C810812BC817A50BD036E63BB8186CEB97E942EBC94B1F53CBC98DD3C851147BBBFA5E33B36312A3D338D313B8326473A486D553BAAA4F8BCC5B21A3CCDADCA3AFED3353C048CD83A09DD9CBCA1E2AEBD05220DBBC29E473CAE572EBCA81B9ABC650874BC3CBC38BC88C0593B8AA7C53C729BAE3C18E934BC85AA893B8EF45D3DD072DA3D9320C6BAA70F8D3A16077BBC74E3503BB1A89ABCC915A53B0DA5243C0E52683C26D914BC0CD87ABC4E4793BC670B373DC3D977BC3292A63CC74C56BC4F0354BC2BC0F1BD4398553E3D2167BABAC8EA3C4EB1593D1776823C8EB876B9C932573C9FFBBBBBDD57CEBB25D4D0BC29C679BCEC20CFBC94062BBD0F8D713C6143FC3AD9AECC3D2373F5BC87DDC7BC4B9008BC614F38BCBED5F9BCAEB1BA3C7E8C6D3ACD11753BE71889BC2D2ABD3B1AC4DA3B6B7802BCEF9766BC09D4FC3C07BFB3BC97844EBD2C6A16BCB55ED53BAD0D43BADBA0B6BCEA63AE3D93A3ED3C3DD603BB76441BBB9D81BEBD82231DBC73CBCF3D2CCD83BC976FFABBCB0886BB5AD9C33AFE3DA83B7C458E3CED38373E7DB754BCE21644BA009B3B3B36FA9E3C5F788B3D3745FCBCBFC645B9A4E4F83D202DB83C605725BA88A1A0BC82A557BD4E1A4C3C23DB633CCBC8083C9B7DF0BC927032BB49E5A83DA430523CAAAFEA3BD31C40BC4C2A82BC4A8CB23CE2B5663B8C1BCA3B1B9FC43C373A67BC0D57973CA375673BC96E0D3CD611933CFB821F3A82B10F3CC1F573BBE9E65C3CEF433FBD6B927CBC80C4663C7C1E233D836B77BB87FA17BC6ADCE7BC5C2C5D3D1D71AF3BD4E3203D2C64D13D982A0A3BDAC0BBBC57A3163AB136653C831BD33C3320793C56BFC63BE8E3C2BC32994B
BD2C8E39BB4C0100BD48FFED3D10C5933D82D00ABD7E93C6BDEEECCCBD1E15343D97C40CB8E87DFDBD8E106B3C50CE7A3D7F064B3D1C2688BC695A5FBD81F5C83BDB76F7BC1FB0DD3CCF345E3B8CA23DBD4944C13D8BA026BD0CBD4ABDB22CA43DE653433CAB12963D99B1F4BC59FDAC3CCA327ABC1738293E2ADBB93B9DCC71BC91F8ACBC840779BCAA01D5BDA03D58BC2D85A23DBAD3C2BCC37D00BD1AC61EBDF5D063BB6943CB3D240A9A3D4A444A3A8293523D668FBB3D0FC6033C49C1343DAA34A23DA238273B21816EBD3F2FE7BD9268CC3DA890423E4B8CC5BD8E7600BC76B27C3D3D33D7BCD557953E236B293C21D87C3CEC51733DBCE1D63BAAD14FBC7B3F673D884B01BDF73A6D3D632183BDC37CB63DAD99403C76FE27BE2663E93C8A9ACFBC4ABF053B1F9D1C3CAF80BDBE04ECBF39CE2968BBD093B03CBF8B5B3B10F8EE3CFEAB52BDCDA26A3CB724563C60C24FBD19846C3D820A203D9E0A4CBDE2CDF3BD9E2055BC93757F3E8610FEBCE2B5963D0BEC0CBD04699F3C9837733CBA08C4BD45E233BD19D3803DC55C163C818C95BD1C7A11BCDDEF33BCB5B134BC00D67EBC01663A3CB1FA273C829CB93DC8D1A83D402FD03C234CFEBCC36D3939F57863BDAB7E9C3C58344A3D20780F3C95E2E0BD86B71ABCA016863D06648DBDA7BBE9BB5969BE3DCCBF073C0E24CEBBF50F08BAA0BCFA3D3C6BDEBD20FE4EBD2E3F4E3CA80A7BBCAFA3673D112B2C3E2B2035BD818350BC785BD9BC11F2ADBDF2E497BD69563F3C7E5A44BC825CFC3D0468873B6AF68D3D01FA1DBC5D2DC1BD2907B33C8FB5DEBD67947C3E097ABE3B23F41BBB36A711BD105C863CC30677BDDAC4113E0AFB8BBC87DC6ABDE152EDBC4CEB093B0D43BCBB015053BC7FEF6CBD380D183C64182A3CD37E1BBB214BF9BCA660693D9E40BCBD2CE444BC3609F0BD6A5D653DE1FB683C9A9BFFBACD4E56BC0FC529BD8D93EABBF453EF3C743324BD33ECFDBD08082FBA0022F5BD52A8F23D239C15BD31282E3CA39AE43AC6622D3CF2ED843DC90F643C4F0B1CBC66E81CBC7CA032BD295CEC3CC48C4C3D116830BD5B21913C351CE43BF3869DBDD87BDA3D9506BFBD824EF63CC3B0EE3DB08C69BD3D98413DAB224D3D8D59C6BCACEDB13E2CF47CBC1713F73BA2983B3D888F603CD5296DBC6DCD94BB07AB1F3AA0276B3B1864ECBC132BB73D492533BDB6BA0DBCAAC0ED3DB34DF43D8EF5D5BC1A431CBD7D40A33D5AD0313D3FE102BCA8B221BBC169D4BDE4C7E9BDC29C9ABCC9F682BC64F04A3DCFA5E7BD68CC893E3DF91D3BA418383BF19798BC9899F93BBA16DF3BF54420BD7738B4BC3FF2533D1F9671BD44810EBD20BF12BA1513AA3CB9FFBA3C974472394B1D513DB25D59BDD07A66BD2473B33D7275D3BCCCFEC33C67FE183C8D80483CCAAE15BD5C18CABD8C3D3CBCC4D4BABC8ACE613DB46B3CBCEC7F83BCA1D5543DC9C70D3C7BC7F03CD3A4CBBD56D7D33D01651FBD86FEC73A309EA3BD98BAFF3AE29F7DBBF19928BD9C66133BE62705BD3E5E7EBD3D08453D5F2BCDBD4D1EAFBD2D62303BD717B4BD8BEAE13C8D7C523C44D21B3D5C28953DC4B6103C1B1E57BDAEA07E3D56BE1FBC49CF4E3D3596B8BC9E1DF1BC9306933D4597E43C35A8B7BDFB33C33BEE19B13BEF6157BDAFFFD83C784BC73C8A7A3F3D5E10113EAD1D62BCD7A3BB3B773E9EBCF059B0BC085A8FBD96153D3D3863623CAB7E7ABC57B6D2BD8BAD37BC9AFFF33BEF570ABD11AE943C566475BDD0F10E3D13EB1B3DC3242D3B829325BC87BCAF3D639D4BBBC8B6A23CCA9713BDC1E13EBB06B8323D9CCEF43D41158D3CEE1492BBC692B3BD2441C53E8219CD3C0C0676BD1722713D9584A63D1FC8E93C501DADBB398703BC697C64BB5E3C72BBFC30D6BD8BC163BD7F07C6BCEEDDC1BC99FAA03DB3D4CE3DA9BAD4BC1BAD1B3D194F08BCA732613D6621203CAE4E4CBD84E3F83DD1E8BCBE13BDB3BCBA7E3D3D41D5B63E495D7C3CDCF6EBBD6D50D43D065585BCD6C6E33C3F43AEBDB6515DBAA294E4BC40E0C7BD31B306BD8693C4BC8EEF013CF1F1333AE23455BD3997EB3D42CD3CBD0EDEC3BC25CDB13BABBDF83E2702A53C9121EABC82DEEBBC60357539E7AE183B3A916ABDD8D2EC3D862EF43D8F15593C1087ECBD135E5BBA9A464D3D109403BCB6481C3CABD5DF3CB6C0D13D213BB8BD7FEF403B07DC71BCDD4D8D3D176C1C3B8AAAA4BAA2D803BDAC389B3C816C02BC4CA845BD6B35BEBD58D17CBC9E4558BC382A24BD101B58BD345A063CD52211BD332D993D37251EBC246496BB3F3BA3BC83B0DBBBD96E74B9FEE1BEBB8ED7273C2DED5ABD4AC42FBB8A91853C3013A1BD964FCA3CF6E010BCB721C63E23FEF63DB29DFDBDEAB49FBD46A0F93CFE4C133EF54488BDC2D6253D59BF56BDA796C3BC51ADF83D8C8F1B3AF4B58DBC1B96C7BCF19A40BCA2163FBD1A08573D2C67803C84AEE9BCCA8456BD6CE61FBBF3934FBCF1C5A5BCCF30633D44F97BBC5DDF3B3CD654E03DD818FEBD0A10473D8A1E843D4E7BC13BE9587E3CBF8C303BEF571ABD27983D3E3BBD22BD2C14803D8399F13E8067963C95FB3DBC2A71BABDE30BD83D4FF9AB3C468AFBBD5C93213B86EFB83D3853B2BD5E67423DABA49E3BA357B7BC4F3641BBD67CDCBBAEDAD5BD715C10BDB559F8BDA3FC5EBD4CC7213CC081043C1DF0EEBD3C7EA9BCA7CC5C3BBC49E43D894BD23BAF23603CBA6DBCBD65AA9FBD611728BCA46CCCBDEB858D3DD914B63CFCAF073D42A1DA3D31EE18BC7AF8403D6502CFBD725CEDBCD6F5613BFA74763C37F2603D40D8E03CDBF740BD23DF8D3D24506FBD6613A33BE373383DAF5076BCAE27A1BDBA9DF6BB9E603B3D23EA68BCDA4C93
3D621401BC87F147BBC93D4ABD5D45063C86B61EBCA959483CBE23EC3DAAAFEEBDC8A0FC3C7AC561BE1103C6BC51789E3B3D461A3DE21BD53C78C969BD361D08BC02FB99BDC4ABE43C6DBD843BA077C0BBFB67E03D971554BD2EFBF73D3ADFF2BD701D773D1953CB3E6AEA61BB6DE89FBC8B03E6BAA06D883D7009BBBD85BBA33DC842883B073427BDA4C3F1B98958B6BB468E0FBCA27C4FBD57A11ABD686FA5BD441D593D8520B9BD048B4E3E068ACB3C7EE7E0BC3D44DEBB30BC6D3C524F56BCC80BACBD1FB8343CEAFF7CBD820086BD2DCFA3BC3B78C33DFEE8B43D356AB4BD822FAD3D7A2FC83D931B14BDA74EBE3C97FB113CA2AA2CBBE20B0D3CB72F3B3D91B2563CDD287D3DA7BA7E3CD4515A3E2D2FE6BC801D433A9783CA3C5CFCF63785F9E23DE0AA45BC9879D5BA256B9C3BD15A6FBBFDBF25BCDE1E5EBDF646283DA120EBBD8F345E3C2C8D473DED752BBD4A9CD93CAB137CBD89F446BB8AC6EA3D34508ABD882B0F3D5BA4D4BCCCE78FBD3637E1BD1B913DBD6B402EBD070A203B887272BD601FFABBE185B03D12F57B3CB8E1093CEB60F2BD8C8E003D62CE5F3AD34ED6BB6315633BB58E923B8DB3AABD4FA89BBCA9BBA23C63BF823D40C7393BFE5D83BD802ACBBD01BBDDBD74192B3C1D8DD1BD98FE093BB078BB3E1EF571BC2A0053BD7034DBBD9EFDA3BDC20956BDB42266BCF02A37BDEFC945BDCAC0543C5DB5223B65D29ABCC79244BCC4A3E83D6FB5183CBE3D7DBBB51A01BD1CDE04BCF2C555BBCFD4C63C7770ACBC046E4FBC6D7B473C2860E9BC951067BD300348BC5A2D8ABD2548F5BD7B6301BD85FDB0BD74AD973CF7BFAE3DD4F329BD4350E9BC8E49653EC36CF43C3AA8093C0FCBB0BD1491713CC10686BD4BB4443D6118F8BB9BB6613CA3C9663CC416DDBDB7324EBD04CDC23CE92B60BD8599CDBD7182B7BD00C56FBCD5C878BDDCEE28BDB10BC7BD30B51FB95906F53CAE92503CA250DABCAEC4A0BBCB158E3B171E8A3B3840C93CBB9C1BBCD829373D969ABE3D9BDD74BA21B58EBCAB2D883D025B5EBD5D9465BC74C0F3BCF2636BBCEBFD1E3BC1A7B7BD1BD53C3D926ABA3E35A5353CF03BCEBC66A9AD3CF90AD7BC9AF142BD4F9F9EBDB01ECE3DB9B6D5BCC341783C326FA43D7E08B7BC400CDFBC0FEF66BD23462DBC3CA58C3C3E6E753B8A6551BB450181BD844E163D1AAF243D3460E3BC9B0D15BDA92779BD7401A13CBDD4B33CCF6C793D5D1FA5BCB8F6DE3C0691093CF40A693D12DC643D711DDD3C9159FDBC42D9D2BDBA8F1BBBBE0CF8BD310332BD49EF57BC7AE0863B3B8117BDB407A5BC60E9043BC649723B89DA9E3D67A3B4BC97175FBD2D5346BCC0FE47BBC09BFF3CB5F4CCBCAD7B0DBD6A649C3CAAE12CBC3EDBD43D41B16BBC014C8DBBC7E8AD3C4514C63D7038513C7137A83D02C1DEB8F6A67D3D1B96A0BBF9DD4EBD10F9883DAD3AFDBCF1D35EBE0148D5BDE29FCA3CA3232CBD0596B8BBB6BA203CD3B7AEBA613FDBBD174DEDBCC0C867BCA2234F3DE5830E3DDB3A31BD2BD13C3C848EF7BD79E1143E26706BBDD03D2FBDA44AD5BD97317F3D12738EBB0F47B7BB806B15BD4B68843CD833F8BE426B16BE004A9FBD3447FF3AE56B9F3D4A88A33CA273B23E2551B13DC308033DD1FA863C12F02B3B898CA93C26F88C3D319B8B3D1B4D01BDB16C3B3DB0D8343BB4219BBD8C47033E7389203BD4256BBD0015543CBF9F623DF275B0BBEB0EA23D9F2220BBD61B24BA35B7303C64BFB5BC2205693D2B6ECD3DCE6C3ABC6D18583D9DE6443CC02B683D993FE9BD98837FBBFA83C93CDC37F1BDB9D25ABE07EAE13DD10B02BCE2B433BD9BABD63CBB8321BCDFB2FABB85DD793D1526E5BDC40DCDBBC919603C83CA95BC4331D53CC7A4B23DDF6D2F3CCCBD76BDF9826DBB99B05CBDEB659C3C08BFC1BAD1701CBD4ACDDB3B8419D5BCDAB1AD3C61B585BDA01C2F3D85F0E83C865B943CDBC9EABA54ED6ABC5E8C1BBCC87EF5BBFC4653BD3E10053DDEC2AF3D73404C3BD23AF23B2687ABBCFA38A2BB3CF113BC21904D3D02A6DDBD64F5193BBC24ACBD04CF123C0D93913DD40DB4BD0DEEB9BC29726F3B80ABCE3A81CE91BDBEECA33C075FB13D3277493CED38A5BCE5596F3BF041833CBBDD9BBD9B2882BD09D64FBC85F45ABC6DA9E03CAF1DA5BD1D2C2C3C9DE4AE3C0DB36ABC5DD913BDA5E16BBD1D04EEBBCEEEF73D446D2C3C9188243E258888BC326426BDDF75553C020862BC0755253B3127D3BD1CB6D5BD9700C8BD3C1FA83CA0A512BC175E5FBDDAE663BDB1EF0F3EA4520ABB9A18C43DDA4F0ABD826395BCF682543D1B62C73DD1DE75BC1CFCE23D540FBE3BACF7173D45663A3E34D77D3D709416BDF9CD7FBC015552BB038C5C3E15FBDD3C7E621BBDF479E5BCCD8272BDBCAC873BF272C5B9136773BA89C54A3E0CE8B83CB85372BACD3721BD1FAFFE3E3CFAD2BC83F88BBA062A67BCAB2D33BB099211BD711A1E3C2DC169BA6EDCEEBCD28812BD6D14163C0218B6BC871BFABB29321FBCF70B3E3D83E8AFBC3B73353BDDA409BD2437833C685C193BEC9AE2B8899C45BD1E28793D3BE5993D60073C3E473F7ABD801BE03D5D1E99BDCD344D3CAB7B59BC747CE0BC88BD29BCD53E2CBD9911993B18924339A956353B20C0A4BCC77858BC8ABD3DBB8816B7BDAA6434BDD7CDED3D95B4893E26B126BC07AABF3BC6E6A93D4A342C3BD305E23C51460BBB7CA3F7BCA25D65BCB0160B3B507BA33C9E806A3C9914AEBDFE4D8ABC62A2453CB019CC3BA90F88BD0EA697BDF04CAC3CF26FBABBF218E9BC821D64BB55675EBD5D101FBD0BED603DD5BB6F3D49D749BCAE1CE63DFD9361BAD145AE3E08588ABDF292A7BCE178C43D020C54BDF87ABD
BC54238A3BE09DA63C01E24FBDCAE3A8BB73A03BBCF93BEA3D82A3BDBBF4F1193E3D0190BB91C0D43C3AAFEEBB9E72BF3D4FBC6F3D44E6AB3C2926E9BD7388373D75157A3D1D723F3CACB26B3BE34CC63C16AEFABD75D4C63C470FFF3DE06C9EBD17169E3CFDBEC5BBF84A3BBCE5CC83BCE7551D3C4926733DF259EFBDF7D40CBCC4D54C3DBFABD7BE164C8DBDBD8DEEBCFC1DE03CEE8D14BD45B403BD8C0D373D1624373C0A2B4B3E5C69C4BD8288E5BB3692F93C9FADD93C67F3BCBCA14951BCF1D3D4BD6BB7B0BC8C1653BD2CF70DBBBA0DF0BD1CBB4BBDB7E8CDBC997A183C16CC513D1D2E973C6208C3BD2BFE8C3CFD05A43C1A9E5FBCB10CE0BD032B1CBC88EE46BC85D4D2BC7FB8483D321C193DA062373C56DE0D3B46A5D03D72147C3B8D1F71BC97D861BC108BB63E82CE1A3B44A16E3DF3598BBD6B96E8BD8EF455BDE996B63C86A5313D20CC7D3C95FF793D87AEB43C6E5C21BD4C3F183D318A653D63DB67BC90D496BDA06B5EBDCBFC0D3D0C8C943BD8E671BC0EDC483D8234EEBCC1B4EFBC0308063D05ED293C230512BB46BD3FBBC096F73D26DCDEBAFAB3053C862A7C3CE9E3E73D0517963D6F62DB3E1CD33FBD7A95A8BB907DE9BD370D90BAF98157BC8EA2A6BD6DEF943D57DB273BA6E771BC9F5F34BC9EFAB9BDAAF7553BEBA2A83C4058273E1002B3BD007B243DA012513CA4FE623BAB1E413D75D9E73B9C5C093CAE1625BDA9583DBCBE08573C62F843BD1212C4BB4235F13B1D712C3CF38C9C3E0CA27C3B56A1163C1CF6A3BDE1C745BBC75AB5BC5527FEBCD98E83BDC917173DABF7513E238FE5BD2FDE94BD968C8BBD0B0AEEBC4994313E4CFB1EBD1C9B1DBD2458D7BC1F29D33CC8980E3C6A2BF4BA81266A3C65CBF33CC51C473E20B3CFBCEE0915BD4DD01D3D1BDD50BD9742E03AE35407BDAA6A8CBC53EA6D3D0B86D2BC85FBDABD063777BD610AF93C822EA8BD0F3D74BDA885E9BBB4737ABD910CAFBD762FC23C10571B3DEB0265BD00304A3B0202A9BCF868B13D5C775A3C837B30BD82CD75BE13A1A23D46161DBD042693BAD28BBC3CCC015CBBA7B9E73D2FBBF4BC6CC3E43D67DF76BD85B93FBC358ABF3D8A3275BC1A281ABD98BE513C38F627BD17EE84BC159F54BD9EB6AFBCFAC1ACBD019A7FBD5D5727BE135969BC7B24E23C9AF28ABBE56E72BA9E45833CAFA6AA3DAC32583CCBD66B3CB7B453BD1163D13D83435D3C7B27ED3CECDFB3BC8F4A363D81DA4CBD27EE86BD7929C7BDBBD72A3C3B6828BBA5C09D3D225D2ABB44C2D03B8D68263D649522BC81DAB4BB9FCD1A3D4846FD3D30AF3FBD086BB7BCAB38973CE1185BBA2E35DF3C7C21A33DFDCC9ABBFA85C73CA2DD243A2DAE1D3BA1A604BCBDB054BDA2A9B93AAB5E983D031DB4BC8824253E4F3F79BD87A41CBD32C77EBCECE5A83CA86463BB1E44CFBC21DFAC3D155EB4BD1815D8BBBC4C743C9BA1AA3AA87B0B3C3C70E8BD399F9E3D37625F3E14AF6BB9A2D8EDBD36DD55BD37D94F3D6C8217BD20104DBDA26D953DD5C1883CE0317B3DEE1A3EBDD8F31EBDA5CAD03CAFFEA1BD643E17BDE4704F3D27CEBEBC16F7D83CB5DDE7BDA52B7ABDD2710A3E16AFBF3BE86738BBF0F8C93ADCE7193DB1C63539A45AB03DC83CC4BE14A221BD5E60BE3E970001BB29CAB03E09367F3BAFF1533C9E5CA13C3719AABC6FCE90BD37B6793DC2C5D53B07DC7CBD50B6193D1EDF9BBD1592633CDCD4A33C2305BABD2EAF45BDB4911F3BC9CDB1BD4705053D68F17B3CE0319DBD1691D3BB9ABB55BD3CEDBB39B1E141BDE842173D2A2B3C3C5DFB1FBCE1CDE03CC46357BD723185BCC9A6243E5F7196BC80939F3D2450703E01BBF93D25564BBD15E57DBCC69F7EBD20E6763C617AD0BC00B8DEBD5B0CCB3CBAB9B3BD104765BD7378E6BD03677C3D8A945DB9EA9D85BD7960A1BD476556BD29E5493D429DF6BDAAF475BC805043BD378578BD35B09F3D38440FBD674CA03CD5415A3E0F3011BE05609D3CBB7BC2BCA2BAAABC9EAEE3BDB736F03C1A6862BCD724A13AAFF8B6BE46D8863C8635A1BDD95C673D51EA90BD137485BC13C5133CB041FEBC21F046BCD5FD233B8FD5D43C11DCFEBDC4E93B3C97C8D2BD09CBDE3AF806CEBDB0F858BD4CE5E1BD845C7F3DCCEB65BC8D21FC3C22DCF43D277B403C2387FABC7A4E38BC9BA1BE3D9917F8BD5F47A53CB156393D5454F83B61A13B3D3017303D87D3013E606FCD3C087AB23E0B0DDEBCB0F4AE3C68B726BDD791C6BB51C0E33E2244F0BE0E6C4EBD8B21C93DBA8FE73CDB31E6BDAC450E3E1F03023BC999CF3CC7F2AA3DC744EEBB0B3BC3BC9BE7BCBA149F493D088A48BCF8303C3BD5343FBCA579CFBD79E37ABBD39376BCF46A523DA77BADBD02F533BD0E6921BC7FF297BD5A96DB3DBCEA263DFDC083BD660D64BDBC5E143CDAA0ABBD785CD4BD2C6D97BA9489163CBAB40DBD55FAC8BD5068D43D3F8953BDBB7BDA3C5E0EA2BD85E0AD3A9986ED3C00C0003DDD40D03C663DDA3AE65E613D7636AF3D8635FD3CF418F2BCA59D623D71A3E53C5621533D8B0263BCB8A612BCC34607BD9BAE81BD831D2BBD2D4975BD2384D83D9A06C0BD03896B3DA02B7B3D28B199BC699BB5BD010104BDB6358FBD6D854F3CCC745CBB235857B9C3DF833C5183DE3CDC19683CC4D7D9BD16FC77BD8021FDBBB60EC43D1FC66EBA7F2158BBAE9F72BCC469D2BD3D18953C77282C3CF0D4F23B94FA033D19A2A4BDA8855CBCC9A8CEBD035069BCC06758BD127CE8BD7EB9C4BD574316BC8827B23CEDE7D53CAE2CFFBD631049BBF3F527BC88E3CEBCA16E33BBBD3475BCE9E916BD895EE9BC53FC46BC6ABE5E3DEDFDDB3C333AADBD2524BFBA9F07303C1DF2E53BF189F6BD97C42A
BD3653493C0A18ABBD94DC5ABD9BD6ACBDAD9E57BCE39FE7BDECE5E63C1379E3BCA2CE50BAFF265F3DDA69D03B71DC773D06C3C7BD5DFA74BA8B4ABA3CD9A2FFBB6E067ABBB57D30BCA7643BBAF3B4E2BC627EECBD62F3003D518181BC0B00CD3CB0CC83BD5F56BE3D9194633CC5D83CBD4F3EB33C1630C03CC3C5B33E82B727BCA1A2F0BC584FB8BDA421D73C54219DBD4230943BBB0EF5BD20CA03BCD3FE88BD50D01C3E36EDCFBAA02DED3D5BED6E3CDAC53FBC0DA210BC820E48BCA9A76D3DB8BB1BBD78AA3E3CAAD00F3E31E6133D0351CA3C92B513BC60ACEE3D97FFF1BD927C4BBD517AEABD17D1333C1A317C3C506CC0BCAC63B63E6725BDBDA10348BD381B59BC500EED3D43778C3CF033223D0769E23BD99764BB59855FBD5480C9BC4251B03BBEDE39BBFE4842BDAE11C4BCB484403CCC31BDBD8699B1BDA9194ABD1AD7CDBBBB79E9BD8D78893EABED333D08E599BBE645633C2A6CCDBC4C088ABCEF83453B11E0923D4C014E3D9626CBBD0EEB5FBD2CFF053D3998303D088A863DCEC7323CB7DEF0BD28033ABD977840BB9C1E2C3BB66E84BD020A5C3DF7EE67BA59122A3ACF60E9BC1E8846BD45F6583AB833993987E8473CD1B9823DA20F35BBA62214BD6F2AA4BDB715503CAC3BADBC950467BDD820573D5D0C2CBD922FA7BD2C72CFBD0EEA553E015173BD9DA7BEBE25401BBD382D2FBD0A6259BDC2B1713C2AE2AABBADD605BE0922DABD0A891DBDEA7857BDE333733B4ABA44BBF9E852BCB1281B3CA7D026BD8F323DBCD6B9BCBD6AD9523B922322BC515F32BA50AC8ABCA9EBC03C49086E398755A33DB374893D21A1C23D2DCE483C50C493BD4A4D73BC35F5743E115CF8BD4548473E271B75BD437E303A75EC62BD0051583D728E753C76EA69BC576E913CADB123BD19B2843D863E78BDD3E211BD8D8B3ABCDC62553E85DF2E3C83A7EABDAAFCC13E15708ABA2F0F1BBC42762DBCB497C3BBAF30033E9B75343D4054E0BB67D5DDB7D5DBAE3D0B14113BD6DF7BBC77CDE93C6BDB883C0029A13C95C5313DEBC0003B8DA5D43C4E039FBCBA7A683D64B21DBB4C6C01BD84871ABD9EBC31BCA63D59BA1691643C0F7F2A3D0885DCBB667CD83DBCFCA9BC36CFFF3A595B84BC13A915BD9258E9BD1EC55239C76A7ABB504CB3BCB62EC6BB970B96BC3D02ACBA9D19CB3C94256A3BCC6EFFBC3D5F9DBBB37B403B057C343CFB8F64BD2DFFB1BD2B33BE3A79A2903BC971C4BCC2450E3CDA9B8EBCE9E9FA3C0CA867BC3E2EF23C58A64DBC623A153D2D1B1C3D38B95B3C9D471C3D0EC3F33CC934EABA805A98BD3BD138BD6491283B2F88A8BDAB60DFBB7AFFBDBD1109EC3DF88EDDBD1EBB5DBB72B58E3C0AB011BCABD047BCD711D2BD4D32C9BD87B8C83C6829F439FB959EBC907A133CCBFAE0BD6012D3BC676FD2BD9E9EB6BC6DB6AE3CF30C273C3A3A87BD08B72C3E0733A63DC020A3BD556C583DCD7CF13D1F21B7BD43ACE33DFF44ACBBA82ED73C742ACCBD3BAC5C3D954CE3BC89470E3DAD35F5BDA32C5D3DC210E03D3D3A69BD15FB5ABD9EE4513DBB96FEBCD25C2ABD0F1578BD369583BC00C1813CE1DFB9BDBDDD67BCFE5281BC46F8633C9B58C1BD16366A3BA0D569BCBF12C23C83B4723DF2669CBB94CDFCBD5C6EE9BD323B8ABCD5CDF73E4232A33D2CB6CD3AD537343D898D5C3C39D80FBDC66563BDA8AEB7BBFD64DDBE0BEB97BD99D3AEBCBA4819BD2AE2E7BC2F32203CC597E43D42B1D2BAFE2A2ABC2E93883CD9BDFA3AFD0917BC8BFBFBBCA13C693C658D7E3BA363C5BD2B4AE5BD4556B5BC17788A3A8FE3FF3E0C8B0ABDA764893CCEB9803DAB13053D019926BDA0E9C8BDCDB3AFBC33C414BD5018773D167DDF3C3E88DE3E3FD3FFBCFA93C7BDF8CDFDBD8FCBFA3C9D8163BD8EC4A2BD3FF25B3E462D2ABC8FE569BB8ED3593E9A5AD5BD7B8CEF3BFB17ACBDBE1CA6BC8FBFAE3BE20DBD3D9F7D4DBD1A7BFF3D87B5B7BBA873D3BDA433A4BD9AA672BA8F5263BBC8013DBDA90CEEBC2D79723C2DBA223DB49B17BC209B9F3D0A4D4E3C4182ECBCC5D7323D5BFBE73C4D937ABBED92EEBD4E49ADBC21880B3EEE76383CA646C33BD0D52FBDF4E634BC2703863D0988C2BDCC892DBCB5206DBCFF3AD23B882BF13D80AE6BBC63C8F73CB50C2DBBF21201BD5CB392BD9DE677BCA73AD3BCAB920B3BA59C993E82343F3B1A7AA1BC51E1A3BB2F9453BDE43FF1BD480544BAF1CD52BD6FBF4A3CEF29083C9C11253ADEBE9FBC18845CBD50EF86BD2F0B223D185026BCBAEC8D3D4943AD3D47D4413C795ECA3ADD222EBC50E71A3C872D753CA281433C9B2B7EBCAB5DDABD1A4E883B49C36D3BDE0C933B8CE7483CAAA0E2BDA371BDBDA8D4F6BD65079C3E9394633E0CD0D13DC8982DBD79FBFD3B90642BBBD92AB9BC151608BDD3C0C23BBF06FD3BD23E203C9369BBBBD7A78ABD24CE58BC95E432BD5A1D7EBB628C883D8323EFBB8AB7FE3DD636DE3BCCAC80BC58F1A7BCBF14C8BD49E928BB8F0827BC9D24733BFB4FB13D8CFAA3BDD7AD8BBC96337CBC3AD9223CB2EF4CBB999D41BDC9C1D8BDD209023D05AD26BBFCE332BCED0ABB3C03831DBCF2F7F73DBABFDABC525BA7BC4AFD0EBD6A035DBD91335E3D2B3DC3BCACF7613B0D220CBAF7D5FDBC88214CBDBC4D0B3CAA44E4BDEBEEF43DB228983D22600EBDD1E16FBD5FAFC1BCC352603D7AEFA1BC8460C23CB137633C2837803BD6F9353D6289233D844B0F3D801055BD1E768DBD7E8AAB3E1B22AD3D1D5B74BC4B4FE5BC0A8BE5BD877878BBC90862BD070493BDD2FB8D3C386B663CA36E2A3CFBB9C73E1524F5BD19A39EBD83F137BDAB893D3C9973943C552184BCA3176DBDBC0D80BC80E01D3D8A9111BD01B365
BD113F473B0372243DBCFFCC3C4A6C98BD286BBEBDCCD492BC2209DDBD9664BABD80BF9A3BB39A333CB226BFBC843658BCE7CBA4BCD05435BBB7B1EBBD4AABF03BEAA3C73D62DBEC3CAE29443C0C35573D2A4D3CBCAC6FA1BA044431B9D7849C3C1334C03D489964BD0D178B3C82F05ABD0E674A3D7AF8D7BD8C1E16BD694D233C8FFF0ABCA2A83DBB528D8FBD5009F7BD6734423B8F7AA1BBACD654BD013981BCC98F883C485D0DBCEA2FBA3D18EB7F3DD4D43ABCB8CF56BC5A6F80BB7AA47BBDCBAB74BA85CE4DBB896D93BD0C3A9ABC030788BDE3C40FBDFE1EB0BD01BBD83E1D1D3A3D8DC4CEBD4BAA1BBD6A6C3C3C5C9BB4BD1474413D07819BBD0279F3BD2CCA643BC090B23AA38A7D3DDA4F283D9A53A8BDB62037398C999FBD2255A53C491CFDBC8449C03C6D7C063CE89A173DBBF1333BA6983FBD5CD7E13D0FED913BE4EE04BCA67F70BDA302E43DD0A2D7BE1CD994BD8F9F763EC0F3A43E7B14FB3DB0E844BD836EE03D0C49E7BCB186CCBCDF8BA93C5166CC3B4C0AC13D58A44FBD015EF9BD1F519ABD808D223D288918BC6BFD0FBCC65E9DBCEA4FD8BDC81BC5BBFDE37BBD3FC4DEBD0163FE3D3E33B83DB68344BDB4938FBD23F917BD27CF223D0AF823BD55AADBBD2BF0A5BC13C8C2BB293438BD955456BC27CCB7BCE286F6BDC3120ABD35FB5EBD985541BD4541F0BDB8A0033D006C2F3CFB7DF13CDC89663C8D5F5DBB02D2983C22B038BD7CF0F8BD10227A3DBF6139BC69EE96BD0532743CE1E1A3BC476A1F3D9A01EC3CE7B1E23DB6DF16BC6791013CEF1D2DBC8085B33CC02E0F3D8BDD4FBDA271EF39FAAC393D702CF0BCFFBC493D016AA4BBBEBF41BD9FAB3B3D243298BD9E1FD53D504100BD63FFE3B9415ACB3C620773BC38947F3C98BD32BCE9890C3CED7BBEBC8094213D565418BD389D06BC1E8E10BD10DE8D3DF8B65A3E214AEFBC53DB933C1A8E09BBE0C563BD0AE8383DD1BCF13D6D01FA3D5BAA3E3D33C9CDBC3ABE313C006F1EBD8D75D03D078CE43D9A9F52BDAD06BD3C3F6494BCA41AEF3C7969083C9215A43CBCC688BD58AD8EBBC3BCEFBC36EE08BDBE92793C67696EBDA44EFE3E2D9685BD14703FBC9F4FE0BB682768BCFF3C603CCEAD8A3DA1C2CFBD1AE2DB3E371B7ABC2D8FE0BD20580EBCB1CC0EBD905DD2BCAB1BABBC921C2BBB609977BD61EECA3E07772F3BF0A128BB9BE112BB104F79BDA88575BD5B55D53E314D173B682F18BB21DB00BB2BBF93BAE0D9233C0DDFCE3C58F094BD0CBB38BD6229513CB0B93CBD85D17FBCE29563BD3E67DCBDF67DB9B96538B4BCDFFFB0BD7122A3BCBDAA723CD5795CBCD77D1EBC75EDBABD2C75FF3C65DE79BD5F8BD3BB82D2C6BBC8D533BD0B076EBD0CF03B3D7643433D01023EBD0EC3FE3D188DBBBDADDDEB3B4F32CCBCBBDEE83B1078F3BD881832B92D167CBD0D1F63BC83E7B5BCA3FA093C8CDDF4BCC32C02BDBEE0593C116BD83D03E8E73DAC06AEBD7D1770BC7699503C511663BD62B85139A01779BC7DCAF8BD68734BBD04B7CABD0EB5B83D7B5570BCD74306BC8695A3BC8B0613BD2164563C5180993BC7342AB931D0CB3D0CD1EA3D3BA97A3C87C965BCF7E29EBBCA7C593E84B83EBC9891563BBE0E7E3D0940B1BD39F7E23C7169583CAEFC9B3C9E3F97BB90E2C63CE0AC16BBA214413CFE792C3D878121BC598AA4BB195BC8BD1D784F3E178699BCFF4427BD4C3732BD8D5CEFBCD69DAA3BF596DEBD33398B3C8F3729BCDAA477BC65B7273CD85FB1BD44AE1ABCAF4EF2BD1C54A9BD2D92E3BB70AC13BC93BC223D625A92BC0B8D75BD4D79243DBAC007BC60D8DBBD392774BBB6CD4B3D63E4673D7C1C4DBC13A1A33C48BA2F3DFCB669BD577B9CBCD279F5BCAC44C8BDAE96783CC03B4ABD9B43943BE9A97C3E0F270CBD6942DE3DA3A9353C8064A73E24FADE3D0439A93BC4CB52BE02DAC93C7F691DBCE77ECC3D7A3D843B81F7EABC6BF64A3B6390DFBD60F9D23D2421F6BCF6057E3D63E4CB3D8C30DCBD45FF663E26451ABB7AD086BA9A57B43C87269CBD5A7D0A3C1E063EBD015293BD3203CD3D89E9123CB4F846BD4914973B1F036D3BAB55713D62F9C43C96AF03BC0880E8BC23B80C3CD549D8BCF611BE3E0EEBB5BBB63422BD07D7903DD6AE11BCC0B8CEBC50DD433AC01A37BC84CEECBB5773613D136ABFBD55057CBD984000BD300AFBBD405CC13C8D0BF13CDAB8433C635EF23C28986F3C4FE8D53E0CA8B4BD19FFCD3D34A88ABC21CB1F3CDEA7A7BBD71814BC0DB4E7BD1725D93DC15691BD6B2CF03AE8C16ABC84B27F3CDDA3B83B2B655D3D8840BABD2D4CF4BCCEF74DBD14D5083CD0F69A3D252478BC34CF8B3D8089E2BD9F314B3C5996A3BC0A60FBBCA09BCBBD8FAAC2BCAC7101BD1E6F4B3D6D0812BD92D302BCD01B3EBD2CC2523BB43C163C7095B4BD8EBB4C3C1C9E8DBBCD4E403C6958053CC912C73EB1814EBCC12829BC70A11EB976640BBB9370653A60EBC93CBFC8C53E4E657ABC5D4F16BAAF58D13CCA05B1BD5BE4A83E4E5AC03BE64F80BD8BD940BC506CB8BC135ED3BD04F7B4BD8ADEB53E8E2122BCC6E9B4BD4C9E4A3CD679A93B46FD6FBD3ED1F63D49A833BC8D0A1B3CA85CD7BD7527B63C2536C6BDA6900B3EBED3D03B92DF67BC21FEB53A4A5F13BD41B259BC0BAD69BD2D7C15BD929E893D48BD21BD88DB98BBBDBA0F3D05A2EBBD37F7BCBBA701B23AEA8FA5BBC88136BC1B7B913CE6EB473CA0B0A03C323E3B3B18D6DABD9CA7D2BB164735BD4D172FBD8861833CC0BA31BD3B8062BD66E828BDB247AC3D050AEF3CA001A5BBA9990EBC5CFFB93C5AD5D8BCE2808DBC20E8B23DD20FE9BDD041BABDC1982ABD3E16C339BF559CBCCB00903D45DA42BD2ABE7C
3D2524393C6F9F603CA92BE83DF612E03D8D0D933DE6C91DBD449499BD324F433D12B2CF3CFD5458BCDE1DDFBC3636B2BD92BAB23CD57467B85FBF5BBD9151FCBBEFD1E33CB52C43BD47E03ABD25F73B3C8BC11BBDF810B6BC0024A8BD604A2E3CB0F68CBC572824BCBF27FEBC1C3C66BC89F31BBA2420853D27F90ABDA5145ABD81036E3C1BFEAEBD28550BBD5C24A73DB00BD6BB0FF0CF3DA0BB203C00FEF4BCCE95EF3D1CFEF4BCEDF944BDC223853D488C9CBB1D61B6BCBCEFC6BD3C26C1BD90CC54BCE6E4413BC530F53CDF450B3B45241CBDADF7FEBBC02E983D9F9FB13D6F75C23D75FF3B3BFE3E863D78AE193E307463BCB407053BA0CB943D74F33DBD8CE4643BDB8A3E3E80D1DC3DAAB339BD14385ABBCEDA823BBE3BAABD39F03F3B1DB3693CF834CC3C2B16B83E7703D7BD10252DBD545B163BFFD695BB842AD03E1772F3BCB9105C3D0E4C553D067636BD2D2F6FBD337BE7BDD8595A3DA474F9BDEDD6E63CA29C073E519A41BD9C4689BC7128403B2FD8DBBDA1DE80BC48CD463C88AE3C3E7120863E74E82B3D30F489BBB2585CBBFC4ADFBD8A80983E1A4F6CBBC8B174BC10B2BFBCDEA3903D191FEC3B1C8E6C3C949E7B3CF17796BD3DC5CCB86AD6A4BD7074293B2804ADBD66483DBBA48CBDBC8DAEFEBCC864F5BD83552EBE02F858BCFD0DD03C56F7BCBD7861133D83CB7B3C3D9F633CE1C2DDBD877ED4BBDD8C67BAD25E9B3D7A3E5E3D08D7B4BD5DDE33BD9E536FBC70E2F0BCF100FA3D06B06FBC9F9A68BCD0FA4E3C865829BDA3A3BFBBBC7578BDCA24F2BD0F981B3CCA19BA3D1363F3BD281A38BC7AE021BD424E9F3DCD18B2BD00801F3D33C753BCEE73E7BD871FDA3DC35CFF3E11D110BC3E7B8E3C46F2CE3CAA16D8BAB8F53ABE3992413B97A2D93C8FB909BD67808C3D291AC03C1C1ACABC9EBB41BC9925A63C720A54BDBE8F80BDB0950EBDA6A9D8BD377998BB931411BB61C0C5BA897433BD9E3EACBD185C88BBF96CA13C71507EBCB261CB3D031BA9BBA0D1743CE6CAA8BC471E91BD63C2283D0FED29BB24D29ABC6E674E3D0AFFFD3CB9E9E8BA0AEEA93D64565CBD9BC8783D241054BAB35A11BCDA593A3D8E8980BB35AEC0BDA59164BC8672B63DEE643B3D8B4CD93DB7EDEFBD9A1F6C3B5BB73B3CC2612CBD4AB60ABC255DFE3B8CDA35BC1AE7673B04EE1CBD3672833D4A44F6BC62E1E0BC9EAC0ABD3BCDE4BDA137EE3D32E39C3DCBA5B1BD136310BD7AF411BBFAD5EF3DBC39263D108FAB3D1CB281BD773E25BD3CD1B7BCC78114BC2669C0BD8DC2D2BD314E12BC9389BABC73D5A0BDB67D58BD11F735BC11A5CC3CCA22603CC42F2CBB557DA9BD0E06DF3D7B8B64BB918DEA3C96C1E2BD85398DBD22771B3CA0E3FBBCEE7FE1BCD7F873BBF662E53C8CEFA83C966415BD0C7C29BD0636993DF730EEBD9FDDD5BD9731AB3BF66F76BD191880BD1D02FE3E0695F7BC9DA309BDE724AB3D02433FBCA53997BCE94C0B3D5FB70A3C65BBD6BD5FE394BCAB37413BA18138BD97A07F3CEFBC763D60049A3D41430C3E04206EBDAAAA3D3CD782EB3D0F175FBBC9BA213B714E523CD419ACBD1BCAE9BCAFC2503CD082D0BD10D35DBD8965473D853750BC45F4BBBD8F34533A948E01BD1DC5FABCE23703BC42770FBD26893DBCC3846DBCE65BEABCCADD7ABD620F093BE6DE22BC8DC563BD9B5341BD0A55813D8F9E79BCD39C96BD771CA63CFF3E87391BAE82BCA617A03DF8FCAB3DEFE14F3BAD6490BB160743BD089B493C817349BD905BFDBD1A687EBD091814BB4C58E9BC80A909BD089BCF3A2319643D7C422DBC8D6F78BCC724EFBD15028B3E540245BCAEA71ABB8F9ADBB902224FBCBD5E93BCC3D663BD22A8BE3CDD38F4BD5F80263C814C773D366EB4BDB4B4E8BC7D04D63C57BA8F3DE67097BD3B2BCFBC727CB73D322B213E8C1EE03D46CD10BCA82FC43D23D3863C7781D6BD4FC2C13D1BE1AABB7BC3B23CC778CE39ACB0EA3D3F35EE3E8BD5863DA284BD3BE6FC39BDDFC0A83E5C48663C953123BDA367E63C82FF8F3DD526DFBCB3B085BC160E42BC3D6DDF3D35FD4F3C1BEEDFBDA5FEDEBCBE57B93C8C417BBD7112173B90EFFD3E2215D4BC18B496BC752E41BD1E17A13D6C84E0BD132132BC235CDBBE0D2137BD86F6C83A008F613BF573143C62A1ACBD31B2A43A6A17B1BDB8C2BDBCFCA9FA3C8AA6FFBD15C9EC3C10CC6BBC4A37BD3B8386ACBC95F7D6BBE3EB003DE295BF3C2F57453CE9215A3CA8520CBCE2D283BD93412A3D563D50BDA826D9BD147605BC36143F3D8B8E9EBDB7CB163AFE996EBD0C67503CD7A1733DB70BC3BCED0427BB4E26AB3CCDC8D2BD0A6BC5BBB6ABA9BC9AA3E83D625D00BD7F9CA9BD4EDD1DBB6AA9BFBD33DC34BD1D9BCC3CCF7DEF3C7635293E1B6C033E009C303D19AB5DBD9A6128BBC6F2FCBDC8DA03BD2F98583C152AC7BDB382843D1823B2BDBEBDC73D264592BE0C14F83C209FB2BD0D674C3AA36CDF3D96A4ACBE0B21BABD641513BC8265ADBCA6525C3CCE9534BD5093DABCC6BF48BD847E6EBB48EEB9BD1266A03D1BF6503D0DF3F8BDB55A9EBCCDC6573D12F066BD5F4D79BCC419B8BBAD1564BD37D2283E2DFE14BCC6D20EBB6C38323CC4B02FBAFF55163DAFE3CB3DF4011F3BB2F2CD3CA606EBBB4B351CBCC581EC3D23156DBDF08277BCCC4784BCBBC16C3D9CB93F3B6F4087BC2DF8E43CF40BAEBC6B73493CE4A5033A05820BBC602D7CBD67E7A73D81F004BC923A413D1484C6BDA1FC16BCC3F9D8BCF284133D00A8CCBD6BF92BBD5E077F3D8EE6BDBDE0374E3CD1C1DB3CB28DF9390BEF9DBD4117103CEF69E0BBE5669E3CAF282E3CC89633BD6C6E8FBDD6FA423ED7E3DA3C74AB1D3D45F8F63B70609F
BC955A06BBA854A93DCE8272BDE7DF503D436819BD82883B3E30CDCDBCA4BD0F3D145BB5BC9EB686BCA6C10BBB393448BCADA0283CF0EA143CAB46DBBD12708B3C89A10ABD5D1875BD2AD48EBAD11ACF3D07BC0DBD9A768A3D9F63DBBCD7A29FBD288F983C450B373D8E48973BA499A1BC8F9B6A3C1FCD4EBD3029623DA489483DBE4B0ABD0320893D2AA3763D21AE05BD8E313BBCB7D6AF3B123F79BB910DBE3D7E061ABD865044BDC045803D4ADBCCBDB4D4F73DB7750D3D1C3A5FBC4E30A63D2BEBA23C9488F83D3295C73ACD8435BD14D5033DF49DE1BD1CE61CBDAE92E0BD04E3353CC6B6D5BCB8EF93BD34CE3E3C488B94BD1237C4BDF1D3603CE543E13AB383ACBC2164783D81ADBA3CCF2DB63D845D0EBCE99EEE3A9E5218BDBC236CBBB63312BD2C2083BD1C54D3BCAEFAFBBD975F38BCA6A06B3D0984B5BD0919E5BCC748973C94B2EA3D07F9603C9A9E2D3D84264FBDAA7633BD6B8375BC36C0E8BDC43D96BC8C4D3C3E429D8ABB2FACC5BC9A3121BC1BC69D3D557A4FBCCB62F03B4946353EB5FF57BDA79007BCE88EB03BD478753D0138AFBCEAFED33CA42CEE3ADDF81ABC85345F3CB465CC3B68C22A3DD252043CD18726BC3BC77D3BA260973BB62AED3CD364C03D8235753BE35C103BBB3649BBA070C3BCC5E06FBDBEAF113C19DA633D2CAFDFBDB7F823BCCFB6EDBDAB4BFC3D235ED5BCD9BEC5BCDCC1C6BAB007C5BC3F3E983C3F14B1BCAAEF55BDF714163D11CDBABB88CA27BD39B9F7BC1023BDBBA906523C14EB7E3B459896BC6DE3CB3A8464B9BD4B6CCF3E6E0344BCC1D0F43D1E17813BC6DE963CA22ED93C926CA6BCA32A3F3D80F5423D204953BC9354813C267C143DA4F5FDBD88B9AA3DE3CAACBC1B352C3D255B183CAA65323DB51C993C536D5CBC624984BC9588883BA05E27BD3771823B187A33BC861DDD3DB5CEA0BD9F4B4B3DFBBF0F3C89DECB3BDBAC5EBCF4C2E7BD9CB79FBCD13B26BE16D131BD8AB6953C587FD23DD3CA243CACE2E83CF95A4A3D044F6D3C3832EABC497F783D7596A63A325CD1BBAF791EBC5BD07A3D623488BBB6863FBC91E99C3AF14504BCF2A56A3D5701B9BC57DA42BCC77E5ABE1D8ED43AC70CDCBD8792D7BC9BDD7A3CE0B280BCD199BB3BA5BA76BC55B1E03DB1CD623D701EFC3E27D6D3BC9E2B0ABA35301CBC2BEA3EB869C8813C205A71BD79F049BBCF11473D94AFD3BC2C3BD53CD778DE3C4EFF743D3D20633B3E7CBEBD816BD13CAD99CD3D280B823CE95CB7BB87F4823C1736A53DE7EBFEBB8383323E12F4483D01711CBD0C9D39BC6E3F393C6659F63D6977F8BDD49E4CBCC68D15BCC512A1BA1EBBB5BC11CC02BDFBD632BCE1821FBC044131BC0169ACBCCD7901BC27CF92BD819604BC88908DBCB1CA92BCF8A2F0BE1727BA3D2A9AD23CED697E3E239A6FBCE11464BDA6E78BBD7E6E3BBAE3902F3D4E3835BDEE2B57BDC1301DBB4B720A3EDF154ABD3B2FEB3CA65AB2BDD4B1463CD3F090BC93E104BCBAD7073D18F5FB3BAA09173CAC235DBAD35BECBC986CE9BBE5A6F93CD8F50FBC7DBD6F3DCFCBCBBD2958B73D364C58BD2D49B23A36776D3C101F0B3DDC41C0BD358E82BD5CFF24BD2D806D3CB15AF7BBDC3AB93BDBE89BBC1FB48DBBBEBB6C3D024D693DD58E853BE65CAEBB94D434BE13DBE3BC84DE2B3C8EBFE0BD5283363D86F14E3CF843263E96153CBC8C45733CA8E43BBD0ECB2DBCAE06ADBDB41C76BC234931BC2703CFBCCA104EB9A15908BCB1A7DEBBDE9188BB8A71433DE4660B3C664F903C0F42B33B14089FBC8AC9FCBBB872E13C1F7E6DBD14FBD73D9AF0AEBD5DE3A63D4F2A373C84C6793C7731A5BBC73F1F3CC517C83C9EAFB83D0036C73B13686E3CC3A9453DD9309C3BE421FDBCFC930FBDAA8C67BD0FD4433C92E740BCAA3817BDDC39CCBC03B0C5BD16E6EFBCB0E88BBDD357E23D19CE17BCF47BE93CF169273E65146D3D27BC913C7FB9523CE4A95BBCE9A1183DB5A53CBD897C203C812CE7BD7629BA3C0A10013CC200783B90EA6E3E400FC33B3DB48ABC91CF7CBD052A58BD09DBB03D8CCAA33DAF7D99BC3F1BFF3D5C28723DBEFFEE3C34BAC5BC950E31B81F708EBCFD3D17BA9B8639BC09EBA5BE0391DBBCF0E9E1B9C22389BB6BA7D13CA330ADBCAA81463C001F2CBC1B71C0BD645EDFBD9FFDD33D1BB53C3B5E80E6BDFCAD043A3355D1BC87BDE7B9E6C58BBD2605A93D2DAFF93E1FAF10BB9EEEB9BBB02C2CBC879D483C3FBD563C9FE20FBD0C9FB4BD1C42B93C5A65D23CDBC1DF3CAAB0003C896C9C3CC3D8A7BDA484D33BA4C6E33E054220BC05470CBD056454BCBA7E5FBCC15CC3BC7746613CB1DCE6BC4711D03B112346BBDFA168BCFF654D3D4A57403C19438ABCE0EEED3D2B786FBD0D9D123BD4E6F5BC19D4103C5B7DF93CDB231C3C9AB0C5BA3DCD663DC9305ABB8E4444BB8077213D82BB2EBCF278653B5FFA93BD52FD8E3D2995E13BEFF8E53C97A08A3B32B5B6BCFF7BA23C663EBBBBD46AA03BC0CDBCBD24C2F2BCC619E53D69DAC13D92E8B33E24E9163B772D7B3D2A2A3FBC975CB9BD4BD208BCCAC09EBC68C3AD3A0B52693E2781DB3D5E76ABBD428F233D06AB9FBC48AC69BBBAE59B3E153611BBCCC793BD8710E33D526F2BBC11A6F5BC948E0A3C24FF9BBD5500F1BC2A62903E3E4421BDB9FFD0BC0532E53BECF3123DDAE5353D093734BC9B5BCFBCED9A383C2B3F163D296406BC0F02AF3BA1A157BD0D69ACBD80EA8DBD9E74CFBD5ABE81BB9137823D408053BC2D8EDEBA9936A43E3C709EBD7E7825BCEFE0E7BBE6EB263CEBD99D3D12BA4EBD7DE9DABCC1E32ABC7B4D91BDADF634BC258517BDA5B074BD2F0FA63BC90301BDBD2C14BC0A88273DB815CEBC9715D7
BD903F213BBEA12C3A027B303E07BA86BD8E45433DA56ACE3DF66D293CDFAF8CBD03B2C63C0EE8283C2471AE3C1DDC12BCF1C812BBDCBD1139C8F4403C61EFD6BC82B855BE0E52A5BD08CF42BCC68F473C33F0E3BCF6A2B73BE638013CE948073D2619E239C24A7BBE036BA8BD1F2FE6BD39BB31BC80348F3D1946BABCFB13563D19EF593CFC23073D9D752ABD38DFBE3CB133DBBD11B508BD585E8F3D193643BDD15057BD4D183ABD889E103D1BB4523DB1E7043D46C7183E0A0A91BC9A3B84BCE804EEBAF07394BD3EC9FFBD15C4213CB42CB7BD80BB80BD4F334EBD83C646BD86ABB5BD709E823D0D442B3D7154313CFAC8CB3D0280133CE6C4473D001CE1BC89AE6DBD2B02883CBBCA733CCE1AB1BE23125A3BCF24DBBC2343A73C04C3FCBC0804F93C3C2AFABD0932F13C4F8C61BD4DF4DA3A710438BCE4F9983DEF1D5D3CED67C1BD3D5E31BC132D10BD282E32BBF5D8623CDF8AC43C94A7763D79D6083DB78C263D8D573ABCA2C8B8BC94E3AE3D10B148BCE4C6433C69B6D53B31785DBCFBFFCC3D3AA26BBD07F20B3D2DE4863C8446CABCE8E9DFBE1D5E47BB7A75D93CA7640ABD087CFBBB7457FEBD6024C03CA2215D3C00BAED3C66CBD83D9F501E3C154587BC8862F53DE4201EBD5CB1503B7D0687BC8407003BAFA24B3C5920703D1C3CF6BC72FC4CBDEB31E53D7BCD3DBDD9E8723D9C0C82BC8AB45BBD2ADCD0BB34DC553BA44BD93E3C7C343D442B083CA0641EBD98CA703C705D3B3CF3270FBD70DBBC3D8D8473BB61A0513B5FA3583D32F7533C1B5D283DACF4ECBD8E78C8BD04F867BC842DD1BCA37266BCD7A9873BEDBD73BC5E79ECBD4DC960BD32C06FBCFA11603C765583BC83F3C0BC952FAEBE0DAF8B3B1B2DBFBC2DB94E3DBBA73C3E4EB232BC89089DBC0B6B90BE13BA78BCCD4578BD88A2BDBCC1B72D3C9B2177BD9DCB01BDAEE79DBCBF98FBBD40A41EBB12C075BD8E1BF13B7D20B83D45D992BD069886BDDD34163C2393A2BDB169A83DFDB400BD5F763BBD8A9BE43DB04F903BBFAD5DBD5BB3003E0B96C1BC061B70BCAF8AA5BB858FB4BBAA0E813D31F4D4BD086BBCBD84B41D3D17D9BEBD826BD0BD0599D3BD51461E3B8E2102BD52E108BD2BF149BCF5B4F23CD5E287BDB384D8BCE79483BCCCB5443AA20AFCBC82EB0ABB5423E73C7E22483B04619EBCF53086BBD01DDEBB3825A5BD07D40ABD8D59AFBD592D9EBE10ADB3BDBD166A3C8DB5163C2D7F9A3D06AEFEBD7D15E43CCA42623D965EC43AFFB383BDC36B05BD19BCF83D85C941BD113FA2BDB5E6E2BC6928EFBC9C85243D1A27B6BC8B0646BDFFC383BC39EC65BD58A7EE3D4247593D5401F03D803489BD1FF9C63CAFF969BCD42EBB3DC1A2CC3B7D512D3E61FFA93DC6DA66BD7A16F43D43B953BD8C7618BD2BF2FF3A842AB93CB22069BD5AF8E73DA3B4943C82307FBD35E3E8BDF3877ABBB43FA73E0D76513DA4EC753CF6DE063D614E0ABC2DC1E13D82A67CBD90FF103C8E107FBB265C81B9FF8EE3BB60C69BBDAA89B6BD619B223D0EEE103D699250BDA62473BCFD4A903D355DECBD37444A3DE81655BA415E7F3B0296553D3CA4BEBDABCEDA3CC12D4FBDA85DB83D85B3973D4A83CC3C2E80853D04C2433C746E8E3D37841B3BCBD2F73D2D97F3BDCC909BBBAFB1ECBCB1F9D33D75761A3CDBC673BD9E23C1BD8AD9A13DA1DE37BDA823213981D5A339471F9D3B258C693C85A5CBBC84D94BBC1E4F82BD53526CBDF36E133C82F961BD8B3B573E4B4A75BBB13CDB3CE90FF5BDC0F6AC3B4ED71F3CAFB3D63CFC19A83BA2E7923CA8B706BB89745EBD02421C3DC59B85BD3EF6BFBD249F1CBB844F963DEFF21BBCD26BDC3A262111BD9EA1663EDB102DBA696FB53C70C95BBDAE1AC63E830A683D318E9CBDC3F8ADBCA25FA73D1D53A13D0853F43CC5F455BC3DAB1D3D2815FC3CD93ACBBD83CDD73BFD4BDBBDA3E460BB6D236CBC2FDAEF3DB496783C205E5F3C8658B83C8F018BBD7AA1D43D3647823C1B1AC03C3AB6323CCE07E4B97B89B23D6D4FF9BA1D0C2DBC78723C3D1F9891BBCC6BD9BD2CED6ABCF3EB63BC29D2203D7C5F23BD1EA9C73CC49EB73D83C4683C2225A8BCDC9C29BB160E003BA7CF443D2698C9BD221D803AA14461BD416114BC4079FEBC063C673C7B0426BB9100D1BDB15CE2BD11DC763A40FA7ABDB435DABC360F9D3BBCC5F73D3DB5583C3B7939BDC9AD3F3D1773413EA713B93C00B82B3D8E5CDC3AE9EDAE3C4A6760BCADCAEA3CA025BA3E01425BBDAB7656BD49ADC03DBBDA55BB8A480F3C8AAE2ABC38E67E3BDAAEF1BD8D406A3D12FC3ABCF15BD6BDA504C33C30984B3C031EC43D2CE90B3B92C5CC3D8E50783B5C07E0BD97C7733B20D541BDA753F4BBCF1FA93DA6FB3ABDA4E2DE3D903ACE3DE9049CBD718B7E3DC73AFB3C8AE68EB9EE8582BD722DE43C216849BBD30D263BF44D37BD21DFD7BCBD65AABCEA130C3D7E2A3BBD12AFA9BCCDD03B3C2225A13DB3043A3A4569003D1ACAA73C485E173D88200B3D9720123D9021043B5BB1EBBD4533E23B5AED2FBC5DA01BB9926E973BE7C531BDEC08F93DDBFA75BBCA0AF4BD792A04BC4C81C63C4188E9BD88463DBDD3E8C63BABCDDBBD5014D3BCA454C13DFE4E9CBD63A2503D94872B3A81AEEB3C53EC2EBD093A94BC8185AA3C88D7BCBD98AE1ABC91A1AE3D93C02EBD9EE159BCC63C56BCCB6E83BB723E5C3CB3B7F93CB71E83BC6D844E3CE0730C3C4DDC5EBD1F32EBBD4EF8A3BD9D0BF93B302F433D4805B7BD15A035BD0A9727BD2F489DBD3341C93D4EF5DFBCE051AB3CB74C60BB86086F3D9ABA783D4641CC3C3A551FBD0864AABC94DBCABD66363DBD82CFF33CDD3AD6BD4FD55EBC968430BD46A6793CA3D407
BD0506753BFB3A1B3E0CD0D43D337A923D46AA1FBD01E4E7BC5BB1A0BD0F88733C6BB515BC5C243A3BA032B53BA75542BCF0F5F2BAB87C933A8C6CDBBCA58FF7BCFB0514BD0D47333D6269143D4DC7DEBCEC2B883D2B5D263CAC27753C10F71F3DB6823F3D8777403D98574FBC21EE6EBD30419AB9E1FF25BD98F6393D80C2B33CFAEFB63D8B56603D4B7D223D73120E3C80D255BD3E9D383CEC2BE1BD0E884C3D29341C3CCE65D7BD4417A73CA05329BC80686CBD47AD0DBD8349273CA2D27CBD7CAB243B0D5F55BD59AEA3BD488F233C479FB53C5D8114BD955BC7BCA8F58BBD42F0183CB3669EBC3270AF3DB74026BADAFE1D3C92B6933D16D737BDAAB3943D81F5FF3C305690BD8A24ECBCE1C6D3BC9BA73E3C60063D3C21ED0E3DC26428BBCD5673BC44C5113BA884713DF75239BD0B3B45BCC24F98BD4CD7E83DA194233CFE8B453D4121733E0561AD3CA4C0033CA612AFBC0B535CBC5556C43B91A9653E08CD803A27C4A8BB2BB7EEBCBC79F13D60FD253C673E2CBC1B0D3FBC2C99AD3BE274423D3CE03ABCCC95E93D879F3E3C202BB83E061305BC037274BCA605253C86010CBB61CAD93D6860853D82DCFEBD2AD88C3D8B5E75BC341931BAB7073FBB615A6EBCFD06FABD01A3FABD16C37C3C17A172BD660CBEBBFC8FBFBDB3E204BCA61B0FBDC448EA3D242EDEBD091B9BBC49D900BD3B9D2D3D37EFA13B5B4724BCCE668BB92EF6293DB1A442BC67C01F3B40CA063D0F3414BC9C578CBC9FCB05BC06DE40BD081ADFBB88DCA53C8BC17FBC32A9283A6E7515BCB9C719BE0098633BE96496BD74060FBD7DBB2DBD21101CBD8089233D23138B3C28208F3D8F2A49BCB62E5E3E4964FA3D3E71873D663AEEBDA817FBBD00292DBD215BB1BB0011453CD8C9623A83C2533D2736A8BD067B44BD1090903E1DBBE33AF097A9BCC73D893D010274BCD2B0A5BE0DCAE9BBF9C488BC80902D3D4B3EAFBD738C9ABC888263BD864E343DA70E6939DF2FD43C95D790BD100D22BD0750813C9DE9EEBC962264BB134C7ABCB70C97BD1BD942BCB3DB42BD0B239ABA39971CBCA1ABC23C92346E3DF14578BDCD8DE7BE3D2A47BB828F9E3D61ACD83D7098F73C056C603DB760293D03CC39BC4C969BBCBE8C9BBD9A2D8B3E0776443D964A0A3D9315493D8E68703B81BFCC3CD7AFC03BAD23B0BBD6D3F6BD58ADC6BD8FE959BC9C2C66BC314B123DA2DDA13D372F4FBC9D2E9FBD8672B6BBD9F635BBB9635B3D1A8D24BC42A235BDAB0492BDA27863BCB21E343DC0D6C93CF79148BDA6B9653D40B2F0BD2C40643C4330873CF6E56CBC368B353B62D4943A924878BDD936F83CD1B159BD73D2433E44870FBD36C471BB9F4F02BC0DB89C3BD381023E54DF14BC19ECFCBDB7FD83BDA580F43D3315433E18FB17BD23669B3CD80C2FBCEC3598BD7B978CBDBD3D2CBD579B113C4ACA733C49DD2FBC0FE03C3C48C6233C02E1B9BCBCF0F3BC84B9DDBC0EA6EEBCAD7A823CD8CC73BBE10EC8BC5D48F23B5EC6F93C8723A8BD352F143DD5111CBAF254A03DB2A2473D9FBC6EBC50612FBC28E3983CA1B952BCB605913C4B499BBC14E3633A2B37773D8FF20DBB14F9883DBAE05EBCE1AACDBCE14F98B7DAAB1C3CDF7FBEBBAAAF6D3CEC9A2F3D3DC5423D2971283CAAA283BC185F83BC9D1198BA9E242EBCB3228ABCA809E23D8EE7CBBD51436CBD236616BD81ED91BD06CCFE3DBA4867BD36FC5B3D80020F3C959A3A3D92FB0ABD9D4BA03B99FBC73ABB1DFDBD12B458BCB1195C3AD675ABBCC4D544BBE287F9BBB0347ABC4B5AA4BC584B253B1A45ACBD02A177BCF8A5543D636CF7BDC445F6BBD86F53BC9DC5D0BD2CB398BD148E81BA9306613D41B2183C44E4B33CB3DF45BDA98F0DBD25C56ABD913CB4BA800B1FBD62AF1EBBC2F9ABBDD5AFA93C426BA93C10F7513AEB9EEABC035E0ABD0BE15D3D31729FBC7B508A3D77EDA1BDAC6E2BBC82C3943DD954AABD13B998B97BF6F3BDDABEB6BC969A92BD8313CFBB97F330BC8571A73DCD08213BC0C6563EA534753BEFAC233EFF2D8ABCC03B52BD6EC3213B1C524E3D1B2C3ABC246FBFBDB099ADBA6CCD193D4AF245BD270A74BBFB3991BD93F46A3CD0BC7F3D746C91BE06B2303AC5D883BBC4FC88BDAF9E21BD4D15F63D8E9EB93C79E41A3DABFE2ABCEBAECF3D4D2235BC65AF12BD22B3FCBE17A7E0BC5CA3EBBD2B8948BC33B965BD3770A3BD809B023C91847D3C0A34213D0B3CAEBCACD035BB794924BCF34637BD7747B9BC057E9EBD1D2ECC3CD7F9743E1976723D9967A9BA077C6EBCB10ED9BCE6BA06BCC6C3353D64EF44BCADB285BD5F057FBDB904B53BD7E91B3DB910D2BC131AC33D3A1D2FBD3C0A55BD07722CBCEC3FADBD265F6CBD974385BC5ACCF0BC4B2C0B3DACDB4CBDF28862BD711F1CBCCED15C3C8C639EBADDEDB6BD3B4BAF3CCBC0ABBC4EF548BCD5160D3E8FB02B3CB348CC3CC969143BBC0C483CA740E23DE2CBED3B5D3AA0BD9A2A42BA6E5E3D3CCD930C3B99D0E33CD7544ABC03B9DABC864F40BB3E09ABBE1C6614BCF398353C9158BF3C8C961F3CA577B1BD987E87BC53E5433B83BE683CDFD57CBC6AB82C3EA2DAC9BD4206233DE796F43C9555BEBD205E673C8300423D813D5DBDC1299A3D504A56BC303FBEBCF9FBBABCD2853EBC8621CABCF72F2ABD9482133E2D180ABDA4B0723E4363103C8586D5BD1350653C7A5E50BBB004D3BCE842AA3B4174AA3D036F94BD0B8BEDBD6595A9BBC9E888BD4B87593C8E73B8BD365DE2BC7C32F9BC630CC23CB50C1A3E682FD4BDEE3890BDDBE12ABD72E573BD6EEFFDBD4680143DBA363EBD5DAF8EBC62F0EDBB3BE36EBDD83088382292053B9323C53D4F72FCBD09D89CBD92047F3AFD70EE
3D164E673CCD21303DAB7FA73E1B5720BDBCE583BD2BAEEF3DE73461BBE46417BCAFB75CBC8AA92F3B10817C3BB1FAE5BC8A85F93D748911BB5115873C02DFE8BD033793BD14084B3D1E99293DB60253BD5E94C7BDB31298BD834E11BAF38888BBBFEB99BB909337BD12B5BD3A8E2CDA3B622C3F3BB1BE743D31FACEBD60CC46BD12A9C3BD26A6193D9434B23DC8AD87BD4413E5BDC041C6BD8A1ADABC186FB7BD1BF0033E1516AF3D3E8E8F3CC51245BDA2408C3DB7CA973DB7B60EBC674D543CD28E983BB24AC63C7E0CD73D4542F2BC81417A3DA278F63C9F7F62BB25647DBD7C27223CAB0B553CB35E713D92BE8A3D6791323C895E1EB9EED8D6BD488102BDA10B36BD8E623ABD80717ABCE8CF19BCBD6ACFBCC042493C8172123C8093E33C47C0073D8AA4BBBD2A58CABCAC70E7BC9D1AE53CFCA41EBC799195BE09D6BEBD8C9C1E3CCF54F13DD4C0DBBCB0BA003D3D24113B6AD6343EBF084F3C842F243D902445BD9BE28ABB340777BD7DC512BA35FC01BDB583BC3D0FADAC3B3C6F9B3D6D01C03CBC1F18BC9B97C4BCFC580C3CE99DD7BCBDE5853DC564A73E11CAADBAC0B1FC3A2FF9A2BB3405483D879FB7BDC01243BD9CB407BCC9A0093D817605BC0F0701BCAAF206BD6AF5B2BD04D137BC16934E3E0593783AEEB6FA3E20E961BDC1C0173CBC10CC3E366D0B3D6CAE813D079860BD256E843D795F8BBDB4A6433CC0C460BBB6AB3BBD2974C9BDA0D1C3BD83E0973D04AF52BC2BF38D3D3C9730BC96624ABBB27041BD0671FE3B79925FBD884DDEBBD33E28BDD8BB19BDBB1BB9BCE13BADBCA6F42ABD739501BC803563BD5435F1BD171DC7BDFA4A4A3CEE10723C9DFC5FBD844EE23D161C9F3E3DDFF0BC734FA63CAFFF493C20C6A63C1BFB85BD48C5833B271925BC9ADE123C0FA388BBD4E36ABD88CCF03E01060D3CCA5D573DDCC3293E273FB6BCBA31FCBCCCB740BC9C0AB8BCAF9AB3BB634CF5BC8ED7ED3ABB18FFBD088689BBDAF8813CAF1293BAE05751BD10EA7EBDFD4F093DA7B36A3BD2FCCBBC21DAA4BDFCBB84BC1385153B258FF8BD81B0D33B6A755A3C8443343DD8E2EFBCD3AF2ABD8FBEABBD004ADD3CCDDD6EBCB5A2E13C5FC67DBD0FD8323DA31821BC58D6653DB004A5BD6EA11FBDA08FC8BDACD94EBB821B20BB573F2ABB5EB2543BD2C56E3BFC7BABBC41AE9ABD1E8C923D41DD00BBB3EA08BE1E1B02BCB0BED23D43269C3D139E5F3D0FB804BCE25190BD64173D3D2DAFBBBD07A2D2BCF3E4963D4FA4123D38D7C93D06806B3DB2AC23BDA8B798BD3A86F93D23C219BB61B4FBBBE4B356BC4511663D8F2E2CBC927285BDF4BCE2BB1C49343C6523383C7B2795BCF1A25E3C52BB533CB033FE3E2DB016BD6B2E5FBD3F6E5F3B4DF8803E22E2923D3B00993AFEC6103C06184C3CE1B7C3BDAA987EBCEA9417BD89373FBB8C82223D11A8C1BD23A15EBA88C92EBBA86ADBBD0FF3823AB6F632BD84914CBD0ACC7C3C097A1F3C94E24BBBA2F27BBD52EDD7BC9AB87BB94C3FAFBBA6C013BC8D49EB3D9705DCBD8C55EEBD8BCA883E544931BD62E9ABBD1B822ABD27D917BA71E5563C9304EEBD8C8EDEBDB7C8A7BB6C45C8BD1BB6343C9FD2EEBD4D3FD73B640DFCBC8847C2BC4135D2BDE4FC18BDBFE0E1BDBF56E8BC7D7499BCB633A63C9412303C8B7BE6BD013999BCD13A4ABDDD797BBD0D38763E2C028DBDA8D756BD064323BD8656793C82240ABC98A696BC0E0090BC4127B6BAA917FFBADF3901BD39A82ABD829AD93D3658C1BD3439C8BBC9B1BDBD0A600E3C3DB43FBD58F6323C0FE5DCBC27434CBDA2989ABD9B9B95BDBB21E03C8AA58EBDA17891BC6526EE3D42C1A83E8FBC833B273FD3BC9BA0CA3D8B308A3CC7A6E73CEE960F3D52F63F3D5630083CEC5C233D33C9D53D444C9B3DF89FD2BD3F4EF4BC0B3D02BDC19B4ABD328457BD87970E3B105887BC4FE5163A41A45DBDB0876D3DFAE029BC2B14D13C102896BD02698EBD420D4BBC1D06203D0508703E3569263B909DE63B3603D63C0E8DA93DA773E0BBF161AABDA18815BD0091393CD33BB5BC2D0BA73C6A33183B9E345F3D291C403DFAD813BD75163E3CE0C8D7BC280A983CB4C2903C1BD72C3D0786C0BBC5A44F3D1AA0393B3CD54CBD1EEC763D1948EDBCDB03C43C613556BD5EEC37BDA6F9D3BDBF29A73DB5985A3B2691B3BCF6ADE8BDCA35023DCDE17B3C84118FBD4DB74DBD7AF3883CA87F3CBB6DA5E1BDD3A0993ADED2C9BB6803B93CB28C72BD22529BBCFE8067BC41DED93CC9433CBC99189B3D7FF2E63BF70CCABC31C9073C58C196BD48472ABD7DD132BCC18D1EBDAD27F2B9B748123BC8818ABC3972643C0AF1DEBD193213BB2DCCF93D73F6C53D361BDDBD88BEEFBCBDAB20BCDA086B3D26C4C83E55611DBD27DBB4BDA0743A3DBAB050BC897C9D3C6015DE3CB7B90BBBB1381C3B27D7B0BD704D863DF2B00ABD0ED36DBC8EC17FBD6195A43D9AAA9CBB92A7D03906A98A3D6F9DB7BD9841713C95664EBCD3F5AABD65AD423C940FF83DF7BD65BD815337BCC91850B80987BCBC79B4C0BC61D62F3CB8D3B83B2E069B3E1C4CADBBAF083FBBAC5E143E326952BD1B9022BDF61BC03E8B9A15BD01D6B63D443F0C3D480BC33D0A872EBD9E296E3CFF6F913AE2448CBD1BB8763DB719C63CDA51073D5C54EDBD825AF7BDD4515BBC89F1923D092B9FBCAFBAAABC8CDF8F3DAF19073C699B5D3D16F60DBBEB403FBC6396C73BAF517E3DB9FCA93D8CDFB6BDCB2CFDBD8909F5BC8CBBC93D0EF5FCBADC42BC3DABB3A1BD3C1A56BD67D6BA3D3762043CFD04433BF1AC49BC955DB8BDCB21193E0ADDEF3D2A7C70BD7013F8BD17A4083EB6DF50BDB7C895BD00D61BBC5615693C802C40BE04ECD2
3D1AA778B9334340BCA4DA6A3BC3829CBC179F4EBD025E82BB92E534BCC42BD33CAAFF6DBC1C09D5BCCEBD733AA1827BBD46BA6A3BDEB4C43C62405BBD19508CBBA0D0573CA37D28BD5F134D3D994027BC134F083DED0E76BBE8C87FBA5858E7BCD0A797BD31F3A0BCA1089D3CDF0C49BC516DAF3C7EE17F3E216022BD264AFE3D70F026BAC668603CE66B573C8043D03B0DF8DA3D843BA2BD50985ABD4A05E83C78C87BBCEFB95DBD3BB085BCD4F2EFBCE43A7E3CA65292BC79E898BBCA49A03C8C27BFBD00A07A3D086F0D3E1AE7BE3C339E32BC73D6633D561A293D35E72F3E9F40FB3D0296BABD1BD722BD0E844CBD2AF990BAA9B0C93D4213993D328402BD3B0E7BBD3B02B5BCA7D1E73BE69C003D823F273CEF4182B991058ABC83FA99BCF76B7E3CA6697EBC341D0D3D80DA333BC737DD3D62F61CBCFC2EEABD8FC7853D9E91CE3CB164813D0645EDBD25EF13BCC5097D3CA8281EBD8B6198BC0C18CEBD8218F8BD9F13283D0E68E9BC68EDDABC63DA09BB4DD958BC997512BB68DE77BCCB34133D93F74E3C9A4BD7BD95B896BCBAF1063D22312A3C88DBA83AD81DFC3C30B11A3BE7ACE4BC9737773CEE34313BEE7E3C3E0461E5BCDE014ABCFA43443B41EADE3D48078FBBE0A44ABC34870A3C00884C3BB4EAE9BD095BBBBD76A4B93C6F04BE3E123EC1BE1AFE43BC56B5CC3CF81BCEBE0620963CABD4F53B886EFDBD0A6988BC7430F0BDA755F93BDE23A93A608A043D81C788BC52C147BCCA2434BD25E8073B649DFCBBD1BF67BB357D8F3E364414BB0F5EB63CA69910BC90C258BC36D47CBDC7F1A5BD1B66F4BD88660CBD46050EBBC72AAA3B05EC01BCB53620BCF79E1FBC5383B7BD496DBABB033BD5B99F12F0BC5B95F2BB0143C3BB84A1A9BA1650E8BC2AE41F3C43D123BCA9B9E1BCF4F1ED3CF165493BF5CE2E3B8BB9F8BC998DE9BCF41DCA3D096C21BCF3FE37BC6D5A52BC6E76B5BD2C483D3C97D277BD5C1139BD6FFF59BC32DE083D8BC4A03D2691CCBD69231D3C6E6D85BC9A5AC0BC860BEEBD3A9F07BD828EA9BC846548BCB7FA2FBCB6B82AB9C4AE153B337815BBE0E160BD667BF73D412EF2BD7B1FC03C0418DB3CAF4FA7BB6359ADBD3919EDBCADD387BD482CBE3D0DFF5BBD17D8F5BC7BD5723D99C1F8BD934EDCBCF83716BC6EE3FE3B7BD21F3B67281FBC34A7063CACD9B7BCF2E37A3AA596B13B8A3B94BD08454E3C8AD63F3BACA17EBD039DA7BD8D6E9C3E04736BBCBF8C26BC031DD5BD475916BCD7EC0ABB9D5A323D87A640BD59AB973C29A92CBCF6DE2ABE0FFDCC3C8CEEE6BD2AD353BD1B0192BD6B64B7BD23235EBCF9BD0ABC395E86BC4D222DBB962EEEBBB161B53C91AFBB3C8B8A6EBDDBAF043B0983043D04C8733D078D23BDBD585BBC58422B3CB4D393BCD2C4433D0D2CAFBCD564F2BC2BA1ACBCE4043ABD9323983D373705BBFE82D0BCED1531BCBCB1653C4C2DE73D412114BCDD8BEB3D28593CBCF4F8893D1F62523AC8E54CBD0C495BBD13D6983BB52A3A3CACBF88BB8EC437BC51CB753B033DAABC429F28BCEF179DBD22480FBB9D8028BCAD5431BB7285EF3B129DD63D77383C3C3CB98F3CCF655EBA05441DBD9F0DC43D90D757BBC4E2883D62AC3F3AACF58ABE2241E2BD3ACAF03DB1E406BD651590BD0482C33B9A5521BCC760DA3E76EEE03B7A3EBDBCF097F23D2F301DBB86F05B3C3D90143C90D135BCEB1961BDCA2976BBA57342BC25AF2E3C4ECEB7BBF875393BD1159D3CE06C9ABC9C7598BC4F6D2EBD4ED8F0BD8E27933CCBF406BBEC62E6BC3BCB8B3D8546C9BBA2D672BB94FB193A648BB0BB6E306FBCBD573B3D0104E6BA7D74BBBA68A2E1BD317DEABC130B8C3CE2F216BD1D65913D0E58C2BCF3E0CCBC14B4983C9556193C3D13453C09B39C3E82541BBC5F5E7EBCCBCD9E3D727DEBBC240318BCF1A665BD9F9F82BBEF00013CB8B47FBC5706D33C7AB2A53D38DDA83A1634953BE2EC31BCB3D090BD43A3B9BD9E8C6F3CAC9A9C3C95FBF8BCFE8D7DBCE7EA183C0A023EBD2160833C2F98C3BD0E5BE2BD4AFEE63D2D784CBD6550D1BD0753E6BC3A6EA8BD88EF103AE305CCBCA66C41BD09E92ABBEBE9ED3D34DF33BA8BCBACBC05D52EBC238722BC4A8D40BB8F60973D654FE13CE874503C05A95B3CE164A4BD439B4B3C7CD5283D186B483B4053993D77EA6FBB5BC1B1BCD42589BBE6E6613BDCB6433CBD57733D4AAEBBBBADD3D3BB0544433DF5CC723C31AA50BC13EC363C63B1943D0863F63C07D8653B5411FCBC6C35823AF682C83D1C8FD43CB99AE53C5457813BCDF8C8BD85F3CABC577FFFBDA38DA03BAB8EC9BC35CCBFBB2BA1D83DE8F24DBB902F2A3D27BDBD3D1EAEF03E46FE3ABC0CA4B63E26795D3F1CB373BCC961A63D0B682EBD5F36E2BD53BCF0BD19298C3C690F45BB9BD6ABBB9AC7EBBDF6B8B3BC6D4ACABBF21B0DBD8388AE3E72D45BBD62B60B3C9CD8A6BC415113BD5CD1ECBD1434EA3C18283BBD882B463CB19469BCC474843C1B58703D06E6AD3C3013813D91F541BC64721D3D7E3DC03C737DD83D9AF4A7BCEA86183EBAB2C9BD32F1AD3C29A3CFBD4AFC5DBDD75B1A3D461E273BAB8398BCF41EF53D84D275BC0CAD2FBCA907BB3BC706513CDC88AE3C8A56D83C8F6E81BBE219D43D01444ABD58134E3BF84087BCF4B3913C5F2776BD14A4133E93F030BD82A70E3D5EF829BBC473993CB7E463BD6E1D443C4A6C10BC4767FABC254972BD83D63CBD0CDF353DA85D9BBDFC18993C043B003C2A04903DDF3601BD1918C83D0BF572BD5CF2A3BC7C57C5BDC9ECDCBD6067CB3C6B23BFBC3FEB8CBD3E06B5BC47DC703CCD8C44BD64BF67BDA11FBE3D9F4B37BD13C640BDA4C7B6BCA0C2D7BC4A7982BC094ACF
BC7F8C60BAD9623FBC1453EC3C22A91DBC170CBABC0F2B12BC42B0E7BB0756F73CCA6AAC3A82198ABB5984C7BC176C31BC4A638EBBB75115BC181FBC3988E6F5BB9A34F0BB774C38BB8A5112BCBDB5543B8244A73C96BC3F3BBAC6B4BC01F1CCBBE3028ABD03EE523B1746AFBC1E3026BBFAD0D43B8765E1BC965EBEBB98DB4ABC1AED56BC11E6943CE590CABC9B4CF9BB912601BB911A3A3C94995FBCD1775D3C0CE506BC92DEFE3AC91CEDBC08CE5F3C65A6843D04754DBC8B7D38BC940A9ABBD2653EBCCA425FBC087CEFBC1795553C945C48BC338F7BBC6CD337BC117BAA3C30C362BC295681BCE16CF43B168D1DBB119CE0BD11D9F0BB9B5C783BDF9210BB8881D93B1FA5193B972BD03C926B4BBC498ABABBD53ABC3AB62010BA27F8ECBC337C9BBB9C5F8D3C403BEA3B8867E03B7642D73B668349BC52D531BBB99E0BBBB3537EBC1D4803BC37526E3BE6B6D13C36DFF7BC076AFEBC13406139819BE23B2CEC37BC2A1A1EBA73C27FBC6D0086BC1172653D0651383B63857B3B401085BC7D3D33BC054EE7BB862124BC41D6A1BBAF33FABB56112239195F07BC11A61FBB91BCA1BC8AC93F3AA173FA3BEE15C03C0306BFBBC21AC4BC3BCBD0BA86F0C3BC543CA9BB5B4AB7BC1D7D5FBC7EF9AF3B399F143CB9A402BC97E2273B332BE43C9F18C73C2C99E3BC3512EC3B2EE355BC1FE52DBC30A835BA92224CBC7B05F6BC36A9DABC0D16AC3A4EF450BBC18733BBEC1EE5BB8E0871BC36B64BBB9154DFBCC6321B3B8996643B9DB2973C2ECF62BC4C2231BB2BA6E93BB95303BAA46718BB21B7B13C7279F8BA883C5CBCC934A5BC3E765D3C469D0BBA73FF963C01AD71BCF3C482BC31F815BC1EEF703AC79453BC1658403AC457C439C47B34BB652F46BC199AACBB1FF8C83AEB18023BAD90973B7B14CE3B2A5CFD3C5CF1C6BBBE1D1BBB640E6FBC64970E3BBE97433A31D088BB24E73FBC848370BC77D5E3BBF44AC7BC3413C03A5847A9BB7076C2BB8AD037BAA57B81BC3EA5973B218E86BC80B681BC9CFD3A3C248021BC3E8F28BC9BEE0ABACFB8E73C9B8C01BC0F8127BB3954573BB21BFFBC4FEFB13B24AA023ACAECAE3C54E7543BE49BD4BB1F22A63A2A09563BCE14EC3B3B69B0BCB470DFBAE58D803BB0FEBBBB95579E3C83F613BC110AA53A9D6666BBC608603A2EA5FCBCA259F6BB0BF0E7BBA01737BC85DC90BC46CA6DBC41C5BC3BBDD28EBC2E7B1EBC716C653A9FD6EABB3A3180BBDFBE883BB75666BC493A6C3C00EABE3C17FF93BB3A0C623D1C6B743C0D912B3BBA58263BC2C9B03BFA21BCBC1FC21DBC83A676BB3687F13AA3CA933C049E863C00717CBC1D2DFEBC97446BBCBFE75ABB3F4285BBEC661CBC5C6332BB9A9C013C770BA5BC685A24BBAF82DF3B9BA8903C27FA3ABC2C8E9CBB40BAF93B8C82A8BABDFD85BC0A7A4ABB1F5FFBBB620200BCA338DF3C021F043B40C1B43A953E97BB594CBF3C2FB4293BD7469B3B0980B5BC7F91F1BC16C65ABBCCE842BC878869BCB7E750BBCFFC4ABBB8299DBCC37DC0BBD38E33BB0A080DBB2C659DBB59AA65BBA6EAFFBB8A2C5B3B03AFD9BBF6BDECBA2956CFBA3CEDDDBCC9C67EBC42A5D7BC4D7531BC7905803A9C34403BDCA101BBA273CFBC660D05BAF07DDDBB463C3BBA0CF610BC7AE54CBC22A595BC29EDEDBB883FC5BC8EA26A3A2C0060BC17BA7BBB2120843C7C7B4CBC1879BC3BB266EBBC54FAFDBC5924AA3AE48A8DBBCEEF84BC22A3A93B99C610BC1547CCBC1541E7BC2C50CEBC7DFC1EB8C440A6BCBAE99EBBEA792EBA0E80ED3AB09EA0BC0F4EEFBC7E5116BB051C1C3B412F4ABBD1344C3BA69A91BB6D83C2BC6302823B0E460CBC88925A3DC263B33BF82F37BBBC3521BB95DAB73B4D505BBBD022B4BB0711AD3C804CE7B9C5776CBC1EF17CBAAA6980BC87DD81BC4768F53A8B3E1BB9AB967BBC203388BB1F53553A88DA78BBDEB1BD3BA27AD8BCB8466B3BDCFE11BB8FB53EBC48F0423CCE8E073C403AB6BC3D67D0BBC15259BC9F43BDBC2A13DB3B799DCA3BD4E3D0BC3D3323BC89D4F2BB86D5643C8291463B99AEB43B33A22ABA2254873BA73785BA52B8C6BBD3A368BBDC420CBA72460EBBB31713BACB60F4BCF027223B966F89BBC4775639A4FB4CBD010032B9A7EF96BB4ADD27BC97BD7C3BA3D6DA3BE352DFBC48A570BA93BC10BCAE7134BC31515FBA89F909BC094C3FBCA58E93BBBD9C753AE0F84C3B8D11DD3AC1D42D3F75E2ACBBEF622EBBD2DDC0BC0EFF083C41B4563AE3714F3B85ADE8BC464E97B9A6C19A3BF8D2A2BC1F595ABBBFB3793C6F89EFBB826B9FBC1E457B3C17CC21BB978241BB3D7BB03B02DB3CBBD2F20D3D2C67FABCD55DF2BC4CA262BC41DE11BC401B8BBBF6D508BCB767F3BBAAB221BBEC8576BC2F7648BC646257BC17AE15BBA49FC0BBFC6A00BC59E1103B284A633B8B1A5A3C6F279ABB8DECF3BC0C8FD3B97696CDBC0FD26F3BFD2CD4BCBB0FA7BBCDFA01BC06B9E83ADD28EFBC020433BBAE550D3B198827BC28DA20BB92054F3905FCA1BB1D104F3A026650BB0D9171BC03E70239A5CD39BA9053EB3C2D55E53BF8F49DBB5CCBC2B932838E3ACB46743AB37C33BC29D2F83B277A42BADA5EC2BA127B6C3CBAE88EBB0E0800BA96D01F3BE2EE6F3BD470033AD2D32EBB9BC1E53AF7B00D3C7315EB39520737BB9D33C0BB2174A33CBE112D3B5B33463CC41CC4B99A00F6BC8FA562BAA55F1CBBD96D60BA11291FBC1493873CC67B8DBC0C752E3BC56D913BBB1B0C3B2CC750BBEFF2CEBC85ECB2BC8E9722BB85F705BC5B3CDDBC39A17BBBE6FB4DBAC08BF4BAAE8CC7BB56A76DB9BB4D9D39684D11BB686337BB788473BC5A1FDBBB3BAD4CBB9558B5BBEF444CBBCBC588
