3C2DAB96BC99D72EBC87D2653D3CB707BCA39FB3BCAE75A53C2E6958BD32E3FA3D92A6493BCA7F3F3C8C5BE33DA6F879BCF8FC54BC7476DDBC3FF6A73D4650F83D6FDCE33D49A18DBC1F101C3CAA9504BCA69088BB40735CBBE7D673BA742A87BC8C9DE5BBF024763B9A2A1A3BDA4B5039852B663B9AF5553CED408DBC879A5B
3C50D6D33B5C0ABFBC8E5CD5B9AF51CBBCB6E0DD3C025DCD3C3648D0BC29ED41BD26FAFF3CB548833AA7201A3C3396643B09E0DABC3AC47CBB26D26CBC248082BC516BA53B4161123C7276513BA386B7BCB212DFBBFA3D593986BBF93B03379B3C8483FEBC0B49553CCAF5903D3BBDC5BC3C469239A848B9BC930EB039D3565B
BC926F5C3D9E38333C44E3ED3C1906DA3D46BD6F3D1540503BA907C13CEE63723D1B18BE3BEF77CF3C392A93BD827B823C72518ABD1DFDB1BC03A9C1BCCFCF3E3CF2DB473BBEB6B73D686E06BC7FA17A3CD516613CBE3C8CBC463A68BD0C1ABDBDAA528B3D499186BCBDE525BC2111C93C91B85ABD202185BD5CCF66BC06E8A1
3D2AD282BC922320BD03D868BCA5E39E3D368880BB1F6D3E3D56E3D93B866257BCDC2424BD486A3B3C83BA8DBC0516683D7DAA6EBD36CD6BBBE0DBE83D7120D23C92DDB13C8137983B90162C3C6C86773C895AF53CC3B06CBD6E72E8BD00583D3D06D350BC5064C9BD4729DC3B8DF900BD3223963BF5BD3A3C5DD6FD3BBCB4E9
3C5E837F3DDA87AD3D285DDB3D07BB5DBDE1F11A3CA8EE3A3C8D00EA3C7058463D529F6B3D2BA8B23CA9CA533D379393BCD00D1CBCB1A3A93D33FBAB3BD643463C1FC2A0BBCF4D12BD15F066BA4CD515BD02010FBC0E5AC93C9DE6AABBF45E893B6DFC213D500139BCFCD8273C9EF9C0BC51936FBB9710C7BC3CDAA9BCD1F27C
BB66D7F9BCD8885DBD24F9DCBB0E26153D459D813CBA19B73B9759E4BC881829BDC1CD9C3A1FE43ABB9080EBBCEFF970BC78ED73BBAFD70A3C259A90BDF05F0B3C2910B5BB8179883CF04A3BBBA0B9BA3C3D9B823CA2C79F3C417D9E3BCC0061BB51CA8B3C8B008EBC394D77BCA158743B44641A3CBC7E90BBBECA183B936C18
3CC39FA7BC6B5348BC56CA5E3BFCDFAE3C9A6E103BC1C3D43C80D5CE3C23D2E2BC2FB1893B89FBCC3C5A70ACBD07DCCEBC0F3593BBFCA6BDBCD504CCBC530829BD49BC3F3A2AB9A3BC19DC923D0E98263BA6E3E7BA1C48EFBC5C5020BCA64BE4BD5589D9BC629E85BD36A29ABD5526A4BCFDC27CBD8594D5BD2EFB6F3BF10479
BD4F0A03BDA6D92D3DB5C94ABC4596CB3CA4C61ABCE411D23B5DF09EBD22C5A93CFC55003C4835BA3C1F38613E3D7D5C3B30CF03BC7C1D1D3DAF33653D00FB5EBD50962CBC3F11623DA3BA8F3CD9D5FF3B931FB1BCBA4907BC06FF343BBE6C013CE07F0DBD16AE50BD4B65843DC5704F3D3F8AFA3CA8BE1D3D216B413C661A78
3BB2F4CABD875DE73CA164C73C2DCA46BD6AADBBBD13409B3CAB6D663C67D0773DBCE7C4BBDE58853C5439BBBD196CEFBC8A66A5BC08A3213C00731C3D1343743D2FAABCBD062A4CBD40EAC8BB2F06F83B8D76983DE8A63C3CB5F9573C90BC383C85D320BD9EA367BD16D505BD3DF8D8BB343E86BC1702EF3953A75DBCC3220E
BC7C9AA2BCC6DBD93C49AD75BCAC1216BC192E7ABC51F5F7BD11BD133CD4F3E3BC9E0ACE3C4EE0EF3C5C04E5BC1E0EF3BCE4D6C13D112B053CF94564BBF6FFC0BD4402DDBC4818053DADD8F9BC5751F33C7B2EA539904F923CFF34B13BDF93C13C40F9BA3D73342D3D1398D33CE2C91B3C3410F6BCA64F663C35900E3C57B88B
BC5C75373B8ED39B3A740A55BC84F73EBC8FF7683CE697FD3B02A231BCAB0438BDCC6A35BC4122B9BB6B44063D2CF4323B2516D33C97C0943CB9C413BB2EB51D3C297EB83D5C41293CFD49713C0FF114BCCBB1DDBDD39A3ABC41E7DABD11DB78BD9E43583D36BBE8BD9C57C13C96B06C3CA64FDAB84539C8BBBFBA0DBA8F0F15
BD8B0F8CBCCBF177BD22DE5D3D6E69DF3D3261C73C80F1F9BB9D7F26BD0347BB3D91957BBC548B3C3D048914BE03A4F4BC9273BA3C117E2D3B8C35C1BC0E97783C00A0E4BC60F007384D2396BD48520A3D14C1A8BD691ED4BBC1CC29BB563EBC3D0AB33EBD9540AF3DAAAFAF3D01697E3D6D9890BC72A6C03D099C4FBD106995
3B6191E8BD8D9D633D8DD5633CA5D9E7BD8D6715BD0CCECD3A6E53FA3DAB54323DFAB9533D10E4BE3CC1C7673D88D3AE3C4602B7BA9E8E2EBD81E92C3C230843BBD244DCBC4A068D3CDF02B03C1BDFC0BD0BF9F53DBEE4C2BC412EC13B3E31FC3D202D5D3D1EF12C3C188CB5BBF51D123AF15E8ABD77F81B3B63ABC8BCA9A0E5
3A2532B83C8BD8D53C4E407BBA99D47E3B0C1B6238B159EF3AC4F795BDCDF43ABDF68DAFBCBF10E9374B0298BC99107C3B30E0A43B6AA5DC3CD0F193BD67C09CBD2DC09E3B71C9A7BC233A78BAB7A8F1BBED24A73D6C0DB0BBF8D32BBBBA68FB3C85B58A3C2F6706BD0521B0BC9ECECABA804910BB16CA953BF5A5AD3B215EB8
3C43BBF0BCF4CAAA3B1B3909BCEF86753D2A8161BD17E973BC1786BC3D4E42E63E25125CBCB97A10BB61B6E13C963D893C8647AD3BB7D309BC8215353D2905503D853136BBC09F9B3C79C8173CAF1E1ABD4A51F43D8E93F13BC3CDCF3C84BA053DD63A8C3D90A0C6BDC8D368BDB6C756BC9F7E79BD42B0A53D4A75923B063333
3CB29DCE3D1A4D3A3BD017D33A97D1F2BC8279BABDD05AC03C83B1F73C646C37BD205F613CC0FA40BC85D784BD56FD9A3CFAF9ACBCB0BFF0BAA16AF3BB0902EB3DD5DAA13D0026843DA58662BC3D8322BD545A9A3D88F8A6BCD4E998BCC279A2BD41C97B3D92C7403C4259FF3C447B82BC9ADEC8BBAE5942BC8CB746BC5C416E
3DA2FB933BFE1E0A39F7450EBD43F92CBD6B3F2E3C6F3CE73CED5CF13C8ED6C3BC1ED102BB4DFE7BBCC524F63D2DF5AE3C12642FBD157EBEBC0F2699BD5C0D3A3CE50BA83C5B32B1BD33EBC43D25D5F9BD188C733C8B0A5C3B223BEFBC03368A3C23C7DA3D9D7EB0BD9C4FE6BCE92CFEBD8D6F533C175D0BBD2024AD3C94A3DB
BBC6E367BCB62BDB3C9E91A93B4C4CB33C909532BD08FC88BB55A112BD00F6DE3C5703B8BD013D2C3C9A0C0DBBB18955BB7CAF02BB91180A3CCA4EBB3BF45D013D02DFF63B991E0ABC617235BC9841EFBCE269FFBD9010D7BC099255BB30D05A3D4B3468BC6F74723C0253623AF7B3F83C299A8B3AA472A2BDF785E8BA9F0B62
BC18B30BBD9C8AC3BC53D1F9BA852FECBD225342BCBB35D2BD26899B3CBD1B163C78F39B3C76CC1B3C85E4433D7EFEDCBD0EACFB3D37225EBCA41E77BB90742A3C3239B1BDA5921ABCDC5CDEBC810136BB7A680C3B74DC313D03130E3DA00EF83DE30299BCCF7E5A3DBD7EBCBC99508F3BDDFCE3BB9839483CF99F9D3C4CA21D
3CF7BD58BD2D33B93D5F3180BC3DD87BBD73FBEBBC65296A3C776C733D180B773DDCD3623CBC04FF3D98C710BD84ACFBBC3B6904BCD3D6D23B31B4D83C62BE5B3D757F30BAA494063D9B03BA3C45470DBCD45A2E3D6D64FDBCCD35F0BC32F76EBDCEA4803CEEE6603D112E9E3A9F93B3BD03146ABD1F710CBD18BF163BD3C74E
BCB3FB21BCD1443E3C811A803B99094A3C8569173C225D813CB04D493CB14FBBBCEB031EBD1E8E333C86A66E3E7B0D3B3C79C94FBC5421C8BC0B4D0A3C8933DBBD07DECABC67C9593CB78886BC188C943C2EA38BBBF6396ABC5E4DFA3C238926BC55A50D3D9067AABCEC5855BBF1B0733CE089EEBD29462D3C8A786B3CB9B197
3BEDA474BBE2AA003D545ED1BC1370353D14A9A7BDAC4B8D3C4B3E1D3CB971B63BD743713CDF8DF23B8D7A75BCD61FB5BB8AA39EBBE151CBBC529F343CFB840D3BB44F073B7279C93D11638EBC0C223EBAF2D1D7BD674C343BDE6E363A6BD3A43CC9BF3A3CF1501DBD25AC2F3D094DA3BC63DEF03D3E315C3D20DF943CBE90A8
BC8A576B3D8574E9BC8E28ADBCEF01823CA2B6243CC74498BCD703FBBCC2F716BDA377EABC458D7ABCAE309BBE1DDE653C989CF13CD0C2383CA6BD42BDA6424DBCD86CBA3C526FF3BD6ED9023C777A3D3C3DBA66BE038C3BBC68C86D3C4C69B0BC7BA5323D31FA443A80747C3B3AE7E13C48C6A83D408AF33881FC553CF49810
3CCCA74EBD349808BC74A4283C71AAECBD68AC00BC24C6D93B602AC93CF9A7F13BB0C014BC40B7FABB6889F93C23F2E83D4DCB68BC0955D7BD6CA875BCC66BC33CDA03B0BA3613A9BDAFD7953C0E292B3C9370AC3D8084EFBD172BB8BC2CD4173C8B7043BD92FDF7BD8ADCAABAB8EAD6BCAE55E53D281AA3BC951F67BC8E60D7
BD15ED36BD125BB0BDA610CA3CB895A63CA17271BB0C106A3D21FBE5BC5F38933D7D56A3BD508AC2BB250216BDC71E59BC9CC62BBC808596BD5F62F73B7CA1F0BD3D36BBBCEF932BBCE38B8BBC7ED25F3C90CBA4BD922AA13BFD608F3C05112E3D3F76343D2DC6653C9E38E6BD9015F93CE6BCF2BC62A4BE3BB0E49A3C807024
3C924C1D3B985F753AD7D8473AFCE1DFBC4507683DC66A113BE9BCABBD1BCB3A3D32FBF0BCA9AF41BC5AFAACBD1E07693C89770CBC3DF74B3CBE89263CC8A6423BCC13113C70F810BD217B593AC45EB1BC811FFE3D4175E7BC4C56FCBC4DAD51BB88C241BD066614BBFB0C80BD139334BC367F1BBD0652C6BD04A0B6BBB091A9
BCEAE27F3B9CB5D63CCF0D1EB9B080FB3BD5954FBC51F175BCC1BB1E3BC00084BD4F0D633CC21C23BC107F9C3D96B59CBD818DAC3CD34F1E3D2E1D433D1A812DBD7A0317BC4DA4F03E01E4CEBC4FC2B63AB56E3ABDB59D683D529AA53CFF7A883D2C31233D63879A3D4DDFC0BC0A7B373CE34ED7BD10637D3CB3F9583B257C4E
3C1C3F903B7B92773C694D0ABBE18FA43C9BE51CBB610076B87A6F0DBBBAF33D3D2C093F3D19F8F23BCFC4AD3DC2B44C3C0359823C1043DE3B2E15083CC162B13C40C63EBD1A8CC13CA78202BD541283BCF59A8D3D889EEF3CACD1403CB3F2C03D68F8A2BABE6F9A3C9B0DADBC2729CE3C68C541BD2154EC3D32CF8DBCA5BE16
3BB843EC3D7F65DA3C9D6F5F3C8AF22BBD08418DBD3173223BFEBA19BCFE34A0BD0DD63B3C8B6A00BC58FE1D3C5CBA88BBB7BC30BB8923B7BC28A24CBD5A3E18BDDA4C423B5DDDA8BAC2EAE4BB2BF9143BA9ECB2BD8D2DAD3C0D3AE73B812A6F3C5A46ED3DE5EBAD3CF463D73D3871F1BB9189BEBBF44D773BA42216BCA084CD
3C52CC173D38738BBC10FE22BA999698BD8742ABBD0F56873C9AE8AEBD927272BBECC5993C3A7D1DBA025A7DBDB8CA00BAE6186BBC9B99703CC8D5BEBCD816C7BD0BD31F3C81D75ABD7F7314BBB3E8A6BC0FA6F0BD875A81BB8A4BA4BCBC73D2BCD02EB73DBBEFDBBC85E120BC0616A1BC55624B3CCD36E9B9D7107ABBCA1433
3D3BCF7E3CDED584BC65AB53BBB25E5A3B4A8C74BDFA654EBC6675223D34D328BD2E57683C2E82E8BB4AD0423CFE862EBC51429B3C0625DDBD7A75173AC5FA823CCD53353B8CA2213D0FDF853D1B482E3D0B39EDBCFC646FBC032F7CBC43541CBD1C02963C1C6ACABC06F2DEBC0C8323BD5B6EF4BD1941203D69786E3CABF282
3C87713CBCA2B771BDB19EDF3C6C9548BC4365C6BBF785253B354ADF3D4765513D86F036B9BFDED73BF6C600BD302DA23CB696C5BB978DD0BB92FBC03C724109BAD53B00BAB14ED83D925BBC3C8AAA86BC303C503D21CCDBBC81A7F4BC0594F6BC03F83D3D18D5493D0D7A80BC105507BC820C2DBD69FB9ABCB18035BD045F1D
BBD122823C88D37F3D1B4701BC07D6E9BC5C521A3CF1541DBC8A5B1DBC36CF66BCBEC6E43AB294E43BF429873D5540253CBB09773B3D5158BCC98A9C3D8B8E183D9DAA133B6DEC8ABBBC49A83D66CDDFBBB44C62BB3623093BB8F0FB3A85E52DBCDE80CD3ACD1BE839A626263C4E9F083C670FDCBD1040F5BCECEF0EBC4F838F
BC8C5015BC08BE273BCEFABA3A4DCEF1BAEC9784BCB2052ABC8D6D01BC965680BCD9670E3C2249403BD181F63BFF75A53B6321FB3C8B02863B8B788A3BE6D80C3D5562E03B6138CEBC9CD6C03C3AC516BCAC2E7E3C8CAA13BACB5857BB6DD3C83C5770B23B47F3023DA6BBD03DC19BAE3C7D92ECBCB15282BA7C3CCFBBE82F23
3C501A253C5A7D97BBC1BC7B3D3BFB013D5C333B3C8EB6C0BC6F3B43BCC4FC0A3C2F3786BC227C56BD8D1EBEBD0A3D3BBD07131C3C9DA884BC9790223CB646E73D9624633D4B2082BDF82543BD470077BC1B469C3D8DCD6539C0FDE2BD949C04BDA5D4DDBCF587553C0BC5E83C6EDFC0BC9EA5C7BBC2E136BAB2B73ABCAC8848
3D922EAEBC9DED68BCB5D164BB9E9DEC3D5ABA55BC6403A63CBCCF01BC03AC993BFBF1D6BD83627A3CA44921BDBFF68E3D1CF4C2BCD139EBBD63C3433D7699633CA7B3753CFD4F1CBD1B3BAD3CF643F03CDBCA6E3D6E7913BD642491BD49B5E0BB8E85663CA8FADA3C586C1D3CD2B239BD87C4F2BC241D783B8E5BEC3BEC9CA4
3C2904603C9671C53CAE4CEB3CB3A3A13BBD9A4BBC647C773C00C9D8BB0C4B873E0EE7DABCD3D462BC7F882FBD415BDDBD63398BBC867FEF3DA3705C3C0A591D3DC3B8E83C7AA0C3BDCB84033D08FBA23C8A41E5BC175E293D2DCADEBC800CD0BD14E64BBCEFC2483C34A05A3C485E92BC2CEE623D7664AB3BE39E16BCDDB0A0
BC4D6D80BC8E0B59B9CD6D06BC1DEE033D7FEC7DBBEE1B4DBCB3427BBD951274BDCBA43A3B32BE3ABA67A194BCBD7E4CB9BAB40B3C8F7FDF3D06EBD4BDD689B5BC0CB64BBC0A098FBF061E8B3C16DCDB382242093D523C8ABBFB83043C073BDDBC0F29343C95B4B3BD0FC2BF3B5C46143C1CFD553CBABE6C3BFB74C43BB070B0
BCE0B03DBD4B650EBC2FBC2BBD2FFE333DEC12C23D58688A3C9B6225BB3E69F93CB030C13B7544303CC31AF5BE2210AABCAD0CA1BD253483BC960286BCCD761E3CAC3A24BCD8A3C6BCCB25BA3D32C6923C5ACDC23D7022AFBC8484D43C29EE28BA9F3A5EBDD43FB9BD8AFE043C8F70DB3C89D23EBC9CE2563BCEBB063D3464A1
3BDAFC0CBCCAA38EBDD42508BBBE59EDBD59144EBCC1C173BD8233323D60CB463D42533A3C0F0A33BC90A6F43E9CF062BC2D88D43D6B632FBD888E843D86CCABBCDECC9F38A364AEBE2AC6F6BCCF64D6BBFF5881BBB8E3D43D08C3DF38EC29B4BCD9649C3BF6A76F3C35F6C0BE00879CBBA5ED4637B65077BD26CE243B5A3203
BBEE9C02BD49C21A3CE1941A3CA8D79BBD393EBF3CA5C02BBB91835FBCD54D68BD0C57D03C1A8D8C3C58D9E2BE0AA631BC2F30B6B899293A3CD9D81CBCB637603D4BD62FBA8AEC6E3D57E4D4BBAB9563BCDE1ED73E098B273D0527DBBB574CD73B7E06113D44F1B0BD814212BC83930A3BDCC6B5BC9BBB30396FB9E8BD105BA2
BC7F3170BDE004ABBDC2BDB6BBBC99413CCFB014BD1973D83C159D61BAFB53593CBC9E713C3EA5423B0EFBE23D79D1673CA97CBD3B789682BD2BFEC13CC2E0F3BDC943A0BB8A6BAB3C2089D3BAA6BA98BCC8B6733DAF4C4BBA036AC13CB70281BD9395F2BC2888883D1C2A943CBCDC6A3C9E83AA3C9CAB3A3D317609BC4337CA
3C80D82B3D14FB77BD0F0272BBDA3C973DB5C23A3D84148DBD14FD8A3A264BF7BDA5DF4DBC289570BD1A98513E07FB5B3AC20D0A3CC6EFCEBCC526B8BC910825BD95F72F3D51F35CBD3F84293A8F6BBEBC833F16BDE9AE213D324AE1BCAF7E87BC9EB29EBD0D24B53C8C67123D8A5A793B98D4633CE91030BCFC7191BC95BE0D
BD680E5D3C34D8473D84A9003CFD33B8BDC86DA0B942208CBD989ED13C2B73D93D1243FABC704833B9E91DCDBCD99859BC7A15283D959C113CA1AD3C3C7522A0BD12E34F3C28F7233D3EE5A0BD5387063C7303F3BD2C3BDA3BC61B3EBC0503A2BC36810F3DC199B13C8C6C0C3C74B8D83D82BF62BCAF31043C7DEE17BC225C05
BBF133DEBDF7A4E13D42A37B3C7EBC373CCA43CCBC1CADE8BD1248F43D6F09D83C73DA6C3CF810E83D20F22F3E0ACB403AB661793D07C38FBD9101FBBD0BE94E3C301CCABCA0F957BDA2F8C73BD434A4BC87C4743DF55CE7BBE3D047BA954DBBB9AA244FBD836002BC2ADC18BCB43B913B6AD30FBD3D064EBCDF11FF3BDC4E1E
BA536D2A3BD96AEABD4C1C99BC106D283D013CAABC15703A3BDEFF0ABD98A967BDA77CE2BCA6372DBA7CC647BC82512B3B9DC470BB1AC86E3D3694363CDD53A63D2048FCBB8EA2623E5B6094BC1B2A9EBBCE121E3CC977E8BAD4345B3A132E9B3D21B369BE37C05A3D194539BA516833BABAC7313C3FF31DBAC464203BF58F1A
BCE46B3A3D25627E3D888921BD6D5371BD2622D5BD485792BD1B02DE3CFB4AA43DB933BFBD9B2817BD66F9033D9446973C7E40703C9E2D2A3ACC883C3C8289C13E05DF283C38A29ABD1402E53CDF169EBD955AFE3D964E37BB84BA9BBC20D3183DA294D63D059975BDAB0BDBBCB39713BBE60FDABDA0EA4DBC0740393D5F9FA8
3C8E7B443D4CF520BB19EB923AB8DFF9BC6A3628BE06AE5B3BB930FE3D0CBC53BCF0CD433D25950CBC909E1CBD26E5963D4981ECBC67671C3CECD82C3D246F2E3E0CFC19BBA4E3D2BA26BED83C627EBCBD3A44B83DEE2BD6BC085D893C23BF54BC9D07713CC560DF3CA0F47A3C2002D8BC2DEF92BCBE38C13D5190F0BC6F51EE
3D8D6F2CBBE0DC7CBD4274AFBB3EECEB3E022AA33CEED7EE3DCE24ADBCE9E7C2BC86E9FEBD2E82CABB8BE5663CB7C7E53B593EC8BDC4FA79BBC25FA53D69C6AA3D752C373C9BC30FBD87C55F3D1B5B1CBC6FE8333D3DF457BB843DDDBB10F43E3C4A3F11BD9B1176BDCCD272BD5656BCBD8E731438BD8C2BBCE61358BC5B1FF8
3C09838C3C56833CBD22EA0C3B9822E1BD32054BBB9DA87E3CE650AC3C6BF74A3D97DD7C3CAC4F0C3CDC07BBBCBCDEEBBD5BE6B7BAF491563D2F71643D79206FBD4948B43C6C0066BD166ACEBC9CDEDCBC39BD28BC8DA010BB4BB8E7BC435F30BC0139A33BBB217D3C15701D3CAF7340BC46BB393D49C06FBD9A2ED9BCDA52FD
BDAEF097BC693B553CCF1AE5BCC74C04BD5F4D403A277C3BBAC705813BB7C29D3CAD26FD3CBEAE1E3DC42E89BCC3B018BC85A56B3C62CAAA3D4872A83CFA84C23C9478DCBE0196E23DD16F653CF0B2613CB255773C38402539A675223DE413E23DDAFB433CB2F03EBC445A17BD82F7443D9340FCBD53E3AFBBA6CD243CAAB4D8
3D353504BD82075A3D15CA14BBDFE26C3D5EF8B4BC2F09B23BE93C3E3CA143683C221FD33D864EE73C497ECA3C31679E3CEFF38DBC950738BC122E92BD0197CD3D229532BB44F9E4BD9BCB08BCC72172BC44C8633DC44A2DBC551015BCA228AEBD8552013D250A2F3C96B061BCDA65B5BD1A2F793C1C5345BC2F1E03BC3FEAFE
BAACECE2BB4653FCBC640B6ABC8363F1BD874296BCCB09ADBCA9AE1A3D8731753D0AE6C5BCCEC0EBBC3295C73E2FF21CBC4C99D23D05B7813C8E0C4B3DD37917BD5853C2BD9926953C89AF6ABD81403E3BF56923BD243BC83BF3C9793C2F34BD3CAFD03E3CE318A5BD062856BB219F58BCEB57A9BB33376DBBFA1364BCF102C3
3CA29EAABD10BE47BDDA64EB3CB0FA7E3DF4FEBBBDAE267E3D3C9C833D2E0C533D628E35BD48C8ED3CFA71663C714AC93CFF6BEBBCE8CFB73DD563B6BCAD2EC83DA0153F3BC659B7BDA1625DBCB5E8FFBC826A5BBC15D746BD3FD7E0BC11219CBC4F542ABD17653D3DC4948BBC1A22E6BBCCFD57BD09CF7C3D29EB99BBAC65F5
3B6BF7513D778DDC3D075D10BD35C151BCEDB2DD3D46AF163CECDA173B9C377EBD9741E7BC8926AABCD2565EBD4C9CCD3CC90903BCE564E23C6B7524BCC63181BD28F28C3C267F7E3D052D6CBC69BFE53D1C28F5BD950BF1BC785073BAE9268F3BE169C4BD859E393B820FE6BB2B79E9BB8359533CD2AB5F3C7739563D1FE53C
BCD375973C55B3A73D8C24A63C8A65023CBF1BA9BD8650EB3AA82F06BCD807193B98BEB5BC3E751DBC08C4D13CF886993DA804DCBADF176D3DD8DD323D8E273B3D8940693D2157333E39075E3D08D9B3BD4210C93DE698A0BDB319A3BD32333DBC81F9953DBB246F3D8CEE3ABD6DF2F53CD7B719BD2074B8391FDA8ABCE67BD3
3C951417BD3D5A9E3D5A591DBD278C2EBD6231093CBD0A87BCB59E74BCA6015EBCBA8ED7BC6E06F23D5CB8C7BBCB6B4DBCC58E293C782F763D6F7EDD3D845F633B911DB1BD45BC2E3C83A3523D1BDCB43D2859C2BD6651363D14F03E3CA91E023E28FC52BCA36CA9BDD730333C5E23FDBC29C28BBCA17204BC9A901DBC1812CD
BA9E14C83BD6C1653DF8CD45BCB08FC4BDFA569C3DB5B86EBCA162ACBBFF1373BD1F91193D0174C0BD012B95BC0D861EBB4B04A53C1034C4BD9DFC763CA30FA6BA363E653BE91CF53D4BE57D3CA9B285BB5B6E8A3D0D764C3CB88716BC4B83B3BADF8DCE3E02A6BFBDFABC40BB8BD6C7BB9B420F3D1D7146BCC32D3B3C1117B8
BAFB7D9DBC484757BD5B0D7ABBDBBE803BD0B4C93CC2EA19BCCCCE69BC9C25D43CB070883C430C9C3B54C354BCD73F5ABD57D3993CEC1244BDD9D6ABBDB985653C9ACB74BD1F308EBE381309BD02EC113D562506BDD56D3F3D8AB6AD3D2D883C3CF4EA4EBAC0CFE4BD196A7F3D2F98433AE8C9953D06AAAE3C46C6EB3CA85713
3C26243A3DBED6D7BBBCC67F3C49B75BBCF78E76BD0EA1503C381BC8BBF34DB23D130B2C3C5CF13DBC093B893E13F3423BC068FE3D3655003C7C30713C305A91BCAA6F553C8CFDC23B5031A8BD88D2E7BD33E2FD3D4AFB453A8334C2BBAA308F3E069211BD3DA764BC45C8283CA618DABBFCE2C9BD299D7F3B37FED73C906550
3C2DF755BC361C4ABC8B8AD0BB927AFEBCA53CE4BC634D5ABC0F60B5BC007CA9BDBF7B143B59DBA7BBF84209BBEC0E793B0F06B33BBF468DBC97E437BD5256F53D77449C3CDF6699BE37DD8A3CCEB1ACBC8471B0BD10ED3DBAE54B34BCC763663C0CE69F3DF058D13A7ADFAD3D0ABF3ABBFE2CAA3C06D7063AF277FF3A2CE2DA
3C3075083C595A8C3DBC6D86BCD627A33C96F4F5BC586898BD179B3EBE255D21BDA8000CBB169087BC428BAFBD6DE35EBB18C7F73CAE7F183D185EADBC0D149C3C7AFBBE3CADCA233DB7E4343D0459613B9343ADBCE5CEFCBA361BE2BCA4397DBCC938743DBFAF323C3F7CF8BC22AC72BC2B6BE2BB4AC801BC93B7763CEFB189
3D4587083D10CBE0BD176DBEBC07BB713D4C9E69BDD4D4B13D0B4AE7BD03577EBD3C87A2BC2DA85D3CE35B0FBDE9D2923A7B0D3CBD67107FBD21C227BD78FC16BBDB77373C9AC9A7BD7FFA673C4843B63AB6D3DB3CD1A61D3BB64310BCE172D6BD11A4DCBD8D2430BCC225B13C131FE2BD45AA2BBD3E7CAB3D944929BC7D47BC
3CD3DF103B7BF8633CD6AD3B3D62F66F3D0F1E34BD174ECC3CA1D93ABC3C001E3D68438D3BFEB5683D32B8F8BE66E309BD46E444BC8D21FCBC8CEFD93D3108863DD67711BC20961E3C8E540DBCAA3F56BD3F2BE03DD84C823CD3F556BBD57AE3BC90BDF03D937239BD25A7ABBD20A64FBCBF4936BC3187D93C2F7590BCD29F69
3CA3B1283C819C00BC8E213D3D06951D3D811A9FBD0AD493BC17E39F3BCFCBC13D2B527CBCC40F983CBD8C033E7867B5BD0B9577BC2082743BC4E5CC3D5F9C323DF5EEC33BEF43DA3C3CFB92BC7CF79DBACE134E3CEBA3D23C3CEA66BC1A31E9BA8E4DD43D2BFF2FBBDDE7C9BC20E895BC2CBB1EBB9D60B13D4DB69DBD05BF14
3B765EB53BA94B3D3CC2A9E3BBB346B63CEDBA6DB9FDA112BA9B405D3AB1A9CEBD175A74BBCE19A8BBBA570E3C80FA04BAADDC403BA865043B564F98BD104B42BC5F977E3C22F9B1BC0674B5BBDD6A0FBA9D38B1BC2705473B231DF9BBEF35E6BCBDBEC03C7783413D3220EF3D89E672BB0E68EDBBFD9D823C3D9A8A3C3ACA7E
BCB8B8B83B7902EDBD06550B3CF63B40BC69F9D1BD2F2340BCCE1AAD3BD1D4A83DCCDCAB3C3C16A03CC20487BD8058243C673BD1BABA314A3D0F2F4D3D35A3963D8D7E45BC6BCD023D93CA5A3D25572FBC5EE7333D83301ABCB01B12BC26B0B7BD53371DBCD22E71BC26C4973BD58D423C854F59BD8769CABD246047BCECDFD7
3C9DEACCBCD18AADBD459006BC95095D3CA8B36DBA39D2903D0122F5BD235C60BC24C397BCC97571BC0731DCBD4A6FFC3D78570CBBFB8CE1BCECA6DCBB096834BCA5A939BA9CE9633CBFD0BB3C9366E7BC892F533D1721D9BD5B97D6BC9BDC2E3D4C5F90BD64487DBC8DF7013C8251C5BCC22356BB16B0353CD0EAE4BA79A3C8
3C9445B23CB2139ABCE87BD53C40108EBC67699E3CADEDD63D30E15C3C0F58AC3D97D5E3BCA18DEBBAFC971C3D90D0DF3B70C558BD36CEA03D3E9914BD12AA5EB94B6A6C3C1B001C3E2A01ECBB0389263BCD4A0C3CE7868EBB97CC8EBC12DC08BD29E7B2BE4FC7713CE2797C3BC6A9A5BC833C4D3C8B18D0BC424480BAFFDD8F
3C04462BBCF9C03ABCA63CFEBBE835783C62769E3B83E7CB3C13BA2C3B268FABBD804DB63CAF6381BBBDC2D33C553E73BBC6FB6ABC61C56D3D1BE65ABCEB4C46BD122A613B3E907A3EC9E0B53C0D3336BCB15A7E3B89B08B3C4710B03B36294A3B1C3C7F3D0963983CCA033BBC98F88EBC074C8E3CC28AC3BBF7AFFBBAFF6188
BD25F634BC1257E8BD1D844DBC84FCBB3CA981DB3D2220CEBB3F1A8E3CBBFE05BD171524B9F5C4F43D4119ADBE078A40BCBF4D2E3C9B02463D018BCF3B8C1EE9BDB0C5FDBC2B75F13CFACA60BC12B0A1BD0E26D9BA05FA3EBBE2757A3B9EB90CBCD146D0BDC16C50BD090F9A3C8B35643D1210EBBC10A95EBCBAD08B3CB5302A
3B9F3065BD2D05B5BC309A96BB9992D8BD57A9853C330B4CBB8C615E3B918B293CCADB4C3B905F60BB0E726D3DF7E48FBBC7597A3B4371E3BD7B4354BDF67AE5BD61D466BCA1980A3DBFC4203C08CC1C3BE093DFBD0298C33C5CF6363C3A671B3C1DDAFF3CB0B8D83B1547143C83DC343A44FC78BCFA9926381D31B039D18D2B
3BF6ACB9BCC496ABBC1C7AD4BBC63EE1BDAA0671BD20BF363C4045ECBD9B9C663C13AB09BC80C851BB2BA9FCBD94F6E03BED1413BC4DD5443D7C4765BD81B4BF3C5CB8FFBC5710D3BCD783303C3526DFBD1B78133DBA7F6B3C446A563CC878253D8AFE4A3DC92D293CB58276BD1BE437BC0696FF3C005176BC9299C8BD2E02B2
BCC81685BDA23BC5BD3D34E2BB08C4773DD1BD06BD5E4C05BCD67D71BBF4D6B23CAA30C1BCF750ED3C92978ABCA0023E3B3B912B3D10F137BDB9B3C83D45044EBE0CC813BCFB7BF6BCE41922BD06037CBBD94B0BBC429FF43CEAF28F3CE4B2653CD0B590BD9584643D936081BD1A79773BCCB383BC8697C2BC96DA19BBBE780A
3D05004FBBC571DEBD9C16F4BCCFCC543C95C5EFBB33DBA63C2C0098BCDC1545BDE0DCCFBC2469C63A212081BDADD9F3BCC0BD08BC42ED673D89F664BC7664AABDB68F773D45280E3C6366EC3CAF97963B174ABDBDB00B013CA469C0BC1D9742BC54E661BDFA7B6EBD30E34C3CED2B17BCE823823C75D7BABCF7A549394385D1
3D17E5AFBD225C8B3D4CFB9F3C9AC53D3BBB5C783C1392393C07425ABCDBD83BBC46CF79BCF297D73CA6D443BE0AF418BD3AC47FBCA01F323DA31FB73CEC105FBACA31C9BC97F995BD4D5F473C805E413CB1EB1A3BCB60283D142D2D3B90074D3CA29C063E0B3B60BD474ADD3CF65D7DBD2E42D6BC31AAC8BC884D2CBCC67FFF
BB235F7FBD035B4EBC95E4D73B8F7BEC3C22A56DBBB4B49FBC9FBB63BC62CA5B3DFB35763D00BC153C20D1AE3A8C6BFCBBAF24EB3C94218EBD3BBB5C3CCA5D50BB81C29FBC76F1ED3D5DB1A7BBC2803C3B6CB04A3DE0F0973B24FAF03C47BAF93CFD4EBF3CE6A1BDBCAFF8F0BD3BF60C3B461A5EBCD0B975BC29433F3BE991D3
3C69544D3C47EAE63CA1C86C3B879DB7BD2BC0FD3C1090DF3C8EE904BD7E2536BE5297B9BAF6940BBB8D9BB0BD046C893C52690DBC943ABB3C907AB3BE591D38BD01405C3C87B544BE56E2C5BA50D66BBCB96E143C988454BC166B7DBC95FD913BAFDBA23E5F35883D1398263D377033BC67C139BB2DD6ECBC035D17BB04D825
BC8464F9BD0EF1D73D9714BABCA0536F3D4A747BBD7DC16CBC05C0403D1DB0273E24C9BCBD63C8A1BD8A7527BE2937B7BD354C5ABDC30223BD11BAD6BB6B496A3DDEBFD2BC8B0776BC988D603C46708ABD536FC53CFA40AB3A8533903B8768EF3D11F3FF3C2BF279BDD4D726BD80346E3CA66B46BD32FA703C13C1D53D0E6C4D
3CA27F493BFA56F1BDD711213C8718353D135D59BD72B094BC3AB1273CE0352ABD6D3F1F3CEF17763BD16791BDF97416BC53E4613C48C48FBC6087DA3DCBE30A3D7D59983CDBAB17BD85960ABC95BA59BD8373D73D21E592BC6099583B380E77BA98AA87BC8DEB00BBB8956ABAFFF4BABC61D7ACBD35FC743CB138AFBB5002C2
BC58AEBE3BC9938BBD606978383CEDA2BC87EB933C0277253CE6CA993CB4BE4F3D3CFA403B03B343BD04BAB13C8ADE383D4A49B2BCA57E4CBD9E7F8B3CD4412D3C33D8833C8D9ED83DC021E1BC357FC2BCC2A0923D58CBEBBD0C417E3B3572FC3B914B98BD71336A3A4F5FDEBD4BA6623CB86D5E3C12F4883B911B2F3B7775B2
3C8E4E8FBCA585903D28E8093D315FBABD965877BCE266123CE16724BD0A78F6BD4A04B8BC79CA11BCCEEA643BC96369BC17FAE2BCD378163C7CD7093C84CE6CBC4E82353CB988703D895D5739E0645E3C85ADC1BD6A7F48BBBA1BC3BC15E442BD71DBD4BD29E6893BAFAC07BB0EE69C3C7148793D2B4B64BC70D44CBD6274C9
BD2585553C95D5113D47F64A3BB901B43B67D69A3CF4A2BDBC619EB73D43D0013B96AE83BABEC0003CA15EFF3D90F8B6BD208E263CB9A550BD99B1463BBDE6363CC6CDE8BD5543A6BDA22477BD37C1023C0561073D22AFD03CFD15463CEBF5113C8AF2E23E3218FE3D1A1089BD0D2DA63D2C237B3D073E093CEAE66D3C6C158F
3C08FDAFBD309F213CB35223BB9F444ABD049899BB055684BBC575683D6E5B183D7367583DA013CE3D16A3433D2CE5743CAF3EED39078AFCBD073D003C51E7443CF78355BC28256BBBC422B43B694EF5BA9384163BDA0A84BCFBA5803C27617BBC2805263C34F6B73D12F53FBB75CE0B3BE9BC3F3B55E475BCE230FB3C98E216
3D0C62D83D3E9825BD3DADB03CCD2A6EBD2D5E743C70B34C3D231E743D2BA702BC32D007BCE0C5C0BD22B6DE3E46FBB63CCB0038BCE90909BB437D413D98723DBD35BC87BC0C9400BD1B73C3BC80F67CBC0D0F9ABDA4A49DBC129F633BC4F05D3C2FD784BD47C7B9BD2057D2BC0B9683BA9DDE18BD2267AA3BF9DCE3BCDF59E1
BCC78BE9BC3B1BF9BCC18AAFBC6D8F423C15B80BBC6BBD01BCD86D3A3C8D9B0F3D1518213A73F0033B86F419BCA53442BC6BD5203D079C63BD9430493A74A5473D06208EBCBB09513C02F987BC671D78BC3468EABD705FF43BFBA5CB3C5CCD983D030A99BDE4B69C3CCB76F73A9A41583CE051793C2A1A0A3C061E423C7AD5C0
BBB757523D2C5BCD3C99DB5BBD16AA413B8BD7FE3CBBC370BBB14171BD0327E1BDBAAE3FBBFFE172BC31A718BDB8228E3CBBC5F63B16D5553D151123BDCB7359BC3F9DC43C7D8CCC3D302E5E3CE4B60A3BCEA3FABE13F7F9BC8E4416BC4200CBBB324AF63D6FB480BC9A36C03C4391FE3ACE52DA3D268A80BA1A36A33D0C6964
3CC5E5983C0105483D0AC35A3CAE43B63CD6E895BC3124623CD2DCB8BBDA687DBD64556FBD17D61CBCDE5B2D3CE47D813DD81004BD09EFE63C0E2484BD0627EA3D4175B83C3E9829BDD270143D16312DBBA0F84B3C214DE9BDC1ECC33BFF64D43C31D4AB3E46920FBD82713C39A8BF8BBC94B287BD1FB39FBC7FBE7EBCF8CF7B
BD5577DABCA73B59BDE51E7D3B674E17BDC8F2BF3D3956293CE498FEBD8973E23CF9A1D6BD8682133B093DFABDA280F6BCE9E21EBD142B8F3D878080BD4368D73C1B0DA7BCBB2F6D3BF4D5393A632C3BBCE695F33D247CB93C37C4483C9CA5B4BD64F336BD338F7DBE1174E8BC4B821A3D29AFE23CC3BD99BCBBB893BC382AD8
3D079532BBF050EC3D3F90CC3A73CBA03BC36ADB3C8702C73D0DF00EBC143E5CBC6442193B0654EDBCA161D5BD1AC8F23CDFEAF7BD065BDD3D9D328CBCA469D03CDC901D3CC9034ABCF8A52FBB544B123A3C9ED13C8215E7BC96F69FBC372046BC76D5CD3E0BB995BD4350543C48D14BBCFE11BC3B6DB7B0BC7DFC81BBE4C7BA
BCAF1640BC9E4F06BC69E5F2BCFDA303BBC04FFFBB676C09BD03DD403CC6C661BC22A9593D0895123C8A06643E26C383BD98AFD53D02C220BCE6C0863CB59F08BD12DF66BC05DCC43D3BF1A0BCEB8EFE3CD0C4883B47BE033D8DF0C4BC082E683C7C70AEBDB43FB63D838372BB3020CD3C78D1213C4F01463D16598C3D41C25E
BB0111663D50C77DBA5ED2BBBC09CB743D5514C13B0CF1303C825D31BB2853673D59004FB9220332BCC41FC53E7CA89F3D5767FDBC30F2FF3D0548013D4E9B093D0C368EBBE1E594BCA78FBF3A76A91EBD1C1C373D9AA4323C3524CE3AAD73433DDF16C83CAEDE26BD71FFD8BC9E5DB9BBDF4248BC4D6F4E3D5F6395BC404989
BB08F6843C3307DEBDC55285BCAC119D3DCE59D7BBB226573AA003E5BD0D2713BDE4C760BCBB2CFB3B072F67BCF5585F3C2081013ABC283138AD7EA2BC3AD563BC49279BBC4316743E3D4ECCBB92974E39A0B913BD0223D0BC0301193C08DDF83CEDE1BCBE56B00EBCA59A3DBC620B9E3AFCA7273B0BFDA3BAF227383C80AC81
BB10544B3D4F4B8BBD103DF1BC2788903C617882BC7B2CD53CA5D4ACBE288BDEBCF8515EBCB3BDE93CB3C17FBD08C5A03D1C7DA7BCB46FC83C1A8416BD0C8EECBD2CF8A5BB4824EFBD85B5AE3CE04A96BD58DA173C66CE2DBD14D534BB5ABA643B617983BD27C0233C8967133CE7BD213A8CDFC93C2C23B5BC593E853B46023F
BC1C1D353D6DD7203C37AA49BC884BE83CBFA8C4BD644FD9BD5DBAF63C613633BDE184133D35AE74BCD0C08BBD5D66673CE422A03D3B5349BD590D10BC4C70DEBA1102B0BC1C3F9F3CA0A8443BFC73EF3C3F7D7B3D4DC447BC793BA4BBCB4E4D3C3631EBBD6F372DBBCCAA28BC866CC9BB5B28F5BCA6F2B23D468B6A3C3B4849
3CFA5E6FBD58B154BD26D2AA3D024CE43DFCD21F3C99E5643C973CC5BCBD7CAF3DFF62D03BD4A503BA0727C8BDBBB1E5BC232F38BCB143DEBCCF0BB0BCB2B54BBD425977BB72BAD7BDBB5E84BC712F25BBC3C3973E2D2C84BB9ED94C3BAE76A13D05218B3CEA45103D527FA7BC75283EBCE091D8BD17F884BBB86839BC8643FB
3CB8A7EFBD891BC6BD3199DC3D1790993D58DCBD3C16A5FABB4885CE3D0750AE3D775FC6BD958C203C89C99E3DE7C314BD5CFB18BB7CE59A3C3C8D203C48AB353DEBF2C53C3C7E2A3D6BEE483B1FAECFBC0C0CA03D83DD3ABC92FBF2BC531AF63CEA127C3CC4969C3D4D50203C9D4B553C9DCBD5BCA4BD29BCAA5078BB5DA552
3AD509313D4ED337BC560EBA3C7BD90C3A9329CABC5E9791BA2833C13C31373DBD3667B839BD2756BAD54046BBA69B003AD2D348BB62DEB23A99C7923CF555DC3D7F76C03BED0DE83C15CDF63C3A0965BC87ACA13D2380B03A76C699BB635214BB057BC538C568273D0298433D8B5730B542A9A5BCBE1E593AD10626BC822DCC
3C6C19783E63B07F3D73D80A3AAC1D8B39E28F703C9AB3F0BD73CA0B3C980148BB5E9741BCC72E5EBD319B1C3DBEAE49BD0995CF3D7F4F623DD68202BC97BB6D3D3D952D3D350C78BD68BCC9BC4C16CFBD4F600B3A2138943D04E2F2BD54B97ABE0C9EE0BCDB8724BCF783963C908D14BC9209573C052EBEBC5B658ABB0A1D29
3D361CFA3D732D803DA6E6FFBCE95249BD09B7DD3B896896BC07F2233B0C9209BD6B24BEBD80A37D3CF06C88BD676D803D7D77563C18CF643B55E5933D882C28BC1468C73D8C0FB13D23C779B97B38BB3BA78B473D441E5BBD821F4BBD91C10D3C38B27ABCC4EDF3BD3E802E3D057F3EBD2546C6BC56C3FBBC6DA7EC3CDA84BD
BD6A7FBE3CCDCEC13D8D4CAABC5D6B5BBD1540E53D19B9CABD0C6EDCBD8F5EC33BD06E943D1983743CC223653DC681FBBAD128D63D2EE1E03DB6D608BD2D79A0BD0335ADBC466DF4BE165662BC937E1DBD2D43CDBD1DFA9CBB11DAAE3C150443BB4EB69CBD7B919ABCB3B80A3BFD1CA13D57B7BC3BB3815FBD2A76053CA906B0
3B9144703CB34C7CBB5497763BFC19C63C1C9BC93BC517733CD079EDBC21E1B93C045B373AD724463A528E2CBD204D603C77C050BC9AEBC73C9C0C1EBA60DC043CDA94C13B73A019BDFCF7AEBC4416BEBBEC58B63D7A15EEBC6830B4BB96E7733AAC3BBF3D0A75CF3D566FFEBC45955FBB9B75A03C2D97753B8520D8BA8A5762
3D39CBED3D43DD3F3DA88FA6BD5CF1F6BD2C300C395F23493D53200EBC62EC663CBE8CB93B857D9D3CC753A0BBA025D3BD0AC40ABD5B6319BD831DC83D013496BD29E8FEBC91E7FCBCF262F93C0ECA2E3D0936F13DBCF6503CCB51F03C2768B8BD73B166BCB9F04DBC233336BB58CAFDBD1B8390BD3E11CA3B84B6F63D28F1B2
39CE3319BCA353A8BE2C1F923B97C79A3CA29B063D108FEEBDBA7E4A3D2365693CAA84AEBCCE3CADBCD09F5D3E98DD98BD77B5D43DBBD95EBE03EE8D3DA837BDBCA3D019BBEFAF423DC6CC84BDA26B62BBF77C1BBCBE784F3DA6671D3CC3DE10BC0963A03DAFB9733DAA2F36BDBE452C3B95B00EBD123711BD91E789BCA2831A
BC7352A8BC8529EEBDB9DF6A3CC40657BD4356EC3C9081BFBAE297353DA1EAB53CEBA623BCF803D83D2A067E3B65F2ADBC4A4C0D3BC4B9C4BD0250403D81BB49B8CE4CE8BC60F45DBD8A4B07BA484D5EBCFCADFC3E19AAFE3BACBDF23C13582D3D4A31DDBCC7E20C3C59C2ACBCC797D03C9EF961BD0300673BCD8708BCD93349
3C2B7B08BA5460123DBB2EB7BC9E7E483D8E5E72BC78FC3FBCBC67C4BB290EB6BDE4AF27BB37BF2DBAEA9CDFBC2FDCECBD15D60E3C93B39A3D38CBD4BD1253F3BDD793FABB1A9005BC81BC763BBACF1C38B44188BD7D1B1F3D0289E53C9FFA323CAB91C33C31F2DFBD84A305BD81A6F5BC1507C1BBA56F59BC42874F3C797554
BC0FA1B23E3866303DB726BF3CD91647BD5D7571BC0DEFC03BE101B4BC9681C3BC27AB90BC728EC2BD07D74CBD2AAD41BCC8CFA6BC64840E3DBDC5B33D2C363EBD0C20973D7A32EFBD1C8ADCBC4B6966BCF2AA20BDF99E213CB25075BD3757C9BDA494CABD8480C4BD1D905ABD1562C33C995CB23C8B332ABCCC4436BCF4995B
BA8E6D50BE271AD2BD468E8B3D76BFC03DABF1EFBBD5CB5EBD09E98A3CC93A16BBD9BE2EBCE8A488BAE884FABDF071503B9705BD3CD88E9A3DEFE3F23D7A1948BD3E22243AAD9DA63D8D1490BC312D8F3D247DE4BC2A0857BC24D0F6BBDBD6CCBC6BBC683DF0F118BD47C1ABBD36ECD93CC9A809BC3D89CC3B247A25BD1DACD3
3CF1B2A2BDF1B5373C7AC6D13C1E8074BCA3010CBAC4A18C3B6EDFBF3D3529A13D221D2C3B3ABE473C977E923DA64C8A3BF6E6A13984B1ADBC89BFE93E0AD910BC5405353BE4271E3D45261DBB55FEACBD3827403E7CEA463B3CC080BC8DEA0C3D39705EBD1B12F8BD4DB10DBCFF8079BCD0A54EBD15064DBC0890F8BCFDD167
BC1E72973D01948D3B9EF4F6BC9E817E3DA322273C2DFCC4BBE7B7CD3CADE7A3BE083D78BBC4883BBC6A96693D18BC723C9BCA423C45CB123D3DC3F93C611C973D4B8C6F3C603AF23C7957CDBC8C002FBBCCBA993A7A5415BC6A08D1BB2CAAEF3B1E108E3D2810A43CA2C1F53C84F69C3C3E06D0BC0907A1BCB67E203C8AB56A
BCEFC4DCBC6DF8543CA92743BD2D388A3D60480EBD0E49AFBCC70B3D3DB7FBFF3E164579BDDC771CBC4A0FB2BD3ECDA53C3C2EE23C86F00BBD3C6C633B2FA13F3DAD0A7A3BB6E8ACBD583E4C3D02B376BD701BA6BC34146BBB981F29BC1CA93C3DE6FE643D9D0984BD818841BD60F3553D143056BD9332C73BE0622A3CCE8E2E
3D9EC8343E098E523DA89F0B3C19626BBD5F8660BE27BD123D7E02E5BC004FEEBD3FF1DEBD0E04CC3C09962DBD1D37663D06827FBD9D192CBD0583873D6E43FD3E31B70B3D29018C3D458EAB3B146C5FBD8A013F3D3377FDBD2E1773BCE73250BD55B23CBDB377593C93A6C93D2C7086BD9A5E8BBD2B82AA3BB98A61BB2DFC9F
3D03D5243D9AB89A3D4A75B0BD115E49BD918794399D5A8B3D6C3B5ABC6814FDBD1644D7BD03BA39BC1C4FBF3D2EABA9BC8DCA75BD78A74CBD75EBC0BD07946A3D8A02543C76ACAFBD5173603C8D36BCBCAE25023C3F54953C61CA22BB3838113CDB3E9CBD9580D43CE4C8183CD36A91BD33E7B4BC379418BD0E28AD3D1862E3
3D1F68FB3AF5D898BD259063BC666D983D7954BABC5721E0BB9B9E6F3D50DF793D62F6E3BD01158EBCD44C66BE14F7B5BD50CCBE3C8B4540BD0A1AE4BD0B00853C7B5198BCF741953B7CC2D7BC50187E3AA5F528BD125AA83CCC4CC43CC2B4D8BBC996FD3D3BEAA3BD3EAB933D177E8EBD7015303C102FF9BEC39E7BBBA3B69B
BC935A14BE15F52BBDD5F06ABCBBE4543D6A50BD3AE89B22BB60522F3D5E68C1BCC9824B3C88F92C3D5541E4BD3796F939386232BB6E2F87BE17102B3D4A2CBD3B9CBFA8BDE6A44C3D92F55F3D0BCBB63DA41DE83CE9B1163B17D8543DCC36123DEFB5D13DD92DF93D4B8C93BD69D5A43C8D3399BD2D7EB5BA169D773C25FED5
3B4BEF8EBD2A55C83D402A633B1D7964BDA3F929BCDBE861BC5EA61D3BD418013DB66C5A3D8DD4C3B8C1AA91BCB766BA3D7A42593C03F3613CEC1133BDB37C6E3D6ABEE53D771C593D0312A6BBE7389B3B24B8573D92F04ABD1DA5D3BDA18FDCBE12ACBEBC907FAFBCD0C0D0BC636951BC0A0FB2BC0AD899BB821235BC814EDA
3CC877AFBDBE0982BC4EE5E5BD315E153BAF050CBC6039D1BCA4C2873C8C0760BB6DC119BD8B7162BCD788E93E25490F3D1535A63CE1BDA7BD0FCA45BD55721ABD1BC7D7BDB125713C8FA0C5BDB7B0DABCA2CAADBD7E34A5BC2417303CEAFBDB3D265BA2BCFA52C13CBB77EABA8E9CE1BD441FE0BD64C5F2BD9088ABBBCD31C6
BD4232523D8EFC613C9D06C73C1BA1FFBD82E4E5BD4050C8BCA2C3FA3D65B9383CAEAC10BBFDB9953C8507DCBBF3E1523C9337F23C6CEF053DDFDF2B3CC36CFBBBA6FBB4BC45A13EBD5ADC99B9D3D83FBCE8A5E53A8BEB7DBD1395B8BB802C3E3BF3A660BCD27F0CBD20B95E3CC903F33D223CCD3C8B7F5F3D6DE076BC2D63AA
BC46013D3D1CFE47BD54B8E8BCFEAB8DBC4D21C8BB31ECF43BB322A6BC8FBB34BD0FED45BCCE6EE2BCBCD165BDAAB18C3B6AEBE5BA736C753C9B38FEBDBA29AFBBA7A6BDBC1BFCC1BC8FA96ABC384A8E3D07869CBDDA866D3C0B27D63C2015ABBD05B7FEBBF5F4B33D50B3733D4BAE9D3C031BA63D53CF2F3B3EE2453D124498
3CAC43FCBDC5BB74BD5F788E3D7E58DB3D665E733C75F4D33CA4FD1C3C18395E3D72F3D2BD111E33BCA72DF03C26863C3C397826BC96071B3D6781133D652D713D5FCD7B3CE0800C3CB9ACF63BF7C07DBCBD3173BC9C2CA3BD0B6FF3BC545F60BD06D04B3DE4EAB4BDD161F9BCDA9D71BC89CF75BC8711ABBCABE780BD4C8191
BBFE33093D26BFF83C08A57CBCFC23903D90936CBD4137A03C2D0B40BCEFD06F3BF84C1EBD403B6F39D5A35B3DA310613C1A0844BCFD867CBCE4FA0E3D27B589BD1A8489BC48D285BCC735083D2326313D199427BD01F9463943966D3D21539C3CC50B423D32DB2A3C3DCB993D9D05153C9FEA503D18CD293BC8B5A6BA8DE8F8
3DB90089BE0EECB0BD76F6B73C9628603DCBD5413D42F2513D873614BAF142A03D072E213AEFD923BC62598F3C8C5D133C286FACBD7EC4A4BDD4A6CC3D8E55C73CFB6D493C25CA043D4AEF0E3B1E2CBE3BB2789C3D83ABD53C457CFDBC02C1CCBC003F033DDD1BB3BCDCE772BCE93435BDB8DC9DBD3D0362BD73DF7CBC9EDEDA
BCA3D3183CFAC4683BFE26D4BD159055BD143D56BD29E145BC40C4DA3B2F4080BDB9F6933CC862553C2DC9E43D909152BCCB8B3E3C99E23EBD4DF9EFBC9A86F1BBFAA86FBD4E45B03C7AE830BCA045C53D23E507BD8383473D38830B3D0BC2E93D907D33BD414DE93D8ED1883CA9D0743C121DE6BC0DF84E3D0F3D6C3D08A028
BB81B07A3DD092C6BCDA23FB3C9E010C3B322DCFBD75F12B3D1B89D63CDF6AF53C2724EF3D170DEF3B16C2F53E213FF23CB916513B66A4F6BD2CF996BD21F8BEBCC048593C748989BD6B20B7BD5A6E33BD3B93733D49B916BCF5F1EBBC92DF98BBDEF1493BC7629DBC268364BC5DC3E3BBEC5A76BD40662E3C8DA9DF3BBCC561
3C2B59D93D6745A3BBFD3E5D3C9B4D023D9D379DBC724FB93C071DEFBD0E7BF7BC7331B7BCBB7C443B8DF644BD8D4FE4BD32CE78BC6BBD46BB07F6873D3320BF3D9A3CDFBBB360B0BD3013B23C23371F3BD03BBDBD381D273D11D218BB6C5FE2BB2F5459BCA383DD3C8C0E923C9171A7BBE40F083D1EB7C53D0F9687BC9C8447
BCE4A5723C1BF4FA3D5C07D23C922868BD1CEDC33CDC3C65BC900D16BDDF5E703CEA59903CEC53063A83FE4FBDCDD9053C35C0C23BE13AB93CCDA6D63C191278BC3608103AE275573D522A3D3CD58F8CBCA96B7A3D96B0D7BC490B193B92DA323CC30250BD86D1133D0616413CC17E823CE324F23C6F7AEC3C6167C2BCB78739
3C0365CB3A8167DA3D84D6733C6DE1FCBDB300E5BDB7D552BCE4FDA73ABA7D883D777C073CBB4FEABC73B57BBD50B0EEBCF131223D05147BBDAA2380BD6D7A89BB802BC23B6FDD173CD310C4BD0E43253C9771BC3CCD1F423CFB6F8DB6EB9BC5BC29F8D0BCA7AF32BB7FAD82BD39F5FD3C10F877BC23580C3DE940F3BCEBAC92
3CB3F012BD2FD50A3D9D99A1B9C7B1303CCB32BBBC4B74E4BAB13265BCD509773D371EF43D69BF8F3CE9017FBD0CE7F1BC6C0DFB3B4334153BF708F2BD5ECDBF3D8A8DD03BA7AD8D3C0CFBC43C863819BD6E38FD3D94D7B8BBC4FB46BC73E82D3CCF94203CF4AF5CBC160C6FBC71B540BCC95A25BCF16F843D03AAE13BD63BF8
BC65022C3C7BE202BD078FA8BB1B1009BD0237DABCAD7C1C3BB65D763C72B53B3D8A7100BDE8FA66BC2836863D9BF0703D068AD83D46E886BCC7E2143DA749BC3D2052083B1A48B73C47F60CBC0E69A63BCFABA43DC9497FBD15D8253CA55C3BBCD4C5F1BC9788723D0829C83CD0C0F0BD198289BD21B1223CCCBA6FBC2C6E7B
BD30D9A5BD34B92E3D038B193BEFDF723D8B5561BCA9D5BABD6848CBBCC4CE183B35CEDEBC6C584FBC2F33C3BCA72BC6BCBCD7803D642E6A3D3790883DBBBA6D3DE5D12A3C7625A93B4B62A53B2DAE203A910AB93D078D113C9E34FCBC7D10EDBBAB5421BD4919483DB042AE3E01262F3D358411BC8B07943BF42775BB6D7EAD
BE79BC8F3DC756343D92D4ADBBA166CE3D6066223DBAA61A3CEF2A3ABD2933ECBA929BDABD087ACDBEC3AF073D53D092BEA148D0BD4993F9BE25EF243D1924593D3EAE513E29338CBCCA6E34BCC3F6A2BE3DEB2E3CCF74133E60E4B4BE1C3EFEBE182B6D38E9DBD83CE0469EBE19011A3E4A613EBD504790BDB59113BC95A8B2
BDD7412E3D112B403DDA3D723CB3417A3BA8970B3D13D20C3D6CBE0EBB5BF9023CCCE23ABCF510CBBE5BC4F2BD21C68DBDB763DCBCEBECDCBDD17BEBBD1525D13D1CA9903DF95B12BD10FD1F3A084222BD5FD8D23BF364843E24663FBDEDB7223CCCFB39BC0FF6E63C8C6BD8BD5867B03DD375373CADB7963BB525C23BCA6120
BD8B9EADBBD770473E14B8653C41FB1CBD83AC393D67A793BD06E1AFBDC2C0CD3E2A0575BC325EC1BC8C95CABE16791CBCEC577B3C80DBAE3E2726183C5A594F3DB9CB39BCC83BA43E2AB1863D138CCE3C58964BBDE00AAD3CF0D7223D00B41DBD1FC3D83C9BD61CBD0536913CAE57983D874E4E3D971F43BC8FE2C23A23965F
BCB46A8DBC341B433D08F0EFBC85683B3DB26E663C5F1FB2BCAA96F2BD9D8F6BBC2759853CC47F39BA9964AE3C85ECEB3C7C65683CB5D5A13D8672963D9DDDFD3D0733B33C5D2D273D8499D53969D9DDBD14EC023CA67EE8BC404490BB9EE4FEBCA6B13D3C89DB853CCA83453D2CCFC83C9A6A6B3CC5ED3DBC229C9F3C799909
3D48E6D4BD4A20443E03FA79BDCA2CEE3DDD30EA3CAB501A3DD99DD6BD86E9B53CFF3017BCE36C0CBD157FEDBC4A37F4BE4C8E40BE31E6BF3D427696BCB5BD76BD79F243BAD72EA93DB18E863E2023ACBCEC38193D72D6883E5F75A73CAD78EBBD1DBE8CBD0D3CAABDB5BD323CF0769DBC93C0B3BDE12B8CBD84A4B93E106599
BD16B71DBD9418C43E900792BC1345733DE1F3993BFF50933E10696E3DA318F9BD60BDA23DA192DE3BF8A5F03EDCF47E3D7896BCBDEDB14F3E7F2C933E11FAB93D818048BBD7BD3CBDDD42AD3DBE91583DA822C93B742257BCEE309F3CA3B15EBD19E93F3C975314BDDE28573E26C40F3C83DF9CBCB365383D94325BBC8ABEF1
BD851B90BD9E7BBD3D2C85ABBC274FCABC89CC2F3D9B0C48BDAA45943D43FC523C95B1B5BCADE9363CF35BC33DABE0BCBC2A79493D960F37BD14C2AE3D8D03A23D90F7483CD624703C8F60B53D07821EBAE0AB6F3D58ACE1BC1D5152BC8171503C5607293DA827073D2A9086BD1B3D443D5AC694BB83DE603CD2EF1CBD3E01A2
BD92960C3A3647C23D15C88BBB2006A23BDC2C47BC738C3D3B25390FBD16C028BADC75E4BBD773AF3BD9674F3C40EB8C3D0AE7F93C31577DBB89860A3A76204FBC95474D3C9F6741BDB5BBB03CFD521D3C5628F13C032204BD03BCC83C49A0793B36F914BD5015243B9B7B193D2AE1123D8F1BC93D24D1A63DEB770EBC32E481
BE434FD93D271DCB3E035AD8BD1644F13D69F8D93D754675BCF437E9BD092EB03D87D488BCC93240BE8D20263B7B51E5BE864E603C99E95EBDBB96C53DBB8EA13CA808DD3E2AA2E33D105F7A3C32F1FABDDA5185BDB0A5ED3E97B74CBE14256FBDF47D793D81B6293D1D5ED9BDB76A373E3102553AE82478BDB5C3143B8D79F0
3E244C5B3D303373BE1A52403E0B5F32BD7FF3303DADAFBEBF07ACD73D23ABB23D08525CBDD7FDFE3D81399F3C1F59183DE50BB23F17450BBDF7043B3D2725C7BC83A1B23CBB373ABCFC4C28BE8020473D85EED5BCD0398EBE0257BDBA6A88A0BD19116DBCD772F53E35769ABDA4B3A0BE22A9CC3DDF579FBC5196A0BE0146A8
3CEB40F1BD89CD9C3D4EC69F3A12C23C3D953A513C71C87BBB947C673CB9A7CF3CFCD4B73D3D5E453D1D3EA43DAA4B713B001B7FBA8D66F7BC8B478E3E3F6DFF3E10D73CBBB3D3CB3BC2E3C43D0E12D1BD26CFEF3E9C8401BC5B1339BB728887BCB71B15BDC0ACEF3BD62BC0BD004D42BC76645ABD69952CBBF89D47BC8D33B0
3C8113143D04C2303C7FD575368C72473CC14CEE3C79396E3BB3CD543CAE5821BC504BA03C5D6198BBD47C303D69F4A3BB4DB040BB863FA93D5C28323D45BFA93CFA63083B5898073CE2625E3C0FE29FBC274622BC98DF963B7FD2DA3B171F623CF92C913C217B403A42FC743CA6A5FDBC480AE2BC0C70D73C0927B8BB8624F5
BD9621653D5F5C6F3D09E583BD8AF6063D63DA46BC8C04FABC9B22333D6C6CC23D24903CBE135111BDE7D4393BAA96E63D0393CA3CFFBB5F3C91EBFABD8E50803E3633D03C1485CCBC4FEC30BCA4675DBDBC897C3D9C9353BD08EA44BC5A77423DFAC9B23DBE531EBE35FB90BD901B5B3D17C28CBDDA90293D5C15B43DBB6DB4
3C7A4FEB3DEB21553D74B0833B381FAD3D495AB1BE621A2C3D8D08473C2289D8BCCC2B4DBCA72F243C75A730BDAAD3A43D40781EBDBDE944BDB9A1F63D850AA73E80661D3998BAF0BC4ACADF3C4F17BFBCBCE1643D90B8AEBD0EBFBDBCF39B54BD10AFE1BCA34F053C44BAE9BCF73914BD8699FA3B4E180E3D47E68FBBF56C05
BE1AA343BDA19EFA3E3774FBBDC162C73DC51792BD1F11A23EE61838BD8DE1AA3D0251C53CB0F29EBCD5290F3D70ED3EBE32F0BABEB270663E27E8E23D8D1DCD3E15A80ABC7BF79F3BC078083EAB9AAABC98FD9ABC24E0CF3E1FC3693B8B8E62BC393E303CBC3A39BE0FC57E3D69B7653E11DB3DBDD2CC4CBCEEB2C83DB23CEE
3D4544FE3CEB4B82BAD8B528BD17EA92BBEEEDB33D7F5EBCBD96FE3CBBBBBEB7BC9CF7173CD23D9CBAA26129BD8D3BAEBDC7EC8E3DA542A6BD5D9062BD4704A4BD109D8FBD1268ECBC9E4DA93BEB2B06BD0F6A773CE323893DA1810D3C0AB18E3CC030ACBCE21051BDABDFBE3CBD1E89BDDBD19EBC9E8595BEC2210B3D6FEC97
3E2DF14CBD5ABAC9BE18FCF23D750B623B064D48BD5C4A18BD8B039A3D72CF42BCDA841C3C947B603EED12253CB66B223E38CBCF3DAC3A0D3E3CAC1CBD0121DABC7471E6BE5F63D7BC26EB91BCC724F53E1D91FB3D282522BE365EC93E3E56603E0296103C6CAC66BC0114933E2E0C29BDFF26B8BC8BCAC83D561605BCBAA180
BD052504BD05E8A6BA7EF9643D4B5E703D71FF3D3BE083F83CC5D4373D0278373BDD13253CD69B76BCF9C3653DD627133D5F97FBBCB0E05FBCDCED8F3C996B0E3D38FA593DC457BBBD11109DBC8D4643BCAE46023D5C7630BD6134D7BE0C4D66BE193E84BDA0D5C93D3B9422BCF1D7433CAE81033C9DAA3E3C720E61BC2AF8A4
BD2852DBBD8D22FFBDF51609BD13AFF33CE2624639D16724BE2625883CFF80163CCCDFF8BD0CBA84BD0689133D60AB813D76BB623D75CF70BD06E8F0BCC97C4DBCB373C6BE123C053C3F5098BE256CF63CB349C53D5B64ADBE2641893D4B73B83CAE8FE8BD612DD23C8DB08A3C31318CBDF8F585BD0CED62BD2AFED8BCCF9BE3
BF06BDA23CB5F5913DF4C4E43A0697993D0C3E44BDF896553E4F3DB3BD9039EE3CA10CB33C8F450DBDA450033BA5C88BBD1EAD9DBE39D127BCD16C4FBC71CEB53E2838693D9B2C9F3C9855EF3D9B36CC3C42CD4BBD1C3B893D715E48BD713D59BD5DCF343D28BB273CBBBA763DAE4D1E3F1AFC45BB9E305F3D95E93F3BBDF109
BCFF564E3D18F666BD83EC49BD1DC6C3BD05D7CD3C82D74ABBB46FA9B9973F57BC94CF62BD0780A13A9D209BBD50C530BBBDD7EE3C36B881BBC9470DBD9AB734BDA0E801BBD197F83D322110BD6BF0153C1ACCFEBDD57142BA2FF2923BEF2025BCA6FC7C3D9CD9E2BBDF95D93CEB39183C2CE1783C05AC5DBCC52F773C44949C
BD8A6A28BD7F179B3C2FC49C3E34DF563D1C7D6ABD4EE5B7BD5C994F3BCDA0CA3D0877E03B9115BE3DD28999BDBFBF863EEAABCE3D0D32AF3DD6E0553D5D6FD73CEE09763C4BAAE3BD23A39DBCD5CF3E3DF2F61F3D3190DCBEBBD087BD0C5C17BD92D1D43B560752BC237859BC0A3F103D03A23E3C98A5B83DB4860BBDBC87F1
3D96086EBBEE80873CB3094DBD7AAF0F3DD5E374BD4C3B3C3CD6D0F43BBA3481BCDE8537BC8AB175BC268BBA3DA4ACE8BDA49DC9BD136F2A3CADD1A63D8504963D96A900BD083FA13C1C565FBB000FBCBD4D332ABB7113293D81E80D3D10EFEC3DCABC763CA22962BD831A2F3D5F0D52BD8616ACBD0E9D3BBDA32B7E3D41F5E0
3F0866CBBD2FFA9DBE0254D73C8BEEE5BCA7412B3DD6FBB7BE7051F03D38679DBD1C8D58BCB057223E0F1D78BD886187BCD350293E6615C03D8470213D3F23ABBBF4100EBD3FC54EBCFC2622BD5798E2BCCF94BC3D8FC9153BDFD5543CD5E32B3D631779BD0287CCBD8690D2BD65EF8CBEFB498E3C852D66BD96904EBCA79A9A
3D63CB893C081876BA8F19F5BD96B194BD58418EBBAF5E2A3D30687BBD1859103C93531FBD43B43BBB223E7B3C2F7B1DBE07006BBBE25F20BD972EA63D089D863DC66D70BC51202BBD0CAC583BE286EEBCDFED48BCFD96A73ED340163B3D2F613D940243BC41B6C63BEFCF18BC95B765BD1BBF4EBC88C767BC779A003D600025
3D6470B63D8A2A59BDB99052BC87D8CCBD38B39EBC13DB853CF6FCB63D12834ABD7955B73BC337C8BC11EB673DD5AEB23D2323A93D01C689BCF83F2CBD407EB8BD7443F3BBEB86D53D9EED7ABD6CFF1BBD73A4E13DD8C1AABC8AA9263B2CBA3B3DE7827DBD9F7FA13D1387AABC0B612BBC930F5BBD1B92583C8B2051BCA4F17B
BC1046443C7DBA203D70340C3BB158E83CCE0E45BC5995683C0D0FF8BBC9D93ABCA4BBCFBCBAA2FDBC21533EBCD757EBBB99FCFFBC1DC7293C880E473D90A03B3DEC15413B3619D2BD08005BBB371A9D3C9D457ABC291B3ABB035F37BC49F74CBD238AD43D2321223D545EC73D2138043C36575A3CC8F986BC37FA51BB9B76AF
3C90CDA83C40489EBD86160F3C373B113D1B43EE3CEC9CEC3C4DB408BE14FF503D1C9EA63CBEC7D33CC42807BD9EC8DABC44C04BBCF955D33D001586BD1C8ACB3DE0B26DBB78313C3D184E803D93CF6FB92AFC853DB9C74C3C43E405BB42ED263B5C4C24BDADD27B3CEA97173CF89F0CBCDF3F223C964A3FBC95DA07BD006EE7
BDEC8B46BB0C4B8D3C9D73643CE596AEBD841981BE1805AC3DB6880DBC588B2D3C7CDEA53C08468DBA8E43953C638AC53C7E5ADFBE0770F0BDD1D248BCEFD778BC277B6A3CF91669BDBF73D4BC236F763D6C32673DC856A1BB9FB18BBC6F3E84BC9D9836BD0C3B673D3B481ABCD7FFA53D9190B9BCBE448B3E35BB613CA60D50
3D1AC99A3CE42CF33D01B1133D9AC42E3D31BDDDBD56F9C8BD648DA33D5FB9813E109FB73C86AC823CE29E51BDF6BCA9BCD3F38C3D68DA353C320CCB3DBB1B833DE096783CC49F20BD6AEC483D8EE321BD9C39383D7688E33D09051DBCA5EE653D3D6DBE3CF39B84BC880036BCCC34F83B9397193A1F11DD391799FCBD155060
BC2673E6BC90A5F4BDDA39FF3C057019BCFE4B713B410C723CA4E0DF3D66C4903D02A8A2BD632FDD3B7138E7BD4DC60ABC085D25BC15ED6FBC91469E3978CE493DD9E2823C0D79D8BD7051923CD722E7BBE690E03DE25DAB3C321ACF3D251848BD1488D9BD786D3ABC3D6FBBBD074CE73C829DEBBC37B97C3CA267C3BC868227
3C8FD5FB3C9EF3013C853D7B3B869C7E3D85B084BC00C39D3C2D07093BB2E0D2BCD638C7BC25CD483C6E24F0BD06B8F8BC9C04AFBC7FE8743C10ACA03BFD9EB33D366F29BB4CA181BC2DA0AE3CAE6CDCBC70B0C6BC9591973C8E4D1EBB272F59BC24A06ABC0AFAB93D8ECC1B3DB901A8BC86EB48BC3A81F8BB4C08B1BC20C967
BC3279E03CD5F1243C3042A33CAD14C03D34A054BCB46477BC77312B3C1C63A43CF968F43D36CD3DBD0FE7813D5D596D3D091C393D0F478FBD9C1FAB3CF592123DAEDE093B28638A3D6155F5BD9EED68BCF209F93D008FD0BD230B64BD879649BB29C1B43E071DEE3D17EA9EBD3C5FF63CE4789B3D226E3CBB4AE848BCEB0184
3D2A5205BD2108813D965ECFBC07921F3D34E054BC99E214BD1B698FBC09B8B33BFF6083BC21B1FEBC8C06D2BD9342233D0616F43D0F28A3BD56F2373C0F854EBCBA49FC3D120A43BC8462313BCF9A353C49C98B3C15AD14BCBC6FFABD361AAB3D5593BA3CFE65BE3D687A4ABD84542DBD083C383BD2BF9C3CBD3C4A3A5B018B
39AAA2EEBB59CAFD3E1F098ABBA118903E0BFD89B8C023E13C0A1E9ABDD461693E201E92BC4CF3C7BB06DFE73C37C7C1BCB9B9E3BBC841C73DA407343DAC5DBBBCEDAA76BBD8F10ABD3DBFCBBBCD0BD5BC9088D3BE0F985C3CFD016E3CA05CEABCBB09263E529379BD4499F23CB297A23AAF24C93D2D9ABB3867A007BBD325B8
3AC18B99BD558676BC4698953CBDE1F13D605C083C1C12A93C6E04FDBCDDD5583BF894E83C8A252FB8AF3CBBBCC47CC03BB8C990BCA9417F3C9A8E6EBD3335E2BC49988F3BE323153D81D8A13C552417BBE771FE3C37F2B6BAF01BCCBB9FB4803C34BA01BA2470BA3CDF3A433AC3F7913AAFB43E3C0C24C7BC2299F6BD079EE5
BB4925A3BB80FF533DC8600ABDBE09D93C8AA2353D6D3493BC7814DEBD4F94183C9DD27ABCDDC804BC9F56EC3B8580FEBC4A0F743D001E33BD0C3DB63C15EEF3BD6D59353C2A89EEBC74A180BCEB758C3CB34775BC62F4FB3CB1B829BB8C8EEDBD307536BC94BE493CE42268BC9F0D363C420FFABC9C2B16BD17FBD63D7B69E3
BCBC39283CA0F069BDAE7DDABCA0320CBD0FB6A33D3D7AF93C604F203B50BA993B9E8FBA3B252BF83B2E9FF83E8E7E363D840C1CBC3799993CA369F23DBB0D843D023E13BBF892FF3C3D9BC6BCBC2E29BCB9C7F73BAB3D23BCE3A54B3CD32FFDBD0A1EF53CBAEEFA3C88845EBC088E4F3CA057423A851256B96DB6083CAA07A2
BD40C004BD45F896BD4708853A4FED66BDB2D15F3CB8243EBD93740FBB45D6A0BD925565BB6DF2D13DB03B09BDEB0232BCD8E7F63D90AD90BD1E119D3D3ABBD0BC8CD382BC3312853CDE26F73D371909BD11D4AB3E004A57BD05182EBCB66E4A3CC8B1073D8AF5063C479227BD3519AC3D240A03BC497E9A3C623EC7BDD25FDA
BDB45196BD7698FB3C0844BF3C8ABA803A9947ABBDAC3CA63C786061BDEBDE3EBC95F79BBCCE74BA3C5919503CE78CEEBC796A46BC73F1433D41F6A63DF205B0BE439F65BBE678363D8E5778BC10D8333B93B456BD9580CCBCEA2DCEBCD06955BD695B63BCA40ABA3D1879913D65BA8B3DD08E0D3D0B254F3DB07978BCC6EA88
3B5780C5BCB326D43E1D58D33CC7F7ADBCAFA84CBC611103BD72EB72BD05F1253C8DBA5D3D1CDA80BD50E1023C3B50E5BD5195DA3D3B70273BA515C0BB9E54BEBD8A73603D84F77FBCA366093CF2CBB9B8D6251ABE0587023D2792FEBC975F8CBDB9F4583DABCEEC3DB429E83D1EB6AD3C2248843D6AACC23CD4308A3C08ED3E
3D083BA1BCF14FD4BE2B00473D8EA91DBD2ED081BB73FC43BD1340D5BCB9B4EBBB99645ABC3DD3A3BD2312ACBD4DAC77BD2A6D7D3D26CF29BD0166E33CA9D0133D3565783CC7C5CABC829F8DBD977741BBD7A779BCB3F7CD3D3229CBBCA2BEA1BC0A66D9BE0551F33C9606BBBB8EDA18BD0C3164BBB14E683BA7C2BEBD45B8BE
BC13479FBD7A6532BD577E263C56F1B23D4F29A8BA899AA0BB4BC6033CC5E1263D9AA16A3D413E343CBE96223DC960AD3B4788993B483FE03B93A7DC3DEBD831BD7F5BA0BCF2015FBCE03F55BC71139FBD351F883E304071BB2D833D3B8D818B3D21D189BD35F87CBC8FE007BC3F21403BAD2633BCE97A81B9A342DABC302BC9
3C7F7E093B26A7863D745C6E3AB658343D776190BC4E4B2E3C7E9DA4BD8BDF79BDD15E9A3C82CFA03BA50463BD1D41833C0BA585BC48CEA23BD89680BD698A333D036FCA3B396108BCCFFB35BC3700F1BC965BB9BCAE8C28BC6196C8BC0C2FEB3C92F38DBB0AE93C3D4581613CCA5403BC5A40FFBCF2FCAB3B5CF076BAD5FCE4
BC0B5B2E3D1FC3B13CF4408ABD6003D83C1CB76DBC3140F2BCF8F50B3C898E153DAC3FFCBDB3360BBD45FA8D3D8C0C113D51F64A3D956CC5BCDF863EBD5A3B983E0B282EBBADD1CA3DC9F4D3BCF661B0BDBDF0733D4D1ED1BCE024AE3B6BBFC43DED3D023E20D9D4BE01187FBD51AC9F3A4AA167BD4B84C43C364C1F3D90EFBF
3C6B35923D89EF9CBCF85A7BBBCDAB203C8DE3E6BE0AC9673CCC4C573D3BF4CCBCACC2343CA8DF91BD0933853D8C17FF3D67EEFBBCA1958ABD9E6A9C3C8A030A3E0372F1BC27411B3CBE3F1DBD907AE3BB620D623B35E670BD80F1C53AD4D224BD12EBE0BDBE07053C3C535CBD46E1953B9B55803C3A74C23D3F712C3C97E2D7
BC7565A43AF18E893E112573BD1092243D46E9043A915F543D71353DBCCE0C063D0FFF1B3BD4B0AD3D201CB4BDE074E73D0FA119BD89BB443C945AB43DA40017BB980910BC931ED0BBA0C5713D76DDE53A7918123D14D889BD4B19F43C8390C93CC046D73DDD574DBD4E51FC3CD319413CA0AD2CBBA5443ABD0CB64A3CD83B77
3C373FD93D404B653BC7F6F6BC037DFD3CC0CA8A3BD12660BC49CC203C3B91DEBD20D35BBCD3D82D39D331F3BDD24F74BD12B9CB3C380F833C9D926BBC8A5FACBCA9D7CEBB182176BC397210BB93BCCC3C9332643C866B4BBC46D4C13C3274CCBCC7D69BBB9FB499BD05FDCD3BFE07E53C4B7BAF3C6CF626BE3E694D3CD04EF1
BC9001FFBC267B4CBDFC51E0BC898F873D33D0833B6DE4B53D0AAA173D44FCC23C203349BD25DA283D9E94EFBCCA3DEEBD2A6C84BD14E4233D556B4E3BD76B5ABCE695CABD8B80F8BB972DCE3D01FE503D3E4BD0BB6EB8E13D27C4853D9403F53C92DA94BE41BB3DBD8984493D80731C3A4C277ABD46194CBC9D0EC2B8AF7967
3D2B60A83D245B503D100D41BCF22E283D294DCF3C3F58BEBC305C043DE493693D478D6A3D79CE8F3D0CAFA93D2FE4E43D0DCFD43A51B1FABD3330A6BD286762BBFF614C3CA0B5AABC73B7C43D004F163AEED8753DF3A50BBCFCD7B3BCF9D7EEBD6F6E1CBDBDE0E53D9072B7BCD68B9BBD2AF4DDBAE4498E3D1228A43D024763
3CE85DE5BCCDA1F5BD195305BCB782A93D85035ABCA071923C4C044B3BD506EA3BC7D71FBBC477C1BCF465D03DA47FAC3D86AFE3BC6BAD56BCC50C113C14A437BC9C96D2BDA3630EBD008950BDBE3306BC6DA5D83C4A3F86BC9D54953CC1A5ECBD45DA1B3D1D0E8CBC49FFABBC5EE54EBD1634D0BD2688C43D0EADA1BD4E5387
BDCEF3043BA1F6ED3DD44490BCA57B0D3DDC7721BCF1DFF43C45D82EBCECA2C2BD063D77BBCA04393D5F852CBBAD9B1D3D6331503A6A20D4BCE4872D3D40C05CBD2E0585BC9CFFF63D8B2BE9BD2753ABBC0BED6E3C042577BD6ADC073BBD77FA3CBEC69C3DD565113D92DB5BBD2972423DA6008DBBDFAB733D2704823C7E7363
BD1679A33CC48B30BCB1C345BCE127C3BD61CC213C0E162FBCDFB94FBC20991CBDD98BA13CA5AC5ABCAD3065BBCDC7EC3CABEB9C3CDF96EEBC9718C0BD87453FBD705E0B3B8F00FBBD5CF6E6BC5785AD3D07451ABDFED5EABC84B3783C00EAE8BC8762D83BDAAD33BD120C743D051EEE3D12C0843C99F4E8BCDAFE783C882026
BD36E142BBFA8E0DBD738AC33D266AC7BCF93560BBC5E1593999D659BBA76DA93C39C3C23CCA229C3C8E5BF73C766C023DE712413A8E44A3BDA38F693D8C475E3D1FBBA33C8122E3BC33DCC93C542B93BD0868D63D6F27C9BDDE6B9CBCCDAA3B3CBAD843BD49F2393D57196D3D26734F3D7450A7BC8905923B08E37FBCE55982
BBEEE2A73D064005BC55F2A63C41EEBABC86B41FBC0CFB9FBCFB7A58BD9442433C75D7DFBD1B2A71BD12EC683DE435F13CDF2DC63C798045BD2853223CD7317BBCA04C683B3AF73C3C2AB3A23C6A347ABB134AB0BDBDD1DCBC7CD9F7BB1F7D873D85AF463C9AD8D8BD2AF392BBA4DABD3C1F6640BCACEB71BCA4F6923C888AB9
3DBF3066BBBE86DDBDD288A6BBB0D07ABD9812EA3D1D61E1BC49D2F63C2766C6BCE885053C037579BD46640ABC47C341BC9F92213C5348A93D488793BC3481813CD190EE3B810C2CBD369B293CC3686BBBCEA92FBBEA65CA3D04944B3B073A323A9D32F0BDE61146BCBCFEB33D6187BEBD9F52E53B6381ABBD0162B03B943402
3C9CC0263C5A36E73D8824DABD018EDD3D467634BB0BBFAEBC836A9EBBB03AE63D1D82AEBD0DC3F93B2228133CB6506DBDD16C043C6C5F743DC84B093C4D910FBCE44FD4BCA8E6D13D05C0EDBC620D333CDFF8BCBBE44A1B3DB1DCB03CF585923CCDF5B53C64D008BD40B20A3B5E9001BD19AE51BC81EE863BE47A7E3D157307
3C7A84EE3DB36B07BD06BDF1BCC58C09BC2F3327BBEAD1793C02A91F3DAB916EBC5C36BFBB84F9ADBD23CC833EB1921D3D8BEE9D3CA301FABA1AEA373B37E3003BC14935BB6ADDCEBCEBD8DDBD870033BD88C0B93CE872DC3C808B4E3C6F7C6F3D93995C3D063ABFBC8760CCBC071AAB3AC8DC3EBCBD6F713D51CB20BB2C0F15
BBE8E3473CBFC50FBDBF80A63BA27E3DBCD7F40A3C770A8ABB5523E13BAA2774BD97FE8BBCA5CADCBBF7431F3A835E0BBAFCB7A53B93B6EB3CF2AFBDBD93D44D3D50F25C3C36DB673D0C4BC73BED15F3BC5BE3ADBD4404793BA343E2B9247F5EBC7CA4DCBDB98272BCAA19063BD7FBA13C19D4093D23FC82BA4E5685BA56907A
3C5B3A153BF47BAFBC88DCB9BCC60C833E03C4AB3C3E9E7CBC8C39B0BE539947BDAF5659BB221543BB19E22C3D8C1D7839C6EA0D3BEB57D13C9BFF303D0CC249BC1641013C75A95BBD17C10F3D038911BCD4400CBC274B54B9F2761ABC99E2023B11E80DBE08C3D03C8C3B34BD1AABFEBC7898E53C8A2221BC708EC43CC566A8
3AED5848BCD922B43DB536DD3C91DE063C17A876BD51E34D3C8FA58BBDD46C7BBB08F2B03C2E9FCA3C855D02BD0C53673D1F1A8BBD0C8F1EBD81789ABBE988BDBCDB607D3C6F39323D72A8253CBE63493C17BAEE3C05A45BBD070296BC3150C5BC388B26BD5ECAC6BCB76870BCD50BAEBC813760BD0010FA3D24BDA3BB34B13E
BCA9DAC9BCD8FAC83CB391343C243DD0BDAF0C8BBD70480B3C5D0903BDA5D47E3DBF43523C59F88D3D8223B2BE0BF6DDBD92C226BC737A52BCE546493C53DB29BD59B78B3BF597073D4AFE21BCC4F8C8BCF534923E06DF7F3C86E00FBD30A2203BABB024BC82C48B3B3547E13CD691863A1E20D03C430EEF3CA964D4BC7D557D
BC6F7667BDC188F93C6074DA3D552189BBEF521E3D3284373CA168093C141DA23D7089C6BCDFDD373CF94C423D87FB9BBCA0AC11BCD44CB8BAD2D0FC3E07CB363DA68DD73CA6C725BCEB7AAABB54583ABAFA0AD23D8551D03C187E0F3D234F14BC120B58BD4C45BA3C0D021BBCB3D27A3D270CBDBC921FA4BC442D013B788CBE
3BA8B7A83CBE90B33C90990C39DA0AB9BCE04A613BABF2F23C116593BBEE0661BB8CD5843A8DD0C2BB05A005BCC94CBABC10AEB0BC0C20203BD63A6CBC9ED390BD2B477DBB6CBCD13BF4D52F3B3150473B0C5F0ABC8E6DEC3BC086C23BD628843C26D6D3BCF0645F3D378BB03D8319F4BB8EC8E63B06300F3BE4EC23BA71D02C
3D25C8703DD8E3FABCA89303BCB43D49BC35085F3D0404E7BB001166BC15CD06BD705A6DBBB09F76BC9E31353D7CCB11BC33CA27BABEA5C23CB236ABBC03F46D3D2D4F8D3C8A61B8BDC0E076BD1E37173B0BA18F3A57FC523CC2A92BBBF1ABFCBD29574FBB4FE8233D425D57BD68FCFFBC84E01EBD5E1699BD4888EE3CD9E4C0
3D0C31EABD3075D2BD41C0ECBBF40327BD0273A1BCD56AA43D13D4F9BC842DD2BDA77E60BD4C8184BBE4330FBD4E6AB23D6BC634BCE0202C3CC7E38E3CC753D4BB607BB43C56AA83BC439FB03CA705013ABB52263C92E7F7BD747373BCD37F0D3D0804BBBC8A75AA3CFB44C53CE47249BD054081BCC43D1B3CF1858E3CC839AC
BCCE0C67BD680435BE20D5C23B6AE31B3E23CBE9BBF32A28BC8930713D8399023E1109F13CED4CB13C61114E3DBE6E2EBC222E603C7510E93D98DA3B3DFF68D0BC8782B3BBDCC1E8BE1767F63B0E1F2BBC483FE2BD9B30333BB05D8D3B6CA8143C3C52773E3C78B2BD0FE36BBD6F179F3CC8C3A33BFDE77CBCC4A1553B096D03
BC2EBC7CBB27599A3CF741BEBB7692F63D81AEDCBB0D2D6ABC5D3836BCA6FF04BD82255DB988689DBB8CE7A53CA8F1A7BB55EE463C26DA593C43A69CBE05134CBCD01CC1BC21954A3D729C763B7CEDDF3BE00720BCB4FA1D3B344F0E3C47EFAC3C83BD49BDA5BFBBBD46737ABD0563A13C281805BC1E91353B5B03383BCDE607
BBF19C86BD7DD283BDDDC83CBCB8B0A2BD7027D83D4BD429BC9A2CF33D1174AF3D95208C3CC966CF3CBD9610BDAE09E83C0D68453BF0FEAD3B1455343D4C0BAEBD3489B7BA9D93AA3D6D45B03D1A1992BB18D4273E2C5E3ABC4C7CE03BECFFE7BD286A6D3D806D01BD8B0B65BD773CA83C7F720BBCF33EA7BDA042A9BC859C12
BBE950753C9791BABC5C5945BC8A9FB9BD8913F0BBBC5EDB3D01F57A3CF4A9D9BCAF2A3F3C61454BBB0E21D23E0CA3D23CB7CFA2BD13DEB93D8F5DB2BE1254C9BD801884BC59B89FBD17AEB0BA752EEF3CDB85FEBD6A8BC8BCBF56143B7BC9F73C9EEBC1BD9E817D3D8252363D92D7273C2B9A48BC7310DE3C0EBA223CF2179B
3CA83459BCB698F43DF3DCD63C497D423DD99974BD2CE3593C6241A9BCCE6B863D69AE74BB8E33A63C4F9500BDCC259EBD298566BB9A3AD5BD4C6E26BDA7DD2B3BB6421EBD595A833DD33BD9BC20C1A9BC8E27EF3E02E5033D5564713D3421033D6F00F13D0C22A33D549EF13CA9CFD3BCB6DAF4BD3FA9573C45BBD5BCF11FC3
BCF0C2E3BD017841BDCBA047BC0DC565BD97A2D73C0EDFE7BCB03F44BD189B7FBE10FF8FBCEAA64C3B01EB423AC5D8AABA2C3CFE3C92AC553D81ED1CBDC7BA90BD9A146DBB4BEE06BDF3E0533C0C8D033C49AFF2BDCCBD8EBB527B693C64FCD7BD0E6534BD87509CBD4116FEBC8A10113CB38A433BA002FA3BABCBF53BA0A572
BC8F2071BDB815A0BD517B57BC56ED533B15DA8EBC78A19B3CFF4DE43C4C93623D988B053CF1A7253D52F31ABC81A1C03C824F70BD3AC7BF3D8DEB573ABE17C8BD92863FBBBB7FF2BD26EC5F3D2BB014BD05357E3D2787D6BC858F84BC3575B5BCC12C903D3EF39F3C686FB23CEC0E37BA2290C8BCA44681BB6AD642BC92016F
3C857A82BD6F33553D05AAE43D8352AA3D2FE4CF3BD860B93ACD4616BC162BDA3CA3AAFEBD0BE5C43C2FF2D9BD7DAB55BC86A283BBF772A2BD9982ECBD6484A5B92FCE51BC0DDA8BBB525DE8BCE9281C3BD57EB53BB7B2573C72E32FBB53B06ABD06DF52BDD1B23E3D078DD9BBABBD57BC94D6953C923D4BBA01F73ABD5FDA69
3BE299D0BD8DEE7EBDB0447D3C4CBA7DBDBF18873A021E2DBBAFF5F23D9211D63DFB6FEA3D4C64073C1A8D8F3CD516023C4571903BADB6CDBC46C32BBC73018EBCC3434CBC43CA033A0B0ED23C9250A1BC9BC9A33E0227C7BC1486163CB8B1D33D1192193D66ECD2BB301838BB9AA99CBC04A5F9BD5D5BEABC810C1DBAE19551
3BAB0BE2BC4ADB28BD47B1A6BC4D750B3D1FB8D2BC9B8345BBDD099EBC614B1ABE0C8E223C8BAE533A9DDBB03D7054AB3C1989D83C3587663C7389CDBCA45BA73C42AC99BAA12BAC3DB86B0ABBA250C7BBD054D1BCE01F57BBDEB2D7B942D14D3CEBEA3ABDE4FF6ABC3A64963BEC4086BB7921D9BCF322693C9B4B243C4BECA6
3C9583A43CDED46D3BBC09C6BD7A67063C270D9DBC10D40EBCD5AC603D5A39743E4CDA13BD6331053C51FFCFBD0968603CC220003CE705E1BDA2E0413B180F8B3D81BA09BB82307FBCCA372A3C6D30CDBCCF8C0C3D3D60323BC6F5C33C0A91613D88B32CBD1158123CCECBD7BCF6678CBC9B363ABDA716F73CDBAD1C3D62666C
3C66795F3DDDA610BCE5F04EBCFE152DBDEFC27FBDAA1FC53C24A5173CF28324BD610E4A3C8CC5F8B9EA526DBC5AEBDE3D6101B43AF0A38FBC6310FC3D0F8A67BB02DCED3C9D10C33C92761BBD5DB368BCDB7CEC3CA2E082BD562230BC597D7EBCC0DC84BCBD99A43D36B5563BC24E5EBB7DA71CBC0389583D944A613B191759
3B323DA53D94306BBCE85ECEBCBFF810BD75729ABC323BB73CEAE583BC06492B3B93A2A93B8E1316BCE4EFDABCE58D893CA99CF2BCFE6C643DA420753C43C1793CCEAF813CA941D33C9ED0783D1A0A29BAAC97F83CD7B05DBC6FA46ABC892AE73D2912063D871A84BD724938BBD80AEABB93F29ABBF41FC83CBDACCB3CBF010E
3CBD8EFE3B5CE11ABAD8BEC93B67D7F1BD698F93BB3606893BC4C13BBC2051F6BAC97A853BAA1FD53C77C489BD4EDDDCBCB99184BC168E90BD98798DBE20DDC53C94611BBCA0E327BBF58818BCEA60093C1D2773BCA86DF8BC7E3F3D3C8CA7D9BC13999CBD4153F43D28409E3CCA7BC4BD082C813B56C563BEEE4DED3C56FA7E
BD0CF197BD50FC703D9552A93CAFECB83C486805BB188152BD2A0E663D5A5F7D3CED07ED3C7B4870BB4C87403C894A12BCE660ED3D33497FBDBB6CBEBD5C1A7FBD17C5CEBD13ACD53DB2A4F6BC6AF4B53CFA749CBC9118EF3CB99D543D03298DBD44BEA5BD1745B7397A86443CC89A023CF05EC23D54AC603CD46685BBD9D4A0
3CA0C8DDBC8D3E1EBCCDAEFFBC0C7202BDB8D2943CDA2A163C82BFE03D9F59353D9798A13D3636373D6C31F33D77BC653C4519BCBC8135213CBD4AE8BD7DE415BCD5A03DBB52BE543BE7C35DBD13F849BCCB0DEB3E4E86BCBD32D86FBD5F4A52BDA67545BDB7B2FE3CD6626DBC363890BCF21370BDB11FCB3CDD82FC3D19E5C6
3A5534F4BD42AE833D869B56BB3B6FBB3BB04C5A3B71A5113CEB0BC83D69F7A53C92799EBD1219CD3D1A21D73DF303993B5BDC47BCA01CC0BCA77612BE11F637BD53367FBD2D695BBD3B1BD9BD9FBE273C584985BD5951593C5550AB3B4A8318BCF40C093C4F129A3C465758BCE0D1A73CF0DCB0BD8161D4BD1ADF7EBBFDCADF
BBDE8A463C9EF07EBDC079F9BC9A27013CC902B63BAAFE35BD2A44A03CD868F7BD6A061ABC3D4C3ABC9C6E38BD06162ABD7EE7653D39AB413CAD4E95BB78514AB9E3B2F6BC668F72BD721A4FBC77BF37BC5B377A3BAEDC0C3D7DE0BC3CB688F73CB2F165BD21D9A83C93B3C3BD422AC43B1AA5AE3B85533E3BA212173C8A0492
3B14E0AF3D1FC9D23D47382ABC0E9CB63BE8E2B53CE3D62D3A6DAB8FBC9BE4F7BDAFA0BA3BF7EC58BD0A2D28BD9559C53C611BDCBB5CE4D3BBA234E9BE185130BCDE3CF63C84A95C3D2B74A93BF2F518BB551208BE150598BBB878C83C170E82BCF2E34E3D052B0E3BDEED6A3C9B931CBADBC0133D0063E23C6082DE3C749618
3D8522363D01700B3D57C3683CAEC334BC1E995BBB8DE2513D21607BBD2B6B5F3D2F91A4BAFB9299BB947A47BD6AD632BC88B8E7BD182B1D3C529A893BD32438BC9227AF3C21EAF73D587AB73CB68EB4BBB17A4D3D229CF63BFDFDB6BCC1C52E3D3294F7BCD37ECF3C4D6F673CB12AA7BD81483EBC335EB7BBC0146ABCFA85AF
3CAAD0EB3D2AE1F03D4623783C4DAB70BDA436E13C0B5EEB3CBB8A15BD7E022C3D040F0ABCFBC926BBB29B98BD522191BC5FF548BC78D82DBD11AB2EBD25ED70BD345D483B3CD0BFBD1E7764BC85DD03BC2C5BD1BD1AAED73C9994EEBBC32210BD08C38ABD124C323D3AE3E0BC391370BC7706783C3C26013C731207BC85E956
3D20CE07BC9A22C93DD12D5B3C18CFCABD4750A53CA771DE3D9D80EFBC3AA311BCB641893C1D14C63C83660CBC8810B83D90C6B0BDA022F1BD1C540F3C927B6ABABFE9503C996D0F3D5FECDF3BA851ADBB2115B63C7184DCBD94759BBCD7A09B3A9C82CCBCE03AE3BCACDC103D3B9D76BD25364B3CE43E53BD12A44ABC143672
BD7B846DBA87B82ABD4F6E703AB5B5863C06DB94BCCECC65BD3E2EAD3D103533BDA065DABC09E8E5BB6BB3CD3D9D8385BCAD93773D4D48F4BCDABF72BA82DA6EBC89E8CABC4E22F6BE1FFC12BD2045533CA2659CBE10F86C3CA7B3A13C9116643C089730BD349EB7BC9FAA673BD3CD6E3D5E147B3ADC1A423D44BB703C3DC0F9
BD01F9DB3B89CC8CBC877E6A3C04A6F63C576DC93D7AD26C3C4B4DDFBC01FCC63CDBDAAF3CCBA5D0BC50F5563E8A054FBB10B9F63B7B862FBAF9F8EC3C0BE9E63AE50D28BC823BBABBAB7947BCC97AE6BD627A033DED078FB9F0F6F63C8413A33D8BB73F3D0E0D243BE8B8433C8B0B723C8D578BBC3F7D663BD93717BCEE038F
3B5F0B663B86D03D3D6F96EC3D2881D8BC43CFA5BC406FC03D2D3DCFBD6A2543BCA4C599BCE054733C132A83BD2F021DBCB488CEBD161D283C049B0A3C3D2820BDA38000391ACE79BE3F7E7DBCD0687DBB97221EBD3A7DEB3C73F67CBBD90F443CC7B6083C6931F3BC067DCCBCE7E9B2BA932FF23D2492E03C9D4C76BD0B2418
BA0BE2DDBCF38950BC870E463BCE9217BD09D2E7BCA69A453B2799DEBE228A893D0E3C553D71BCAD3CA52B523CF8056D3C1667C7BBB17DAF3CC67CF63C743AC0BDCD9A7ABB89CF933B46DEF5BC0ECE1CBD5273FCBCA5817A3953CE69BC2DB0D73C71F7B7BD77FAB33C854029BBDC5F82BB1F755F3B8DAECB3B0BDE5FBBE3C0CF
3C07D950BCE04D6D3D6E589A3D379C023BE00CE7BD802AA6BD2954C23D708ED93E2A518D3D24BF8BBB5D1091BD15DBD9BC900D683C92ED42BCF358573DCC06783C0173FEBCBE1C99BD887C1E3C59258A3D2883443E0213453D344B873C321CBFBCC7CF77BC872FF2BAC234F2BCE6468DBB82C426BB6EDA163D4713AFBD41803E
BB965485BD319D0CBD51159F3CB894FF3DD90B62BC496A2B3AF2BD743C9465163DC2EDDA3C14ACC43B7F4E65BE3B38CD3C413B79BC075E9E3D841D4DBCAB48ACBDBBC772BBD347F4BD84AAEC3C89B583BBAB59593E29F9BCBC4D2E173BA54F543C0137A6BD18C6F3BE248B71BDEC84193B4892473C5FBEDDBAD15EA7BC87936E
BD1EA88BBD635AEF3D8052663D2E7DF83CE6032BBC410B46BCDD0EB73D784A4F3E001FCEBDC9CB933C577BC23E2683C8BD117BBE3C9D03983CCF86E43D197DC73DA146A13D052364BD1C29B43D501793BC9715383C2125E6BD5313743C564B3E3CD99F293BFB7B1F3CC64355BCA0353CBC738BB7BCC24905BC433493BAB9505A
3C5D4A19BBB087A23C0B04CFBBE7069D3CEAED4CBBA178033B9D7F91BB23112FBD2C17BD3C9F73D2B9AD59253AABB3E3BCD80AC5BB6EAF6A3B49B2913BDCBF6F3D2D9B30BC4C6A7FBCD95E1C3B0DBB993BB8C684BCA48DE33CC8692B3C4EDE293C146B33BCD2E5393D9D80D23DAE4761BC78B3F3BC3216683C6E65423BE67441
BCA78A853C625661BD942E5B3D1077B5BD3C958D3C5837C6BD1722543D6AABE83D8E9664BCBBE973BD211C3DBD2A60C1BD35EAB33CC639DB3D820CBCBCC6B4D73CB8AD0D3CABB8943E023B0CBD0736BFBC217DF6BDC87ADC3CEF984FBCFE201BBD2720C83E097D2F3B8A4224BD14C7D03CE4DF75BC8A511CBD0A1D7E3B06C6E8
3D3FE762BCDDA004BD9CB215BC27C04BBDB6F8F73C983EBFBD0536EBBC8132A9B74D07ECBD2063663AA88FAFBCB865083D46443B3D216749BD219A0FBD1EB0AEBD5DCEF03D7CFD4C3DD53E193CE44195BBB583E53DE4A198BD37315EBD01E68A3D5FAE523BDFBD973C912006BD0E21DEBD71C90ABB890664BB64A3A43CCBE2D3
BD13AB06BC4C98EBBDB510F0BD392E40BD3C8A3DBB7E0A8CBD62E58D3D12BB693DBD8EB73CAAB8CDBA614B303DAB38BC3BE5FC583D3F789E3DBE290FBD96EB22BE424C67BC9D746A3EC286B43C4C124D3AE860B23CAD18B3BB49579C3CA274F5BD981E433DBE57913D30E78B3D99D2C13D098AF8BC977570BD2A02DF3D3BF19C
39A6C6033D193794BCB27CE8BC4320E9BD0B38DFBBC2F862BC53F8F6BD61EF54BD9B69BFBC34C260BBD137BD3CE6E8D03B91D2923C69782E39937F0FBDDEF0BCBD48FA753AF12D593EC8E3F7BB0A47A13B0A6D423CA2E725BB90CA063BA4AC9A3C90E3A3BDEC527C3D5286DB3DB48B59BAC59F1ABCCDB9D8BB066B1F3C7F86EE
3D0CE512BDB12F6DBDC95011BD2F6480BC0F83F83CFA81FCBC0EB3DABC7E99E53C88F3F43CD08F623B18F79CBDDDF80EBD80DB41BAE15C4DBCEFD1283C9D8125BD4BF4D03B950A6EBD1194EE3C3C65F43C0C7E053DBFE42D3D7388A139CC5875BC4554253D19F5CC3CBFB74FBD28600CBCDB3501BCC9E1373B80713D3D2A225F
3C3E9AA73D0E64C53D8A4C473B681A703B98F8633D1677F43BE7D2B93CB73D1FBB01F6303D4DE798BCC67AA63EAAE70BBC50C54F3A004B3DBDBDE73DBC6C7244BD1F48CFBAAB9C513C81AA1FBD131899BC57411DBD9199AA3D181D873CD667E8BCC405423CF8F4593D90CD5ABD3C6CFFBC5E9B60BC1437C7BCA82AEDBCADEE5E
BC98533CBDD3091C3D8D1CC03C9DD5913D009118BCBA2C2DBC334D333D25A78EBC490C6E3D4D91DC3D2B38733D62E33FBA66A4D63CAA0E54BD90F4F4BD3009CB3D3B31E5BB32ED38BD64E65ABC5B2C80BD8F9A763E293864B97CE0ACB9E08FAE3D7C475FBC846B1C3DB2C1233D201D8E3CB42867BD479CCD3BCFCAB3BD368CFD
3CC16B02B984ACCFBD97C234BBA999013A290CB9BCCF33A7BC07B819BD809332BCC0C9F43CF9D38BBAEA00E93D4F7B98BD969B793CD82B983D59EBE2BCA2CA30BDE68C0DBC1C25E23D3E5895BA7065253C407D12BBF341A53D4112303C92BE773CBEE1F63DADF55D3D606EB23D47381FBBD02A64BD00A6673CB22A7E3B4094BC
BC950EA3BD995112BC33FD5BBCD63DD53BD9E2C1BAF90DB2BCBEC7C03B00BD7B3C7DD35C3C93E4B23BAF2B9ABC0639AF3D0ACB1F3C76A77E3D6FB0EA3C315AF9BD73CE4D3CC1F94F3DC825D23C8DEAC0BCA8FDADBCBCB6BCBCFE64E3BD2DAF10BBEA12243CF2639EBCBB7EC4BBDDE01A3CF552C13C32A1E0BCD052ACBC27B055
BD9F871E3D3C90E63DC98FCF3D66A7D93D833428BC40128FBD8B5D463D4D73F73B2BB1BEBDCBF8BDBCB6D65ABD81E1BFBC1937E13D72563CBD81F226BC88AE43BCE7D1FE3CF071C2BD98B62A3AD792243BFFC495BD8F4F963CF56E22BCBA2DC2BD2312FBBD700B01BBBE98C8BD080C753D952DD538B37891BC6B66BABD432D82
BC989E9BBDD42FA7BD2528C63D09AB9F3DD232C7BC9C93C2BD151C04BCC89ABD3D1EB5B43D094C043CAD0FC23D0736ECBCA230DB3CF0D0A33C88EE0FBD603FC4BD2F3D73B81D1C353CD6B6BF3D014D0EBD1CF4BA3DB3F17D3C9A4057BAEC13B73D3082F83C52D4D6BD3888BFBD21880F3C9009F2BCDB94D1BBB6EFDABD2E6505
BB7F46D3BCCEF9C7BC4B42B73BB1AAD8BC92EA5FBC743D42BC8CA86A3C8F42C9BD969F0B3CC644173A444478BC43EB273C0DCBB53C881ABC3CC320FABB756E07BC2405373BE16F09BDC71D7B3C52679EBC2BE3A7BD0080F339FEC5DEBBEAF7253C5CC1F2BD03FE663D42B1D83D3158B53BDF95C9BCD3CBDFBC74A1BDBBEA6B5F
BCBD86BDBCCFCF003CBBC7D2BD0657D33B49B2EFBCD826483B06E8D83D0D48F93DC369F9BD9FC0B5BD3164DC3D2F12913C628B963AAB2E7EBDA414E93B05C7F73DF16BAA3B53ECCF3DA11A6ABC8B8719BD35BD3E3C00B20DBD24CA603A95E0ED3DA3580A3CE01E91BDA5B985BD86C5BF3C439AC8BDB9A2CCBB2089163D560F57
3C9DCE0E3DBEC8C83B46580B3BE7DD6CBDCD2A04BD59C09D3C38D96EBD02349EBD0632223D45473FBB3DCE17BD065C863C862D41BB959860BD4EE1F03A929AC03D5437CAB9943BA8BCE4980EBC9681FFBC7F19133DA6D297BC87DB50BC1FC5AABC30E4563BE494FCBD679BA8BD5D445DBD16921E3C63F77C3DD78A36B9C2937B
3DA055113CB0B5A5BD66ADBFBCD33042BD7E68053D1B6EDE3D992146BD92CB353A9F41653D5E12E83B5A7B33BD2F6C593CC043D5BD9371753D8A2A2CBD1E5C113D8535F33C379CD13DB3B9C03C80F4ECBCFE681D3D4380ADBD3A8B04BBAD47D33D162BBC3D83698EBD2BDAD83CD16E44BD91ABC73C221F64BC8A7CE83B931A06
3D3AB0A3BD58CCDC3CCD5662BD1499123D60CA32BCDEE27EBD7E3ED23DB6DF163B8F9AB5BB6E4DAABD44DC74BE017596BC6754E73D7A275B3C0A18F3BE205A0ABC2AAB053CE22B013D1620C43D086E65BCBE9A243CF07EDA3CC5A83E3CBA84B8394F36713D6B5595BD3FFBC5BCE37764BD55562CBC64DD3FBEF323653BF11E65
BC7103D8BCD4DE683D95ACD43AE9D4203D3786873B3E07843CDE795A3D57AD18BD63F7603CD368D13D30F30B3BE0BBC8BCB2490FBCA1AED8BDD46853BCA877003C9BC3FABD8149BDBE52B5223A90D44D3C32ABAFBC8A35F63D059CA63D67A2363BC08D16BDEEBC5A3D6175DE3CE6934E3B2857F13C8293653D292486BC62A8E5
3C8773803B4C76F9BD8AAD71BC5EC9CABE0BCD1B3CCC46AC3BB804203D11EF26B9138C953DAFACC1BD0089083D9912F03CDF03C63B09CF52BCDE6E29BD083D01BD880D723D2C86893ACBA8A4BD1BBCF4BC9680F53E2D66BFBD73201ABDCE8EF7BE119EC23D1AE4693D02507DBD05A192BB553938BCF3D1753D33088B3C978ACD
3C743000BDBD96C9BD723B11BBF48AFA3B2CF9ECBC1654DBBC57E8093DDBF9043D319A7DBD94207CBD39947B3E9E44943C0DB3493CA32D283C224270BDB066D4BD8DEA68BDEAD3623D316D3FBDDD0BAC3A3D5EB0BD901CD6BDA181283CFFCE75BB2EF747BD0E318F3C95A8E4BC3AC852BE191AFDBD1F3AF1BCAB8DA3BD30A1EC
BD87FB7CBB9953CFBD7D975B3C81D6DEBD8DA92BBC1CBD2FBD1397C3BCAD5C453BAD1D583D1C3DCC3C86E89DBD068559BAF8297D3D0F4328BC40679DBD6A6324BCD0B1E6BD3DE4913D3016293C91E6103A353B9BBC77D2553B7763C73CC8976B3CD9EB0C3D9CB4A1BD1E30C63D1864E53D6AE9653CA17A653D13E075BD1531BE
BC286A2A3DBDF429BD0CD2F5BCEFC9F6BD4342133B9E41063C462BF5BD0065BEBD912566BCBB80B63BB68A1CBD3290F63C848759BC2CF376BB1CA610BE069B613BB612A63BAF8A8FBDA247F5BD07A6EF36AC50AABE0B8BEEBCA11CCBBCDB37AD3C6C65B9BD2D07CCBA23B3113CD04A523BD9BA7F3CA33D363C5786F73D1056A6
3BB4C7BDBCDD566E3DCF67CB3D5A08B03DAEDC183D13A2863CA25CE2BB8F14F63D51A090BC793AF7BCFE74CFBDC8D2E73D5C5B7ABD08E71ABE1F263ABCFA30273D0621503BDBB365BD26D4A93D46E9CEBC7233493D1D5E1EBD87072F3BD013D63D1BCBB3BDB75683BE1F74D03D2D0C653B8D41DCBA51E87FBC0EE71FBD47000B
BD2A0A9ABC18A8CA3E19C414BBAA80423DEA7E9C3D177576BD072FE1BC4436DFBCA1EBBDBCA728BFBCCF93593DB4B993BB3847653CDD1759BCED678FBD5118663C56F8BDBBFE6027BC85A9D53CB3B8903CBCA1DA3B4E0BB63B97C17C3C2CF58EBBCB64123C94FF1EBD77BF27BD1E7C433D1D71A73D1C826CBCCC1A143C2EF06F
3D847461BCD539EE3D3456AC3B442B453DF8BF7C3C7DDE273D410FB7BB00C4513D0017C5BCCA66C3BC7D760E3C712D5A3CDC3F9FBD301CB0BB784A19BC01C0DFBCA33C7D3D5C508DBBD44140BB4747F4BCF709283D703571BD147D88BD10C265BCCA6B81BDD39790BB7E7851BD26656EBD482B81BCA0756DBD23D9EC3C890463
BCD64CEC3BFDCB5ABDB9853EBD26F934BD9C37EEBD529CE9BCE4ABF2BD19AD393CA7F504BCC8BEAE3C76F8343E1FEAD7BD7C55793D36A1623DF7C02CBDA790E03D40214ABCD6096F3E0F4668BD1222DA3D32A998BD1471E13D8689983C9242F0BC124B9F3D6920BA3E069B7BBC2D28C13C6D28F13C8CCD6F3D4CEF983D40A569
3C5A74C53DC3F7E23B400FB73C827AC6BC442B35BCA08C43BB90DED73CF6E820BCFAA96C3BA182313D3F34483E3C91BF3B0BA6573C05C17FBD0D1049BC8051BD3D2096E93BA7351F3BEBF470BD0A0C9BBD68BB393E0769BF3BBF4F10BAC1824A3D417FB93D72E8C03C2E102E39BCB81ABB5A3C6FBCE4B8E13D5BBB833CD2E25C
BB69F41B3C5BCE9E3CEAA1A3BCBED7D33D58EAD13C64D61D3C23DABFBD45A162BDEC8BD6BD08897FBA0725A3BCA552C8BC14892EBA0722F43C77044FBDD33EF0BD086E7F3AEEA5EF3E989152BD0F43D9BB7ADD2DBD8105773B86AACA393ABC363C53C115BCD0E874BB436E973CCE4C223ACC55BC3CD558793C0AF7F93CD27922
3B0F8CEABD75749E3B9728223D40B4EEBD25123B3C8C3C803C9EEDFBBE3081ECBC00B4B03DB03DA13BE4F13DBD7D04873C3BAEAEBD04567DBC3C0E993C24197E3A79CA9D3B2B7D19BC1B821B3D19622A3A637B5EBD6890E4BC5167C7BC3BAA65BC6E0FC93C8349F03D6A13833C8899B7BB82C74F3BB588D4BC94BF57BD2E8866
BCBD2019BC74D1F1BCD93E633D826733BDA92043BD20BC623D015F16BCBB0F183D5FA64E3D2E61B9BC8B605ABC0485A73C825445BD5E490ABC6B5BD23DA15D55BC3E337DBB86C5063DAD24453CACC8053D2D06BC3DF1224D3C899D8A3B0655FC3AAEE2D03DD43B9C3CB8E617BCC99187BA86BC923C274ABC3E2F07B6BCC3B1BF
3C4CE50DBCE41086BCC35D813C0B01A23D83AF7A3D0EFAC6BC596C77BDB2C5E63DE496E13D6F01333D4BC21BBE1BD66ABC8806D53C45A06E3D5F4FCDBDC32F33BC69300E3CA0B7F8BD897C3F3C92FCB3BCF52AAE3E5BCB463B7C6573BD00FA1F3CEDDD43BCDED89E3D8CDEE03D8E5848BC8BC0B1BD4C496DBD957E7EBC48E0EE
3C3F8184BB9CE0233C635BD03D0EF5653CF0FBE0BC536BA3BC3D5CB33DC2459E3D928D8BBCC655DF3C8C19683E5444B2BD1BD4BCBCCD777B3D0E6A313DBD3E3A3E0E9F4A3D161CB73D901A283C63132EBCD2AD7A3DD442C4BC44E0473D3453FDBCDCC7563D314C133D6B34ABBD2419AABC5AF195BD143AC23D4B0F263C82A9B7
BBD270E13BF182F2BBC54126BA263A283D1CA3CB3AEEDF82BBC663C6BC96845DBC3D22F5BC52CFFDB95DE20EBCA172333BBDB2D33BF2364FBBB47271BD40291EBD1CF7473C6145B13CBB39E1BBE9C26FBC3CF8F6BD51A979BBE3E53FBC9388FC3C4E2586BC86BF663D5F17063D8921E73C0B929438C2B17ABC1600F53BF1586A
3CD2A89C3D4DBE29BC83A59FBA3331B13DFE53E93CF10F043C9CE58EBC692D753D32DA14BCD809453D1E7FBDBDCE0C9EBD386C18BCE11C6F3CCF22663D80AA843DB065F6BBD85AFBBCA1664F3AF99461BC9CF975BDB67A3E3D0B00A1BD05E101BC4D10BB3D8AB1F2BD784FA43D2C1310BCE4B22EBD05046DBCF4C4173C43DFDF
3C7A5793BD1B01E4BD877BADBBCF8066BCCF0EBEBCDC81B6BC8F32CC3C01BB49BD6DC67EBC4285F53C5475613C3DDE143D0B4F0B3C11FD223D02BA163CF18B72BD7B38913C0330ACBD6A98D43CFEF8EDBBC740373D060E19BCB6B8FB39E2B3F33CECA871BC9DB1D8BC8686F93D2214F5BCCB5F573B831F673D0C212CBCB1124E
BCA0254ABDB221DBBD6A02B03BD06FAF3D3FF2773CD00CED3BBF10D43C8F45943D46D6A03D118A94399AB6AE3D17C34FBB9C000ABC28B2AB3D38D02FBE0F2F5EBD98D02FBCA0F6C9BE83332CBB9923473CB2E326BC26C93D3C0D3C823C88199BBC8AA72BBE39AD953D018AFD3BCF39013CA42ECF3C73581EBC85D440BBBE073B
3C2CAF44BCFA6A4FBD203F31BB531D3C3DF7AB30BC6C564C3AEB637EBC625408BD6AE73E3CB20338BC40B0DF3D16F35CBBF7E95EBB04A29E3CBF31C2BDD24F633D094C6C3A489468BEC38F98BB93EC023B0041FA3CABA23BB9FE9CEC396398563C99D0E0BD8B45713D57D944BC1D4230BC3C2BC4BCCD960E3C07425C3B978DC0
BCD0D4B2BCD29789BBDC0CA5BC8E83253D5DB220B91DD8FBBD2367C13C46ED3C3CDF2B41BCC2E61D3BE6D0A5BB0D1F14BB90F45C3D0F9E18BD41D6173D46D4A4BD2947863C420BA3BD8B597B3D0E99083CA11A8DBCD3A8D9BA57B27C3A0902A3BD7B80D63D9309C03D2CB092BCE90A623CCD237FBD0B0F48BCF9E1863BA15D56
3D1E0FCFBBDFD274BD48DFFEBC968F623D821EABBBC743C63C9F83D93B567C0DBD67FD1D39DD4BFABD123EC73DD1DE463B8B2041BC9B50893D004D73BE5847BEBDD7BF14BC0A2F733C5C75AE3BE50DBD3CF04835BD8B21543C4DB7803C5B7BF5BC87BAF4BDB0ECFCBDB7F6BA3C540945BD044FA5BBE0C8F5BC3888B33C42CF32
3B6C24AEBE025AD23D8227573CEED9723D5E220DBD188EE0BB992CF2BD4BFF79BDAD4B683D24F5473D1E8B7ABDC149233B7360703C023246BCAA9CF0BDC0B1DA3C0EFE4FBD19C829BC9FBB40BBA8FEA2BD3857043E1D6B423BEAEC9E3CA64C4F3D66A17CBD65E271BC4A9E71BD349C5FBB4C242DBD74F68A3C9DE3E2BD8C41FA
BC906EFD3D1E866D3C15AAC4BCA48B67BD87526FBC5885893B079771BD01D76FBD7F7E2E3BE7D725BA16162C3D1CCC50BC6942E13BFDEB1EBD274329BDAC7B54BDC7542FBCC5A6C63D2DC8F7BB2750713C796FD839C4FC003BE5A9C63CD09DEE39BAEC80BD00D65ABCE2961A3CFC399E3C4A025D3C759C0DBBD9B9CA3C9D4C90
BCA5AC86BCBD58B0BD4416AD3B94403CBB47F3ACB8CA5B683C0B9361BCC89083BD1B87903C90E7CC3B727DDDBD18DD8E3BE24A73BBB8AEA9BDA07F333D12F2D0BC8C0C273C8127A3BD8531D23C96C98E3C8569823CECB056BB09BEAD3BFC15ACBD95796FBCC83D73BA9C082F3B8299F03C8D16EB3C8E2F96BC8D9D7BBC93918D
3C839D11BC6074A6BCA93B013C0F0B31BC254B23BCA43DAEBC3869D3BD0AB698BD80ADD3BD07A8893A6D8BA4BDD0D281BBC3FDFA3C8556263B4A8EA4BD9BF5B4BD497877BC7941EE3D83BA30BC8AACF93CC30B6BBCCA9911BB54BF783BD177143D086183BC4F7B043CD2C2FABD02812DBC3D2338BA1EF4823CF462EABCDF48C4
39F04AFBBC85A3B93D08FC533BFEDB57BB90C3FB3C4A3F36BC64203B3CDAF7AC3D9A1DC13D55E6E03C4FA5133D0A2E203C0EB0D23C45A502BC4CB0DBBD46F698BC450BF3BBF13E35BD4193E43C135E6ABD1F66D63DCB0ED2BBBCB0B83C73659A3D38960A3D7466F3BC131E683B979322BBCF2A8ABD17D9ACBC7322D63C37F97F
3A8E4AE1BB465CA8BDA9882F3BC808713D2EE6763C60C8503C020F7BBDA07BC0BE08AAA2BCDE02003BF5BFECBD805D24BB214899BBD17BEE3C83D3C0BDECFE53BDC89FDA3AAC365EBC0320D9BB503E7BBC7997BDBC021B053930D370BBCD541B3D26B29DBD364B633CB650383C6519FFBB9711CC3B8B1775BBF74586BB409095
3D4263D63B5EDE503C44378CBC981FC8B9A3D961BCC4ABA4BD1378B63DC05EE23E0F7126BDA902FCBCD3BC4FBB5D590D3D0C564E3D0E55AFBDD4600C3DA0BB633E225672BCD17EB8BD556396BC1500C8BD2AF7A33D8F2F013C644ADB3C4001593D0476753D5F5E6FBD5D0097BD0B2A0CBCFA3694BD91FF0C3D5D40AE3D584067
3D8355BA3D9347F3BB960AB5BCDF7775BDC53BA6BD3052813CABD4D83D2C9D05BD2CA6273D113DC1BBE5DACBBC96DFA1BD0456F8BD1F94ACBD66B5A13DA7871BBD7D19AB3BAFCE8EBD29C53DBCBC543E3B0E7BFA39930D6D3B97D82D3AAFC381BC456865BD0E082BBD1D4EE23BE4B0FEBD6A4650BBB1856E3D12DC793C0BA529
3C75C87C3B435E0DBB02358A3CCB41EF3CE60CCD3B8BA9EB3D3C91D6BD58012C3DA3E0A23B9A79D2BC1FFA273CEBD0B73C68E830BD694BA33C4662023D81BCBF3C16DAF83D013382BD399A7A3CE8746CBD2BE60F3D837721BC0A7994BCAB1A38BCDAF0A23CF0AC91BD0EAC413CCD79ADBCA2FF3CBBF0A10EBCD3B25EBC3AAA22
3D5860413B91A5873D72DC90BBA64C9F3D82F78ABD18CA843B3B6981BD10398F3D00636EBC76A059BC65ADC9BCF65973BCE5F5D23C397D48BBF9514FBDFC1AEFBD091E7C3B34D73CBCDFDA9F3C3203E6BC2D5C08BAD3F6D73C8C3ED7BC48BC80BBD999303D0A491ABDCEC87B3C6D65F9BD1D327EBC08057EBE6E6F9CBCBC980F
BC9EE1793B1A2B9F3C32FE213AC9A519BD43D7893B8FFEA4BB56A3543D8B4133BD73DF5B3BCAC3B43C5983FE3D4F8A523A8878E23C8431003D5A2459BDC71E16BCED624CBD3A1D8F3D954AFFBD28F344BA89D22E3D3AC0D0BA61571F3D291B073BFF9E3EBC4E7C223D76302CBD599C893CD0E8AE3C1EAE053C94482C3BC94824
3D133994BCC0A7D03D2FC108BC14DC0EBC69B06F3C468C953CCA2B4D3DA657C73D32A6803DBBE4C73D2F9D153BAF3F2FB8D254DCBCC342FC3C089E31BCF6867BBD6B30AABCA37ED03D37AFAFBC8731C0BCA1AF303D7F9C2ABBED583ABC5AA245BD3ED58FBD769D4DBB98F44F3B9E6ADFBD33B0D0BC47FEBBBB8D7ABA3D234054
3D227499BC8F1449BCDEFC973D020170BCCB513C3CAB37703D5381F03CF91106BCFF1E84BC51540DBCBCD6A83E4B4D003BC89534BCF515DE398D66ADBC699D48BB13FB6ABCDA30823B2CA07DBD45814E3C1281F2BDC3668C3CC93AC13C97EFDE3C471B373C9589CEBD449811BD21927EBC1976EBBD380B09BC0E51EEBD7DBF06
BC5BB9E53D0ABC0EBD8EBC41BCEF2C8CBC7A4EB2BC07D36E3BBEEF6CBB9E0219BD0FBB9DBC1ABBE0BC083E26BDC2F310BD2FCF8C3B4FC01F3DA158853CBE2B143C048D6D3B95E914BC5E2D27BBADD27DBCB983E7BDBE0BC83D1262D03C23458F3C5541523D304BD6BE2AFAC63B0D406F3CC9D3AA3D56A5693C7612E23D0161A8
3BFC0E323D8C11623D3BB0E0BBC6C43B3CBEB2703A96EBCA3B89849BBD10487CBD69198CBC17312FBC6FC584BCBFC538BC6E9724BB96BBA93CD19B27BE2406D33A1A71323B1CBA313D31F84F3CA3E8253CAF8019BE0526C63C4B60BABA86D48BBC78ED86BD8D401A3CF8B17E3CF99C06BA40CAD03CDAEDB13BEB455C3CA31BFA
3D6EE6333A0EE6E93D0CB21ABABEB301BDBFF7D43CE377FF3CC4C3E9BD56E1183C8F72133D1182CEBB9CE2263C95A7CDBB141BD8BD13765D3E0B76E6BD44E291BDCB37403C9D3D993CF75D823CCC1A91BCDABCAA3CECB3D7BB9CA8CBBC117E9C3CED3B72BE2C2731BCDF0C1A3D6848D1BD8BC2D63CCF0F55BC947F44BB28D27A
3B012E923B740A03BC9DC3FC3D6F1C0F3D8A37CFBD0C00083CBBF5FFBD54EA803D245553BB57D7C73C0BD7F2BC6848F8BBC96E36BD12FB093C259D7DBD9625EFBD3113F33B5B7EE93D3354D83D0D7536BB18C9C6BD30F3CE3AD3D8163A5712D3BBCE7578BCBBBD6EBD12794D3C31BB36BBF9928CBA52532C3CA561DEBD5A8858
3C9DD094BCB44E613D72E00A3CB011303C254AA83C8072F93B6A37D13B4F5535BD2F10853BEBFC95BC21F3103C98D6AF3D61449CBC0AFDE3BD71DF62BD8833E4BC7728053C965F913AAE5FDC3C34FD19BB51F2673D4B3B5DBD43EC03BCD294F73BFD2461BD0B226F3E2515213C02245DBCD8CFADBC8FE1BBBC815541BCA65C03
BD48622ABBBC838CBD4B3D87BBFBBBDD3D82E87DBCF29C8DBD058B313C98CAAFBD8B161ABC980EDE3C33930C3DBC1E8DBC9490FB3D37DF18BE14413CBDAD00E7BD328F5DBCABCC713C19CEF5BD2A5C4A3CEB30D8BD64F1AB3C97B9283B38DDDE3CD2303F3DABD6113CE3D500BC49174D3D6241D2BCAAC76F3D35CA783CBF6088
BD234EFB3D7C556ABBACBD693CE2A7ADBD0A511C3CA12B573CE39A383D248F3C3BDA11AF3A0CFFBBBCB38EE73E9FCF8B3C98B1ED3BF99CA43CC204823D35D0CE3D476B25BB0D7E69BAF04095BD246B52BDA48E2F3DD55CFC3C4E3DD33BF00D213DAE07D4BAECB701BCB04E50BC8A3D833CB048F83B82B9DD3CAA7907BD163C8C
3C11CB94BC283AC03C21636FBCA36E72BBDFD675BBC687AD3B682DFEBDBCC18BBE575BAF3CD31803BAF13DCD3CDE2D213C799794BB858E953A61F36FBE2F28FEBDA95F3E3BFDDF96BDCC34C9B53B28C5BC4865C4BC82E2B6BC442FDFBC1DCBFDBA67A28A3D097C163D1728F13C9F4BF8BBF6DC5BBC095857BAC31F733C8AB5DB
3BDCFC733D0F417A3C16714D3CE68D99BDEB7BE4BCCF71F13C7DA0DABE45BA2EBAF8AF513CF090793BA092FC3D20A6373C36D253BCB71D793B81470E3C01569BBDFF9B7F3CC7FC0FBBF949FD3CD4AE7DBC9D385BBE019AA4BBA78195BD095548BB4A451A3DA759FE3D0DB8CEBBD9275CBB7FF5CF3C8E3893B9292012BD161D1A
BA6CF69FBD36DB94BC13C7363C35640DBC810A963D6598DBBD249A59BB2972843D9A01113D0F831B37CDD9733DB63E31BD134DA93CFB3CF3BD7E64383ADE05C2BD13D3923C3AC3F73CDFD879B8CD86593CAEEA263E0669A83CF4E407BCA68456BD1F06AA3CF1D2F4BD236D9BBD808AA8BCC226E23CACEC5C3D37EDCABBB27DC7
BD31641DBD2DCDA2BB046DD63C57D0AE3A92F81F3D10332FBC80236DBE00212C3E4429DD3D5FF2073C3CB4CCBE63CD443C93ADED3C2288713CB687E23D1A9DBABDC5CDD5BCEE7A363DFE383BBC66339C3A129B653DAE49E5BCFBE5B13D08456E3D6FF9B6BE0C423B3E112863BC8CD1793CE9DEC1BD9663D1BB82A6E13C3ACB1A

