3DC49CC13C1104C83DC1D0CB3D0C95DC3D26C4723B8EF6903C5F34F9BD93F391BD439ECB3D5AF9103D33310A3BB855543ABD91A2BA0D29B6BC12DFDF3CF33AC03D138E67BC2C09E6BD09FCF53E2B391ABCC9A27ABD8E14E23B191F1D3D1B9D81BBDBC9E1BBD01CCDBB37BC7BBB0C2B883C57ED813D5E7AAE3CEC093E3C82AB91BD234F2B3CB41E6A3B3B0FC3BD4770B7BB258A883D302566BD43B5E13C21039E3CA78980BD107C7FBBB4F70B3C64F5DDBB02E06DBBDFC89E3D039705BBF426E53CD0A4D1BD50C1323B9CD7A63CA25507BD1C6AE43D117DCC3C5A63B6BCE9E59FBDD40EACBD0AEECE3BBCF3B3BCBEB037BD608FBCBC729502BB6106D5BD43BC2FBCB379AF3AE16F45BC9BFBD63B5AB9463BFC23E3BC9BFCD0BCC112013D29FAC9BCBEFFD13DA92040BC923F4FBCF423B8BC1AAF05BC5E0F98BE6C919A3CCF6E583D53BB38BB7D0E2BBDA9B92D3CD2F2C4BC8228CDBC23FE96BC69A32CBCC0F57B3C890C51BB3B8BCEBD60952BBDCAAEEB3C8B646E3D2DC55A3D1B7039BB7643D0
3C1D9DC53AD7D0BF3BF4D7E0BB94BE153E1BDBDBBCC92B30BC6D919F3D05FA653C83444C3C2C7E6E3C8A3130BD0A16F0BD2C0339BB2F4E353CC2846EBD46BC653D9BC4CE3C3401B73CBF1445BC6C8304BD969F1BBC17E9543CA66CDF3C601B7BBC1A04A83ACA1FD93D3AA4423BD34A833C43EF7CBCAE1BFBBCA040B13BCC48D13C94AE55BCE3D1953BE66F39BC007DE4BD327143BCF723B73A55542FBC8C97D1BC52FE04BC809370BBCFD1793C65E480BCED79AABC8793E63C933A40BC33F46ABD3BAEEF3DA39D20BD0AB4D83ADE53D8BB98484B3C88C7E0BB5867723BBD77ED3AD671713D3A780FBD682AB53CC09EC63DD4588EBD39EBD3BC3CDBA7BA66B16DBD2256AB3C5723BA3CC758B13B7FC935BC86FDB33CF0A2913C8F20233D24A1253C7530F53AEE36E63CF6FD0EBB8B6BC23C242120BC8A37673A27B1C4BCF78474BCFC87ACBD85A076BD3016EA3CD162D53D0CF079B99CECEDBC2FEB4FBD471E483C2D6F013CB9F4463D34259EBC101458BCE06995BC204840BC3D3623BD8C5623
BCAFF8A4BC9C62A93AF648AA3BC1D4F43DA892A83AEA8F873C563AD13DBA3191BC2EE2A4BC524B403D00CAA5BC4DCDEF3BE5A82FBD5A8FFC3CCEEA673BDAE20FBD09D7A3BD179C59BCB09D913DCE60EC3CD17F623D9092563D805652BD5233BABC8FA34F3C92D61ABC3E778E3CCF95663D40D90CBB86E46CBD152A33BD647243BB1C2DF8BD6C3A8A3D00B93F3DD3C6CB3C7C063CBC4B35DE3BCB7E59BD56689ABC52D55DBC43328BBD69EB6A3C3B2A763CC348F43DAAD82F3C3E37473D3FD3043C6ED888BD2269863D23B6E0BDB0FBAC3D1DEC473C476F32BBA73F16BC6969283BF8EBEA3C58B9C93DCBD71E3CDFDF9EBD34E12B3D28A4BFBDD1D51F3D9E8F7E3CCD3090BD2B2DE33CB6EF7ABD236DDE3D1275513D9DC8963D093CEC3D217283BCA52B393CAAC53BBC2D73B03C9F442F3CBCBDA9BD8521D3BBB89FFC3D4165933A80B2DABD4899AC3C3A4E81BD6B069BBAAF08B6BC7A7FCF3CFC6626BCF9E8483BC3DC803D2C65903D6C6594BC95C8D2BB8D0107BCC489D1BC3B09CB39EF850D
3CD26CF83D2697B3BC4D50AE3C908EDB3CFAC146BAD82A7DB9AA1D5FBD3C9402BCF66003BC858232BD6FF0633D9D147A3C997CE3BC9CFB53BD70914FBCBA2B883CE1A5663C111E8DBCF5FDCE3B6ABEDB3CCD8AAEBB7C2856BB5049D03A8BF98FBC442C163C7F0E323B33B23D3C66974CBB0B06163C1522ADBB5BD01DBAB492B7BCA8E72E3BD3B4173C238DCBBD53845E3D095DE5BD0DF007BD1FFDF1BD2EFD783D086BC7BCF52953BD6AB2F1BC398C16BD20EBB2BCC88AA0BCE97BC1BC916438BCFB2D563C42A775BD6978F23C52FAFF3ABC88203CB11C39BBE66C1D3C824FF03D3C53DABD44B4473B0AD81DBCC74A96BCCD693C3D4DCEE43C9EFB63BD83D1CABB5414FEBC35A6EABC577DBABDBF43973B821CB5BD4B718B3CBD6D53BCCABAD7BC4B9B1CBB8F93ECBC53D6903D25F0A8BD1D1B07BDB4F4723C6D8CB6BD3AFD173CE85EF1BD90F428BCA5B868BCC7A4943D60FD9D3D612148BC7D238E3D3FC042BD0763CB3CF1F2F03CE3DA9C3C80E7963CB1560CBD3A9AEEBD3BA7F5BD1532A7
3CA749153C86B02FBD55E509BCAE45723DC2C8A1BD1166D03C8AE68A3DBD219DBD21B0AB3CF2FC203CEBEF403C55E9FD3DB301B2BC3FFE283D0A7368BCF67B53BD603A54BD8CC532BA8E23E3BCF5B62A3D514F543BC3E44A3B3381983DBAFD843D011557BC369F39BCD4EC4ABD33CAA53BD396E13CE05B683C48E0823C07189B3DB39B83BB3ADD1CBB4B066E3C9A45DCBC0BBABE3CCFADE63C8C3867BD2B74C73D2B7C94BCBCD200BC69C874BB45A981BBCE9E37BCF1169DBD46C9A23C4D6DC5BB01E707BD8CC93EBC089D8BBCF8CE39BD7F6DADBC8FBCD0BBCAFC273D9E7EBF3D10C0ACBD3B2287BC7180D4BCBDA5BEBCB7D438BD96750EBD0B3FF73D83EE51B9BEDF1DBC3F58513D67C5AEBD67DEE6BD4FC60A3DFC2AAFBD72B0FA3BFB678F3D9030D5BD96D2A2BCE2E8BFBC04DF633D2F96393BDE12AD3CE8EAFC3D05404C3C830C413D2F27FFBD2BB679BC410EB8BD45F1CC3C88F189BD5025C43B544C023CAC0C003D0E4A78BC5FB0C2BC1A3C48BC68116FBCDEEB443B01BBC73C1FDDB4
3CF5A44139F0A3FFBCA8323E3CCAD3943CCF92BB3C3E806B3D14290FBC6B0A8E3AF7960BBC2B888C3B7C551DBCF71D1CBD01B490BC965A65BC43945F3D042DAABDC82A8C3B088CCF3DBCFF88BC84A8543C986DE63CFCFC37BCE33A2CBBA18E4C3CEF20ACBC300804BD7478E8BC5970B6BD05DFB1BCF441ED3D23F9AD3C53C2CF3D08C0503D21A17C3C6986EEBCC0BCE1BAD19E7C3B0FCF0D3D423571BC85D867BD3E5BF33D0AA8343BD40A23BCFF7E3C3D548D653C718CFA3C690A3D3BC18F1DBC2E35BC3DA1F50C3C780539BD60C9283B3FF03B3D0398C0BC48EE62BC3BA4FABBA2617A3D3D94383B26E1A1BB96BC8CBC24A0293BB682C7BD9A777ABC9898523D467AE4BC98EBE93D81430FBCCEF63DBBE3357F3E0751B5BC27D9E6BC804F823D8B9062BC1BF6BDBCD631E0BD8AC2B4BC814B6C3D98F70C3D7AA6CE3C212366BCEEFBE5BA094EFD3C9FA24D3CF4796ABDC2554BBD8F040BBD465B603C6344723D37355A3B127746BBE494FEBD533599BB8B6C70BC1482E33A49E42CBC1E8180
3D466AE53C8CF0AC3B3C637D3C1C3352BD415BC13CBF4350BC65942FBDC009333BCC4ABF3CDB1F403C9F30153C382126BC9FE9EBBD08CAB53C949C2F3BBF48083CC02C1E3D867ABEBD223249BC1065443D84F09CBD8B30C63BF9BCFC3D7E49663C97D6DD3D676D6BBBE4D3A9BBDDDDE2BD057BF53BC45E143CFA46FB3DAEF2043A8FF1FDBB89B249BB2D19A7BD89E5433C727281BD6D46463C516F2C3C82E99B3D64F636BDB6C0503B349D37BABD3B8BBC072CDBBE0FD4043D87CC94BBE6D8BABD36C09FBD1461A1BA563D763D167DB2BD78D786BD80F3E8BC7B66953C441F8ABD4C4E643C02F81ABD967857BD0868503D43F806BD244F8F3B54FD443C030A90BD5B02683CA068F4BD11FF31BB4B36133D235C78BD9CFFD3BD1E00E9BCAB897A3D9E0946BCF4F09A3D8B54F4BD21F914BD032BD2BCBACFAA3C75F75BBC8D8F38BB70244C3DDF71433C52D6EE3AE788923D14CAE43D47A3F7BD1BB0503ABCE5E3BDA38B47BC1A7679BDDBAA28BCD6A80EBC97E8E63CB90805BD9E0B483C83DD60
3D96088A3C7C81003D450B54BD5C0FA83DAA24A9BC749C913D124E263D63BF0DBD1484A2BB4257D4BCCF58DBBD81AFD5BC606F06BC930BF43CFAE262BC307C19BD1DFDDA3C6679E53CA21F03BC3CEAE93D329D113D9E8AD0BA8C22733E2C307BBC180BE0BBF75CC9BD67A04EBCBD52333D097D0CBC11D69E3CA7916CBC24D9713C3068B83A0A814B3C5519203A8D978C3D80527BBC814A443D6B1F8BBC8E2FC03DE7A824BD179FA4BC9576443C804FF23D05D2083C37E6D3BD2ADDEE3C526B14BC0AC7F5BCEE283D3BDFCEFEBBD22587BD425687BD352606BC090744BD2A7B513C5AB8673C3F6EFC3D134EC9BD36315CBC08288F3A4E4830BD5645583D36697D3D403A9EBD00263EBB1ED6B3BD12EB193BF176D73DE1083EBBD7B5243BFF47033D30E41C3C41C232BD4E23B33D8FA6F1BDD1D7523CCFCFB3BCB229C23DD7C17C3C5797AEBCE6DABABBA93B74BD3538EABA0950EABDAE29B3BC4FF3993C59C9FEBC0A155BBBBCBDD63BB29B20BAE209B0BC38E0303D9218CD3D07A8EA3BEE6853
3DB8FCC2BC845B023C3DF6B3BC8F777ABD811101BC68C71DBC721C3BBDA68ECF3D64CAFEBD36B9173C80725DBB2E327A3BCBA127BB325CF6BC3723E63CEB99F1BC2B523ABD6D9625B804368B3D7016993D74F6FD3CC985D43D7A60483DACC0A7BCCABC33BD0C06733CD2EDE43BA427E7B9F59DE93ADFAA67BCC858CA3B81303CBD41E26C3D60ABE73C35A3423BEC9211BC9E47973D268E26BCD6BE23BD0A4CD6BC2CA31C3D4069743CE039C3BAC67570BCE9849E3D23376B3D314F8FBB3DB2713B9A0F543CCDF826BBF387C5BD07E02CBD32B899BBB1C7763B88BAD8BD6DC0663BBB6314BCB0E23DBC0FAE6F3C9477D8BBCB2EE23B27DE413D18B199BD8144963B2433293BFFFF21BD08F2313D06E6523DAABAF7BDBE4CC03CB8770D3D445F843CB7C3DDBD1028BFBB6C83F63CD62EEDBD16D3A33D0B851C3BE354C13D42ACA9BB7D3F69BB7C72A13D0BC054BCE04B1E3D8240243CF9783A3CB84575BCE919503D3C8FADBB18F7FFBB584B023C3B32063B8668953D14B6173D740CE2BCAE9CC4
BD8794393D19ADBE3CC2FBED3BC3E558BC0553C2B817D9073D37CA60BBA6598E3C7C0754BC14ECDBBDA0A96BBC96E5FDBDA90FDB3CBAF52DBC17C075BC59DA8A3D1BA8FC3D86AC2CBC37AAF93CB7219CBD4DBCD33D12A9B4BD07DB023D98ED26BC4C92CD3D31BE883B5A67253C3BB1A7BD9D97A4BCBCA7303CB9EB29BC952BC4BD92F72F3ABF88553C11844BBB9C3A14BB89D454BC4F80473CA50DA93C5D55D5BBDC32473C3D33423BA973853C8D53CCBD08538C3D3E57CFBBEE7F653C74F124BCA72185BD644730BD13667A3D71FE72BC2C830BBC3B7F7EBB42108B3DA1625DBC8FB0AC3CAC9D3E3D770AFEBC07D52B3D0F8967BB91F57E3CF79C6C3C22B9BD3D017FDC3D2FA9D53D7589C0BD178DE93CD5626F3BE699CFBD4A2874BCD42287BC043A2A3D29DCB7BDDB992EBDC0BCE2BCB4C479BDEEBA91BD20C498BCC46A083BDD222BBE72F131BCA76FC7BD73552B3D61DC4D3CA244A03D9409E1BC23450F3D6AF0273C2A840EBC7710DB3D8A6729BC9D06073C5CF231BC8629CFBCF57E62
3DE67697B9F26D473D37BEE83B59F560BDB923313C1A44A9BB656C71BC41351DBC508A113BABD899BB066EE53D1A6E0F3B20D35ABCDAA8633A91D3883CE7D5AEBC03F274BD6A90C6BC3810E2BD0B123F3CE759563C4FD9C1BD64C8F83D9704343C6F75963CDD8AA9BCBF63723C31C6943D21A3023CBED293BC37E499BD75BDF6BB694F0E3D61A2B93D1C40F83C4EF13B3C22A8483BE2AD613CACC43ABCFBC64B3DAE0B48BA09ED31BCDD5C40BCAD58923B96EADDBCA595BDBCFBFB473BD6AC09BD74ABEFBDC1C8F839B8DC30BD21DC46BD810F7D3C6F040B3C67D528BBCD6FD9BB0A9029BC09A0A63D8BD3433B889B483D568FC23C31DD6CBC35AAB63C8E2CC53CB6AC8D3BE1827BBCF2AAD4BD8CDD38BC9C1557BD08C6553CFDDE073C9F5DF9BD32D5713C0BADB2BD65CD9D3D7F2EE43C44C2EC3DA7980BBC74EE8F3DF16A2DBC5FEBFCBE22CAFDBD71EE87BC188349BD6CDE76BD0CA18E3C660409BC54E092BD260122BCCDF046BC880673BBB303BEBBFFF9BD3DECFE393DD043933CB95C9C
BC8E29643CCB46D1BD0CE14A3C143FF83B98A9C03CB9586ABBD17F9E3BCDFEB53D1479DEBBAAF1543D8EA62ABD0A14983D32CEBBBC2680FBBC26F7ABBCC4612C3C93BD95BD48052ABCB29EC03D71E0A8BC518AE83BBA17B9BC46361339D4AED4BB3E7E13BCBCD1C23CB4C903BB96A1A23D17299BBB1DBFEE3CBF62203D469704BC4A71333C81ECF5BBEA087B3CB589D23CA8C357BC8CFC62BBD9B204BCD20C28BD11C3FA3C7397E33C8808123C24CEC63C9FB35D3C9EB2383D81A146BD3E861EBC1857FC3D901962BBB5B019BD1F79A13C718DDF3BF12ABFBD65F37BBBCEB939BD0EF80DBAD66727BD8651903A3F081B3CAA7A263D1913943D34CF61B9DAFA7D3CF978173C8BCDA6BB83A898BD7F8C6D3C88F932BCE04FBA3D5B816E3C5F1CF43D0B9CFBBCDFF832BC95C6EFBD203E173D11C502BC84491B3D4C1AF1BCDC707C3CA2DE7CBD5D0F433CBEF5413D2D165D3CB039F1BC7C47D1BD96C20B3C2889D3BB4F5AE73D1DBD413C9A057BBC02D928BD2214353CEB72663CBF92F6BBAE72F4
3CBE8D263AC3526EBCB00612BC1EAA393D607CD739432369BB4B90D03B97BE14BC6B5D513CB1E7FE3C1727063B025CACBC22D58DBBD1461ABB8AACE1BB4751943CCCB3EF3BB968DEBC3A3B84BBEBF9423C04D9343C6615A4BC0EBA7BBBED46793C47B9453ADC4A7E3A8DC3D53B9E38643ADBC481B9EF1225BB91C2A63BCBE454BB73C053BC5818463C19F436BC63D1633B9A63BBBC301716BB779345BA43263039537B353AC498D7BA8B4D14BC62CC90BCB089F4BB287C763C0A5BBC3B542F0E3B5CBDB5BCA9E4B4BC66EC133B5992D7B99DF85C3B954B093B975EFEBA6E06AFBAC8FB923C37DEC6BC20D6363B095A3D3CB378F6BCCF3AE43B0A475CBC53EF50BC62E2CA3C0D158D3B9EFDD63B6469F8BC2D64EFBAB4B9B1BCE7217D3A84D976BBB6E3A2BC15C9A33C0886BA3B75D9DBBC32A8953BA34106BBBF5AE43BA7902A392608ECBDB6A39BBB8EDFE13C64F404BC8CCE77BB0DF5B53CC9FAD13C3227003BA8B3403B355576BC091D6EBC80036E3C14A229BC281FBBBC1B3DA3BC96FB7B
BCB2B6363D0F4C11BBFD773ABC66DA8B3E2E28243D829C0E3C4626853BA258B53D23D11CBC9767D9BC9DFF06BCE482B6BA8C563E3C2D566E3C1FE3B5BB9D296BBC883CA23C8C174C3DD033EDBC71F8563CD3EA1C3C01F2663D17C5373CE2E566BC9245733C3225953CD8BBB73D15C49C3BBA6330BCBF12343CB895A93C9ED682BC6501B73DB5494B3C3E272E3CFFD6FBBBA89A4B3CAA65E83CFB5819BDC012CB3D2131C33D64CE713BDCE5B7BC3937153AC151713DAE8917BD7BCC7CBC6238923DBC5FFB3DD26F513DE4192BBD531FDDBD4EA3EB3DC89287BCDE577ABC2823633DA5ED533AF0AD163DB23C5D3D3701D93D83CF953D8347273D28491C3C9658413BFED1943D47F1A43D365635BDA369E6BCB498E0BD5CC0743D64BF80BCD2F895BD0C3D783DC0F1E6BDB333223CB66062BDA8DBD13D4D1C1C3DFAA6443CEC67BDBCD7344ABDF7D3023D02C22ABC50B69CBC891647BBD8FA1E3D8B1CCF3BC32045BD647EA93D49A3FA3D595EBEBCAF64C73C995DFC3D0F5D283D10EF033CB6D584
BD058D7EBC2FC8DABB9AD48D3D4014EA3D5F760E3C9E52D83CF082C03D35F2F53A93F51D3BBBBD6BBB70ED773CF5C2B13C7019E03B9D3DD73CDBE00D3C33CBAA3BE9C9CDBC6B6787BC6D080B3C81CC14BD565707BCCB9D393C5C6F58BC823487BC63EACFBBAF27E53CBE344C3BF3FBE4BC333D8DBD451328BC8473543D3464BEBC6BFB593CFC3DF4BD027F51BCB3C2EDBC0366203AFFA18DBCB3DBADBC1DCD61BC9BDB053BC383A73D1BDD9E3CE2B84E3C7E73863DA308B4BCA0F0D6BCC75BFB3D1FF0803CFCE13F3C23A8B6BB04850D3D5580593D4CC588BC79652C3D0B44B43D7601003C8B04193B2389CA3D78A550BD6CDB1ABCEB15EF3CF424D2BD02320ABD81B38139C98CB63D5966BF3DB278C13C086B5CBC2E2C123CFB3373BCA549E7BD5A1B47BBE62EB0BCAA3F253C3C19E5BC47E5DDBD8A87853C97E9B5BCE8DFB7BBEDEB3DBD035D113DA22B6C3BFDC7063D504401BCD4B4B13CF8CD5A3C4D4C2DBCCAB0BD3C8CE0183B96173A3CBBCE2739337B01BDA22B93BCB78C3BBB403302
BD0BC3D73AB47C133DBE94013DA8B94ABCD20CE23C6C7E593B6254043D48027E3C8312183C2D1D533CE7E8063CC45A2FBD0ACAF13D5C7E553D31CCE53D7A684ABBACCA3C3C1852593DB103DBBB2D9E0F3CAFDF37BDB279BC3CF72DF1BCD41A013AC14805BDAB59943C538016BBEB1EF83D13872E3CA60BEA3C8C2E68BD2A411FBCC0A747BDD1DFF7BD049B613CE901AE3C1B218BBD06130A3D4BB1F33BE64C80BC81BFCB3CA2D94CBC55EE70BCC7042A3D2E2690BD98ED613D009D36BCB11594BD54202DBD1AB86D3D47E99CBBFBF5C5BCFBBB41BD258B4EBCE129BDB9D2C10A3C18459E3C97D9B13B2F04863C2A068B3CC846083D70E5B83CF84B50BD4EB001BB224E4BBC3350CD3CD0DEF4BCEEEE99BD507C17BCABEBEC3D2317B43D4078B9BC9EADE83D1D11A03CB2D33DBCFA2BA43C8F9D6FBD9F7FF8BDF9E61FBCF24EE23C59B01F3E03EE60BD2F48A63CB76681BD395FD93D113D3CBCA3D614BCA5DF923D262F8E3C5875ADBD1653DDBD2F8634BCBA0AED3DA17ACCBAC7298EBD8D2E61
3E00F5433CBA1DA5BA3B708DBCE68FDC3AE976EFBCFF5AC5BD8A05233D33E11ABD073BAC3C7D388D3D24F551BCA4F7313DB14610BC67D54E3CAEEA7ABD904E70B9D30839BD0FC52D3CDA712BBCEC9A513D83D67A3D0452DEBD11D05D3BE54E5F3C8BAFBCBD1C62A63B24EA2DBD8E81D73C1A910E3D0BB0623C4EEC05BC3BB1FF3C06A86ABCC94F4D3C8F90EABCEAD426BCBCEDA43A9356AD3C091507BD27E3213DE6D31EBD247820BCCD3F133A04616FBC9CE14ABD79FF9EBC873932BD235D69BCE1BABCBD4A15653B9D7A9ABC0FBCBABD8249E7BCE096DCBAA61221BC61ED7EBDC0301DBD06B4D1BD432BD0BB975A1FBD86F44DBE08EF14BDB70E6C3C6E99DFBDB831D7BBE7BC2C39BC2270BD69CC703C3A04AC3D1EFFB4BC0BE628BBF7E4973D85146CBCCFFF853C0D6B743B9808283D42A3433C23CE56BDB741A43D15A1D0BB7AC7863D68AB713D2382C23C02A6ED3CBF415BBBC0F9D7BD5D69753C918400BD2363A13CC24C0CBD6C34373D045747BBCAA1203C7891C03DAFEB9DBC2B4A05
BD49D648BA802E2FBD1E7C5FBBB6257BBC3F822FBD6483A63A89C8DD3DB1D846BB9B0809BC03D2673CFC34E1BBAF8136BCC8261D3C2D52C6BD220368BD6FF9923C5EC2583C3C789BBA3E3F603D8C9709BCA0BE753CCD5B113DCB18DA3CCE3AA63C8325B33C5B70833C77EF4A3CD373FEBD5FFECFBD3FB30C3B77AF28BC0A71EEBD0D56CE3D1B73FD3C23FA1C3C94EEBBBBEA36F6BC5A3C753B98E8C53B7DDC033C3F5CDC3D17C4EABB15A4AF3D1E60AD3D8839B93CC7EA473C3A98D43D2CCFB93BDB39FE3DD616713D2313A43D1275AABCD366CA3A9CE9A8BB70B334BD305C993D8754D23D2A1023BD5D2B123C122E3FBC8BAB033D1383C73D21365E3C8B737F3CB10A5FBC82B3C9BB67CA8B3C96B6503D9A7CB4BDBCC4663CE6E0B2BCE4113CBD2548E93D6CE860BD7FEB5FBD77BC3B3C122ED0BC2271B23E247BBBBCFF0C8DBC80639C3C7BF8B63DB223A1BCD540A73E1433143CBCE48F3D96382E3CBE9F64BD9AC9E8393D5BD73DAC3FFF3CEC6A083D205F2DBC9829CB3DD52E4C3D84B90B
BB77D949BA88C963BE030B48BD8DDBF33DE36028BB5B588B3D5B003D3E0B3CA6BDE16FE93C89AA7B3D78DBB63DA28D223D25B7AABD01AACBBD0D881A3D35112ABD6DBDB4BD0AEDFFBC9A7B2A3C7F2B2C3C0ED1D83C82128F3D8FC3583C97FBB63D26AC3E3C8E5BE1BDE851ED3D1E0E9EBC06EE88BC80AB083D158B043D79CD8EBA744A22BAB5FE683C8AF647BB0B57313C6AEEB2BD14CABD3CEC9CEBBAFCA88ABAF807F13D07178DBC24F16E3C6ED80FBD39598EBD251EB1BC198AFB3D6830643CD9448B3D7901AEBCCF5407BB33D1313AA326553D24430E3C3CD1D13C804A573DBCE2BB3CD0534CBD48E0C63D715127BCAB47E0BD0E2BBDBBB89004BCAEF5223B2C0428BC8BCD1E3A8758D0BB6FB0CABBD537E43E3DC136BD91A0F83CAFF2D23D0C20173D3B10863BBFD5CD3CF0A2B7BC31E3FD3DB0D5AA3D9D785D3C63A6653C81272B3E08BAD7BD0100E63C5CAA90BE263FD73C9AF9E43D32A0593D492235BDA05426BCAD43043D369EFDBCB80A833CBE264CBD9A667D3CF58C02BCC32736
3D300980BB831BC63C9EC9683DBA41753D1B5B5BBD8909613D36A51BBDE5723CBA7E73903D13FA653D4E86893D3AAFA53DC53F013CCFD58D3C987F6C3DB841193AE1B628BD36A265BD67239BBCC530043C96EECC3D444285BE17BE523D5600FFBB390713BD1FC6113C48FFAEBC64DA553D1D94F63D03A2A1BD4E1F09BCBA6F7E3CB4E916BD9205B13C613BED3C0E05FDBD0E333EBD1AE14C3C48A4B03BBC2D483D9F868F3CA3C5A53C12ED023CC81B7BBD982D1DBD15DBCDBD40A36EBD13D8F0BCD78ACF3D608538BCCDC008BC996301BDC4C689BD395316BCDC8B2D3CB3F9FE3C79981BBCF0E65ABDBC8C273D4410D83C1CA6DD3D32C0953BA75DAABA1FCB893C880A0CBC1C8F053C9107A33C98FE1A3CCF8B95BD94CA95BD0726D3BC94D0BF3D957AB33C540A02BD72A87FBD0F97AD3D8914D63D97E26B3D0384B23D67811E3CEFE51B3D282B66BC188F9B3DD70CF33D4981363CA217B6BD1E8304BD868856BD81DC15BD1E9905BD9B3928BCDB14B0BC314E183DAC57C13D44EE563D1C14D0
BC7EDAF5BC8CA8653D91F75F3C80406EBD9A99AEBD616E9CBC6A291CBD82971A3D2E18A13BDDDB07BC2BA2AFBCD52495BC513D913C97D16D3C0217523C81CBD03D3D21D73C542298BD3C21713C1A3BD83CC632D8BCF8DEDDBDEA32CD3C73B29B3A3C6C083B91618E3CF1BBDF3D1CFE7C3D06E7D3BD5973933BAE2158BD1C0B78BD95E22A3DEA1926BB3414633D384F9BBBF991B43D226D703CB25C01BD4C73DABC9280B33D30CD8ABD1288143B931722BD0425D3BD2AF7533CCD3F7B3B9375D1BCD27170BD829216BAF6BF02BCD2339EBBEB5AE5BCF194133CA1D969BD92B43EBDBAE1073B400E42BCFF08F13B648E48BD25F9F7BC524F7A3B36C446BC8A1A4EBD052F423C46F38FBC57126C3D668EE8BC20A852BD93DA513B5E0A88BBA81AF2BCB1DA2A3CE7828B3D72B67DBD7DC6C93C555A84BBBC804BBD552F3ABD2D9A47BA739D933A36A255BDC4E9AF3CC2A5713CFD41B1BCB677C23D7F225BBCBA4E8C3BE10AC13D429D26BD67FDBABCF229B13C6BB1C43D5A129EBC69547A3B96C59F
3CF1877DBC38FAEBBC5C283EBD200BB7BCCF0D953D25944CBD25D6F0BD38D4F43C9ADD09BD3DB1FDBD307A5FBCCF0148BC1F30ABBC6EBAFBBCBDAA353C96C4D73CCA73253B3E44F03C975E7B3C930D7FBC11289DBBB3D3063CE46C35BDF5DF9CBC2E77B53C27DD623CBB130CBC89A5DBBC39E7243D144E76BD06E779BDB3F7693C21161F3BDDCBF2BC4DD5A1BC905F5A3C0F1633BB9E785D3C822E323B785BDE3CD40CBABCDB2440BCBF2D0FBD1ADB1BBC93536C3DE367E7BD013AF23BF6BF433BAAE55ABC5EFB993BDD3ECABCC63CC4BD5ADCD6BCA6812B3CC1A65A3C2DAF2D3D0A9511BAD1E38B3E0BE024BD05CB783C3B11A7BC903330BCB069C33CEDAD7F3B4AFEA13C90AFF6BD15EC003D94F1A8BCC91E0E3C823BD43B7565B4BC258E573D1A7651BAB9884BBD85A1E13BD55DBC3D66B0533D4CB55F3D9A01FB3D9A5D9C3C0F7091BD507AD03BF98DC33BAD3F383D2FB49F3AD92E85BC8F20713D846D38BC7F5068BD0C12F0BCEF189E3D42C0ACBAD7313ABD3FAE853D0C6F913D054515
BCDBD7C73B8B4DC4BDDE4EF63B469B653DB972F93BC763DE3C7CDAF5BC79CBDF3CE636243D78AA583CCDEB9CBABAFD17BD5F614BBCB2B87BBCF9D08FBB56DC57BA1AAB91BCA4ADD93CB5E4A4BCDECD34BCD8EA523C8668763CDAB1203D0069FC3D96D3F9BBCBE744BC5BB888BC9C8DF03D41F03D3BCFDBC43C8D642BBC102F31BC1B41513D11A3573C3A777F3D05A244BB89BD313BFD074FBD39CB863C0D914A3BE92D953C814E003B5556883BAA286FBC8B62CABCAAAC423BDD592D3CB5A98BBC141C263D5D1552BC266A82BB812CC2BB41CDE2BCAFB5ED3BB913123BAEB7963C7D27D6BCB39A7BBBBEABC53C95A6DDBC2CF92B3D0855713C795AA4BD3815E4BC6805C2BCFD9733BCBE6339BC88BF813D37C798BC3118293C61044F3C460F9FBCC39C9EBC9ACA763C8E843F3BEA1BB1BD39BA373C4BF03F3CC6E0143C4CD72BBA2F34D73D48228C3C8C41C23AFE4573BB0D5B9E3C391FB83B377D013C85AAEF3D2B7280BBC30BB83B2BA4683C7550FFBC9002123CF1DD26BACD115DBE1851EA
3DB424BFBB7BF60C3D7A66CF3C89FD823CC57BD4BCCB461F3BDE800DBCB17A053B00B713BB59B5E23AF4FFAD3D00A2FBBCACFEF03C67517B3D089A4E3CD27B35BD32153CBB7BDC44BC842774BCA40625BB42F5A03C29F508BCBF38963C85F4F6BC0DB09F3D29C6033B875934BCAAF6623D1881D63A9D6950BCD1767ABA2EA9A13C825D2D3D02EF5FBB993914BB37798C3C71E8BB3C9EAC7A3C065A61BC21D22C3D23F0073CB9C1C1B84DA7E5BC05A89A3C85BCF8BD04CB7DBD6ACBB83BBCE16BBC75DA41BD0D654D3C077B3EBD503D82BD52EC413BB9F510BC15F7683C5558D4BD57E2EABD331D2FBC8E98F6BD1454A5BCADED1BBC347EBEBC09C1253CD6F82F3B9DD0B8BD0ABAF23C1477423D00B2553CBAFA5E3D620BA9BD170AC1BBF933D63CB2596C3BC1BE3FBC2282A0BD378AC93D4F47E73DAFE21FBD37C37F3D57C6B9BB1B5EF7BD0511E93D1842A63C41301BBB6E6DB1BD5F2E57BC1B16EEBD350FED3B781F95BCCF9DDBBD0144A8BB8A178ABC783E653A559DCD3D3CB3BD3D40DA21
BD46B988BC4FD9EE3CE631B63D6752503CEE815B3D06775ABD018700BCBB12F73BD0913E3D00B3293C41C1A33A251D1BBC8444683C651868BB8B1700BC6646C0BC6ED89DBBCBB7BCBDBDACCC3C7662D3BD587366BAF25829BCAEF0A9BD7A22F5BC6C66373B30A6F0BCF9FF5CBD2CB98F3B84E0163C4B8C453D1F73D73CE995AE3DDBF9F33B8C1B1EBD19E1BFBC3C592F3CEA35D23D36ABDABD0BB3C83C81CEB7BD543B80BE1778843D03AADD3C5B231C3D1C7F2E3D2AC86C3D039D1CBD58245D3CB54542BCBC62A5BAE5F3823D2D25E43DC6D5BA3D2143D4BBAF91993DB1C32E3CBEF99BBD473909B90F01A9BC131A01BDEE9A4EBBE12E413CDD4CC3BD15D4213C1BE93EBC8CF0C43C0FA24E3D7767A2BC8F8AA83A1D33B43CD3E767BCF6EFF0BA3A2574BE0ECCCF3C54E45BBC8272A9BD07B412BCFB9BFCBD394E21BD1AD2903CD70B2EBBF215373CBA036EBCB3DF88BD0B0507BAB67958BD49BF84BB10D721BC1DCA6E3CD1A08ABC5376CA3D4A64F4BCAEF437BD07CC97BD7BF3D3BC91CE6F
3A67420C3AEC57053D948B68BDC33E20BD4ACE7CBD4477BB3CF59019BD41FA633C40E35EBCB40F353DD657C3BD24852DBC8E172C3D112E8B3D8A5A013BF4E50DBCB01937BC769816BD75489ABC915AF53D790463BD5CC484BD9669633DED0B94BCF40899BC32C4423CE7A7A53B5A8EEABD15B078BD53622D3C25B9A2BC4DD30F3CE73DC3BB626911BC734D243C553C413CE582563D8035B8BBD4CFF239FD4AE3BC9916A13A5B46003CF376543C8B50C73CEEE1AEBD52F2913D0190ACB97EA5C8BC0900C13D2DDF343D0CE975BBF125A83BE54B73BD3959C8BD2C88AD3B253E96BD0298B8BCA01E90BC387C1EBCFAFD413C6F22E03C8371FBBD3F0BF9BCD8C3123D940CBBBB9819F83CF25C88BCD6A85A3D8BB7913D711934BCA5ACE43D0146D3BC87C2243C851EED3A2A90E83D6D0058BD8662D93C0B97D5BB5278BF3C8E21933C226FF4BC9B79A0BC2471D13B448E793D199C6BBCB8153FBCD7D4243D0E7853BB805D60BB06FEBEBC06F4573CD1487ABCA4BA7B3D68CCB83C9BA6B13DE6820C
3CC5F4C0BCD06B9DBD7D433BBC815B5C3E5195A4BC8C3928BC34B97CBD439849BD056E373C7011C4BD49140BBA955E6939F9766C3B53EDC4BD78B1263C92D5F93D735CFBBD00BBF6BCEB5C4B3CE371B03D7BA2503D5AA636BD26B06ABCA1907E3CC8F177BD009CC4BCD4D68FBC1BF7ECBCB333ACBCE842ADBC143C75BDB24CC7BD1382653C22E26FBCF291C8BD9D1E20BC81AA9D3D307FF93C05F0FEBD523CA03D92A8423D3F5159BD8B83A6BD1F264FBDA1837F3CF7D1D0BC1E75CD3D6DD27CBB29450DBDBD4216BC9AA575BD2B8FADBD2BF98FBC46ABD33D057E673D5BAAC63B9204D7BAF5EDC03DE54DA73BC0FC87BD4F0BCBB98EB6C4BB6E9FD43CD0B0893BD00023BD68B7453C920761BC9B5617BCE99E9DBC4FE44BBCD473E73C67E5643C54A8463D8F7B533B99239F3D480429BB9E9053BD2973BFBD9864EA3D5B3D0A3BBFBF053E015E1EBD252200BC004DA9BD501BD43C86A7F9BADDB8D43C592A8CBD11A4F43C15092CBC6808F8BC77E22BB78D22DD3C9758573D2309A6BCDC2187
BB3AFE6C3A4A44B83D1BABB5BD2661703DA2B86FBDA2FE53BD924B423D255B3F3CD85F643D2273B93D9DB6B13BBA5CA2BBBD382A3D116CB23D8F32B2BD455A1B3C0229883D85716BBD3870753D21811F3CB0A89C3BBF6269BCF4A684BCBFFE33BBE5D2793BD638853C0D72CE3C5E5460BCDD88263C2D9810BDDAA4FD3CC2D25E3C8C99D23D29751EBB9522A8BC5584693CC7824E3D5ABCF93BC7F7913BA71DAABCE1E751BCEC84903C889E02BCCF73643D20BAE8BC5A36363CC79DD0BDA650983C6EE54DBDDF4110BC8A354D3CDF3C90BCAF95993CAE66913C54CDA33C675DBF3D6E33313DD1CFBCBE01DEE33CCEAE07BC7729F2BDF9377C3D20E367BCBB79DABD7196B53D8528973D4DE9ADBBAB25CABD7C55FCBD92352BBD9C633E3B914EF73C9A0E4F3C1B8E7B3CAD41823D38C58EBB71CCD23D226FEF3B035F84BD04A9DC3D0F6ECFBDC90661BCE310723C5BB7463E0217003DAA9DD2BD803A8CBDBB098A3B60C6B33C445EF0BC9324AD3D15BB4CBC271476BD201C1ABD0119DA3D2CE0D1
BC60FA9FBBB9A7A0BC556DA7BB733AF1BC07958AB9A3E0D5BC0D6E3A3C6F25033D554500BD08DF04BB1934633D1C326EBC66F6D93CFCEC993C9087E03CB970A1BCC12DD5B97850ACBD0951013B6ECC593D025A473B9388AD3A0D3D4A3BD806C2BC5159113CF62A89BD3F793A3B93B81B3C505AE43C6901FEBCAD2E763B169FF63BE83FF7BC101B953A795FAE3CD326F53999FA493B467324BA28E6813C175A343B8A22243ADAE75CBB52C4353AB8EF2DBC3C44FEBAD87FDCBCB343DE3AC4F61ABC4306A23ADBF8903A9ACA2E3C38CBCCBBC8E5C53AFADAB7BA1EA0A4BC2307C03C5839803B5911B53C42CA92BB84C2E4B93C7F94BCF16068BC4AAE1A3C2F1512BD2CEF03BB91FF123A7B2CC3BB9E24F0BBF67FAD3D4D63F3BD0930A9BC144D683AFDD55A3AD8881EBBE70253B8BADAB3BC07B57DBB31CA3F3A775ABA3BC66027BB827B633D670094BC55AE013CCC8622BD9A513ABB0281003CE66AC3BB91C0C03CA767B4BB86C46B3C39BFFC3B4F1335BB6852D4BC0DC37CBBA660B63C1D5DE7
3C58D3E23C003729BD76CEA23D860FCCBCDE017BBB4663B9BC66FF4ABD3DE474BCC8789CBB9EC1213D8FD61ABC1F61A63CC14CBCBC5459ACBB35BB1D3B652DBC3BFDCC193D80F584B81CB94CBD498AF73D7F40DA3DC094AC3BCB0BFEBCB26EE7BB877E273D88BDDF3D021F633C790AA2BD7D521D3D0AF559BCD7AB833D0E2BB6BC0AC3CCBDA6342DBD2273633D57ABA43B5586DC3CEF2EB9BC9EC711BCD684633D35C812BBF9EFF6BCBCA11DBC51BD3CBCBEC8E5BCC61D58BCC2DC58BCDDD896BC51D8FCB9D4DA59BD3DEF79BB9C4C623BFDB5273D27B59BBBA6E396BC8A06B73D377061BC9C19B8BDE788EABD0A049F3B1CC1B0BD07F1FFBD6908AD3CA1AE323CFEE0B0BCD40C513D36CE913D57FBC8BD479597BD079D7E3D05B1D83D5184513CE6D42B3A25D1F7BC2C22B8BC7A3DEC3B83C2B23C26AFB33D7615323CF62C0ABD0C8D16BE6AF9DC3C52982F3BB7AF47BDB0C291BDC39A27BD4DBCB7BD0FC57CBCD583CABC2710FDBD02DDF2BD5D851C3D0434A93D7942FF3D1F5AF3BB5E41C6
BD42993B3C6AF5A73C8FEBADBBD515E83D8CD0983D0A080CBC333A7D3CC7F989BB321B60BC26AD6ABD13D9CB3C57546DBC36A21B3CB25A033C58E4E63CE60DDEBA6AF0DDBD4E07493C6C41CB3C892C913C97B480BD04ED833CA45A93BBD64D803A3AFAC8BC8782413C99E66ABCB36F2C3B91EDD53D46B19E3DABE07B3B62978ABC2D9A63BCA804AABB411403BCB290683B14B490BC35263D3CBA90D83C3208173DC9D5173D4C0AE2BCF7483A3D2150D6BA380545BC80DC2CBD5621713D76C660BC318643BD58F38BBC2223113D6A38B9BDB4A868BD7AC2443B94C436BCBE44483D0C28B3BD3265E8BC03A393BBCE19D23D805065BD230EFFBCB603D8BBD60C323C430349BC5EF93EBC9EAD8B3C72AB23BD461B723CA66F9CBD6AF3283D0E22FFBD04C0103CF012133B0F6937BCAC4E58BC900433BD528AA13D0A3FBE3C6438F4BCB81A903DD90B46BD283B2C3B6DECABBDCBC6113C258BCB3D668F893C0D30893C751A18BB98EFF63C4D8703BC81E0253BAE7843BD5847B7BB1991343D4EA964
BCC10EE93C880A833C8667123DA5A9ECBDD32E1DBE45910AB8CC8C51BE0689D0BD3D303F3CC3B7733B82F77E3BDAFC963D19D122BC4212003C79A57BBC4CA9AEBC31F54C3D3547B23A05684A3B02ED2DBBB362E6BD43E6E9BBC5E5983DB5C470BC2E75DEBCA221E83CF70DE1BD25CDC23D12E5673D349A243C4C94BEBDB2373B3D0041D93DD5ACA6BC99CB37BCCBECBC3C1AC32A3D084541BCF3C3BEBCD707D93D2E578BBCDD0D79BD09400EBCEEB874BD7040E5BD969D153CC22B41BC31D7373C5A11FE3CA097E33D04870E3BA38DE0BCC473E4BB9076A0BC6750C0BCDB8DF2BD429B7EBD0EB13CBD4E23C03C19179F3CDC6B1FBD06D9E6BC3BA13ABC1A7328BC47597D3D40B83ABCC64274BD561BDBBC8367EC3D4BD9633D11E0EABD3C889B3D4F93B83C4A5E4DBC71CB0BBD3EBEF0BB4880B6BAE0D464BD2B32D1BC1CFFB03AA551933DB7503BBCF887D33CAB212E3C1DADE1BC95F4723C94C770BB11250ABD0A493A3BED59FEBD9A95FC3D0DF1BE3AE213F2BCFA17213CBDD6113BA0956E
BBEE10293CA5EC94BCA9D1EB3B0F9B4ABDDFE1E4BD3A3BC2BCA309DC3D61499FBC5171213D027213BD3AD2A43B49EF1BBCC4ADD5BCA88858BB417287BCA6CBCEBC417B59BD1E3E3ABAFCC4A7BDA53DC43C61BEF73D0AFE413E04CA2B3CC5661C3C03A967BCDBC6AE3D21FE263CE3AB993C538E793B06EBE93D80712A3B3B18BC3C912D083C9633183CD5FDCD3D437DA73C98B8FB3B078C3A3CB4A4FCBD07E8FB3C3F6E28BB85C451BC938C753CE258ED3DC381D23CA13BC4BDA75D4F3C8937C13D6EEFDB3D0D35F63DA7215BBCE74210BC6CA7323B18B33C3D15AFE53D6DD6853DD58C293D838CB13D0D4FF0BC7F9806BDED09363CBF7AD3BBA1EA80BB4E1E153B221F33BC0223D3BC432978BB32804CBC81F9F33CA9852E3AA91F9BBD9664373BED636BBC29BFA6BBACB264BC18B5E9BDA910C63DDFD9BE3E2A2CB63CCA8D9EBB9440653E419D1A3BC09240BD0EA74A3D282CE9BC90B1C03BE958E23D6FBDC6BE122A30BB92198C3D234F183B2E3007BC161A4ABDA52EF63C4CD6C93D5A0DAE
BB6B1F08BBE8726F3C69EE37BCCD2B9ABC9EF86E3B906BE5B8B595E1BD9A2B6539957D413D50EFA73CF086213C17ACCDBD6C921D3C2F2AA73DC0615D3D9B5FADBD9A5CFDBBE3020EBC9942553CE3BD073C2BDBEABCC6CD6EBD0867D5BACC84213D12161FBD3D2C3E3B5D2919BB535F82BC951E6ABC61B8513B8013A7BCEC0F5F3CD47D85BDC298453C831CE63C84E698BD13D623BC96DAFA3D792EE7BCF698503D8DD2423BA37300BBB0B51BBC842E883C9758F5BCF1B628BD0A44773CB1E9CA3C1B77F93C788402BCCABC85BD417F1EBD9169BE3CBF7F823CB0D7B43C36D538BD35EC233DC861C43D02E0CD3CED2BE9BCFB80C9BDEC0FD8BD6DD48EBCE929BDBD35ED5FBD1313523D3AC7A53CE7B71DBCD67ABD3DAF7EAABCDE1BE53CBEE904BC9793053D01FF523C5823923C8E1EE5BDA4215C3D539DC13DC771A83D5F653FBC57E9E0BDFA976BBD57AA853D2136C5BDAC938D3C9FC2C6BC1F1A5DBC7BB40C3D980F40BC90DF533D2F5DB5BC63151E3ABA143FBB026501BD3DC6FABC30773C
3B14D4143B8E9685BD6359F4BB9209F1BD5AA2C7BC319E22BA6AB0843D0DB9CA3D9F9999BDB7004ABC5CD9943C7B2550BC7B452BBB158611BD7900CEBC3615303A171A18BB7C62ACBC877EB63B857A74BDAC59FF3D3C06983D80DB63BCB71F9ABCAC50803CAEF4DABD5481B13B437C23BD73D12B3B632A40BC80F6A9BB7FD648BD07D9BFBD5A2D3B3B34BE9F3A6C3A853D18BC84BBD800533C35659CBB0D1D9CBC098187BD46A33EBC28404DBBA80BBEBCCC5522BC9C663E3C749A143CC7CD51BCDBA83B3C9E6D92BCBDC1F9BC370916BC0323ACBD3934EF3BFD18653D8CAB3F3BE260A8BD4E9F48BCC0A5413D0141C3BDAADFE23D0F188F3AE4663A3D0A52513CF96132BD828C65BCC32BF5BC5FE0EA3D286BFF3B0A4DF33837CE10BD205AADBBF84BC5BCA2B7563B35FD7BBCA7E386BD66864DBBD4E8EC3CA7660A3B545F4AB9C7E75FBD88F759BBF42764BCE71F5CBCBB807C3D12C7293CCA77A43D5211CD3C721BAEBB2EA7AE3C693D593BAF2122BC42231A3CDD58F83C0D837FBD5EDAF3
BCB58252BC182BCA3AADFAD2BDCD270F3D31447D3C896FCEBC80176CBB0FE7C93DA53BD9BCAADACDBC80DB44BD2B0996BD5695A43B87AF493D20487EBDBD1742BAC05F8ABC1110893D9A6237BD552F21BD089C033D803FCEBBCC138C3CD10F743B95950A3C7A3E4CBD831D4FBA634F18BC8F0828BBB0DDC93C4E9F273BD8C8CE3C921452BD9C4D9A3BEAC774BC67BC323D3BEC55BD4405A23C9108CD3CC0E0723C4A023C3D00D22B3C0C3E713BE506D23CF32ECEBD2659E0BCC20220BC4BBCC43D0BC23EBD316F1C3C81BCD93D079089BD39FE4FB8A320983CD20B27BC9516E83C77C1683D79AF443D6D3B263D15435C3D9DA8F43C1166A2BE007CC93CEC69683D78FA07BCC0507FBB93C7053BC0F0BDBC91B72E3E0524733B9D7109BD2FBA793D4EF2373D0CAA723C6512473D545775BD3067E83D4BA2483DD6CEFE3B724CA9BC01F632BC77C81D3C99E84E3CD7EE163D4DA7103CB3902A3B4B143E3BF12FFF3BDFF332BC45F2B93D01EBAEBBEA1D1E3C9F263BBC470C9FBD58B3323D79EF9B
BD29B26F3ADCC4DBBCDCD12F3C248EC6BD1251A83C8DAB173CADE8A5BC9CDF36BCF3F1643B8092C9BC24F5503BFD88703D1B05BDBC033A07BC0864A03CC360F3BD5CB9C9BC23C201BCD0C50A3C941AE33D7B6FB5BC24993DBBE2ACDBBC2922913C256C64BB7301C9BC27F21E3B319E9BBCB634C73C2B54B8BBC1A2DCBC0173EDBC9080D13D20F47BBBD0C9D13CAD1F5B3D26BFFA3D152AF13C99B5143C0C11F93C8B13423BAB73693C25579E3C0695AF3C443C943CA4D9D43BA6B0EEBC8F6D923BAD1DC8BDA2D8093C4EB968BAFA5EEFBC33E857BD1C86523BE01D63BC68C8EB3C89DA0CBD27AD093D5E5DDEBCF1AAD0BDC0EE893D3B4ACD3C945EB23B967B483D33A0B5BD725E9BBC0F97F03BD639563B6DD481BD424907BADF2565BD093FBCBC1E6205BBA089C4BCED2C20BD289E72BCFB10EF3CA621803B4850053D0CB0933BF9F2DA3C8A4B5A3CB4911CBD9F20DCBC96CC6F3D0365D53CD5CE803D188F40BC715604BC84D1AFBC2FFA573CE5C11C3D0570A93C1195E9BB2D4BB53D8928CB
BD19D5393BBD8222BD144CA33D001AED3C93BD713CF75660BA5BF94C3DAA2E453BC8B1E93D32B4D2B8DE65623C174A0C3B868045BCD0B5BDBB82970ABD81EAFABD330665BCE179CF3D5C007C3C4585133C4B5A41BD2F9B19BCF14EC73D0A016E3C52A1B73CBFCD8B3C826AA13CFF7E233D33D62DBC5B45C03D05E3B13D5AE5733BEDD013BDCF17BE3D11952DBD06A8F5BD792141BD881790BD56A8BC3CE45B77BD6A31AB3CA3B0063CAD217B3D1B94683D949BEC3CE1D7153C0841DCBD29D4A23C89E36E3D933AA63D6A0A5B3D561F693D3F5D983C84F8903B2522FCBAB7B1F73C6D5AA53D80BCEF3CC4350CBD5CA8FABC5E93323C4FC6723D637432BCD9C38A3B9B1B2FBC8FF872BD0DF446BD15C2273C5170AFBD1E520E3C1D07F5BCA918E3BCADDC0EBCC27703BC129298BD4EC1C23DB386BABD0F1AAA3DC1E783BD3DE876BD2BDC083DA2D78E3DB44292BD1E956F3C58302C3DD1CC1ABCB6DB143DA44F29BD491D603B079F9E3D3E04F5BB6CD8ABBCC05F2DBC82EB3A3CA9398E3D08FCF6
BD2A68B83C5548763D0F0C143BA987B3BC2F22E0BBB9F8C53CB1AFA13D4E5F46BD3BC5E5BCB20111BCBAA901BC46BD25BD2F8C1D3C1B6A87BD05E7963B3901EF3D154280BD09FE34BD8D0EF93C89D156BD4631243D537AF43CF010DD3B30F5A0BD1181DB3CB0621ABB9D72223D34DB08BD5A4D35BC1A7FA13C0A982DBC448A37BB3859D4BCA5E2FA3C065C46BD5369EEBCB88BB13D3B733FBA0D058C39E60F4FBD21BEB4BC127818BD66E14DBB632CDC3B1D5246BC682CC1BBA5BB8D3CB3F5C43D4414CF3C4AEFCD3BD92800BD088C5F3C0507083C3327013C9C562B3CE3BF483B591C0E3D32E5263C0A01763C057F1E3CE475A43C7AA97B3C35F7E53BB263763D0825FBBD0DE706BC1FCC1BBD0748973C414482BCE405423D9ABBF13CB29487BB99D0AC3C8571E93C01B40B3D0DF640BD1AABB1BC7398FD3C584322BCC51FF73BC86FF33DAAC287BD29D476BC7066F3BD88A0E7BCC7E32E3D5B42ECBDA0333C3AD919BDBBCABB8B3D8C2C74BD07C125BD0C12FC3D07143C3C14E618B8E3FC91
3C862CD93C57035CBC1DD918BAF8CDADBD2434CBBD510CB23D30B9623D65A8933D957D46BB8665413C640886BCB918C1399ABB8ABBE06EFCBD1EAEDF3CC99C2E3D2701B6BCFFF5863CA5D417BDFDC0FE3C9221E1BD5200143D2272653D5072213B958CCCBC55E0083C326C29BD18A19ABCF067F43C615235BC6A26F0BCB506AD3D79081EBDC2CBDEBBB284BB3D050E763C11BAEBBD3C113E3B07D6603C0937983D3547313C1AABD8BC1B55BABD2EA210BC4BC7F2BC3BA7A0BDAC41A0BC9C774EBDBDF8363D2213B4BD67F0C6BD616028BDB99276BCB355023C2EA5AB3B919D273DA88219BD33CB3DBD0B72443D6AC2013D47E63F3B3C99F2BD830A603D89C8D3BC6117ECBC8AD4D13CE536ACBC921DA5BD78C98F3DBCDAFE3C93B83D3D2B9B483D4DA90CBC4D76BABCD8D0DEBD52E12E3D3157953DC850633DB01B423D464915BCBE7052BE09437ABD2E74D43CA9C96A3CBE57B3BD3E85AB3D1376A83C37CEE93B23353FBD79E731BCF663CE3B3AA55A3D26C271BD1B7EFD3B31A215BCA62BBA
3D2623D3BC234E82BCAEA7D93CE1B635BD647372BDADE7C03BCC3A853C5EE742BCAC70D2BD0873A63D37A2A83C9FBAAE3CA5BB0BBC1D8D5BBC58202ABC75DDDFBCDC34023C6E1AE5BBC08325BD915017BC707C0ABC9C0618BAFF8E773DD88DB1BB8271EEBC063EB33D0C30BCBB7C3D88BB7600353CD5C937BCB9667D3B8EF7903C4EE68ABBBDF557BCE86AF4BC9A04333C08989BBD3864CFBD0960F2BBE37D763D6CCBFDBCB463EF3C161A1ABC640A4DBC8B090EBD93F1E6BD1092E43C242EE0BA8E1C563C69FEE8BCAB5AF03B13C356BD3F31B8BB1D4C1EBD00E5A73CBB88113CE02A9CBD249044BE1C597ABB3744C0BC9046D93CCC53ABBC30F2FC3D7E6C603D0EA3F43B9BCB89BD7A924DBB88615DBC0B673C3D1A79FE3CB87B0BBCA956903BB01634BC96B861BD0D2B59BB1A7C143CFC2B603D028E453DA405993CA9D75F3BF7A9E9BE0757B83BBB7F573CD482563C8A68003BB0A99A3B72932C3D8A9506BCDD960EBD28489FBD05A7483CF60D88BC42D0233CB000DA3D223F8B3CFE3F29
3D07983CBD1EF61ABC9B44BF3D7312C8BC6D82593D587167BC5F58BFBD1657023BDE6AFBBCD7598BBCD527CE3B3831373D34EDC63C2B50863D3B9D743CCDDFEA3BF4F8B0BC5DD3B33BE152E13D79C703BC623A1EBC8CEBDEBC1E169DBD8C83B0BCB841BEBC80055ABD651C12BCBE08F03D5AEEF5BD091909BB5EE44B3AA63682BD2C63B3BD9FF70EBB910AC1BC0A12E6BC827E963BE0B0B3BD31F0793D116EC6BC7F1F15BCDCB6363CAC5161BC9B353A3CA185483CD180243D3D5393BD21CC37BCE75D243D672678BB5505BB3D2F0B5F3CBFF7BBBAD5E6A4BC1D6F0D3D5D5C7CBCD72A013BFF38F63D52B5C43D65531E3BA4517E3B901E32BBDD194D3C8C6653BD338424BD61F2BF3D1911393D01AF773CAD88513CE1CB99BC9B5856BCF2C547BD07E305BCFED70B3D340A5B3D3C6DD93D7BD3933CED40EEBD41C6B3BCA4E4B13A5A94C4BD069B813C2DE0573BCED61DBD5DC3C73BA72C193D085F483D0318A9BC01331DBC5DDD39BD2ACA0BBA9347013C5D81E2BD1851413B3D74893D04989F
3CAA23393C06E24C3D54BBDFBC38C0BFBBAEA8043CA73E7EBB877F90BC07CB7A3CD4C60EBD7BC9A5BC59874F3C8B22FDBD0CDEE23CC190B1BCB55E4ABCA07B6B3D9DC4063BA845D0BD0C4E33BB6412933CF169923CFCDE25BD0D30863C9AF500BC928A7D3C8B92BCBAFA5C7DBCCB1628BCC23E783C367E5EBD269C413CB3BF7DBD42F6E33C33A90FBD495B18BD99DCB73C30F721BC21E6443CD42B3A3C9AF7173BAE15C83D0F1CAE3D1434F83C923860BD9DBF65BD4BDA443D5EBB693D8AE78F3CF7AF943B0FFE173CA259963D4AB1D9BD103DD2BADD47A9BD18573D3C9F45A8BDB69FDDBC79DEB5BDE8A5C7BBAEFC9ABDC072A2BB5C8089BD3C1D703D7397A7BC78E5473C7BDF23BCA443823D3232E83D877F0EB8D4EDC2BCB191F33C9E8918BD8E928B3DC982FE3CCB53963BA775B03B6C96A23D9D961BBDB74648BCD10CC23BBA91183DC0768FBD527CA73CCEAB32BD8005EA3D4B93543BF68A7EBC3241373D14F2943C5699E6BCA055AC3BF482F7BC911AA53B852C14BB9B0D65BCACDA01
3D11AE76BBB6070DBC46EAA93C9E918C3D4F48E9BD4F67033C75DE053CBB45EC3D0B9ED83AF909913B5FB1E9BC071763BCE3F939BBF5C9EEBBC07F2F3BC9DF7A3D15363F3D070A97BCC3F9CBBCEB31F33D844B8A3C280B543C804A083D9168BC3CEEA827BD5841293C6B198EBC8061B1BD146E54BB041847BC5500893CAA47F83CBF85C83D923CCABC872EA2BC7613E03B9B8ABD3B9E2CC23D0F7908BCC6B81D3C2265E4BC6671C4BD2889E9BB8B5C7BBC1C5960BD8168FBBCB5C6973D23E7BFBC39A75A3C80FED0BC075F103CBF8D7FBD04C1CFBD2824B6BB1BAEE3BC8B845A3B64BD8B3C89ABEEBDDA27A6BC6FFDC13D10B0BD3B238AB2BC3A74603C7F8368BB9EADD4BC11F17B3D3F583D3DF3404E3C8E4B5EBAC04262BCDD332FB9BD79FF3C3EF8643C35BD63BC9CE5203BFE49C13C7E93BC3DD3D617BC9121A2BD133968BCD644B9BD894110BD8012AF3CC83538BCC1A19F3AE7249BBC38B4E6BC7B11F3BC832328BC8FEB92BC4D1CBE3CA8A55C3BA118A1BD1EC1003D03E1B5BC4BB189
BD563E433C8C5DC0BD9A9E2EBBD23038BCA3639E3CCA4CF6BCAF5766BCE976BEBD486968BA8A4786BD52DEE03D3CA5E03ACC9BABBC0D4DEF3BF81DFBBD1F37CFBD5C42D33C11629BBBCE332CBCD35423BC1C51ABBD04692FBD0F0B663BE006BFBB2051F73C5F75BC3B1C215DBD0FDEA43D01030A3CEB59753D0EDCBDBC944CC03D2C1C2FBE2C76D83C389EEF3D09CDCBBD9E3E86BE02E720BCE296C1BC8830E23C97859CBBA2B8CFBC88AD973C99E6563B3B4A773DFE6E8BBD95C484BCA2729BBC06090B3BCCE97D3D2280F13BADBBAC3C83A704BDB57A76BB8095473D3DC50DBD58DE0E3C4965BE3DF23CB0BD6135213D2DDF8F3C825BF0BD21600ABC3252E03D05CA00BD2C3600BCD5F8BEBDC0BA093CE8BB233D66816C3CB978D3BC90B82A3C8E34B9BCFE2603BE0959EEBD2C2D2EBD49D3D4BD6405AE3D409BF43D2A409B3B4074523D61E2D83D5CCB6BBC7178FA3D0196643DD91CD13D22BC4F3CD1B09ABBB45AF43C51B332BD84BBF3BAAB05893C2C651BBC259B11BDB525613A89B3B0
3C458D04BCA4D850BCC050D33CEED845BCEF6C373B13F018BAB4594CBD280A9DBDBF483DBCA0BA223C152A6CBAD4C8A93D8349C0396CB8FE3C2783003CEF555E3C6AE2ABBBF9680FBD2561CA3C11250ABD4D551C3D6471263C88BF79BDAC59F23B7FBD4E3AF8849DBCD1A7F53C6DCD33BBAD4559BC6ABD483C4D8EDABD2FC9003D73A7D7BDC12BD53D042C3FBC705511BCC2C396BCB15AB23CD35CD63BDEDB6C3C87AA6FBBEB7094BD50E03BBBABFAEC3A57EB393C9CA17A3C8E5BFC3C1A2E8C3C2B5A0E3D6BADDD3CEE6A29BD16588CBCCA957CBCE5C9D53BD222F93C7BC4223C88ED7C3C2B8C323D0EC11E3B7316CBBD3EBFF33B2258E03C606DA43A1B72DF3B72DAB7BD037D5FBD1C9F81BD6FE19C3D2E32613C958DE5BBC02373BC1A83663BF83A60BC76DC3BBC912BF8BD13DCA93C69B94F3D44F9293DCA33EC3D3F6EE3BB2690E5BC8B73A43D676D1D3CFD64083C8874133D32B77E3D6EB42D3C5D823ABD365FD7BCD4CACB3C9DC03E3CAB175B3C31AA95BD13672DBD331D9B3C865895
BD01B5B23BBCB447BD8842D63C214222BDC17185BBACBE633C89853BBCF750073D333076BD41AF31BD6104843D24131B3C0CAA353C1EFE7DBD090B0CBC775C3EBD619F123C40E4093D54A40EBCE927CFBD93A1EFBD4F68C8BBA042B7BB20F23E3CDADC173D036483BE5B3882BBA4EA5DBCF01D0E3C6CDC63BBA6E0E4BC61BE7D3ADC9C1ABD0DD69D3BB4BDA53C171CF8BC52B261BDCF1E6CBB70F5043C6AF6363B715C553CC27C6CBC869364BCCFE68EBCF6043CBBACEB55BC2C481E3D669DEDBD2756F93CD8C1BEBC4C2EE23BC4D0603D12ED01BD4F4A823C552F0BBB9FDE46BC07ACBD3C67F6003B9BD4123CBA3BEE3D1DCAAB3B871C7CBD68D1653C811F933C9C08D4BAF658C6BAAB725EBC1EC5E5BD62B55B3E0183AA3CCA8E15BD02BDAD3D301256BADB46A3BBCC41AABDA75C28BD17A12FBCA2768B3DCD49843C8D82A1BCDB53CFBD989A63BB890C163C73E237BB7A52A13D8466D53CC6526C3CAEA5D1BB34FCB2BC990DFDBBFDA7D3BC80E8DA3C18E138BD82A23ABD882890BD107713
BBFEBA373D313362BCA980D63BC620B4BE4AC8063C9531DD3CC5EA62BD0ACEC03C6A3F0BBB7DAE7B3CDA35A3BD1EAFB73D232225BCF47BBE3C10DDB1BC50D3AA3D1B4FD5BCF56684BC2F2D38BBD60F1EBCF955A83D4FC8EA3C3ED5393DFEC87A3C717E03BC9F103C3CCB491DBC7F24EEBC8ED86F3C47A5D73BD2F6EE3D11C3A5BCA2B70C3C877FCF3B3697253B854FA6BCCE40DB3C886E403CF129173C8A8E6D3C28D4123D05D2693CA7C7E0BC383BCB3D19A33F3B6629C5BC2FBACF3C7A3DA93D6F1D2E3C06AB223B31F4A23BA8BDB13CBFC7083C2421FCBB20C1213D21123A3D8293453C5E9F79BBDE8E983CB6658DBD2EF3333D8BEBF03D0B18593D421C9E3CAD02783C2CA2E83D33B7F73B4D27DCBD8E2A3CBD9B90BB3D2219DA3CDE1B0B3CF26C843C2AFB4BBCE805673D901AECBCCF28ACBC70FBD43C9F116F3C1C72203CFCC5A6BCF263CCBD46EC7B3B93415B3CD9B0FA3D979C423BB6D310BC0D45143C420F9CBCA58A503D493E243CE8E2203BAF8E92BDDEB144BD0F79F9BD30F0F8
3C678A79BB8B8B0DBC0CC133B86070BBBD29B6A53CB37C083C0A99B13BFE8E45BB0CE23BBCA9C02C3BD62586BB42101A3A6324F73B3CEC45BC5DD632BD149518BC10EE0F3BE8555F3BA37067BD11C0A93C97EAEDBC445F403B937456BCB89E1ABABE249ABC8CC9933CADAB03BCC5E4213A9A6B34BC21715DBC44482D3C817BF6BBA1A27EBCAEE2943C671A293CA47B9B3CC3BFF63C0ECC7C3B357448BB4F51DFBBF9555CBB83F0F4BCFD8082BD25338A3C0970B6BD1E979DBC996353B99028DA3C8BF2453C9D952A3BABA530BCAE5BB9BAAA5E903BF7506CBB3E0EB8BADA0FA73D39245B3C5CF5E0BA84E26CBA812F123C4B1C8CBCAFFF21BB1D49283DC14EC8BCB0C3DEBD0EDA413B681D69BCEB4E15BC1AEF853C9F76FE3C5C237B3AE3529F3C1845A3BBF615D33D0FC5EDBB0685C6BC05A8FB3CDF07B1BBA9ED29BAA10349BC714358BD717C063BC39E413D0B50673BB93626BA9369D6BD1D1AC6BC34FEAC3B961C08BA48FC84BCA525673C3EFE543B547B3ABD45A54ABC1A920C3CFB1999
BD1A9BA0BC6FCD67BD2510E93D551FAB3CE7E48D3CD368713D7771D3BD049737BBA7F450BD2249F33D3DF96D3D4AF6453CECFFD53C6BCD0D3B62185EBD3FD04B3D798491BAC46B333D7623F53D3A9461BD1711963D2E9B253D24A7E0BA2D9619BBB280FEBD79AE2CBCC7535BBCFA9B00BCE831D0BCF0ED393D30525EBD8178BE3D1C1B953C03D7573BF41346BD1BE998BD2B2760BC37C7C53C4240EE3CD8B44B3C1E1896BBCD63E2BB4C5706BCF5E2DFBC2239E33D37C9783CBFA0613C14C7E93CD552653D7A2FA03D2E6061BCC33D4EBB227FFD3CC987413C8169383C0DE323BB63AD18BD2BBC803D3864023D73EC433D1397E73D9316403D3F38E1BCF3A792BC2AE4553C4272A53D26F3A53CCA0717BC0501D83CBFBFA53D42E8A83D55B4963D486F013C6628E5BCC847B4BC08E052BCFB7E93BC5D5CBABC5C12CF3CAF95F0BCEBD5A13C98B8723DF9F9103D562AC23C3FD9A83B0E4A14BDB29A92BD15AD8BBD0571A2BD0F4197BC9D98883B54BC82BCE250B4BD3B932D3D5576F1BD53B14E
3D9C1D7FBC34439ABD37C71F3D5697EABC8FF1ABBD082C21BD41AD863D840D16BD10862ABD4C463FBD01C3573C02078FBD341740BBCD1242BC4CE025BC7AB73E3DA1C9AFBCD4FC263DBF3B5E3C7DD3B5BD20B24A3CE630903D814165BDD65D08BCD5F75D3CDD12F8BD40993E3D1D03413CAFEDC8BB914F9F3A55E432BC8129AABD524DB0BD332471BCC2806FBD713FF83CF80D7B3A0EE735BCFF6502BD0F646EBD05BDF4BD146D14BD18E58DBD71DD9EBC06BC023CC8A9B53D8CFB483C11448CBC9320BEBD6947793C94735DBCEAA6F9BC9589DDBCE0474BBCDF8BD23D1F9D4A3D41B6D0BD8B96313CC9A8F4BC99C92B3DB6AE453CF69E643D90EB7EBD82882FBDA0A0A13D604E32BD896A72BCC6F6993D4FB544BC99ECE5BD86626DBC088BACBCD595E03D2EE6153BC996BF3D16FCE33D00F356BDEFC5A2BE1231BBBD6D52973D381C413D4581773B7CA6FE3A9C1221BDB545DA3A1389FB3CF0D8B13DBC046E3B596D753D7B93533AC29F35BD2EA9C33BDABE99BC872D433C1F6761BDAC8503
BCB3053EBD3BC80CBCEABFFB3BE4D0BC3D1C68DB3D4FFAF4BD0D46B43D6F213A3D4F4841BD2D27253D6402253C7A58673D427AA63CF0785BBB1D70B2BD525D153D9039663E1CD35FBD98D6EE3B833F1E3CEB20033B65DF373D544378BD3D546C3AF1A6A3BC923D86BB677021BCB94B0FBC997204BCE218E8BC9CAF9C3C935209BD10B8883DE406DBBCD5348FBB1C6A8D3C6869D63D38D454BD8B562C3C85BC6BBE17D0BBBD517D8E3DB6A0F4BC0F2726BDAD83813D52E0DEBB07495C3C94643A3CD097D2BD12ED88BD6498EFBD13A1463BE90372BB1AE03EBBE837C3BB6319C1BD71E550BDADC7D7BD86FFE53CDECC533C44FBBABBE032983D36F1B8386C3E41BE117D2C3B0CB328BC483D373D31B210BCD267E8BDBB9E96BBF161833A05FA34BD2BFE353CFE04723B80A0FF3B9C30E33D4870703E75E597BDA8B2E1BB9BD24B3C9270B73D502FF1BD8D29DA3D44F84E3CD38DF63973872FBD433C313C887BA73CE154C2BC99A9F9BD1A46D9BC2DF6CD3D4BDDB03D483ACF3D93FA453C512882
3BAE9E8B3CDCE3D6BCD1FED23BB03067BE013459B97BEC863D940D2BBDBB96603CC53B0F3B338398BD1CC7DBBD3B58353C7B3E083CEBB8D13D748A07BD5868C83D4F83FF3B8D160D3CF82302BD0BEEE83AED9023BD9B08E0BC176B0B3D8FCDFA3BBAA18C3D4980AFBCD32551BBEFCDB13C49F7623B19162F3BD7C30C3C0A3E3B3D04840FBAC947443C5338B7BC954049BBC097F1BD0E1C973D17310C3C8B2C2B3D40B5B1BDBB6543BB6BD7FDBCE80D993C665424BC1EC2E239DE37DC3CB8CE04BD22DE223D5B7CD23D8E6AB83D1602BD3DA196D83C2F43233C8C4CBEBC34E5503D1CC3F0B94D2A3B3D954AA43C9DFB6A3D5D3C94BD57FC783D276DCC3D07BF69BD5858B93BB19B9839343744BCA3D67DBDA71BE13B90232D3BF9BC1BBB3DB4E4BC8D53B5BD60AB55BCB341C0BC06A92CBD3B31043D0DF32EBCC05E533D1417FEBD3D6EB6BE3042EEBB888105BBBBA19FBD58292FBC857865BD81ACF73C0DE6A1BB30197DBC99ECF1BD1959A2BD7B7C0EBCDD4C083D3589D2BCD66AF3BC6A911B
39D798D9BCD041A3BCC44ACB3D48ECF93D75AF193C5ED0E7BC9227DC3D32313EBD36BCEE3D20BE2A3D8228133D3774F6BC92A323BC2520743BA9867C3D216F64BCC3C158BD30FFF4BCDCBA7B3C89A463BDA62233BC960C34BCC511B43B8446033C42F8673B9946973C55C6D93CC5F5EC3B92A2DB3AC53D6ABD6A26F03E005C2B3D2386743C12F7A73C6B6D5ABC0A00F7BCB708313D117AF53CD7A0383D627CA0BDF36B2E3D288D9E3D1715AFBC3808BD3D9CE613BCC5B7DBBC0403B3BD17F3453CCD4EFF3D2095B53D5805A23C8FCF4D3C355E483D0D8DC4BC7097023D29D58BBA901ABA3D258930BD4B85AA3ADA35B7BD40B333BC7AB1A93C1ACB40BC4D24FF3D1DF5543D05A9563D52845E3CC73716BD299D3DBA308917BB04AF753CDF3685BD105F8DBC919FBD3CB914E8BD3F77EEBD2D2D453D8703DF3D5A139CBD6C27643C656E703DB0FC7D3D63811A3D5F888E3DA5C6CA3C1A24C33C72F45BBC1073D63D517B88BCE61EB53D09CA923D9A3B683CE37C6439D5D66CBD55FF57BD15A0C5
3BFF246ABBF1E52C3AE3AE8DBCE1DA833D135045BBBF6E3CBD1DE2203D8DF2DEBD4B94D33D23A60ABC9E198C3D4766493A8D76AABCC6F7BCBD249413BE34C37E3D6C5643BD3AA764BCECB48F3C674177BD3269A43D3D86D53C6CFF1C3B476D9FBCBCE9A43D270DA4BD8A5CABBCAB0F503C1333C33C0E2F06BD50BDFFBC676AC63DB32A6B3D1BF2D0B9C75CE43C2E06C03BEC76033D47D212BC77FD48BBC568BB3C09524CBD5BC9E4BBFF98A2BD36A505BE2E6FD4BD2FF0C83D4F14E43D6CD4FEBD7B7A35BE073390BD8C5D77BCAA63C2BBF92424BCE197283C482F9A3D914E533DEEE89C3C6C74A53C289D163C950852BD7F4A84BBFC8C093D9C6A6E3CA5C58BBD416C98BC288ED1BD6B0692BB16C5CCBDB8CFD63CB86586BDA382713B2EC0513D645687BC3BC1343D2AEA583D8DB0103DA5D2913D4F1CDFBA1AB2B23D3335343D0C663B3D2848E0BD4D7F62BC3D90B7BD8218B23D96AF4DBCC7828B3C2F8EDC3C159D92BBD344483D8CCE86BC30A69EBC0261C63BCF06C6BD01FAEBBD94BAA8
BC9FBC603CB94A2C3A88A1A8BD13D0983C952CB7BC1300D63D239981B86733B6BD0C31473D1E2CC5BD934BCCBD503B5F3C3987E8BD39953E3CEFBDCB3C3AFA80BD834D313C660F7FBD1856F8BD8874FE3C031C8B3D13BF343D6ECF4F3DB1E1A7BB78E437BC6768B53D16EB063CBCD7063D81E0B33C034CCD3CB6C408BCF52ACC3D7A07823D4787AA3C0653083CABFF7BBB9B67293CA536A73CB932BBBD25CD5B3E0C101C3C0A6EDFBC0A7AD03BC083AE3D2B4515BD00E746BE0071D23D07573F3CFA10283C84EB6E3D20C322BD1EF4F9BCA66A5DBAB44130BC0DB6D23B89BD3B3D7E26D3BB3FC1D73D87771C3CD853D53BEA1B313C52378DBC6CEF223D7F11553D83FB10BD3ECB51BCC09E60BD2705BF3B9882E33B0257543D9177323C806CDE3CB6A7863C8189B8BD8106923C34DDFBBC25E1FA3B239EC93D8497DB3DC055F5BD3DF8D1BD40AFFD3C3C0E6DBCECF10E3ACFDC10BD1F0E973C8EA0A6BD2D6EF6BCB01678BCD3C703BC4E6A0BB8BA7B9C3CC2129F3DBF80D73CF8D8C23C6199F4
BB795FDDBC737AB93BE85F41BC87BB953DF0552D3C39D06ABCA843863D55A12A3CBD770C3B0970C93D8204E1BC96FCBEBD4B03F53B0E6347BBF1BA80BD3064C23CB74073BBFF4EE7BCACB462BD0FE841BD1725523D06DDB43BBF7E55BD926BBB3C904C5DBD41F78EBC8083E93D0229E9BD2940013BD6786D3AF5FBC53C959EA13BE744D63D9BC5C5BC8D08F33B1ABC163BF022A03CBFDAE93CE0C00CBC3570663C720E9A3C960101BB88B756BC4CC2313C80CC3ABBFE4C873B05422B3BA094043CA5574ABBD5448BBBC8D2CFBCE49AB1BD454333BCFBF8183CE0D4DA3C32439C3D29653B3CBFFA21BD2D98833D5340C7BBA36076BC1C46E9BC8860813C09D70CBCD597B83CE0CB1A3CD99E773D53B603BC1B4A97BCC849C6BD09877DBB51E7BD3D02BF983D85A9E93C72187BBCA5BD93BCDEF6D23AC497013D2F634B3B9876C63CC5384A3E05AD1F3CEDBB3A3D248F263DC1DB1C3C3AF3EFB80E798EBD126D10BD6852E13C6CBF6B3C4315E43CD847693BA792E4BD41C0723CB10A0F3C3575AB
BCBE77443B84C2A2BD352EDC3CA42D753A2821C4BE0A93783C098ED53D2B3CF43DB9ADF9BD61C0783C4B48C03D2755BEBC8BEBB83B6740B1BC74391CBB8E69A83AC92B783D5FE7D6BD2D5A973C80EB75BCC1B5C6BB0C3D25BC03327B3C4B4BCABC0AB6C3BBDCEB0EBCCC7540BB970FF3BD52041A3CAB97713D40D974BD74529C3DB3DE44BD34256ABAE6FB313C4E15E7BCF66752BD66BA69BD162E5F3BD007BD3CA54A06BD0ECDB23B51171BBD006736BD4D012BBCA7EB47BC018A233D17CC7ABC4FA5F73D03CF84BCF28BEA3C9034373CEF676C3BD40413BC72BFF33D8B9279BC70E9113C4C198EBD96696C3CA185C7BE09591C3D4A482BBB961C3F3C5658983CF9DCAFBD2851103C223C8C3CBD031ABC8D02B13E09362E3D5CA3C0BC2AABF03D146D92BD9E0E0FBBFC01D83D5887BEBD71C2F6BD832EFF3E0741DFBD7E34CABC014E2A3D3E125F3D402D2ABC0DDFD7BC4258193C91D81DBD8B47023D0AD103BCF91482BB83C2A73D25AAB63994CC6A3C9A5D2ABD4DF7A03D30F232BBC5FA49
3D5E8CE23D718F59BBB79FAB3CAECD15BD444890BB8305553BD32ECE3BDBBF0E3CDD95D43C99CC79BD6B1ED83D113C3F3CB4C169BCD1948A3C070C2ABCF1E6F53CB7A2D5BD1D4484BC8E96A2BDBC5B5B3D2B4F9B3D3907C3BD33969A3DB2097F3C242B2D3D564E03BD2AA58A3B9E03043D4D1E6C3D9673DCBD5580CEBC5E65323BFA512ABD2A4BB93C558874BD8BBDF1BD00ED4F38B3B330BCA583523CEED9F03C0B63183BAA31833CA5C3453CFD838DBD189530BA9A90583C9349F23BC8EBCEBD7FA8A2BCCEEB29BCD3D192BC0A5515BC8B583F3C80F5F03CF9C997BBAF9A1C3D7DD1AABBA7592FBC01E0413B87FA1DBDEDC59B3CB803CB3D6F187F3D7EE1B3BD04A8AFBCEEB9DABD0019F1BD8B819ABCCB10F3BE29846FBCA1FE4BBC27C138BC9850A13D1E71D0BD25842CBBFA8BB13C5F4F543DF81BA3BC6F1C913D5DCB93BD69E954BE0DF2183CC86F37BD87E0E0BD9A01DA3C2927183C4ADE39BB4828EB3CCEB596BD7452B2BCCD3706BC01AECF3CC317803D538FD0BD0141FD3D1F5B2E
3BE39026BC686923BC900217BDB29E04BDEDC890BD9A0BABBC3CD357BA4CA0523BEE4A453CC480E9BD6958623D49C0FF3D45EE813A772E6FBD92E41F3DAEEACCBD8A36D4BA8FAA513DB22E03BC69B4163CF2AD73BDB5CA77BE06962CBD160F373CEB7E5F3CDD4FA93CE52A34BCF818283D0489E6BBB70ED2BC413343BD5F2E8D3BEF3255BCD098ECBBEB8E15BD337C1E3C1E116EBD29D7023B40AE99B995FFE83BB1A44A3CE1CC41BB598486BD18E26BBC2765623CEF42D73AE4D5F5BD4CD6423D30B9CD3D5AD4D7BC89621FBBBD7990BD991A1B3D7A136A3CDA69E4BCB20D92BC82CD2D3D92EA673D3063C73C2F1DAEBC3BB77FBC83FC09BD3E4127BC9E2B873D8C87BBBC66AB6EBD6DD5883D56B486BD7D24E33E2B9893BD324E9CBCEA23E03D1E7742BD0FA0953D08C0813DBD21A13DC20C5C3C5B396B3D04B60FBCAE4D6E3B095EE83DAE31153BD41F4A3C3B8D16BDF9A02BBB6C4E483C66DD2D3D95E4A13DB4BB7BBC954C453CB580323D71A0C7BBFD5414BDF2EB5DBD130956BC8BB282
3C5E95EABBE2EC333D648979BCD3CD393D0435ECBBB3C9D6BC226423BBD5E851BB345C663D8D4005BD67BC99BD4FB2FFBD169E88BD18C157BC0B21CB3D2877A5BBC5C8E1BBE90D523D70E1DD3CD213523D403E56BD51F4EEBD1C72BBBC961B513CE97B96BC9BD1EA3D4729C4BA619D223D786E573CCE2E01BC71C561BC0178F9BD86E2A3BD2F6EB53CE89DF13B037D193ABDADF1BD28A5963CF7ED923CBC03823D365C423D872A57BC3E78373D2D10BDBDA7D00D3C75FD83BC9B6953BD5B8AA13D6779C13CACAA03BC956EBA3D82128E3CE7C5603D7CC9663CB10D39BD61DA92BD8E1C5E3C079BA73DDC44F9BD3A7FAE3B77F9D8BCD74EC63BFECFE93BE12A53BAAFE7C83D9BC9D8BD9C7E023C9DE6D93B293B54BC8B05D43D2B12BEBC69DB9FBB574D433D6F6B4ABC44EADA3C361E3E3D4C7A4FBD165CBEBD4E57523D21158C3CCA0928BD530E7F3C1A2A9FBB2AE4533D9608CCBD857CEC3C4BC43D3CE97018BD36CA02BBFC6390BBAD3D3F3D7129EFBC8230A33D210526BD0AFF26BC1C0A12
BD79EA5ABA957583BC728C1FBD6F984D3C48B783BD2770C73D64D18DBD6F5805BC7EF5A03C2CD5E43D6F83DBBDC1D92A3D795DE6BCA8CBFBBD2446BEBC88F700BC4B80F03D0E610C3C6921EC3C912D603D9D141E3924C3463C3F09063D98413F3C617D263D02AD983C221490BD1A037FBD2D4A59BC0DC9813BE8AD3DBCB89A373D7FC7D03D64ACD5BCB69B053D19EC193C8AB3063D0A97A43D0AF76A3C23859E3DE3A90BBC6C89C9BC439AD0BC735557BD4E6D3FBD4ED6E8BC879655BDC118C03D7825B43CDE6C3B3C174F7D3BAC5145BCC0DE9EBD125CA63CCFA4AABD0AA1ABBD8E2C4CBDA0901F3C1458A1BCACC6DD3D416FBD3B8CCA573D242E893DC20DB33CC8BE583C99CDE6BCED67AE3E001457BAB514B9BD31177A3B7355B3BC252F4C3D248121BC8BA76A3CE6D79BBD48FF4ABC17020DBCE81DA8BCA8EB783D8A25B63CF816AA3D62AFE7BD0894B33C1102B3BD19521FBCC7DE18BDA172EBBC214AD2BBB13BCCBD2D0EB9BD31E1DEBC97703DBBF2C9CF3D2DBBA23D9B6541BA232A82
BD9EE022BB32F6193D0BF9DFBB780D63BCC2FB063C9F9930BD56CA61BCF3BC5BBAAEE4A03D8D726A3D80574FBCD3F9B03B6A2717BC79822F3B898B653D0C68EE3DB406A03CC30E19BD13573EBAB6428D3D336716BC8A054EBD2D0CDCBCBA9E063CA157463D44D59A3C880E283CDD3CE73B8293AB3D1E31D6BCC63DE63BA5D4D9BC127ADBBCB31068BB9B00973C3CB06F3CA3451BBCBA65DB3D27226E3BA84A743D0ACD29BD84ED763C19F6BABC4D953EBD57EE05BD1B0E7C3CFBAFE63CD46226BCED700EBDBDF876BDB2DA59BDB0CE21BD5CA72FBD9062A1BC6D2AA33BACBA1D3CEC2CB5BC753FF3BD20E0C5BC814DC2BC0531AEBD738DDFBD1ACF2B3CF7E4653C930B68BC8C765BBBC34479B9BAB357BD7F809A3C7281C93CBB35F23D65A612BBF9592F3DAE9CCD3DA16D2ABD151EA53D4FCBBE3DF9AD1DBD1408E13D1BCA19BBBE6A98BE43E28DBC9726843CF46108BCB7CA3B3D4342D53C0DF49CBD0E2015BD52FF65BD4944DBBD12AA5E3D7E3A89BC0796583CDFCC8BBD3C9B143B925B79
3C14144BBD4D2F4D3D525244BD3AC3513DBCA191BDC3AFA5BC31A872BB3652BF3D114BFC3D3218D3BD4B63BB3D19861CBD66DB54BCA5571D3D333E9FBD28EA0EBB3774B3BC33A5CCBD899B68BC40E772BC01DAB0BC8F2223BC5BD729BDF124BF3D059EAFB9AA4A36BCB0C4683B8DE3AB3C521D99BD9DB6823D0E3657BD1FDF6A3C5400643D7574703BE2A36B3D778A3E3A25942CBD0657393D5EFF58BD74E606BDA794763C10AB22BD2B6D4D3CE5FE363C35B6B2BCAC7EADBD43A22A3D073D883C071095BBBFA6393D670349BD9D82013D81382F3D13025DBBE3FF0EBD1EFB27BD78A4F33B46373D3D82FCAE3CC1C7A4BA62113B3D0522B83D6C0F053C4649363B9C4C8EBD0959FA3D1519EC3DC0C0AB3DA19DC9BE1933203C2785E4BC099DDFBD683489BC441A113DBE8AC83C15365E3BD85CFE3CA8E0B6BD854757BC2A2695BBE5838EB90BE949BB8F5251BC0CDE393D94B8A9BCEB115CBCCFCBCFBD2CFF15BB98EC203D3A8CE33CAF10A83CB3EA0DBBE25F013D962B83BD8EB7AA3C431520
3BEDBF54BAB788FABCBFB8D6BB57644DBD1FC1EF3A8CBB7A3AE75FC8BBB257ACBB171119BC04B39BBB9BE252BC1E5B153A9AEC903C006498BBE16639BD052687BC23DFB83C52F839BC58EE61BC6FEF613BA51CAA3A2D89F5BCA368C93CD056A63C5A374B3BA5FC93BCA1B45FBCD77EE1BA032D58BA2A5C99BCE9A9773C2EC089BC8A078E3C36126FBBB045B43CC277B13B95C4C73B7710D1BA9BF0F6BBE7CCAD3C98D4433BB9BC49BBE73C6FBBBA013B3C684940BBC5DF98BCA8D264BC8C86CA3B9EB29C3D23BC65BC1965493C31E1733D09AB7C3C87DC873C00AD7E3A85288339BB7983BC514CFB3BD62240BBD87F693CC5A685395949AB3BA62ACFBC2587143B40E50F3BB8AE193B6687703B2FB180BCF354B73AD66470BAA874CE3B929FA13CCFD52DBD1147D5BC1FB99C3BAA3722BB9D29B53BA211493CAAFE193C02F663BB26B2F13BB555B2BC75B352BBEFA48F3D1F2EDD3D27C19CBCAABF32BB930F41398A80CE3797CC253B175EEE3CFAD4C13C481665BC0D46203B3DAB783C40CA98
BB348648BC29B875BABC3464BD017CAA3D271A3D3D426461BCE954A5BD4C427DBA5CB9A63CAF60333C475F9A3D51B3FC3CA42CB3BD2F14B83D1550243D9A4D753D87ED5D3CE1C7DFBC9624693D0FA0503D5E5D12BC2EE704BC8E4B84BD98ADA63CDC1A72BD4792463B9BDA0F3D1F0E053CE4ACE93D16BC30BCC72763B901082B3BEC2EFF3DCDE290BCE5AA30BD9A891C3BEB8A1D3D56508FBCAE8DBABA021EF43D5E4CF7BC25F326BD19C42FBD513C323CCD4B383C6F3898BD38A0E93D9DB125BBF73E25BC680632BD36327A3C3B7DCBBC7AADB43CA6DCB83C3089103D91A30C3D8167F2BC265CBABC57C43DBCA8FBA9BC8364ECBD30EAA4BBCB8E6DBBE03AB2BD983C103D26D925BD017D043CA0F7D43D0A3C933D06D194BD5402B3BB312E793DB984653DA2B97EBB86C8D93DA543723BCEC17E3D7582BCBD8101893D8A66E33CAA8E503DE7BBCBBD08AFDC3D76B5353D83B1C0BD35649ABBD6F516BCB150BBBD3FE062BCA7ED0FBC85B0EE3D010DC6B89BAA7EBC7C76FD3DD94BFC3D5F208E
BB7A3C72BCB80E993BBF25183C7A050F3CAC6C2D3D4E789C3B600D963CF2580EBD2D6C853C964E7B3D3305523C661BA63D1A7F863BD8EB463D5165943D1D4A90BDC1A563BB940A643CC83AB4BD5B82983D53D0D63CBF2A45BD286EB63C88E2F8BCD69973BD8A038FBBDB73BC3D09E7053D3932453B27E65A3CA5BF5C3DA9BDED3CD3BB58BCE3A8803B846A6CBC5C0BD1BBFA572ABC6334623CF5C76E3BC06AF43D54640A3C097EAC3CB86E53BD9ED1CDBB5C26163C93AC20BC91B4E73DA78D0DBBDB06E83C25CDD23CF42A8EBCB8843DBCAC27843C4E6D89BC7A72BF3C830BA4BD1704243C1DF1BDBE1620C1BD3A2610BC1DA4323A807BDABC550658BC4CF97A3D4D02CBBB1AAF86BCCC22453CADE661BBD1EA4D3D2EDDE8BCCF7D8E3C4B65AE3CCDCE25BC7078F7BC9209253D4F4853BC5E52013D98963EBD5B05DC3DB06CF7BAA10F1F3CE36489BBD2B8403CAA5A90BDDA2F583CD36EE73D172E50BCAA89A03C9A3A9BBC867E4FBD25B015BA79ACA43C21AF593D6DFBAA3D198F25BB598D83
BC9A41E03B4EA6483D0F09D6BAC4AF413CDBA017BCACA859399F81DDBCB45ED73C89DBE6BC8EEA7FBD1668F63C46F7A2BD349B29BB8C9103BD4DB2D23D5CAF92BD53B2AF3D1AA47FBDA399663C12A9263D95BB0F3D65B4BEBD66086E3CD805833C4B02863C1E81DCBC0AC7143C1CD44F3BCA5467BC65EF61BC950F763BBA8F213DC15281BD131E263D042E053C366038BCB9EDDCBCF426073D2301F93C29E620BD29CC8BBCC8E259BC54A6FB3D1EE0863D0E6308BD34C8ECBD89315DBB365869BCB57D2F3AB9F1E2BBAE6F29BB88A5483CAC774DBC5E6D5ABC82EC37BAE7D46A3C6EE9A63C822DEDBC8C4876BCA472813D392A573DA5BAE7BCEB94873C6E7A9C3DA8B14DBD676EF6BBB84BCDBD3062363D1036D5BD34CE78B930D2A53D45A2C7BBE28812BDBF82FB3CC2B7833C3E8A253C51A6B43D6666C23DB3E21EB9ECABA6BB84E4B73E24734CBD2BD429BD6370B73D4F27DC3B9ABB5A3CFBF5493B97D63BBB83EDF7BCC3031C3CDD15EBBCAB4DF03CC5815B3CFEC17BBC98A852BC1832A3
BBC9C5253BDD66A23C104370BDC39831BE71F38C3BDF6BBCBCBC52763C0597693D71DE6F3C59D4313D3B6964BB9A8E8ABCD779CDBC4264EB3D2A862E3BD808413B4AB2E4BB8AB240BCB850A53D2442273D1471FC3C7DF739BC93CE04BB84BA7F3C7472293C31AD50BC4C6C383CF5D1EDBC8BBD70BCFB24443CE1C63F3D14FF8ABD45E0E93D5B504A3C4CCF36BCCC1694BC82B9EF3D45633F3D8D9C373C553D47BB6ED39D3C15E3D63CBCE5343D08E647BADE34E03CC589F83D2375D33BBA1A843CC73147BCD13CA03C1FC5A2BC5D9CCCBC9B6E1A3A4BFD2BBC8A44103C07BED3BAE6DFFB3D836824BD214D833C625A863D4BCF8FBD9FAF4EBC1760ECBD63E0903C60F5B03BE09CEC3D32618BBBA1B115BD361CA83CEBD6F1BB554DD4BD1ED3E83C6459F13D3887EC3A014473BCC28FCA3BD65CC8BCE2497A3DD1A6FBBBAA8BFE3D39153D3C792F073E00B2B83C0C7FF73D489092BCD653443CB744B6BC5FFAF5BCD3A85E3B8270153C26B2A3BD121E3DB798BD4EBD44B420BD3FBCBD3BA4D806
3DB0C788BB4F56F9BC41783FBD8FDFE03D99396ABD9D8176BCD0D2233C8DFEB8BD2C47F33B4B23E4BD38CE2BBB9A81FE3D0167D4BC61EAEFBD8706713BC55169BCCF59473C839808BD64B812BD157FB43D7AD498BD6ED3F23C9701F83C771ADD3BC345D5BC8808F0BD07E6CFBD763C65BB97225C3C62740DBCFF286BBD9AD38B3D5A9B363D9474C7BBD9BC863C518687BCF7DFB13ADD1B5E3C707AC1BCE82B633D11F43ABD225700BCBE1C9F3D25233A3D08C35A3B53E2D1BB197F463D4519CEBC0B0236BC8FC686BD635902BC6B46F9BDB08698BDAF84F4B90EBB9F3D1D9289BBEE0B89BD7DE783BC99D1D5BD62A426BBB12180BDD7A8EABC5D3BD03D23CBBA3CA73FB7BD2A2DE5BB0BE9D8BD2BD83BBC07F8D33CD7E6B2BD6C0F4E3C01B4813CB220CFBD4B1783BCDABC203D23178EBB60300FBCB733723CBDE97C3BD1B05ABC8465E23E381889BD91F477BD10BFA33CDD20163D31FA5A3B9C2D893CB9A81F3C50A99E3BA2B62B3C84A93E3D4A1032BBCD062FBD344042BD234A35B9CA48D6
BCE90EFB3C342A90BC36FC84BDD668CDBCAD5690BC5B5AFD3D4304033C820001BCB97F27BC81AC28BD2320273DF417B63CC1C46ABD1F8BFFBBC58502BED2E6123CD7DA70BC874251BDC83F753CDEFFA2BCBEDB383C18633B3C526EDDBC9D48003BCBE64C3CE44BF43D01155ABDCFBA75BD398A87BCCEF05EBD405184BB5687653BC401C0BC484DCEBC57BCE1BD5DDB5F3B971EB5BC4C023ABBD5009E3C09CDEC3C26B656BE9427433CFEE63F3CDED158BC6ED0E53CAC07EA3DA1F3763CCE0CD43A59BE64BD1D57F33C49431F3C8D4D483CA49A9EBB54EFADBB3DAE8C3D4D668DBD15D5E9BC8B65C73C39F459BD18EC803D0A6909BDE52A18BD99162D3DD6CD9C3CC3624F3D69C12A3C906FE63C0E996ABD87BAB93C819E8FBE3C6479BDFEAAE0BC0408E8BD7477B3BC86BAB4BC4EB6D4BB95E97D3C582B8B3C387A28BC4C78C5BC8EFBE2BE63D889BC413A77BD95CA383E33D4BB3E9AC1E9BE6AAD3E3CA57970BDF1050EBC0505BF3D1EAD44BD981F943B98A170BCD2F9B43D5980E63D40F10C
BD0445933CA20021BD6529EA3D868B633D517EC03C9A3DC8B9153A833BA8A7773C87E90D3D335236B9A61312BC1243283BAFD4ADBA1A7EC439E2A27C3C3984073B82E7D43D19D804BD6C637BBCAD1D1F3B64DB353BC2A844BD7F3C803DD6592BBB95ED673CE53799BC87BCEE3C267207BC961FEFBB829A38BC0441E03CB87C86BD2EF671BBF881283C8F02C93D8BCA55BB39C3BB3D0992E83C13E074BCC559A1BC5733D73BB645FB3D0803173D359B79BCEC11B43D2E4AFCBD0B7BDCBD00C7383C0AE5E9BCD04756BCAC9D863CD95E4E3CEDEB3FBC443CAE3BDF84583D58B3ADBDB1E0B23C012C0D3D285052BD12CDA6BCB31CEF3CDDFF693D00F8193BE6A60C3CDC3759BC509B713D8220D1BC7A8B2ABD15F9D0BD760913BC93F6CE3D6E79B7BD259D66BD381ED8BD06DA463C9172CFBDAAD1E83C50B081BD4FBC9ABD4A48473B2C9DC63E11345FBE2DB1A9BD195D99BD3116313DA1A4593D9779D9BD32CC84BC44CAED3D053D9C3D71FBC5BD44778B3CA5A7033DFED8F43D7D3D43BC12B432
BD395A11BD2CA4BC3D8A2162BCBDD937BD62C8963CBF1A0A3CBAAA803C82EB99BCF352F03C25FEBBBDAE65ACBC972ECB3CD0D42C3D276D8ABCBA8BC7BDA41E86BD0D07153DD8628E3D60B31B3C8FBB143C74CC843CC180AB3D32C5E8BD07ED45BCC5B5EA3D573D3FBC90DCE6BCBC6DABBC64BFD4BC7062F2BCD4A1DBBAB48DC1BBBF6BFEBD21C71A3C4DD0F6B966054B3D77D0D5BC87962C3BD3461C3CC0BBCCBCB90797BCB463F73B9424FB3D40193ABC1454C2BCC2BFF83CB38D173D54A988BCCE0CF53C945066BDB0C24E3CB6159FBB403C38BD473E853CA31DE8BD06BEDBBD96815ABD50A8B43D8521DBBD8080623C9EE0D8BDC69BBBBDA63FA93D1247E33D47E9B43C0D37A2BC1E77A0BC8C2109BD4810A83DD965CDBC061AFEBD4A9DD53D1D95EC3CA4F17C3C978708BD504CE9BAB8F6873CA85A38BB364F54BC8AC00FBB18628FBDF17217BAC39C3EBDE5A56A3DC913453D252B45BD3AA7083D1F804DBC7174FEBC8DCD1ABC00E0CF3C31A01E3DB72AB23D16D8CDBD13BA963D603D90
BD607BE43D0BB5DBBBEB0FEC3D404C313D1FB2E8BBE34587BC9AFDE5BD03833EBCFA43613C98AE583C7CFA7A3C74F7D3BC487D5D3CE7CA3BB984DB70BB8509083C862DE13D09913FBD8EC7423A3E240C3AA176BE3C12CB8F3CA41D24BC0AD0B23CCDF5CA3CB52628BCEB22B1BC858B0F3B64990E3D1EA8AC3D2C61A0BB9A54593D5D6E3B3D5EEF40BCE18660BBF08A113D0906C73D6E4206BB5F4ECCBCA6AC973D49A547BCAA8B993ADD0D60BD07AD90BAFDB5A8BC2A33413CE14B613BED9C02BD05408E3CA3F68DBD46E9743B47AD3A3CE71EC1BCA63E7AB9B384DCBCDB8F54BCE1A9E8BD335917BDB38FC33D5FCCDE3D45F5013BF3749A3C7A3D883CBB6ACCBD0D45DABD70650C3CBB73EDBC8C16B0BD2AE26E3A01EF25BB6A06473C99E037BCFF2F7EBD191437BC31B2F5BC388DF1BD3BFB8FBD8B5D23BD959DDABCC145E83CB55AC43D5F38603C8A113F3C53473FBC47B7103C0787C4BC5682073C8444BABCD0F9BE3C7E6413BCBF2C91BCD24BCB3C335BC2BBDA70BA3DB78EA9BC742A6C
3D85FD72BCC986D3BC8DD6B9BD3EF16ABD85CE72BCD96A403C42DAC6BCDAAF3DBC3CCE203CDF09B6BADC8FDE3CB38A333D90EEDD3C1C4AADBAD18216BD10FD813C64782A3CB5E098BB1C2891BD0096D3BCBE70203BC817CCBD5CB5543BA490233BC94565BD441F563CC29A82BC36A2363D10A9C8BC8D36C2BD2CD639BD663E223D400EC03D0CACB8BCA89118BC0B78DE3B2D55793D2B525BBB9E81DEBC95A11C3D8C0FEF3B74778BBCBEF5F4BCC284F73CAA5A52BD34B9F1BCFBC5BBBAC8EFA8BCB3EF3C3C7B8FBC3D8A0B82BD566907BCB2E9393C74DA2CBA6C3A2FBB1574063C3C7EFCBC7A7A34BC22A3A63CAC90CBBCE7F0F1BD1FF1C0BD119BD63CD998723C7B939BBC5AC93EBC9B053A3CA9AEB5BCE91833BAAC52BD3BC8F558BC189AB73D10C5153D52F8323D064EA53CA0D7C23C7713DF3B7CACFB3D1590843D1F80E23CFD5D4ABC961C86B95C809B3A4D4B443D6632BFBC2C05E9BCBD29C5BCC592E7BD85D992BB1E0248BD4ABD513D0E19293CA59293BC9090603D2184093CFAC382
BB974C733CD129B8BD0189FB3D248430BE0803E8BBC19CF9BC11D59FBD9EF387BD11CACA3C24E960BC9967D03BD132A6BBB4F342BC5CA217BD8A6526BBDE3952BD94390F3CB408A03CBA8AE7BBA91AECBC9485BEBA2210113BCCDB5E3D08F4723CEDF3833D5DD683BD0240E4BC8FAEF3BD8ABEA93D26A515BD161F9ABC32FD773CEB16863D8C1857BC1CB921BD1AE5903C792A98BD9DF5023D9AD8253BF738A1BBD1CB4A3CE53DDC3CB93F4E3C8AC13FBC9C6266BD21683FBD1D123B3D31A8EABE108CB1BDEB4D9ABD8F301BBC985FD7BD7AAFE8BDF1E4FC3B7D8D493C4254A0BD499A73BD9D5172BC970FC8BDB0167A3BC183BCBB3120CEBC6F0C803C4309763D0D0040BBD7B028BC8DA7FABB55B483BD15289A3D846ABABCAA32C1BD0EC0453D0323423D77F8B4BD0DFEE5BD85D79CBCF5BBC53D5DEA383D3291CD3D73C7C8BD5C73C13E0CA296BD599290BC282FCDBD753D5E3D3B14CC3D4BB7643C5DC837BCC0FBFFBCDC0553BDB7CF633D39E412BB32C48FBCF9FB9CBD3F1A7DBCF42E1E
3D8970BB3CF12411BD30BE24BC91AD7FBCD7D162BCCD958F3C21CA493BCA7D0FBB5938253BED25DB3D0F47F0BC5A046EBD1BA1ECBCB2FD843D22169E3C81ADE03CD4CEEF3DCDCEE1BC8CDE793C353046BC0CB8BE3D0557013C5F63CA3D74D044BC84ADE3BCB632A23D3B93F43C9D699FBC0888A93C6B4E1CBCA3B3DD3C11D2763B4E06363D0701983B8F7D563CF132A3BD04A1393BBB46963CA90640BC8821C33D0E3D2ABC93197BBC109CCABD5022283CE7D5303C27C2BABC85DF1E3CDBA96F3D276E823C7398E03D59B94BBCA8DFADBD0CE1B73C490C483BF4B26DBC634E883D438AC13D0FB481BCCCC5023D446B603D16907B3D5984583B7E85A33808C49FBC847BC6BD34B2503BDCCA1C3D0475DE3D5B7399BCC3BD413D9695D63D9291CBBD2B91B13CEDE693BB28267B3D14E060BD1D522D3B453ABDBC444B133CD77651BC8934FE3DDDB462B96ABFCD3D0B6B7ABD0CF58DBCB1443BBC5631EEBCD9AD783CA2C88BBB17FCD7BC19427BBC9C1C8E3C93AC393B9B4D963CDC86E4BD3C78B0
BCAD0B69BC8ABFF73D38B139B91715EB3DFBDF4A3D85336A3B9066193C72A29CBD0941C53D5BE7C5BCD0F499BD93359F3D225FBCBB40150EBC9696DBBD6B603B3C5F2100BB9B903F3DA2CAB53CF01C61BAEE763BBD808623BD54F1F1BE1273793BD1B1CEBD6BD43D3DF40BF23CB7B8073D293823BCCDE1803CD79E043D81AA84BBA22E323CB228ABBA000965BC4972533C890CBC3D3ABF08BCE8F38F3C491D7CBDAAD7A6BCCE95C5BBFF79A63D42F76C3DB9939F3D8B7856BC35E696BC0CD6033CB3E8F93CEAFC7ABC8C97D1BBFA760BBD51FC9CBC9373783A126B63BCEE8FD53D0EA869B9D2E169BC1716F5BD7F9C713DBFAFF0BDC3D176BB85BF27BD60D1AC3C5F90583CF739FCBDB6D3013D7AEF96BD8A9DF73DA0B1C2BD2F52AFBD767E453DA22095BCA2F0A93CE0CEC43C5BA286BD86E9DF3BC7D755BC0F1E73BD3A1B8BBBD6A80BBD85276E3B4B030D3CB150113CAE74593C36341ABD1D33D33D1A3C10BD7B50F9BC18108EBCFD9DBCBD747BC2BC78B464BD6EADA0BD20CF6CBD0A40A6
BCB1C5A1BC8136703C577C3B3D807B8A3CDCFD1C3CBD42B9BCF4886B3CEA24B93CAEF927BCA316E03D742CB6BCC5EFAD3CE8A148BC42B37CBC7CB50BB90E30D5BBD46D76BCA1C56C3CA4ECF5BCC832AD3C4F7215BBF8B29B3D8AB138BD3ED75C3D1829343BB960C33C6D9D3D3C225C6EBC4C357FBCD83D413CF21E4ABCAFC1873B74B0B73CF5810ABC81CFF93CE317963CD5C40FBB0F8202BCBD750ABD8EBC423D10C6F5BC9138EBBCBA57CE3C7081193D6445B1BC577416BCE1FB7D3CC42EF63CD1A9863DAE22C13D74D5ABBDE20814BD396A4D3C217497BC9C9605BD8147853DA06AE5BCFBE25E3DDF83F2BA9F6920BD01A7AF3CEBF6C03B3E9458B8DB7DA9BA28C3343BB793FE3C816BADBD112771BC70C075BD1DF9DC3C68EDE5BBEB41283D3F422A3CF48D5E3C6DF176BD490566BCB7B289BCB4759B3DF3E28D3D5CE2F8BAD84AA63E7A1FFB3D3501123B87A7BE3D823A37BB9D8F29BD351E1C3BEA8336BCA58A573D0ACC6B3CB8A3F33CDBD60ABAC89BF5BB3F23353DEA1E893D538904
BC96DDBC3B5F99983D3DBA633D931B35BDE5942E3D757E3C3D3580963C7700C83C8CEE4EBCAE60B23CA54312BA30E801BD7574623C4CA0D93CCC4A843C9CFB843B91E5523C207C2DBDBC76273C68F0FD3C2E1524BD9137C5BDA0363C3C851615BCA71E04BBB12555BD48216FBB1FEA2DBCC754A9BC0A8A75BC5731393C2EA49A3DCEA92C3DB6B185BC6EB1D2BD84597E3C22B3D83DA8ECD2BD081824BB48B828BC058C26BD25959ABC7C6775BC12127D3C35D455BB6DDAFC3D6EB691BD8A36EABC890AC2BC243A3ABD15D07CBD00CCBDBCFA36E23CE4EEB33AB50ED0BCEB77AE3D052C1F3C32265C3D7D9A7FBCDA324BBC66EF61BDB641963D533132BC682E15B9AE1F813C97FD21BBC43C0ABC986AE0BDCA8D1C3DB09652BD381042BC45B2723D188DF3BE0301E3BCADCE99BD4436EE3D6D0137BD124CC2BADAB0A43BC068FBBA9ED9F4BE1DC98DBD908BF93CD52D14BE007B27BC3165373C181E843B99D24D3D0C9F93BBC9D8C1BD5537ADBBF6D7373C20492ABDFD3768BC8811703D06C546
3D3FE8E1BC3C524A3D48C008BC66FAB1BC2D89D53C15F349BBCB25B53A0FAD3A3D02F5B43CD40CA7BED790A23D2E9D62BC92BEF63D1A5C883C5668A63D144077BC42A1613CF6BEDB3D10007B3CDFFB0ABCD3616CBD03F5FFBBB9FE653C9F51803CA14A243D0928B0BD70F434BCAE3B7F3CCD553E3C377735BD3D338ABBCBF7603BB05FE4BC265B013C7C096FBCD3B7CC3C0BAC543C70AFC83C9BAD913C9484173C7270D33CAAF9073C0D67E6BBC221BABB5E593ABCFB1B44BC3C4A1C3CE6286DBCD8D9FB373680953CB8648B3CBEB4093CE1919A3C0DE125BC733E75BD1D7A43BCAA0F72BCA7905ABA7E4954BAF508633CE5F0F83B848F083CAA548B3B1679083D013EDE3C96B2D339F39A19BBB2726A3C80C9F9BCC4A799BCB6EA9DBC819B05BD3ADF583C71EE693D966AB33B2C5BE1BC154A1DB7DF872A3AC2E076BCAFB1F83C0ECBFA3D2DBC913DA42DA93C80B1C3BD98E0A8BB8A58703CDDF9DFBC9ED98C3C7C20E9BC0C7D1BBC37563DBCE570863CB2E7CD3C83031EBBE1E7A7BCBCBAE5
BBA3A1E8BD0A00F3BD5BF4973AE7B1D0BC8C34BCBE3E9A453AD7F48A3D1EA51D3C329EF03CC559E83C3AA6943B8C9DE63D368BADBB015497BD4827FA3D7F76C7BC3F035BBD5058BB3DC908443B425E3F3C81756BBD25D2F63DC399293BA9E1D13CE5F9A63BF956AC3D99D5FD3C6D382C3D956658BC8B6C653D1C75A4BD549994BDC175BABD61BDD43C0856A03D02DA003B196D5DBD3A2B273D2B7A373D6ABD6FBE2A36323D3EE9B23BD90F2EBC3A4EA13DA341EFBCEE767BBB93D71A3CE7C6B13CFCDAD53D423D923DCC7817BCCB3ED83D07AC06BD1911393C4A5952BA0C63313D197E233DA54C5CBD922E1936657AE83D5256623CCFE20C3D3781053CA6E9163CCED2283BA194823CF5085C3E3D99E4BC2A6688BCBB1A6E3CC8CE7DBC3998ED3CA5CF0E3D88319D3DEBA03D3AF836BABC3E20963DBE649FBB25E9E7BDFABC3F3C6518713B90C1B3391FC7CF3D4D95ACBD916E19BCEEFE5B3C6C47553D285546BD693C4BBD68EFFB3C2BA590BD96AA36BBA4E28EBD9A6351BD14C4503C268FEF
BD0E6E9B3B9250A13D2663163CD6901CBE331AEA3CD6E7D73BE1F1B03DD4A13A3D579C983C4C14CFBD119A72BD1739CEBD2C528E3CE11F60BD75DA74BD872977BAD73EAA3C1CDC24B9697B6C3D77478BBD7661D13D9CF3DF3CDE2C5DBD302F6EBDA24FAC3CECBBB8BCADB3FA3C64AF90BCCC8A06BCE7F8883D812E433D127169BCB46F633D800775BC7E9C933CE97C4B3D05013B3D2387EF3B7EE1143C8EB33BBCC416B63CA5856CBAE45032BC021A8EBE051D3BBB70114A3D39B7D2BD5845C43D441AB4BD2A1D6EBDB4FB8A3C785B6A3C809E553CFE0C203C31D1253D38C8723DD2C1FB3CFB145E3D0C5C543CCF0895BC9C6F1D3D93C6193C53C78A3C9185223D679D58BBD29F1D3D3F9C153D7ED312BC6726053D4266253DA15A91BC0BE5B8BC133D85BC8F6D0B3D4B44203C7694D03D8F437C3A0D5BFB3CF4B9FABCE8B64A3D317AAA3DD47B2EBCD394D3BC4B6633BD0D7339BD9199B53D6C9EF7BB41BD0EBC969BC7BB1CCF3E3D9F68343CAFE85ABCFAC2AEBC8CE6DD3D0F1550BD3505B0
3CF594E6BC975F9F3C91D7D33D21BA373D4FC55F3BB94995BCA2A445BD33B2FBBC6A8BFC3BA9A972BA853DDE3D8586223D16A40FBC9FFA343CE26D113CDC69CDBB049B923CD900773B9C50823D43E4733D6A56DABDA85B863CD5B7AABCA23256BAAB61863C66BAEA3D12E47ABC052A7BBCB1AB773C906A26BD40A557BB2FF403BCE972FFBC8DF83B3C842812BC9E5B33BD79A187BDB252FB3C59E89FBC9EEDAD3C2A2DA9B951BB7ABC9070593D358690BCB7E9BBBC0F79C7BD0C358C3DEB17F9BC9BB1BCBCB158113D62FB48BCAF185DBCCBF2C8BDF4C2CB3AB444EABD3E8A58BD806C073D8F50B4BCA25AB3BD3C7550BB9FC0B0BCEE68CD3B874138BC82AF263D3D784EBD9C22463D2A06CFBA823C11BC821CAC3D82600E3C0ED4923C91B248BB3001DC3CF254FF3D565D043D549B61BC390B223D17EE663D8EE16B3B7805813C4100223DAF5018BD6156A93C857A04BD13B3633DAD029F3D845943BDB7CE43BD5F99623B87673ABD7F7AE339382FCBB9E2C7F7399FA4C73C1690133C93A30D
BCCDFB123CA80F233D8BD19FBC3F56A63E17C9A93A3E2FAEBA9CCABE3D3AECA93D0826923C4365E3BCF13648BD3A7D92BC07BDB63B455C183C060CB03C17A14FBBBCBC633AFAF1833CDC74903C8BDA383D046396BC055E3F3C36A05ABC648A51BD02AAC9BD3446DCBCAF4E8EBB8D1784BCEBC50A3CBE6E793D22D4FFBD56D651BC97A32B3DD21FD23BE14AC43BE5BF34BAE63D09393D29C83CAD36DDBD2674253BB95D71BC85567DBD1C0A8B3B2E82CEBCE3451F3B2F1450BCDCBB89BBFEECC33B2C7EE8BCD11E4FBD213AADBCA881B3BCEA2ABEBCD34D703D63DE97BCD4D41E3D586BAEBCFC70313DAED6C53CF9CDC63CC343333B58D9BBBD1458E43CF49F92BD34CB65BC714DB23D88B6CE3C828350BBDCAFA03C00138FBD5B13BF3D4726C3BB99DD1F3BC559EA3CE6A53C3B3BB5433C5364413D0EBF0EBD4157503C92729ABB5E5212BB925234BC162F643BD7AC863CF5E7C3BCC32076BA3262CFBCC9750D3D27DDE63CB626F1BCC8F9F2BD3CAC06BC128B2B3BF814E43D820891BD29E4FE
BD510B8CBCC2F098BAA767533CCBA4173D3D5A6F3CD07D323D4BFB703D8A596D3DC2B714BBADDD6B3D8399E0BD020B013C7F9F47BBE8232C3C1FC0883AACB773BD4894B3BDA90EE2BCFA183BBCA93FEC3D6773B43CD7472A3BAF2EB63D6834383C8C9912BD992702BBB3C4C1BC8104F13C4D8B58BB70CF34BD4BBCC6BC110D173D569C713CA897E8BCC8ABA5BB41475E39D80CDB3CEA06EC3CE122B23BB047833DE0DCF6BC8CD752BCED6BEDBD1500793C9C7143BC8D65763CCD1FF83CBCF56A3C6C47E53D3F3F39BC872E3A3CA9B0DC3A3B25833D19B5023CEFEDDC3D1939293D3F51EABD104AE6BCAB2F3B3C6337CDBD85707F3D447F403A079E61BD0F29BB3D8460AA3B0701993B9876703D3FE1D4BD61E66A3D64434F3D2D104FBCCF07A13D0D0348BC8817C2BD0E2B683BFCABC2BC9C66CA3CC52B523D7C30533C7C2F0DBC3DC3D53E1595D6BB526E8A3B862D6C3C8218BABD110A0ABD18BC433A911CEEBC3C6973BD067F1B3B9C1A78BCADA8683AE9A239BCC2E104BC17357E3B857ADB
3C04348EBD1EEE4CBB314B40BD16B907BC2B9319BCE7B4C03D0E273EBD0DB085BCAE1C0ABAE4D4C7BC3F6A21BCD07B1E3B854CF1BC38F12E3DB52F72BD133D2DBCD2AE5D3D98B278B7B16A6DBC490ADF3D6990323CAA17D43D2B4CE23D8D54973C878F393CF11130BC1D45DFBBEFAF793D2545943CFA0ED43C9754CEBD70528B3C7E52CCBCD796A03BA4934EBBD37AA73BD4ED123A5DAB813D3FB7AB3D0480B63D455C573B33E3673D1FF6FC3D1CAB8F3D2FACE43CF303C6BD5CA7953B853FF8BCDADDEC3D5C6E983D64B96ABC749E69BCD59C6E3D21C7763CBCCB98BC42E41A3B5D2E45BDE9AE8C3C95AF9ABBE764BF3D8509743CD585E83CA65643BC1CF1C5BC0AD6C7BC56BFB4BD0156223E07C9023C884F61BD0E36543CE56264BA0341C63C20A86BBD6403E43B833F683D0BA560BB4E60793D82913A3D318AB43D5A8E54BB106065BD305BBB3DE481BE3C2A40ED3C5A79783BF49B04BCEA88E33C29AF0DBD19F88EBD6A62303CAA855EBBBF6447BC8BF18F3DCFD7A23CB8F1AB3D04A81A
BCC56A61BC2B0112BD12B0273DAB1A5DBDD0BED2BC87E9BB3D8AD49EBBF6233EBCEBE7CB3B01B63D3C548E3C3C0972C8BD1B0F473D22EEB53C37EBF6BC4FCBD73DC406F8BD9251EA3CD362A0BC9756C2BD9CA83E3B6D07E23D3B51453D0E7269BB5FB2EC3BD301DF3BD7078EBB730233BD39918DBCFAB4B03C7AC9B93ABFD5DABC97D79FBD83D76ABC8ED5423BCAE110BB04850FBCD0B5E13C91A32D3C622A913C51A638BCD9FA4F3B8E69E9BC949FF9BC1DFAE83BA8328B3D0EC9F8BC849E99BC3634333C754330BD94E383BD00AE453DB8BF383D01DB8EBCC2841C3D0FE5AD3D360262BD5F8E55BCA572D83DAF6495BC32A5823DB48FBB3D3205443D1B9B80BC861AFFBCD1DA103D41B6F6BC831874BD71DD593CCB5E8E3D5BA5543CDA34BCBCD71C65BC186FD3BD0354A03CE18FD3BCCEB6CC3C7152103D63EF443BB45C67BC7FB1BCBE123949BC871E21BCF54B23BD297433BD67C709BC899AE63C223207BC91CC36BC6FA465BC1845A43CCC049ABCE998B8BD6CABF93C60AF2ABD67E589
3C0EBC31BC51987E3D1136C33B8A7D54BD2463F23C9864793CC781E2BD615047BD0223B1BCDCD3FA3CC069E13D4BE4923CB0C035BCB1BC34BC8477C0BCD1B3113D0D368CBD0DD98AB8DAB5FB3C9C3C10BC453F3FBD5CA4D7BD2820CB39812CEBBC3F97FABC552C1DBD3D2542BC2E0F16BCE3B5103C6BD0DBBA22A435BCB8302C3DA7964DBCE8F13EBBB57DD3BD6242DCBBBBBD61BC5F6854BAF293A5BC383B193CE21BDFBB1225F0BC984353BC6CDE9CBDBD3159BBC9D5A43ABA53FDBCEF5887BD11BC44BD60472FBD99AB9BBC69E9FDBC453817BBB4D0AA3C16F4EBBB3F3FB1BB89CE75BCAC165A3CDFF31D3BC655ABBC6C00D8BAC2CEBF3C3A8ACDBCF5E6C1BD84A5BD3D320A30BD0C99543C1B21853C5295523CAEC3B5BDB1282C3C77B5E03D04540E3BF83FBEBCC46EEDBCFC78AA3D766D73BD69F2F6BD91A5AB3D72CED83C7785A33D90D4E6BCD7EA773C620474BCBC46233C435EFABDAAF6E4BC5FFE2638D2E2BCBC19474BBD6B6AF4BCB7FF8ABCDBBF5A3B4A7DECBC1931C0BD444890
3CAFB1C7BC5571E3BC629284BC592B41BD820F7B3B6D0B7C3B88D768BBBAB102BC3C89B53C4C8779BB3F66BDBC1095AD3C53B4D63AE138BEBCA7426ABCA1ADDABB9DD7E7BC6D18213A5972ABBD1572D63AA6C8C0BC54BEF03C8775F4B8132014BB393E66BCCF0E333C9AB460BB1374A7BC155F79BBEAA853BC5038ADBC426E7FBCCE65CBBCCA6EAE3B201C713C9A0D52BC4DFFEF3C919CC53C1ADB8A3B79846B3BD07E1CB96B8256BC1B336B3CBA0B8DBC2C341D3C268341BC596237BC714251BCAEC444BB15A0D3BBB9B5BDBC601C053C0AF20DBCEAC0503983DFEE3BDE21953C5D4CBD3AC748AFBC913E6BBA5AE108BB3C334A3C232C7B3BCC90363BDA083F3BFC99993C6E3CCFBD02AEDF3C9CA1A63BBA737BBBF9E35FBC4A81703B4BFB50BC400F5DBB43BA33BC5C7DBF3C5199463D613D57BC2AC74B3C71B6043C7652F7BBCBD2413D83D08DBC91BE603AE4BCD93C70C189BC21CB973B45F6CD3CE0BD25BC990AAABC02AF19BC255434BBC07970BBBF9F8BB9A0B78F3CEE0FD33BD6DBC4
3C78EBC7BCBA9B3CBCC37074BB89B112BD394B603D9294DE3CE868563E02C0B83BE42F39BC5478AF3CA72B333CD8262F3CBF4D47BA0AEEECBCA841AE3D076CFC3C449485BDBEC6033D31B9173C21876BBD9E1899BDA232413D848FD0BDC53928BD4E0485BD84B1F23E00170DBC56F74BBD86033ABD75D5453D40FFEA3C4975D73C8BCEB23D50BA033CAF96783DA1C520BBFD40ADBCBF1666BCFE62683CD36392BC50906F3AFB009D3CB95F123C4C6ABEBD25F02D3D37A4953A98ED09BC6075633D8E9DE23D9B16303D9205723CBF8A623D439128BCBE4325BCBDA246BD552E22BDA40CAB3D5705B13D048B20BD4CC708BC6ACABC3D7C3E1E3DA0D4FEBD11F67B3D2D6BCCBD3D060DBD36E3223B72943A3C65895BBDC0023EBA83029E3CE4475CBD851B18BD8854E8BC907DECBC97DDE93D3EAAEBBD7316683AE595F8BCA17CCBBCBBF849BDC256DA3D46D9133D0809C43D5934DFBCBE549ABCDFBD073CCA7A733D4CAE603B8C9F683D969352BC313407BB4D68003D4FF4073DA555FC3C95DACC
BCDE7EF7BA103BF73C89CD9A3CA035D43C270F8E3C183FD0BC23C91F3D204377BC7C0DF3BD1DC763BC509F3B3D470679BC5268BD3C1312763C5090D13CCA8FBA3B6FDFC7BC8F0914BD1723623C0654203C2AD353BC00513EBB4649673C3102A3BC76787D3C8E6C8DBBE393A3383D79DABC36BB683C5BA5C1BC37A090BB80BB823C0FB0A03C00D188BB9B9DF23D2D1577B9E8C7F5BA842EA33C0BA8BA3AA0368B3BBC1C253C171CF53C3F420D3C9A1C35BB94DDC43C896DBDBC432318BB41D7203C5813D03C18E3943C6FD36B3B166F99BC6278D23C0745203B39CFC6BBA5F9823CC006FFBC8306DA3CB06E3BBC8DAC833C68220EBD9AEF28BAB4C1CF3AE909E9BD80D879BC71F70E3BF9513ABB83E680BD100ECC3D923F6ABD8EC0BFBC45763ABD1BAD27BBBF6000BCFB4F613C0072B2BCAC3E9ABB98E4623C2E15BF3BC053033B24F73FBD8C56BF3C0CD0E13A8BEB1DBDD6DB353CE3652C3D393A7BB942BF303A92F2BF3B1577CBB969F452BC6C491CBC0091943C6FD8853D08A6A8BB5DA0D5
BC7C476D3BBDEC5BBB8881D7BCE8ED6F3DA428923D29D40BBD081915BCAE9F153C1037093CB2CAE6BD0177F93D288FE73CCC19CE3C90195C3C969C6BBBFB8C213C192D6A3D5744F1BD39D0AFBB6D77F9BD9A4D0B3CD0AF57BBD048DEBCEDEDDA3CD3547ABD914C4B3CB26B37BCB02706BC2D6BE93D1263E33C845AD9BBA4ECA43DD96AB03C6140973CF189183B027C6FBB05DFEDBC80BA7C3DA9D3793D015E26BCCCBD4B3D0EB26F3C5C2E503C160AB23BEDB5083D8BA41F3CF410E0BCFFF66EBD0FAC19BD363ADC3D78B0B93B2C56193CB7A362BD17F77ABA88E06FBC09F7793C9E8E8C3E0537E33C0288853D9A5650BC178851BCE30663BCBAF293BD8B19713D23C2F5BD1E5A593DD8686CBC64150BBD4E62683DB8F551BC28B8B0BC0198813C730577BCB88F263B3067D53C517704BDAC2AAF3C4915293DBE17D5BBC999BF3B95E04E3DF115093D912F2D3D1706303D1AA9E63D6066523CFC2E26BB97F31BBC95BF733B01D2503D0AA544BCF2829C3CFC7FBCBDE662AFBD3A98AC3CBD9256
3C3D98A3BCC6B1853D296B09BD6A7F96BC11B6153DA89781BCE3BCAC3D0D9AA1BCE6EDB83B8A494FBCA38F61BD08AAAE3CE922A03D03715CBCF43E5DBD8868F6BD8077403D1A0B813D85A4D33D590948BCECFAA3BCA45FF4BCCDB53FBD5716F1BCAF25F5BD156DD6BCAE8C1EBCEFC52FBCFBEEC83B8CC99BBC45D1873C50E156BD59CF46BDCFC0DCBC53DCF3BD93FC703C071CAEBD49E7443ADFEE393B8F574D3B8032EABC4E34233D2330CB3CBA6D463C2AC99FB999B357BC17E931BBCA7FEFBC52EF7CBAD41039BCE0EE71BB65451B3D1BBC65BC9997433C9071393B550C7CBD40B6E7BD3F2AE63D1F548FBC11746DBCB21DA73CDA8DDCBD27A1FBBBA1A6EE3D03B3B9BD28F86BBBE759EE3CBC43D3BD22DACCBCD92FDF3CC7B93EBC9025D3BD2007333CD073E13C3007243D144B2E3DA77A43BCBD02D7BCD91F4B3CBFE5263B9BE9B13DFA9900BD06CDDABA9707373CB1BA4D3D7644F8BD4E9D843C9052E33CFB61293C02FA83BB5392AE3B54C378BD3E772F3CD44636BD2D4DF23D3FAC5C
3C1E9655BD383FE73D33E8B43B54470E3BDA2AB5BC7B6755BD5D524CBAB13490389D6B6ABB3F5A563D2416E43CD340DDBD0BD3363B860F8BBD265EAEBB35E3323C9F96A33BAA8574BCAC1F90BDDA1D0F3CEEB3A83CE4A4E03D081B7FBD3568573C0A38053A8D088B3D0254C73C0E69823C31CBB8BB69C9FEBC8E4B1CBD8298093DBD7FB9BCD005DF3BED73B2BD2F1DD5BC9ED115BCD63FE9BA8D7756BC6750EABCD4210EBCDFF8C73CDBBA563C0155043C37ADAF3D3EB530BD2983173C27E992BC96C39FBC92AEEDBD28313DBD72585BBD7875DABD9851C2BAFA9FC13D2976613DA38DAFBD31385E3CABFEA73C6C536ABD508541BC281D3F3CE597243C4EF0CFBCBF0380BC9CC034BC3715E43D1BB810BD39DF30BA3754583CAFED08BCD431453C996BD7BC7FF8C23B92B7DA3C71F43EBD89E61B3E0B561B3D6885DD3D361F6C3C408FBB3D1EC3E3BD4160B6BD1857F63CE2D5263D27D9E83D1B5F71BB410FA3BCFB8263BCED0E4EBC21D0BCBB447352BCBF588F39DB49973CA418BB3C071B62
3AEBBDC3BBC630BD3C595B47BBB3C5CEBD52E8B5BB0A81693A283771BB39A6FB3C09476EBC462DFBBBCF67273C5720083C9560AF3B983B613C29AF4ABDA25187BC1B7F193D43F846BA27CAD33C1D61483C62FA62BBFAAD1F3B6D6D1C3B8736D03B809CD63B8D8067BC481386BC3AE961BBFCC9933B21AB6DBC197982BA9BE9F63C21C347BC51C408BA5D3C15BBA90D87BB9F791D3C46BC59BB67B5863BBB55173C1F581CBD4884C23BC765763C46D64E3BE77EBBBAE401D93C9D114CBC05A007BB97ED0F3C794502BC0E091B3A45309FBBA984A43B759780BA7F2B47BD3E9F673C4E1768BC0822393CAAFA98BCAD5C24BCC7A4A5BC7A01B33B8912D2BC5C9B603C3079623BE939F83C16C55A3B28710E3B504A0B3A38F3963D51DDBFBC380BBB37CD85BABCB16574BBC713BEBA5D739FBBAE2C2ABB8F71FDBC8168B73BB6041F3BF3C53CBD4D6496BC949651BC8A88393C256D2F3D07F9A6BD5E978BB80EDE1CB9A65E6EBB89CBB6BC23B2C1BC86618F3ADC11553C8D16E83B529C2F3B40CADA
3D62F9E43BA258D2BCA14EF4BCA3BC6E3C4EDBECBCB11F423C4FF295BC84A1593D49124A3D0251D9BC0FBD56BB17707DBCC3EE63BB98F405BCC846E0BB930DC13AA0FC983C98A326BC6EB73E3E2CA0123DEDC443BB7017513E055F983D6AC0D53C07C8F73D1674A63D3CEA813CC023BBBB64365ABCA7F2FA3D4892C8BC6297BFBE14F869BC289ED33BA37581BD13DF81BD0002F53CC91080B996FAA4BC9CA440BC78CF6C3CE9A75FBBD21C3F3B48D63E398B881E3C6C88AA3CB7088A3C8F385D3D5DDE5C3CDB7D483D2A5A8BBC96E2263B84315B3D8864313BD721A8BD75743ABE06F3613C7974F93C36226D3B8E915D3DA64BA8BC691654BD07CF6E3C862F0FBD527B6C3D2AAEB7BD16F560BCF9B0A73E3EFA68BE0070C23CE1B3923C194CFBBD671B27BDA67A093BC00B643D598CD53B5104CABBEA923F3CB24E42BC0102433D7B219FBD539AECBBDEE910BC35AFFFBCF791BEBC2BE92ABC087CDBBD5072643C93D5773CC4654B3CB2010CBC0EE3A4BC457E533E4A0B833D15CC49BBC0FA6C
3BFDE196BCAFDA8B3C965EE83CC00F733DE17D5CBCDBB75EBC9DD5D6BD47A35A3BF60A36BD1FD7C3BC3CA766BC6B41AEBD2FB7E23BD6AB363D4211F13C8BCC783D320195BD74ECA93D8872B43C068CD83D9AB136BC962B483B54405E3C41D7BEBBA71BE7BD473BA3BBCC3D1DBCC5DA67BCBFAB39BC99CA84BBA237DEBCD4D2DEBD78EE3DBC3D2513BCF74E1BBCDA42F4BDE88F92BD31BC66BC97291D3B0AB69F3A8A0F533CF1134BBBC8039C3D5E1F48BC74EC82BC0855AEBBD49B97BC9B62A9BCD040463D9B9856BCF74ED43CD1515DBB078D0B3CE1B513BBFB17E63DA37CDFBCA16254BCEDDA79BB86043A3D4A20EC3DA3D7363BE448BFBD1DA34F3AF1685CBBD6CA283C9DBB333DEE71563C5F6F73BCB2D6F63C71FD4BBB7462A4BD800FDFBD6104D33B8153243C94BB6E3CB36D20BDBD606FBC2715AB3C13A9ECBBEF9754BD52D814BD708680BD2A5F843BBB9EC43C0BF03CBC32817F3A0A9FC0BDCCD02ABCEEF9DF3C7B1C503BA8723B3CC853BEBD25AF4C3D971CF13CA16B083C97C399
BDC3C9D83B017A513CDD5C14BD3265893DA4BE3D3D24DEA13D2D33463DB1A562BCC421C53CA28CB5BA8DE256BCF16FFC3D0C641B3C48D6BB3D8F8613BBC251A33D41AB093C929BCBBCD742943C722CC0BC76E3FCBBFAE4ED3CD59FD63B21DEA23D67DE463C8101363DC41A413D591DBA3C01DF063CC3726EBD071C98BC9440343C32DCA3BD2478473CE1E7113CD34E99BCD54E613CB570F43D517BC3BD63A5BF3CAD027BBDBE6F65BD0C59603D9AB5E93D44F1463D5153C6BD0B55803AA23717BCCE33FDBD08A7563D3D1439BD75AA9C3C7BB8923D145522BB9AD027BC971C033C4356863D7A11B13D3127A13ABCD9953BE1F2333C8A488FB9717AB7BD969E7C3D33094B3CEE84A93D33D8313CDE0F94BBB1BC8B3C9A5D2A3C18CA3EBD3D034CBD02524DBCDD35C0BCFD0F253CCE7193BD41AC2FBE04B0923B0BBA62BC3804F4BCD1F432BDDAEB7BBD84432ABCFCCD083D6E2A8A3D3C652F3D627F14BD77A3CBBD99208E3D3FB84A3CA3490A3BF7E7433D5BA52A3DA1EF14BC88C0A53D7D7BD0
3CF9A0C0BB981FC7BC7BC95EBBB88D9D3D447503BC54AA5FB909789E3B242C2FBD147BDDBC6C94A4BB4B865D3D3C032C3B9994FE3B783824BD7DF93BBBFCD9683C42A566BCFE84C13BC12198BCA09381BD2D16CF3D0BDA28BCB0AC2BBCDCEB8FBB7BA399BC26474E3CA7C7133CA8AF7B3C271968BB8383493CADCBB8BB0C9080BC45B8863C1926A43C820A303B983A1B3C931CCFBC0475A9BCA7AE9CBBF4D74BBC320DC2BD01E6C9BCD5EA81BD153091BB97274EBCF5D85DBCEE1C59BC9CCEF23D0AC95E3C8FB5C63B00D16DBBA44A90BBC6CF7CBC3B6093BCAB032F3B4C8B483CF16454BD9CF2603BC4ADB1BCC4B70EBCF89CA9BBE1B5CE3D36041E3B9E1154BCDA8A8CBA6A53AFBD254F823C6D2CD23D20FBD9BD0A4FAEBD1AC7BC3C85C9473D4759E0BC35D6873CCC710A3D389E743CE82727BC5B12B33C904DD53CDC1E673C0C1F15BD7816B63BAD810D3AAADD7B399E9BBABD409675BD02F5863D7CDC28BD5A5D533BFE678BBC0962CDBC0C4083BB7A30853C58165F3BCD6795BD395645
BCF3ACF5BAD5BA42BC8721ADBBF07BC43C2623BCBD4B5D183D2B88363D92390D3C9B2136BBAC6B61BBD284293D7D83D73A5754E93C7FA99A3AFA0F42BD0CD4BABB903A733D3449C13C90D6F3BD3ABE63BB92A86BBD1AEB513CBD1EF83DF95A963CCA12FDBCEBFCE5BD308DC7BD65F7453CD20EBABC8240BE3D9C10B73C2FA6853D83AA293CC5A672BCB9858ABD1C57A6BD7700AABC0C04053D446B28BD5A8423BC9029B3BCCF74E4BB956CEA3C76B701BD270750BD785A09BCA77708BD3AC035BCDB99FFBC9805C63D3EEC3E3BAC842BBCBE436ABD21BB9CBD0F269E3D2CABB33D1D3254BBAA4D083D0B8F8CBD6B31ABBCBC243FBD9872EF3B087446BCB54D08BD00119ABCA6CFB33DA50931BCAB88F7BD6255173CEE9BC6BDA501753ABFDA45BC6DE1CB3D2EB137BBC170CFBC94B3B43BEF1A4FBC399D6EB9906225BC099C88BA372D8FBD0362C4BD5AAEE2BD062D47BD6096B13D7093323D791EC6BD5AC333BD0F11E53CFB7F2BBCBCDE7A3D63457C3C93EC72BDA6AFB23C8D0E623C693885
3CD0FD063C4D9AD83CB62E283DB6DF64BBDC20F9BBBD2FDB3BADE7663D69A9393AFBC714BD422131BC0BF333BD302F28BBFAD81A3CD6E9D93C3F289FBAF16FFDBCFABB943C565BA53D858DAEBD0DE2EBBD474A963CEFCF6B3C807D2CBB6F2793BCEEDAAF3D341E50BBC9CB81BC803CEABD634F7C3C828331BCEC53C93C4D52153D37A4F83D29B6283C842997BD68FB703D5B52A5BC94BE06BB498BCABCB05F5B3C8878CF3C6ACD96BA786A55BD5DA3003C140E943C4120AB3C8A01F5BC3F68FF3B7320F63D226F3A3D2A6A963C6014463BAE60CE3D90E8413CA54C013B2D3E093C9462A7BC3C93E0BC3C49113BA3763A3C67D8493CEB6F7FBB922DDEBB7431393C16D6ECBD26C81C3D6987C8BC955861BC9008C13DB64533BAEBF0D53C87C5E23B98B588BBC83820BCB9CEB3BC9EC851BB5319CABD169D12BD754EECBA134216BD4771D03E1202C03D78FB713C7BAFB8BCABC165BD1CDAE0BD1F858A3C7CBD683DF5A10F3C8AFF433C67836DBD0B14D93CC9FD8EBA193B80BD2F5245BC963B4D
3C368EF5BCAFF7C73C1211B83D14841CBDB36E55BD6BB02CBC663A1ABCEFC91B3D1135FABC69852A3C196462BBEC3C743CFAFA193C3348C63BF2238EBC18F7613C8DCD8F3ADE7CD13C1C4E453BDFA953BD2B5E7ABCE7F4F43C2EFB043D8A80A33CB9A5503DA543CA3A97F5353CE97A49BCA264E83C8E1D513BB109B93D4368EB3B0AC0F73D0A1D9ABB9D10A8BC92A4AB3C49DDB7BC489011BC62DB5B3BAB3EC1BC5BECBEBCB7579EBD19B0C4BCA92300BB94C00BBE0CF8343D95AAECBBCC7726BD61F032BC864C25BD8B1066B9FAB6BCBD69A40A3C931ED3BC6FB26B3D602CD43B893C0ABC8A662ABD4192E6BC8BF3BEBB8FB9F2BCE2FEA43CD045383CB448E0BD5A75A4BD5CE49A3D8BC97D3D03CD1D3D657952BDC30A433C1B98D6BD326B293D1243513D56CE123DCA7D06BC83D19DBD297F863B44916BBCF498D5BD8A2AFE3BB7508C3C8361213CEB83253C413279BBEBF078379050DD3C16F61FBCE5A057BCB4DFCCBCA57C3BBD1C6097BD267E573C365B683AA48AD2BB2C983CBC0D9521
BD3C499E3CBC6DF13D83E5F6BCC448323C8374F6BCD4EFED3D8F66753C99B3253BCC2CCABCB7F9AD3C38D164BC157017BDB2B53ABCEB84FB3CE7E09D3CA78FA63D21D4163C56896F3AD4BB26BD355CFDBB1F1BDC3CFE0FABBC4859753DF69B7FBC8725A73B45D9EDBC287AF43BDA5492BC9AC521BD4ECB0D3C0EF4DB3C9FF20C3A9411F1BCB675D9BC7333D3BD1BF5803D984EE4BC551BB0BB69FABCBCEB3C52BD1F1D42BD1583EF3B361574BC021B32BB8119E03CA31FD2BD1D9ADE3DB4FC093CE1E591BBEBC38FBCDFD931BCA28B353B38D5F4BD519591BC646519BD110109BC86EC623C0F603ABC0B1A183B7F93AB3D7AEA3F3CE6E2CFBC6AD575BCE487D7BC1EE9F8BD4EC4A13CFA36643C2C80053D211B3A3D85CD8FBD393CF5BD0EBF10BD9A7C96BAA2AEF3BBD51BA53D757C2F3D0B7F5D3D2DB3F93D1B722D3C7E8AF6BC342973BE473E0ABD581E3A3D1EC4993C9958CE3B6F6F6F3B718633BD5B7763BB4DA218BC54235CBBCE1E18BCA861ACBC14EE2A3DB22B753D2DCAFCBB4423B4
3C2A7A523C9362213D01BFD8BB8230ACBC8B0702BD3915403BE580D6BC88F5C0BCF0FA7DBBAC0C523D0043103CCA97E5BCE03ABC3BBED7E6BCEDA9023DC2A1E4BD88E6593E0AF5C03C12858A3CE73D9C3C93B9EA3CFF16173CD30F2E3D5D92D03CB0FC3C3CCC07AE3C62999C3C25DD0ABC483231BB7B7BF23D9F20303D2E914BBD61A37D3AA8F6583C11EFFCBD35932E3B980D403CA6A3143BFC9A23BCD4B24F3C86636B3D6468203C8876ECBCF03F4ABCDF618E3CA9AE263B73909A3D4088C23D199D3FBD03D4DCBC3DE15CBC9C4234BC4F1A8BBCD8089EBC8F6147BDB0AA32BD383CC7BD2832CBBD3603A1BD48C6FDBB9451B13C6A7785BC36862C3D54F7543BDB5B7A3C093DA9BB188BE93C38049B3D0D92B5BD6FAC973DAE8E31BC01DDE03D3ACEFEBC5FB0F03C5978CDBD23B924BC292074BD2C0FB03D5BADCFBD1C11FBBB2477653B85FFB7BC743320BDC2215DBD3113683A6A78A9BC5882F03DB559EA3BEE1CE53C8C9EA43D4181EBBB03ADA03C7546DD3D967C6C3DAC8612BB8FB301
3CE0A6E7BBCB48B43B9EF6F83A7BC0F73D00D74D3D9A2B263D97E814BD8AA6913AAFF65BBD239C66BCB3DC2D3B1A1559BC45A63D3CB27614BD5BEE36BC4000043DBD3239BD9EBB513BDDF3FF3D554FB83C139528BB0372B3BCB6A7383CEEF4DCBCB5FA383CDE0DAD39A1E9E3BCD2C033BBA6F4EDBD5B2F8CBD1E64733D656E79BE10546139A3BCDF3CAFC5EFBCA16F26BCADD27ABC7FD9FCBC9A19B73B1D2FC53D475ECF3CC6B48D3B971ABD3D98004CBD66A7073D521E5A3B16FE7A3D2FBD3FBD03CE3ABD19812FBD09620E3B8965E63CEC3C703D226EF7BCD719473DB8C56ABC2ECA293CB7FA4F3D2CFB483C06C88FBA962D813B9F6CEC3C00B285BC41919B3C92CB213D334EB13D46FBBC3C8FA78B3BFDF98A3CA4FA54BD921B053D9D9680BB903021BD5D5334BD635EF5BD82608DBDAC1F6BBE1A0D7BBD0B56483D70ED2CBD051714BE05D904BC86FE5B3DC6E32BBBC060F13CDC8656BD2D4599BC3F12713D5B510D3C36BA5BBC231847BC85DC6CBC93E7F53DAAAFA53C350B2CBD09FB9B
BC0A91CE3A3D8CB6BD2DCDB83CC2F842BD393CE8BC2F7A38BC147016BC7E93DEBA84296C3CCE2A0A3CBE233EBA88B05F3D5E5F303C59129B3DADC07E3D971D553BA1F918BCE43A483D0FFDF0BD9C483B3CCF49573D517CA0BCA5C19B3D46449A3C358FE13C184F6ABB5546443D6EA4BD3B9C26413D16AA5FBD71E3F1BD4487B7BB88C1A53DABB78F3D1D8610BC85AD7DBD3BF04F3C33C5C0BB9CBC4FBCD48246BC968B56BC96FCEBBD1514FDBD2DFA863D4AD0153CF16C3E3CE41FA9BBC545B0BD07EDC2BC21C4BC3DC309A33CB01666BDBA43A63BFA1C393C4DF5C03CA37207BC3BC2F1BB4F19243C945AB7BBB0C9DD3CE7703A3D5C3014BA514FDB3D1F73DE3CC73224BD49CBF93BA838073C76FD0FBCEAE38EBD47A03B3D124FD3BCBB064A3D5DF056BC7F8961BC7F50583D8B04CB3DACAFEF3D2B77423D405B0CBD07E485BC89F4B1BDAAB1FC3C822ADDBD83901A3C953F4BBD1E5A7BBC2342A1BCBE0B8D3D951C223AEA74F13C24140BBC1226F93C3D20E53C55087D3C9034513CED7946
3D335A593CED3DBEBB4EFD323CBF309CBC3FD1D2BD332C6BBD077104BCC0DFE5BC99D0E33C3724DFBC287237BC7E58883A27A4043C03676FBC81BA5EBD46D43FBCBA502D3CB093D7BB1F916D3CEC2D74BBA45022BC5F7CC5BC7F1376BC86745E3C1E4C0EBC5B23BBBD21E4EA3AEC5783BCEDC77B3D24F990BBDDEC823ACFE4B33D2F8C683C86DF45BC8B01E8BCA104EC3C38F484BC5ACBE63CB2DAF8BCA56CAE3CAA3A513D8E80FF3C6639F0BD405D17BCD2B02BBD348C5D3B7BE6C5B9974FAE3A67E0FE3BA0EA623C4FB8193BA9526A3B90A7CC3D28B105BCAB1E50BD599CFBBCB431BF3D1E506DBCCC6E52BBD91C2E39A4F8B5BBDA7FE2BC4A2F42BCCF87183C4BD23A3C743035BCD5BC5DBC539293BDADF2B73C908301BCBFF9C9BBED62073CF4F2F63D61CAF13C0439C8BAD008F1BB21BD14BDA8A9183D1DDDB43C558EC93A532A2936A37423BCA9B9A9BCD081B6BC1EB634BC28070FBCF72A253C3CC34D3D32B6A33CBE6C24BCD29DEF3C35F3BC3CEE6DB8BD21188C3B494CC23AD7847A
3CCBA6503BA0BBB13BF5D366BC8920E43CE82D77BA9102333A1F33E93B1625803CAFBDA83C3402283C88CCDCBB8FDCA3B881D0CB3C896596BC01B7FC3C3BC0203BE4800EBCFA0B3CBBF8784DBBAF571E3C87259EBA58164D3B02D1B5BB7491EB3B84A45CBBAA5A8D3C75A8F1BBA8DB04BA945ADABBB8B1923AEF49E43A915099BBD392753BC8D36C3C3E56553B39FBEA3B2F1EA0BC8285AB3B5F1079BAD60AADBB0E6CB63A53FB93BB448447BAF0FE82BC83A93BBC078EE13C17822E3B36297BBB8332B1BCBE304EBC5058433A073C00BB0EF5253C261B9C3BF28FA33C1A557A3AA429253C4DC44C3BB0B4F7BC4E3D163CB691ECBC6BCE28BC5A37403C4CD717BCF4E7BA3CDB2B823B767A50BB16948EBBD793993C710799BCF9B5E4BC8DBBE13CD4AB963C3AE7373C0F85A23ACB71BABC1DB3463BD219C1BB2736763C49463D3B725D9DBDD7F8CA3BEB8AAABCA299D23B982868BC840F283C3C43FE3B667D28BBDA90853BE851DBBC966122BBDE38D3BBEFCBAFBC21509B3BB8B4BBBA2B6DD4
BB12540F3D0C52C3BC18F786BCD26EC53DFC653D3D0F53613D4C992A3C29B8DA3C6DFD7ABD44FF223C13B109BCDADB2EBC3B67E5BB8886CFBB4F3676BC88378CBCA967BDBD1AD1A43D73D61CBE08A679BD18555C3CE45D35BD5C6C2C3D433B9C3CEF60A83D0B6FFDBD0F25B93D1A4DA3BD52666DBC8AE3A2BC37DC31BB9114B8BD9467963C28E1493CA7EEC03C810AB3BB0741C43C494685BCD92232BD88A6F1BC79BC373CA7C3523C855B2CBCB9514D3C5F07433D280971BCC713A7BB7214683C82C377BCE2C93A3BEC34F2BD6E391DBCC0EA963CD0A9543A70D769BCE2DB1D3D4F08D83CD320943C92DA0C3D1E842D3CA121FC3DEFF2FE3D519E52BD8C25523D5164EB3D2E691A3C79CB1F3C9F89B43DD6AC3EBD2CF8753D13212DBC1D3B273C89149FBC383B5CBC1D3917BD420F76BC3AF976BD7EE643BD56DD54BD5ADF3DBCCDC3783BC54CB83D1F5C153D1888F9BD5635DC3C0A3FA93D363AD53C5425283C9450BE3D09B0443DA676EFBD073063BCCF610DBCE4BD38BC24DA7CBCE6F60C
3AED017ABBEEFEFCBD167FA7BD1E97E93D173B1BBCD66A543D6776EC3CF29B50BB574A0D39E08EF7BD6AD89F3D93EF633D1AFFAA3C8F33E43D09C218BC694744BCF2C9913AD854FF3C9FE8013CCBB0E13D21BEF8BD0AF7033BE4F626BBB68785BBAE5FB8BCEAA8E4BCE0761ABB200200BD1F0695BD2F57C53D3990893CE5DEACBCFC10E1BD0B2CE9BC67CAAFBCDD0BB3BD023B973C00F0FCBBC1D4D33C7E37E33C8CFF63BB82F39A3D4DB54D3D4C74813B9C78503A05FFB9BC0989163BFFCB783C346A79BB4F10873C84959CBCA71F093CCFBE1C3D7B466CBD4D44893D4C4C743CDDBD4C3D409284BC7BBE773C656684BCDF20B4BCC8EDF9BAFAC0143D6ECABBBCE250133CFD254F3DD51AFC3D483C1D3DA7D4233C9818BFBD226DD13C7E2CC83C330EC8BAE6909E3D21D2B7BC60C95FBD6BA8C0BD54F4CD3CD20D863CE48FA5BC28A4FCBD2FDB543D062B82BCBE5ED93A80554ABCB0FC8C3D49A033BD22645DBD8904D73933B20F3CE44B3E3D7749B4BC223D8EBD5887EEBC341F623CC74379
BC8A9B8DBCE89DB53CD5B556BBCFFAB0BD3D4D47BD0C76183CB8E1EB3D9DCE9EBD4CFC8E3CEBD4683CB94AEDBC5D29D7BCA751D5BCED3FD1BCFD46DF3D0DE1E73D0507703D0933523D7E94DA3CB7098FBC779D70BB460A8E3D2D16BD3CFB53C23BCA946BBC881D4B3D1DAA0ABBF1C14B3D1E22F3BC1B02593BDF469F3AB86FCABD9524FF3C411738BBE8D27FBCFB80723BC621F03C1E42D0BCDD40CBBB6293673C1F72F1BC79C3E1BD36FAEFBD077135BCD4492BBCCEF504BC80E98CBBE9FBDABC9F118D3C73FA783CC7844A3B42248D3CDF8A0BBC559009BB281CBCBCF62660BC9FFFABBD9DF1C53D22D759BCB44583BA3927813D3EE5A83D8140503D03ECE33D3AE2B33CE3407B3B42447ABAFE850F3D1F7F25BC60ECF6397083B2BC8EA1DC3D89DEFBBCB98D08BBC99266BD14FFC93D4AD286BD6C7AF4BAC9BA3E3C1EAB0BBD041ECEBD769833BD30A6EE3CEADCB2BD583B273C360237BD165D63BD5E9BA73D4A98563C2CFF433AF47B34BD185AAFBBFD1A343CFA07153B12DCD03B967227
BC935D52BB5280B53CC367B63C53DE3CB9E1D8EBBD577A01BD0970EABD3C67783CBAB5D4BC27D1F63CB5F8123ABF870ABD412C8FBBF24D103D7E4B50BD6CB41D3BAB41393C1C4F1EBD178E4ABD349AB23C9F2D8BBD037CE5BC1DE3933C63D8E2BC459D693C3AF60C3D9E6EC8BD79F16DBC530FEDBC764D0EBBA24662BCA4AA54BB59865B3BF3795FBBBB1B0CBC84F746BC9E9C7ABCA5527B3D0F0DAFBC9E8987BD170CC4BD18B6F6BBCF3BBD3D8D68CB3C28D03CBBE4DCB2BC22ECE53B05A432BD0FB313BD04C5CBBCD6673A3A653330BCACA9BEBCC1C743BC7D6F033C63B102BDBF1FF1BD0283F7BC5E185A3D062259BCC94082BDDF5985BDC95B57BCA994EABDFFA7AE3B5837D33D37A619BB76212EBD5203C1BC8903A53D344FAD3D6CC0B6BD41B5B2BAAB2CCB3C6829563C95DC3B3CE6F7583DA0D2313C83881DBAF876573B443B703E5D6733BD0DD4E5BDA80463BD031531BCC753D83CA99110B91281A2395177083CBCA2803C9D94203D6744533C571CDD3DBFF7FD3DC5D2A6BB75F683
BC87C284BBB499E6BCA51A9E3D53379EBC6247A73D11BBB83CC15A173B9F191CBC3461E13C5FC516BCD2AAEFBC27B09A3D3CDE5F3C842E7C3C2D70DABD396286BBC543A23CBC568F3C1D0AEB3CA0284BBCE8DD9BBBF7DF7E3D14EA4EBD02C85D3B03F20FBBCB3E183A833EFE3C3EB952BD29DC85BC040C863B90B3A73C8D6D7FBD979E4DBC3EAE75BC7F07F03C0AFB823CAAA99ABD09FEB73BF989D73CA2C0143C25D08D3B7416C53CC096883D1B60B63CB44BA63C09F6A73D6542323D058C19BB38DDFC3D06C9833D8EFBA13CFEA8223D727FFE3DA7427FBC8BE206BD5102713D8C458B3D294BBE3B6511C03D34F6C6BBB47C3E3D19EA6C3C4A0C03BC993CB23CB1F2E43BEA77093D3E08CC3D0DECCB3D96BD52BAA9B7683B184A5D3D1E08743CC67CB1BD49D1053D3051F8BD0A62D3BC9794D6BCB8D914BA2732C03BF5E2F5BD624870BCC1295B3CFDBFFB3CDF45763D15DBFEBD06D7233C56B4E63D447695BCD5A35EBBFD50043DB6063A3BF235F4BCF0BB8BBC7768F13D4B397D3CB6A32C
3D742CEE3C4C5E8FBD8A8AE43B6A2A283BC270E2BD737A3D3D17CEB03E270F6A3CC5FE913D16466F3C80A46C3D851AF0BCDD89663C5BF99EBC5E0F7A3D8B1887BD8287683D90529BBC7EA485BD63BB7CBDBDB2B03D13FFB63BA8340E3D7677803C3FAB19BC61F481BE0A39A53CDF6966BD1902C33C418539BBA13B373D92EED3BC63CCDFBD22E765BBCAC1BE3D0807E83C5FF74FBD88D0233C443DD0BB42240CBCA92ABF3D0A73CFBC4582E5BD3D1CEBBD1486C0BD26AE843CC0FC54BCFBE03C3CA9CAAEBD3B1A813C8063E93BD00C883D80ED5E3D207E893C4E9400BD06CC713E1A48043D970299BCDAD252BC2DE7723C42FF8ABD254EFDBCC32B4DBCEA96813C122D4F3D247F20BD120E10BBB721C93D8EEC893E6A9941BD8BEA52BC026642BD509129BC4907C43C9EE13EBC7380693D0F0CAF3D8C36BCBD47539BBCB3B2F83C9B296CBDB80833BD8397B2BC32BEFBBE129010BCD6E1DC3D2FA0303D823147BDB4F6E5BCD4B16D397C3B4D3CE4F8DC3D268B00BE04DF9ABCDC0216BCFB8C4A
3D07DAD03C43482D3B9844CB3DE144323DA083B4BD7583A5BC2A9E38BD8C3E29BD3F2A45BD2D745B3D3287A53DAB4779BC1C6D3CBD3D23B4BD19B4983D0B5872BD4B00BBBCD356B8BD185849BDFDC30BBCDD9E0E3E076B45BDA99EC83DE09FCD3D05A266BD114B0DBD00095E3D134D423C9D6AC33D3937853CB70BEDBCC7E3113DC3D00ABC016097BB5152B23B2911733D2527B5BCAC9F41BC6DC116BC861726BD44513B3AADB56A3CA8A459BD5F0F933B697072BD559869BC2BA533BC9F43023D7EFC1B3CDA20F4BD440F383CBEB149BD02479CBD0D0AC8BD2591F43D35B6153D878A723C7BCF0DBD1E3679BD207DC6BCD742B43C8019353C83C85A3B9EA87F3C1D9310BCBFA0AF3CF43D9D3CD6938DBD85452ABAA9E8E23A6660F63C73426A3D2A255B3D0AEC6E3C5BE253BB8415D6BC0070233E0234EE3CAEE7FFBB58B84E3CB450B03E29A0C9BCDD617CBD1D0430BCF3BA3B3C9A6EABBB255D8C3CA3F7E53C04C29CBCFD6B01BD7C1C293D092100BD374244BD9615383D4EE2E3BCC139F7
BD93ED2CBC95F2563C6BC81B3CAD266ABDB28DB6BD8F25163BC8FFB7BD4A61BDBD10EDB2BC89B9CA3C26C3AE3D2FC104BBDB397EBC9E523D3CC0B2603C7ABE25BC857DA4BC7399FDBD23D46DBB281299BC3BD0373C363F0EBDCAB8843C5D141CBC2346B73BF139FDBCFBC1233B4846393C100F7BBCED04C73C33100DBD2007BFBDDFC3403C3E7707BD1B1C683D8B041EBAD77F0E3CF066923D3BC6A73C0A162A3BC684643C86093ABCD7D3C93C8920E239805604BAF354573C19521B3C8B55AE3C64FD87BCE91927BC8632073C95395C3CEC2C82BC8869723BBC3C7F3B87F355BD4A7E51BC5CA675BD2C8AFF3C4616DDBC60DD803BC3F491BCF4AF113C904088BC50C31E3B16FBEEBC2A0F7139A206E53BBAD64ABAA61750BD85B0D93D31EA193D4C07F2BB41C0DB3D4A9BA9BD09F1AA3D1EE5963C86451FBC411F5D3D554FF53BF56BC0BD67BCB2BDC98BF4BB73CFAABBCACBB33D0E54C63CFB9C143CB08197BC2B91443C97171EBC73BE383C1272623CD7F23E3D2A4E3F3C88BCCD3B647191
3B9CE7373CC02E803C51762B3CBD66DEBC949A7E3C355647BCA8E9913D60424EBD06A04A3BADDB7B3D374F42BBB7996FBCA220483B3DEAF0BC15476ABBD3E3AC3C1A24C7BCB8B0763B8DF70BBD52D2D43B32C4F23C1121F63CB7A375BD9204033BADFC7FBCAD8564BA5A07503C2146E1BCD860A43CDD7097BBB2C362BD93E5883BEB027BB961B2FF3CCB1F323CA3A26A3C4D4517BC2E26C1BBE11D983CEEA7E7BCAC68873C16C225BD1A7FB2BD1D65FD3CAF07753DFF2D123BEA7D943B1D34AFBCD6404E3C56A86BBC546C493B6BE9A33C4D4A7FBCC94B8D3CB7CEF7BC43EE413C8263EC3A77407FBD20C4ECBCDAC0C4BB7A5BAF3C56F3533A818C01BD0B0F74BCEA70BE3C8BA8A8BD383BADBC881F62BCE43ECB3C115A0CB8DABF85BC391749BCEFCB8DBCFFA101BD017FA3BD0AF8503A3579AC3E06AFD43C304632BCE5D7083ABD775D3D8BBCE1BC6F56ACBB6B8D60BC0442773D3E6F843B7345A73DD309253C15FD0DBC0E86F2BC84D3083B17ECA5BC4105D6BCFC28E93D551778BCFFA943
BC786668BC556C6ABC7496B6BC2286E2BBE5059B3BC39916BD3AD4113BBB53663D7AFF2E3D349550BD4F7ED63BEC494BBD8F002D3C9B5276BC23F99ABDDCFDD53C67BA573D95414FBD0E9C3ABC413DA23D3FCC733D18AB2A3C032B63BBC140A73D9957AC3D456D243CA75788BD0FB26AB9EC79E43B9B8F8FBD16DAE7BAF4DB3F3B22180DBCB16969BC50FC333D1AE928B9392FADBD0DE883BC5EB4F7BBA2B0B7BC4716403C2844DB3BFE71E63BBAE8E73D88B768BCB63A53BC2720B83CA6FC6BBC4B72BC3D85D575BD57D4623C1F96FFBBC3B7A1BC493CD1BAE0722CBCAD9F6A3B9F613A3CBF0F1F3BE511BA3DF8B4A03BFB16C7BC9290FFBBC87F05BCF60B40BD02BE3F3C8B0B3CBC9DE699B9C64B57BD9BEC823D37DF61BCCA28693D0CA100BCB63239BB38D2983BEC85CBBCABDD0EBDA2F79E3AA35BF13C392BABBC607D0ABC0D4749BB1D20BABC77CBB7BCD3496C3CE2429BBC7AC4903BCCEB0A3D12E9013D0A0BF13BF1E0C7BAD0DB9FBD214E503C4ABF583D7816D0BC1286ECBD8B0BC4
BC78A2A03CCBA1B6BD06937C3D0C8959BBDB4811BBBE38ED3D1C84E4BD5C1426BCA9F80AB92F74533D55DBF13A59892B3C48FDAFBD009CA93B2558383D4F98683C349C93BCB7861DBC441C0DBBF80A603CA1D5EBBC11510EBCA216F03C7BE8DDBC6F33C33BF239FA3CAA15FA3BE15EBB3D1B0E3DBC9992903CFBB5ECBB2D5380BD7222503CE4B68F3C4FC2923C8777CB3BF0C7E1BC4053C2BCA2F72ABCD55F3DBD8230813C625424BBDB434DBB3924BB3B70F3ED3D0E254F3D180C95BB5A8587BBB95D6B3C14A125BC57256BBCED1BE9BCADE064BC0726063B25E44FBB6F8A76BDD05FDEBBDC7B973C1B4472BD9EECE13CF8D63BBAE22EBFBC4055A73D14E191BCB28B1BBD069842BCD68A953A5984433D87CAE3BDC96DE93C212DE43CD8956BBA92D8E8BBBD0502BC8A4664BC2E82CF3D0CFEB33DE81D4C3C145534BC7FFE36BB86C7DCBD48AB283B1930A7BD1DA1C6BD04A4D6BD0D7B773CA62562BC83C4AC3CAE0CDD3C1C0102BAEEE0573AA0930ABB89AE153DA867DA3D2DC5BABB0EB46B
BCA2FD47BB9D35D63CA7E45D3DA866953D4C1DDEBB3538C8BCFE1A2C3D794CB53CA65F3A3CD3278FBCA2C7623CF9A670BB5FEF11BC8327103BFBDD0A3C4D3F623D275D113D36E25ABDA3FF5B3D6069FB3CB873BCBC78B92DBD4D50A6BD6336D8BBC2670EBCDC9229BC90F616BD227DF23D1332953C8D8C343CA347C43CBBAB9D3DF7D087BC5AC228BCE57A33BD30837E3C8B3E2C3C0A15B03D07A5CE3BB8E1703CD40689BE0E7065BC4F32463C8E7C233C4991A93CAA2D61BC7FF2FEBCE619963BBA1DC4BB77F2E2BB436F4E3AFED9BB3CF5CBBC3CAC8DC73B7F5AA63CFCA30BBC5CFDECBD2F9EBB3C55E9D5BD69083EBE2F60DC3CA81B563C6D38A13C30157E3D0E0772BBAC51A9BD4C9BB83C458400BBCEA66EBBE1821A3D5201C13C3D06E6B8CD7F25BCE52BF4BBC1C040BA699619BBE14ACDBCF01EC23CBB50203ACB410C3BD9C5023D63BB68BC52A34ABCC6934A3C8A752DBC27AA18BDA29DE6BCFDB363BC826BCB3C8A00F1BDAD7B893C834B533D3B7570BD0BA10ABD62C3E23C0E96C2
BB61C2983C134DD13BFE6C65BD4BDF7CBCD06313BB8416053C40F03ABE3CC9DFBD0719353C86CB8D3D235668BD65F9423C0C5A723BECE10BBBC8C5653CFF1B29BCC8E9903C9E23A73B6825A1BDD2CE47BD3DD4F6BD05BBC8BD3F29223D69684A3CC34533BCCFD9733D0F7A38BC4935F0BB629D82BB1A30BD3C6B3912BC77EAF13DD45545BD8BB024BC10D4033D3D9ACB3DA9293A3C9C0FB9BD366C5BBC8969EB3A82513FBBE7F0593D0402013A2C6C1F3D85CA4D3AC8CD51BB65C6FB3B315A343CFBFDBF3D6386093D366168BBA377663D1B7CCFBC9058CBBC951168BD12AEB8BC57BF57BBAF0B713C1695533B6A5BCCBB968A53BD626843BD9F9C74BB1E2494BB4B92D73B3951D8BCECF0EF3C2E33BBBC248A1F3D3ECEFB3CBBE05DBC8E254E3C720D1CBC2B3A583D1CF48CBC8BFF813DCACC71BD6E8A523C1601613CB9FBD23D0032A73DEB3C9F3CF5523FBC5F348B3D5B2ABDBD6A1F79BD9A94273D9A64333C6732503C47ECDCBCFB89C53D302BDE3B7CEE7EB705DBAC3CA4F1D43D144F64
3CE97862BBFFD65F3CC94432BC93E3FB3E372214BB875F9ABD6724EABD1A9B133D137B22BC86B3B9BC4E31013AE87471BD5D51013CDF0C4E3C7CF3043C7D88DF3C6919B2BCFD017BBD43A93DBD0F7E92BD910950BBD6D524BC72A90BBD8C2F60BCAF75553C8387F8BA7D7BFCBC41EA0FBD37AAA93CCF1F033D1578EFBD672E633CE9CDFE3CF3D8FF3CB774363CBD8DF9BD3BC8763D647F4ABD3EC52CBD1BFA3CBC45CCAEBC72FC65BC9BEBA3BCEFA148BCFC87AA3DA8C324BCD6A6063B94AC23BCCF321FBD418516BCE8808CBD7C660FBD7C6D42BC641F89BC7648B53D8F71C33B31A56CBC86EBD4BD61BA063CB300143D335EB2BD2980353D2BCBB6B9ABD7BABD4FE23CBCBAE5CC3CDEB6DCBD30F25FBCA3B97EBC96BAD0BD558EA7BCB4203E3B2910ECBB9FE7743BEF2EB93CBFB52FBDE633F4BB408CF63CA4BDBF3A43BF5E3BD93D61BDB5E24FBDE6AA1C3B8C3192BD49611CBC11E7EB3CDAA60FBC9732223A6BCF973D267576BCF0DEEB3C4DADB0BC40820F3CFAA01CBA73BEA1BD2D473C
3CA1A305BC712F43BCB20EB7BD8DA71F3CD8C67A3CAEF0D0BD8045ADBB6A8E423C97CF5E3CB3DB9C3DA1ECB8BCC8F0B83CE75758BC1D9A7E3D6ED157BE35E9223C83F5E33C9EE9A9BD0EBE723D63B87CBD1D898A3D2388E1BB8BD6B4BD1446FA3AE24FB9BC42330EBBBF0778BACD578ABCB0521BBC065D15BDBD856C3B10E3DF3D34FB263D86A921BBAA0BB7BD5C8B353C8CEA373D822F8BBC27DF593C4046373C7D27B0BD8E80C23CC317F13C77FF383C4E4F143C9995F93D0E00B6BD537C69BC058DAEBDD9538CBC5E0017B97AD4EABC86C4273D040FD33CB4CF63BC4C6E623C9684273DB0984EBC3AD2AA3D7A000F3D3FD492BE0D40FD3BC3D77D3B04C8E9BDE2C6993D277FEA3D1CE9F3BA8EEB31BD61B6EABD4F59B6BDBA9F26BC7D9B6C3D9E18C93CAD417E3C8BAF1D3DB5FCABBDA51A0EBC9693BD3C8085603D12B08E3D095381BD98F2E13D2355813D6F4C9D3DF56CD73DF5820BBDBC3500BDAA7FE2BD67B50D3CB4D0003CA8368E3B56D9D9BBFAC2ECBDA7C4A83C3CC486BBB6B03F
BC8A39ECBBEB181B3C41B4A33B9C2006BC0A80CEBC3665883BC1E5A03C323D9A3D3DD21DBCE2CD8DBCA63AA83CF87FF2BC0853ED3BC6ACA13C079D5C3C909AD5BC748B48BB8F100BBCC3EAC93C53D2B73A3FB3BEBA85F36C3C7A8A013C5B9837BCCC54943D237E35BB2C90EC3C714A783B5BA12DBBEEB3B8BD1A9ABDBA1660333C1E350BBC50CB533BAA836F3CCBA94CBBA1056C3C618BC8BB9C249BBA03C3433B36A4BD3C36D365BBEE4D8C3C0FB2A63B27A3F3BC033CACBB9BA224BCD991F83C99101ABC0F002E3B8CF7613BEA1004BC0553B83B323C453B9CC812BC2814C13C74777EBB3BC8793CA3AF45BC3F8615BC95D311BD0DCA21BB9FC07C3CD19932BCB7A8BB3C1924A6BB5CC1FDBBAEFA913C43C0543C52F7D63D3588793B541B34BC55F0343C08D2CB3B9139383C06562C3C3062E2B999AD843B9543513C5F32DEB9C884BEBCD44EFB3C84A464BC30B76DBD49F2E43C1FAABB3CAF0ADDBC30790B3C114CF0BAFA3B0A3C39839E3C13B7883CD023443C3DD4233C0A36CA3CA6215B
3CC2F3C03C372F78BC90E6D63E0E0050BDBA57ABBCB7B03E3D04CB57BBA703593CD6B426BD9750923C98FE8B3C825C5EBCC2D54339A045AEBD6F8869BC8C1C753D8B22723CC8D8CA3D045DEDBD93AEA2BD53C3153D4744C43C917E4D3D3904433BAF49E6BC8FBF1C3D02DCA8BC555025BC500A3DBBF30680BD0D9C2F3AE83A973A2293A5BDA1AF1FBC932157BCF1216ABBCFD169BC52C67FBB1BC36F3CC59902BCE47F58BCF7A8E3BAA16AA33C9A4882BD510636BCDF61903D94BF63BD361390BD88C61BBC404070BD50C077BC24355BBD4F2E313D30CD6BBC0B758ABCBB20763D7379703D0EA4263C58FC03BB8284163CD273923C953E83BCC8C1AFBC8C521DBCC45A4F3CE1F3203DD3B88D3D17897F3C9F4E233D98E2D13CFB65FCBB96CE05BC5F2C663C3375E43D2453A6BB9BF39BBD56435F3D9CC4C5BD0F0CB8BD1061DABC74BFB2BE30506B3DD4D02BBC9A3EE4BCB5019AB9D385313B02094BBC160866BCD612B1BC33D1953C63F375BD8D107B3BEA5CF0BBF20FFCBC3393E4BD8C7D0E
BD0365BA3C3ECEDCBC52B5B9BDBE9D4E3D2CBCFBBD8CD1C73B01747B3BF535D73CA0B7783C6D4E163D3EC1F43D9BA6663C0528F73CB3D6083D1C1BB53D1F805CBCBE765ABB2AB8313B2CFE1EBC313EADBCA2652EBCBA16F33D27D45C3D17229FBCCA8071BD1306EDBBAB351BBC89D338BC2C1149BCD131F53DDC7F8DBC82954CBD17E6A9BCB2C75A3C2B476CBC62240B3D014DF3BCC33A4F3C9AD739BA95D743BC58D29A3D0D109CBBDB97D43D1BA5703CFBA317BCD7948DBA2074FC3CF7E11FBBD5CD95BDC0AAC53CFBAEC63C93EF6CBDAD6BFFBD839E58BCBDD6B4BCAB6AE03D2C2AB33CC9C75E3C4E3C923CE632793BDCF7DBBD47D79BBB7D80D73C4F0A293CE5E6E63BA2D506BD8B9551BCAD51D9BDADAB2D3D3966D2BC33E6A0BC895EECBD236AA83D3B01213AC04935BD12D8FC3D2DFADA3D8482493D3C1BD3BA847C7A3C42664F3DADEEBFBD959FF6BCA5C4D7BDB67E96BCD829083D76E5493CE1FA41BA6AB275BCA0330D3B86CEBA3D94FA233C9E0B0ABD417F56BBACAA5F3ADAA5AF
BCAA9C793C4AD5ADBC08663CBBD7F777BDC497183D4EFAFBBCED27333D1E63FFBD1570C33D0826D8BB32B0D23C200BF9BCE4AD7CBCC32646BD1233FD3D5655743BAE9D493D0A3AF3B9E3EA4E3CA232F73CB1495CBC881D2A3C9E94B93D23CDF93CBCE55DBC11BA18BC51DB15BC0B545FBC5E7D983D396ADF3D1E9D84BD0D2C833B852C033D17A5FCBC3403E4BCDE6CDD3D36C5103D99CC763C921ADFBCF62A4BBBF2E2A73C7A1FDBBD1199E8BC70686EBC3852003BEE1B97BC42C9FFBC9BE5AFBCC21D833CB9E272BD02294DBCC46DC7BD1E79C93BB52A55BCAF11073D05982F3CA14493BCCF7945BD2D67D73BBD8DE43D0F77EABCDC08E4B9019852BC147C3CBCC351AE3D082F6DBD10642BBC727E84BD1B5958BA4427E13D2ECF9E3C77A485BD7249B7BC73BCE43B79CE8ABCEE66D8BCF46AE5BCD5C22F3B2F0592BBA2F3983D42C13FBC9222B53C1DD8193D454BD0BD2BC3BABD337A413D85A2BB3D166F85BCF7AB433C3DB064BD7BA22C3D76DE5A3BE5F2CDBD1481A8BB51C9A9BD00531A
BD8284673C8E2C09BCE3D137BD332A7DBD3178F0BD251995BD365B0D3D200FC43C5C8AD13B948D483D027545BBF696D1BA46DD003AA5A4943D35C3053CBA216F3C094C013D6AD0E53D22AD39BDDE958FBD298E9DBCDD40923D80C8F2BD9DB33B3AF20D203BDF45CEBCD605403BD8A14BBD0EE4A43D80D6973D812654BC1BC83F3CD8A3303D3FAC51BCA8624C3CA2C37DBD3A25ACBC83E48ABCA971A9BD399D4EBD2C08E3BBD59E2DBD826E16BC9F7B9A3D286D4C3D93C5373BE23CECBD290D67BDB79A5ABD28E2903D3D5AC8BC89AE763B31E7CCBD23B6B03D3F74213C885DB93DCCEFD5BBD764B3BD36901B3D12F0F6BDACF95F3CF47A793CE0A1FB3D29764A3D97DC4DBCB6D3B83D09B6AA3D3D843A3D293D2BBD1BC6D93CA294E8BC57A0463D1B7955BD1CDCB9BC730A11BC83C861BD64FCFB3DD287193BE64F22BC9E50FA3CABE712BD1FF68DBD8C4886BCC72BAE3D001040BD6FDE63BCAC15EF3D106B38BCD9832F3CA62DB33D136E163BB44AB3BC6DEC09BD69BBFEBCEAE7E73D2A4EE6
3D0E9E56BB1D178F3D1FDF813B3FCC1ABC1CC744BD04513CBD233018BCB615ECBB9090EBBD17D1513A9417CC3C964154BD1452273D458AB2BCF105A83DAA415ABCAD094C3CE402B0BC6ADEF6BDC721C0BD809D03BC8BA11FBAD347CBBD2AFBA6BC4F5EF5BD3E8793BB7D4EFEBBD5222CBD2C16E8BB885D043D2B9757BD65D3503DACF42EBD9487593CAB29F43CB7B969BCC28A29BD0E89173CC02FDBBCEFD9E7BC34523DBD257A573BCAA189BD19899FBC02CB28BC81AB693CC018B53CC9F988BACF84683CB0D2A4BD714E45BB552F58BCC2AE063C81A44D3C7956BABD0C60113CA137A03C75B8AFBD33A3D83D836591BDABDD46BD923E1BBD660E4DBC60F3CBBCC46CF3BB2F7B413D9C8979BC94F79D3BE2515C3E06B009BCC64EC0BD09E3F6BCE66872BC88F5053CB5FD3B3AF1D791BDA761C63DF3AE0CBCBFD7843BFFBB6ABC038DBF3D706B6E3D0452AABCB8BC14BD6763723CF46751BCA645DABD009A283CD107C3BA904D953A9119603D23E5AD3C9CFB4EBDE64AABBBA8C1AFBC8D708B
